#version: 0.2
p ]</w>
[ p]</w>
i n
in g</w>
t h
a n
m a
i s</w>
o n</w>
an d</w>
th e</w>
a r
ma n</w>
o u
l e</w>
e r</w>
i n</w>
e r
t o</w>
i t
e s</w>
o f</w>
l a
s t
o n
h i
h o
r o
a l
r e
w o
a t
e n</w>
w it
wit h</w>
p er
p e
b o
ou n
p la
a c
u s
a t</w>
w hi
ar e</w>
s on</w>
l o
per son</w>
whi le</w>
d o
i r
wo man</w>
i d
a n</w>
e d</w>
i c
o m
e n
o p
y ing</w>
f o
t ing</w>
c h
k ing</w>
a s</w>
e l
h is</w>
pe op
peop le</w>
t s</w>
g r
s om
t w
th er</w>
y oun
on e</w>
t o
youn g</w>
a b
l i
d ing</w>
b e
g ir
s ho
d s</w>
tw o</w>
th e
i r</w>
r i
s h
g e</w>
bo y</w>
w n</w>
k s</w>
l e
s e
h er</w>
i t</w>
th en</w>
b al
o ther</w>
gir l</w>
pla ying</w>
r u
d e
gr ou
o v
t i
a m
grou p</w>
ho w</w>
ou t</w>
u p</w>
d i
u r
a l</w>
c e</w>
a p
s it
p u
a s
p o
l s</w>
w h
id e</w>
bal l</w>
c o
w ing</w>
som e
l l</w>
y s</w>
m en</w>
l y</w>
in to</w>
t r
us ing</w>
oun d</w>
g h
g e
fo r
do wn</w>
er s</w>
st r
t le</w>
f i
s ide</w>
k e</w>
d an
p i
ho l
t e
w at
g u
b y</w>
st an
c hi
w s</w>
u m
w e
a ir</w>
l it
n e
h e</w>
m on
lo o
an other</w>
n o
l ing</w>
w al
i c</w>
p s</w>
a v
sit ting</w>
f ro
lit tle</w>
ou t
som e</w>
t al
s s
u n
some one</w>
fro m</w>
the ir</w>
a r</w>
s c
chi l
at ing</w>
c h</w>
b ab
v er
ar ound</w>
de mon
m us
demon str
p ing</w>
b ac
g h</w>
bab y</w>
s e</w>
s s</w>
t a
l ar
c k</w>
a d
en t</w>
ar d</w>
o f
lar ge</w>
f r
k e
th at</w>
t ting</w>
e x
s k
r a
m o
w a
in e</w>
b u
p ar
s ma
th ro
do ing</w>
mus ic</w>
in g
l es</w>
j um
h an
ov er</w>
fr on
f e
fron t</w>
a d</w>
of f</w>
on g</w>
r id
m e
sma ll</w>
a ge</w>
hol ding</w>
g o
stan ding</w>
m ov
fo r</w>
c ing</w>
' s</w>
h e
wo r
o m</w>
c u
pi e
c om
chil d</w>
pla ys</w>
r ac
bac k</w>
s p
ic e</w>
the y</w>
s no
c ar
m ing</w>
n s</w>
o r</w>
u l
n ing</w>
ou gh</w>
ro om</w>
sho wing</w>
c on
v ing</w>
o r
ar ing</w>
sh e</w>
wat er</w>
s t</w>
q u
w i
t ab
k es</w>
be ing</w>
c ou
tal king</w>
us es</w>
ch e
o d</w>
per for
at es</w>
gh t</w>
d y</w>
s a
am e</w>
t er</w>
pie ce</w>
ac h</w>
m s</w>
ab out</w>
re e</w>
d re
p re
we aring</w>
tab le</w>
gu y</w>
b lo
th r
s pe
o l</w>
d er</w>
a in
thr ough</w>
out side</w>
p le</w>
e t</w>
ic ks</w>
ro p
pla y</w>
st ru
dan ce</w>
dan cing</w>
a g
rid ing</w>
r t</w>
c es</w>
t ri
h air</w>
c i
it e</w>
sho wn</w>
han ds</w>
l u
i l
b r
f loo
in s</w>
c ro
f f
h and</w>
se ver
sever al</w>
v e</w>
the m</w>
t e</w>
us h
ch ing</w>
d ri
i d</w>
t ur
floo r</w>
wo men</w>
th ing</w>
g ame</w>
g i
b i
i on</w>
el d</w>
er e</w>
o l
c li
t ball</w>
it s</w>
p ro
s hi
demonstr ating</w>
f ac
do es</w>
t ic
gir ls</w>
bo t
b a
v es</w>
in d</w>
re d</w>
demonstr ates</w>
e ach</w>
s wi
g g
g y
l er</w>
tr ying</w>
e c
ma king</w>
c am
wh ite</w>
re a
ic k</w>
id s</w>
bo ard</w>
av ing</w>
l an
ir e</w>
ch es</w>
c le
in stru
sno w</w>
co r
p rac
m b
m p
c lo
ma ch
b la
s i
ac h
on s</w>
lo w</w>
to ge
toge ther</w>
k ids</w>
in side</w>
ma le</w>
sho ws</w>
sit s</w>
m ent</w>
s l
t en
ex pla
ma ke</w>
s u
b as
d d
some thing</w>
li f
ver y</w>
for e</w>
mach ine</w>
fi eld</w>
th ree</w>
wal king</w>
be fore</w>
at e</w>
v id
ac ro
d o</w>
stan ds</w>
ch air</w>
n i
he ad</w>
s es</w>
k id</w>
wa y</w>
chil dre
c e
bo ys</w>
h as</w>
ap p
do g</w>
childre n</w>
di ff
f al
thro ws</w>
hi m</w>
hol ds</w>
fo o
co o
la dy</w>
acro ss</w>
gy m</w>
g s</w>
s o
fo l
st ar
c le</w>
diff er
cam er
on to</w>
st age</w>
e y
e l</w>
to p</w>
pla y
ap er</w>
ti on</w>
differ ent</w>
bla ck</w>
c a
sh ing</w>
m i
b e</w>
camer a</w>
lo w
shi rt</w>
cro w
ru ns</w>
m ming</w>
la u
st re
t er
ru n
r in
do or</w>
gr ound</w>
t h</w>
s h</w>
spe a
p ain
v i
jum ps</w>
tal ks</w>
ho r
bas ke
wal ks</w>
to dd
l ong</w>
c ar</w>
p ping</w>
f li
p ush
wh o</w>
fac e</w>
b b
s ur
m an
pu l
us e</w>
c la
prac tic
g la
a i
ge tting</w>
ss es</w>
f la
pu tting</w>
o th
p aper</w>
crow d</w>
todd ler</w>
er ci
thro wing</w>
av e</w>
f u
ing s</w>
w as</w>
in ing</w>
sno w
l ying</w>
t ed</w>
g re
p e</w>
d le</w>
ro l
tr ac
be h
wo o
bac k
wo od</w>
ar ds</w>
perfor ming</w>
beh ind</w>
te mp
s el
mov ing</w>
mov es</w>
pu ts</w>
run ning</w>
rop e</w>
fo od</w>
cou ple</w>
l ed</w>
h one</w>
ge t</w>
lu e</w>
at temp
loo king</w>
ing ing</w>
la ying</w>
jum ping</w>
en ts</w>
ad ul
pu t</w>
oth ers</w>
h aving</w>
hi gh</w>
s ing</w>
lau gh
swi mming</w>
as t</w>
we i
e ating</w>
c er</w>
b lue</w>
x t</w>
h el
us h</w>
at ed</w>
po ol</w>
ex erci
m e</w>
f ri
al l</w>
jum p</w>
a u
at ion</w>
cli mb
v e
o b
wh e
w r
d ed</w>
st e
vid e
st and</w>
ma r
d en</w>
wh at</w>
go l
c re
ge ts</w>
se en</w>
at s</w>
ic king</w>
fi l
sk i
ma kes</w>
ta kes</w>
ne xt</w>
or s</w>
d ar
cu t</w>
be g
f ire</w>
t al</w>
wat ching</w>
ou r</w>
it ch
b ar
loo ks</w>
vide o</w>
so c
it ting</w>
t u
fal ls</w>
th ere</w>
j u
wor king</w>
l ine</w>
wal k</w>
a f
tri es</w>
practic ing</w>
w ards</w>
op en</w>
t y</w>
baske tball</w>
el ec
t ree</w>
s w
wal l</w>
instru c
de sc
me tal</w>
k ed</w>
bot tle</w>
ou s</w>
pe d</w>
s po
rid es</w>
bo at</w>
ic al</w>
a m</w>
k ni
o pe
k itch
kitch en</w>
j ec
woo den</w>
er ing</w>
s qu
b ro
h its</w>
f ing
soc cer</w>
gh ts</w>
to ol</w>
an s</w>
en d</w>
expla ining</w>
bo w
st u
r ing</w>
pre par
s ong</w>
foo tball</w>
li ke</w>
gi ving</w>
w er</w>
el l</w>
desc ri
cu tting</w>
ti e</w>
in k</w>
er ed</w>
ur ing</w>
f e</w>
wh en</w>
d rin
bu il
bi ke</w>
gu it
go ing</w>
y cle</w>
al ong</w>
ba se
star ts</w>
ar i
t t
d ra
co lo
to r
hor se</w>
sc re
k er</w>
en ce</w>
d ru
bal ls</w>
com pe
v er</w>
stre et</w>
b ed</w>
ro ck</w>
s mo
re st
c at
st ic</w>
kni fe</w>
w ard</w>
out h</w>
sh a
ke t</w>
e p</w>
c an</w>
sel f</w>
gol f</w>
descri b
av es</w>
ar s</w>
y el
guit ar</w>
ob jec
se t</w>
i l</w>
gre en</w>
trac k</w>
to y</w>
b un
beg ins</w>
mov e</w>
h itting</w>
w in
ss ed</w>
bo dy</w>
sh es</w>
le t</w>
bu t</w>
base ball</w>
c oun
v ari
te en
g ing</w>
t el
s er
fe male</w>
u m</w>
blo wing</w>
b rea
sh e
m outh</w>
to r</w>
j o
adul t</w>
tur ns</w>
c r
pe t</w>
s low
laugh ing</w>
con t
wh ere</w>
c ks</w>
slow ly</w>
d uring</w>
at t
tri c</w>
d e</w>
k ne
d u
h u
re cor
cle an
elec tric</w>
ar r
p icks</w>
ta king</w>
t y
a ther</w>
a th
pla ces</w>
expla ins</w>
an ge</w>
x ing</w>
fe et</w>
bal lo
el s</w>
re ad</w>
e d
s inging</w>
ar m</w>
c ur
perfor ms</w>
p hone</w>
ag ain
s it</w>
n er</w>
again st</w>
spea king</w>
h ou
sp ra
s le
blo ws</w>
g o</w>
sho w</w>
m er</w>
vari ous</w>
me at</w>
af ter</w>
g ar
gr as
gla ss</w>
c ir
g n</w>
k icks</w>
c ho
b en
an i
whi ch</w>
al ly</w>
a y</w>
ss ing</w>
dar k</w>
climb ing</w>
p ic
wat ch</w>
se ated</w>
t ru
a st
do ors</w>
an t</w>
re ad
a ir
st ick</w>
d ir
dri ving</w>
wor k</w>
te am</w>
hi ll</w>
am s</w>
st ri
hou se</w>
br ush
objec t</w>
p an</w>
exerci se</w>
fe w</w>
b and</w>
ma ss
gla sses</w>
f t</w>
c ra
en t
p lan
li ving</w>
p ou
un der</w>
dre ssed</w>
ol der</w>
ti ons</w>
f ast</w>
br ush</w>
as h</w>
pla stic</w>
p air</w>
le g</w>
r ts</w>
perfor m</w>
ur e</w>
ic ycle</w>
m ic
cle an</w>
push ing</w>
ke y</w>
di s
to wards</w>
gu ys</w>
k no
h ave</w>
spea ks</w>
pie ces</w>
re c
el ing</w>
ar ms</w>
buil ding</w>
in di
vi e
he av
dan ces</w>
tur e</w>
m id
sh ar
bo o
ne ar</w>
l ou
sur f
b ar</w>
hi t</w>
b oun
lif ts</w>
p at
h ar
t ire</w>
fi sh</w>
f ul
ar e
ap pe
pain t</w>
instru ment</w>
fli ps</w>
gi ves</w>
ap ping</w>
ri ght</w>
m ul
m ents</w>
ful ly</w>
f our</w>
tr y</w>
ti me</w>
lif ting</w>
dir t</w>
y ard</w>
push es</w>
le gs</w>
fi shing</w>
pul ls</w>
mid dle</w>
ta in</w>
p ac
t ch</w>
r ide</w>
bi g</w>
at or</w>
thro w</w>
f in
c al
c ov
be er</w>
heav y</w>
um b
ju gg
h al
di sc
att ach
h am
p as
yel low</w>
ho o
s mi
blo w</w>
b at
attemp ts</w>
go es</w>
st s</w>
play er</w>
wei ght</w>
wa shing</w>
k i
g es</w>
an d
li ght</w>
y o
d er
sp in
la r</w>
it e
sho o
clean ing</w>
bot h</w>
b ur
s id
s and</w>
t ou
ballo on</w>
ty pe</w>
snow y</w>
loo k</w>
car ds</w>
r out
li es</w>
l in
t es</w>
po le</w>
p an
bow l</w>
st o
po in
bo x</w>
coo king</w>
n is</w>
s o</w>
m u
ten nis</w>
ski ing</w>
out door</w>
g lo
t at
man y</w>
ch an
b el
c er
fing ers</w>
ic k
h at</w>
foo t</w>
whe el</w>
wei ghts</w>
te ams</w>
wor k
el e
c k
app lying</w>
rout ine</w>
in door</w>
sa w</w>
a way</w>
k icking</w>
it ing</w>
m self</w>
pe n
d r
tw e
ne e
are a</w>
ru bb
bun ch</w>
ap ple</w>
hi mself</w>
ba g</w>
in ter
st ing</w>
pu n
vid u
m oun
indi vidu
fe e
gh t
c tion</w>
be ach</w>
au di
u p
play ers</w>
n arr
fo re
op s</w>
for th</w>
m in
m el
t it
for m</w>
ey e
id ing</w>
twe en</w>
ta ke</w>
m other</w>
li st
i p
c key</w>
cou ch</w>
sk ating</w>
be tween</w>
p ink</w>
ho ckey</w>
gras s</w>
out doors</w>
pul ling</w>
en ds</w>
s n
ro ad</w>
read y</w>
r e</w>
mul ti
ho le</w>
audi ence</w>
pla ce</w>
ope ns</w>
cou rt</w>
b le</w>
ve hi
w rest
multi ple</w>
fu ll</w>
ma s</w>
gg ing</w>
attemp ting</w>
wat ches</w>
r s</w>
or ange</w>
sk at
rea m</w>
j ac
cu ts</w>
com p
teen age</w>
attach ed</w>
pro per
a in</w>
rea ding</w>
f f</w>
bu bb
sl ed</w>
d ough</w>
back ground</w>
st icks</w>
s low</w>
proper ly</w>
v ice</w>
han d
h eld</w>
c at</w>
z z
e v
ca ke</w>
b s</w>
s k</w>
rol ling</w>
us t</w>
s la
ru n</w>
t ice</w>
adul ts</w>
p ush</w>
ey e</w>
d ro
cov ered</w>
sho t</w>
ro w</w>
prepar ing</w>
prac tice</w>
di ving</w>
c ed</w>
sk i</w>
list en
fu l</w>
on es</w>
b icycle</w>
ag es</w>
whe el
b ir
sho e</w>
e g
tru ck</w>
spe ci
ol d</w>
describ ing</w>
f ir
compe tit
w ine</w>
tal k</w>
st er</w>
pain ting</w>
p es</w>
ma de</w>
le a
ap s</w>
s ame</w>
n ai
u ps</w>
fli p</w>
eg g</w>
n y</w>
mus ical</w>
c lu
e ping</w>
o ce
la ys</w>
ey es</w>
en g
oce an</w>
disc us
co l
an o</w>
sc r
ick ly</w>
bal an
un i
spin ning</w>
pla cing</w>
to o
sp ins</w>
s ed</w>
rac e</w>
qu ickly</w>
com m
sw ings</w>
pi ano</w>
mic rop
laugh s</w>
c king</w>
ach ing</w>
par k</w>
p in
stre t
ri st
ham mer</w>
a bo
st y
no t</w>
bu ll</w>
rol ler</w>
po r
clo se</w>
appe ars</w>
th es</w>
se wing</w>
describ es</w>
be e</w>
star t</w>
pi pe</w>
lo t</w>
ch rist
al s</w>
skat e
pu ll</w>
boo k</w>
ap e</w>
ra i
com es</w>
christ mas</w>
c ard</w>
ani ma
wor ks</w>
sw inging</w>
di o</w>
scre en</w>
fin i
sa ys</w>
do gs</w>
ar t</w>
ath le
v o
bo w</w>
demonstr ation</w>
abo ve</w>
s wing</w>
f lu
bo ar
i ly</w>
d ay</w>
ma ke
hol d</w>
te ch
pro ce
listen ing</w>
brush ing</w>
tr icks</w>
climb s</w>
ach es</w>
vehi cle</w>
s or
p rop
ope ning</w>
gy m
w ere</w>
us ed</w>
si gn</w>
ne ck</w>
for ward</w>
recor ding</w>
p en</w>
wat er
to ri
gr ap
c rac
sl ide</w>
lo ws</w>
ho t</w>
gym n
e ats</w>
clo thes</w>
microp hone</w>
j ust</w>
instruc tions</w>
gr ab
str ing</w>
han ging</w>
app lies</w>
w aves</w>
r t
practic es</w>
par ach
on al</w>
lou d</w>
fir st</w>
sh u
parach u
be at</w>
b an
p er</w>
m b</w>
k n
i al</w>
wor d</w>
am po
spra y</w>
g er</w>
fol ding</w>
dru m</w>
c an
sk il
de vice</w>
stan ce</w>
s ion</w>
li ghts</w>
i es</w>
st um
mo tion</w>
k ick</w>
fol d</w>
eye bro
th is</w>
make up</w>
id es</w>
drin king</w>
che ering</w>
t an
prop er</w>
e mp
prepar es</w>
ne ws</w>
wi th
sid e
s we
as i
v ol
bu tt
ar ti
un der
su it</w>
f am
fi ght</w>
f low
un ny</w>
sh ou
sc ho
stu dio</w>
re move</w>
p ick</w>
hel p</w>
e gg
che er</w>
cat ches</w>
glo ves</w>
g as</w>
wa x</w>
re pe
le ss</w>
bel ly</w>
y a
moun tain</w>
individu al</w>
sho es</w>
par t</w>
la ke</w>
i ons</w>
car pet</w>
st ac
jugg ling</w>
se tting</w>
play ed</w>
pla te</w>
c les</w>
ac t</w>
yo u</w>
st or
p icking</w>
dru ms</w>
c t</w>
scho ol</w>
egg s</w>
v ac
m il
ra p</w>
cla pping</w>
ca p</w>
trac tor</w>
po sit
he ad
fri s
x es</w>
ste ps</w>
rubb ing</w>
exerci ses</w>
di rec
sh ed</w>
mo tor
ma t</w>
c ream</w>
lif t</w>
clo th</w>
surf ing</w>
z ed</w>
w ind</w>
ti c</w>
pen ci
cra w
z e</w>
en jo
t ter</w>
t re
she et</w>
to o</w>
back wards</w>
a ke</w>
no i
qu e</w>
m es</w>
gh ting</w>
k ar
fam ily</w>
el y</w>
g ro
fing er</w>
fee ding</w>
f lo
rop es</w>
pic ture</w>
cou ra
tur ning</w>
str ai
d um
co stum
sha king</w>
le ft</w>
la wn</w>
en coura
cli mb</w>
th read</w>
k ind</w>
competit ion</w>
baske t</w>
b l
tr ampo
sh aving</w>
nee dle</w>
app ly</w>
vie w</w>
s of
pre ten
i gn</w>
fri ends</w>
c up</w>
ad ju
con cre
cir cle</w>
of f
mel on</w>
hel me
vac u
concre te</w>
wrest ling</w>
tech ni
fri end</w>
e at</w>
sor t</w>
me chan
li t</w>
li qu
dro ps</w>
wr apping</w>
sho v
par tic
ne w</w>
mo m</w>
instru ments</w>
e qu
b us
se at</w>
penci l</w>
ge ar</w>
dri ves</w>
t ar
bo xing</w>
s coo
s co
i ll</w>
bar b
ba thro
a ds</w>
tu tori
po wer</w>
gu age</w>
dri ll</w>
c y
brea k</w>
ben ch</w>
tutori al</w>
no se</w>
lan guage</w>
fi c</w>
drin k</w>
cur ling</w>
bow ling</w>
trampo line</w>
te aching</w>
fore ign</w>
cre ate</w>
vo ice</w>
pi l
ev ent</w>
dre ss</w>
cro ss</w>
to m</w>
t un
r am
p h
m ers</w>
f ly</w>
b ag
with out</w>
too ls</w>
s ink</w>
n ed</w>
g ath
fu n</w>
dra wing</w>
bathro om</w>
le aves</w>
ed ge</w>
d der</w>
ne w
mass age</w>
m ed</w>
car t</w>
pul led</w>
ho me</w>
fris bee</w>
d ge</w>
c as
air s</w>
st ro
sk is</w>
lau gh</w>
hor ses</w>
bro wn</w>
bot tom</w>
win do
s word</w>
rol ls</w>
colo red</w>
t v</w>
t ro
sl ic
p ong</w>
m ir
flu te</w>
e fully</w>
bubb le</w>
sty le</w>
side walk</w>
sc u
s y</w>
pun ching</w>
pu p
ir on</w>
i ve</w>
h ur
de ck</w>
t ly</w>
speci al</w>
s lo
pou ring</w>
shar pe
s ol
s ings</w>
shou l
ru bs</w>
pre s
comp le
cli ff</w>
s an
to ward</w>
smi ling</w>
n o</w>
ri ver</w>
mo bi
coo k</w>
be side</w>
tr ain
tab les</w>
ite m</w>
g ent
con stru
ho se</w>
ed ly</w>
t ying</w>
se e
re moves</w>
per s</w>
i f</w>
h er
bu c
bot t
n umb
emp ty</w>
swi m</w>
po li
grab s</w>
c ti
a p</w>
o per
fal ling</w>
ag ing</w>
tel ls</w>
smo king</w>
k in</w>
c it
parachu te</w>
fal l</w>
demonstr ate</w>
b a</w>
sur r
pro du
de cor
che f</w>
boar ding</w>
wr iting</w>
pu m
mechan ical</w>
la dder</w>
clu b</w>
water melon</w>
ti mes</w>
sa us
mir ro
k a
i ling</w>
compe ting</w>
w ave</w>
ul a</w>
shu ff
cle ar</w>
ma l
fil led</w>
f fe
w el
f er
elec tr
con ta
we ather</w>
tat too</w>
sur face</w>
pou rs</w>
p a
k ers</w>
gh ter</w>
eyebro ws</w>
car r
tel e
le ar
l o</w>
ke e
in er</w>
hal f</w>
wor ker</w>
cla ss</w>
che e
c y</w>
anima l</w>
ti al</w>
swi m
se e</w>
di um</w>
ag ed</w>
su b
p han
liqu id</w>
lan ds</w>
se mb
fac es</w>
di es</w>
coun try</w>
tun e</w>
spo rts</w>
rac ing</w>
mirro r</w>
che ers</w>
ur ant</w>
f en
u s</w>
scu ba</w>
re ally</w>
on ing</w>
f ather</w>
car efully</w>
te en</w>
st one</w>
sha kes</w>
se ts</w>
rin k</w>
la p
gu e</w>
sle eping</w>
sa il</w>
rest a
fla t</w>
fil ming</w>
ele phan
cont in
clo thing</w>
to i
rea ds</w>
hel ping</w>
h ard</w>
brush es</w>
toi let</w>
sc ar
p ur
drin ks</w>
ap ped</w>
un ti
tele vi
ri es</w>
resta urant</w>
pla ced</w>
gr in
f l
d y
squ are</w>
ma sk</w>
kar ate</w>
equ ip
che st</w>
ch ur
c ycle</w>
arti st</w>
the m
hoo p</w>
com pu
bal let</w>
at edly</w>
work ers</w>
w n
w ash</w>
tw i
smo ke</w>
sel ves</w>
re n
ma tch</w>
contin u
them selves</w>
blo wer</w>
sho p</w>
shi rt
shirt less</w>
repe atedly</w>
ic s</w>
helme t</w>
g l
fol ds</w>
er y</w>
z es</w>
s y
k ite</w>
j e
dr y</w>
b ing</w>
surr oun
re moving</w>
it es</w>
fr ying</w>
cou r
ri c</w>
pre ss
po t</w>
i onal</w>
b age</w>
unti l</w>
shoo ting</w>
ram p</w>
nai ls</w>
f lying</w>
chur ch</w>
ce ment</w>
b at</w>
wor ds</w>
ve ge
televi sion</w>
teen ag
su c
sc i
sc en
ma les</w>
fli pping</w>
compu ter</w>
b ra
tar get</w>
ro ast
lo ck</w>
ite ms</w>
hel ps</w>
f ab
d ly</w>
constru ction</w>
ch ed</w>
vacu um</w>
tr a
t on
poin ts</w>
gg les</w>
equip ment</w>
co w</w>
bu t
bo ards</w>
as semb
sho rts</w>
p on
p les</w>
br an
al i
po p</w>
la p</w>
ic i
e y</w>
coo ki
cir cu
whi st
sl iding</w>
sk ates</w>
ro ll</w>
ni ght</w>
gar bage</w>
dri bb
bott les</w>
tw ir
techni que</w>
her self</w>
d les</w>
c op
ta p</w>
scoo ter</w>
pre p
p ad
cat ch</w>
ro cks</w>
qu e
lo wing</w>
bus y</w>
cr ying</w>
com ing</w>
car ving</w>
stu d
smi les</w>
l l
gr a
fab ric</w>
ar ts</w>
y our</w>
vol le
ne t</w>
mar tial</w>
c ell</w>
an n
w rap</w>
tou ches</w>
s er</w>
la un
c el
z ing</w>
windo w</w>
w aving</w>
tur n</w>
tu b</w>
swi ms</w>
r ound</w>
go al</w>
g er
coun ter</w>
colo r</w>
barb ell</w>
as ks</w>
l d</w>
gu m</w>
fi ghting</w>
tel ling</w>
sk ate</w>
s al
li c</w>
gh ten
el se</w>
stor e</w>
man s</w>
ti es</w>
st ir
sl ides</w>
s and
pil low</w>
p y</w>
on ic</w>
mobi le</w>
g a</w>
cour se</w>
al so</w>
tal l</w>
skil ls</w>
prep are</w>
ph ones</w>
in es</w>
blo ck</w>
athle te</w>
wa shes</w>
sn ake</w>
slo pe</w>
oun ds</w>
on ly</w>
narr ates</w>
ma ter
enjo ying</w>
ce ss
z er</w>
vi ol
ur es</w>
spe c
pro te
ann oun
yo ga</w>
s li
pe el</w>
pat h</w>
j et</w>
ge e</w>
f it</w>
electr onic</w>
buc ket</w>
ne ss</w>
g ator</w>
d ers</w>
x ed</w>
we t</w>
si g
sci ss
pi le</w>
or g
motor cycle</w>
c en
bir th
ti ed</w>
in fla
de sk</w>
che wing</w>
v ers</w>
tu be</w>
pur ple</w>
partic ip
numb er</w>
lan e</w>
grap h
f ence</w>
di gging</w>
br ick</w>
tr ash</w>
skate board</w>
se par
se con
per s
f ru
bl on
v en</w>
tr af
traf fic</w>
mar ching</w>
hu ge</w>
dri ve</w>
cou ples</w>
birth day</w>
wa iting</w>
squ e
ou s
mo re</w>
costum e</w>
ai l</w>
sho rt</w>
she ep</w>
d ad</w>
arr an
tur es</w>
tt ers</w>
ffe e</w>
do min
co ffee</w>
che ss</w>
c ers</w>
re mo
par king</w>
mo wer</w>
con cer
carr ying</w>
al li
z o
v ed</w>
v a
par as
gras sy</w>
gath ered</w>
cont ro
ar row</w>
ap ing</w>
ul t</w>
n '
la dies</w>
cla ss
car s</w>
te e
low ed</w>
h ula</w>
ast er</w>
ti ght</w>
st ops</w>
n' t</w>
me as
in ser
go at</w>
f ar</w>
en s</w>
discus sing</w>
attemp t</w>
suc cess
pre ssing</w>
kne eling</w>
go od</w>
ballo ons</w>
ti le</w>
stret ching</w>
sciss ors</w>
re aches</w>
or der</w>
o il</w>
hi gh
be au
work out</w>
st om
s ound</w>
re ce
ous ly</w>
lea f</w>
f unny</w>
cti ve</w>
wheel chair</w>
surroun ded</w>
spo on</w>
p ped</w>
p op
mi ll</w>
concer t</w>
cer tain</w>
b lan
zz le</w>
we l</w>
w ed</w>
ta ge</w>
pin ball</w>
pi zz
om s</w>
mus h
in f
y ar
woo ds</w>
tee th</w>
ste p</w>
posit ion</w>
pi er
ic an</w>
remo te</w>
p ho
mater ial</w>
flow ers</w>
butt on</w>
bun gee</w>
b read</w>
ad ver
tru m
ton gue</w>
tic k
ti ght
lap se</w>
elephan t</w>
d ding</w>
col le
yar n</w>
un icycle</w>
saus age</w>
mon ey</w>
mar sh
l ers</w>
jugg les</w>
jac ket</w>
ir oning</w>
fol lowed</w>
cont act</w>
asi an</w>
th ings</w>
secon d</w>
s un
ka ya
fee ds</w>
y ball</w>
u e</w>
tw he
pe tting</w>
i ma
h y
gent le
fen cing</w>
cre ating</w>
car twhe
ben ds</w>
beg in</w>
alli gator</w>
volle yball</w>
spe ed</w>
nai l</w>
inf ant</w>
bo r
balan cing</w>
back yard</w>
b les</w>
as es</w>
t apping</w>
stri p</w>
smo o
po w
in st
fi re
colo r
st ov
sk y</w>
s ounds</w>
pizz a</w>
lear ning</w>
ic a</w>
e ar</w>
bur ning</w>
be ard</w>
spo rt</w>
kne es</w>
i m
d ou
adver ti
vege tables</w>
tr an
t on</w>
pu mp
par ts</w>
ir d</w>
inter vie
he ard</w>
exerci sing</w>
cro ss
circu lar</w>
brea ks</w>
shoo ts</w>
sho pping</w>
par ty</w>
pan ts</w>
pac k
ov er
mass aging</w>
de ep</w>
d in
te st</w>
sh ave</w>
ren ch</w>
lo g</w>
har mon
f id
de sign</w>
dan cers</w>
d el
craw ling</w>
boun ces</w>
w ic
uni form</w>
ta il</w>
sque e
sa ying</w>
r y</w>
proce ss</w>
p ast</w>
n ap
n am
gi ve</w>
ch ar
c and
stro ke</w>
stov e</w>
plan e</w>
p ops</w>
mil k</w>
le ans</w>
kn itting</w>
conta iner</w>
cand les</w>
viol in</w>
train ing</w>
sub stance</w>
objec ts</w>
ch er</w>
butt ons</w>
at h</w>
trum pet</w>
st a
spra ying</w>
scar a</w>
s unny</w>
p it</w>
ma scara</w>
ing re
individu als</w>
fru it</w>
cho pping</w>
bubb les</w>
ab le</w>
sh ape</w>
sa x
ro of</w>
pre sses</w>
mu d</w>
ma ch</w>
ingre di
co in</w>
cam el</w>
ad e</w>
swim mers</w>
sto mach</w>
sk in</w>
s il
re fer
o wn</w>
gu n</w>
g am
e ds</w>
contro l</w>
bu ll
wa ys</w>
t read
sa u
pers ons</w>
pain ts</w>
car ve</w>
boun cing</w>
an g
stret ches</w>
sa iling</w>
pic tures</w>
pe ts</w>
instruc tor</w>
gre at</w>
f re
color ful</w>
re por
produ ct</w>
pi pes</w>
pe eling</w>
in doors</w>
g ed</w>
chee se</w>
b room</w>
w ell</w>
some body</w>
ser ies</w>
sco tch</w>
pla t
erci al</w>
e e</w>
di sh</w>
am oun
t in
se g
p it
l un
harmon ica</w>
buil d</w>
be en</w>
be d
tr ick</w>
ta to</w>
ski er</w>
sc al
s nee
po tato</w>
pi g</w>
pas s</w>
marsh mal
ke y
ingredi ents</w>
i st</w>
h air
flow er</w>
fla sh
fe ed</w>
dri ver</w>
dar t</w>
con ver
comm ercial</w>
y er</w>
u t</w>
pup pet</w>
o es</w>
kno t</w>
fi g
cu be</w>
bed room</w>
at m</w>
tread mill</w>
tr ain</w>
sho ts</w>
poin ting</w>
le ather</w>
la te</w>
h ad</w>
cle ans</w>
blan ket</w>
av el
tre es</w>
thro wn</w>
star ting</w>
st ill</w>
sl ice</w>
re le
e ts</w>
dy e</w>
di ve</w>
co w
cla y</w>
che er
bar row</w>
balan ce</w>
stud ents</w>
sax op
la y</w>
j a
in hal
com e</w>
av ed</w>
as e</w>
sc ul
har p</w>
for ms</w>
cat ching</w>
bo b
blon de</w>
w ire</w>
tou ching</w>
so ap</w>
s cor
rai ses</w>
gymn asi
gymnasi um</w>
gr ill</w>
gol d</w>
der ly</w>
ca st
wr apped</w>
under water</w>
t ter
squ ats</w>
scul p
press ure</w>
plat form</w>
org an</w>
mo p</w>
gentle man</w>
el derly</w>
dri l
coun ting</w>
br icks</w>
ap pro
amoun t</w>
ad ding</w>
y ol
tri mming</w>
tra pe
t ac
success fully</w>
slic es</w>
shov el</w>
sand wic
r ap
mi xing</w>
grin der</w>
fla me</w>
fil ms</w>
wel ding</w>
shar p</w>
po ker</w>
gar age</w>
cooki es</w>
ben ding</w>
wi ll</w>
tan k</w>
se l</w>
s ing
prote ctive</w>
plan t</w>
pac k</w>
kee ps</w>
ke ts</w>
i g
h app
ex ten
ar y</w>
we aving</w>
u ght</w>
st it
pu b
pub lic</w>
poli sh</w>
perfor man
pas sing</w>
off ice</w>
o y
new sp
le y</w>
fol ded</w>
al one</w>
a x
sy n
shoo t</w>
ru bi
rid ge</w>
preten ding</w>
pre ss</w>
performan ce</w>
noi ses</w>
it y</w>
hor se
han dle</w>
grou ps</w>
for ma
dri ve
cen ter</w>
w ers</w>
up side</w>
saxop hone</w>
sa fe
safe ty</w>
pu zzle</w>
me ss
lan ding</w>
fi x</w>
ex am
clo sed</w>
c ave</w>
beau ti
ai ling</w>
tor y</w>
spra ys</w>
ro d</w>
rece i
kne els</w>
key board</w>
k en</w>
fil ling</w>
drive way</w>
ax e</w>
no tes</w>
lin ed</w>
fi ve</w>
en a</w>
discus ses</w>
dis plays</w>
d dy</w>
be ans</w>
bal l
b ad
am ing</w>
tri m</w>
trape ze</w>
to es</w>
t ers</w>
recor ds</w>
narr ator</w>
mass ages</w>
kno cks</w>
j avel
i ls</w>
hand stand</w>
f ur
dar ts</w>
cro ssing</w>
c ked</w>
bat ter</w>
to wel</w>
to sses</w>
scen e</w>
rubb er</w>
push ed</w>
on loo
mus ici
kne e</w>
fi xing</w>
compe te</w>
chi ck
b are</w>
announ cer</w>
ac cor
shar pen</w>
sc op
sa il
roast ing</w>
refer ee</w>
pas ses</w>
me mb
l and</w>
javel in</w>
happ y</w>
gro om
fol lowing</w>
co at</w>
cir cles</w>
c ap
be e
b it</w>
t ape</w>
su p
sto p</w>
sharpe ning</w>
pump kin</w>
nap kin</w>
mov e
e tt
do zer</w>
di stance</w>
boun cy</w>
app les</w>
accor di
a ding</w>
ya w
tat ors</w>
t en</w>
spec tators</w>
se a</w>
sandwic h</w>
ra z
newsp aper</w>
mon op
lou dly</w>
le ts</w>
g ong</w>
fac tory</w>
del i
cla p</w>
ch ain</w>
b ridge</w>
ac ting</w>
z en</w>
yel ls</w>
th in</w>
strai ghten
o ly</w>
monop oly</w>
le ad
ho p</w>
he ads</w>
flash light</w>
d rop
d on
cr ic
am er
ab ble</w>
stu ff
scr abble</w>
po rt</w>
head phones</w>
gar den</w>
coo ked</w>
comm ent
beauti ful</w>
ap es</w>
sun glasses</w>
strai ght</w>
sp in</w>
sp a
snow man</w>
ro t
hoo k</w>
e aster</w>
d un
d one</w>
cow boy</w>
class room</w>
b re
v ely</w>
tr ail</w>
scop e</w>
p al
la d</w>
ho p
ght ly</w>
ger ator</w>
d ic
cit y</w>
wi pes</w>
wa xed</w>
to ys</w>
st icking</w>
sp read</w>
sid es</w>
pun ches</w>
instruc ting</w>
fe ss
cross e</w>
cli ps</w>
clean er</w>
u al</w>
pro fess
paras ailing</w>
mo st</w>
laun dry</w>
la crosse</w>
ke ep</w>
cop y</w>
c ture</w>
bat h</w>
adju sts</w>
ad ds</w>
wr aps</w>
w ar</w>
tor ch</w>
sur f</w>
sh aves</w>
see ms</w>
re fri
raz or</w>
po dium</w>
pin e
p ri
p py</w>
out fit</w>
m er
le an
ex cit
d au
cric ket</w>
c ts</w>
bull dozer</w>
at ting</w>
ac tion</w>
youn ger</w>
u lar</w>
spa gh
spagh ett
spaghett i</w>
sof t</w>
shoul der</w>
shi rts</w>
refri gerator</w>
pon d</w>
po lo</w>
pan cake</w>
onloo kers</w>
mic ro
mar bles</w>
lit y</w>
lin es</w>
li ps</w>
infla table</w>
chick en</w>
chi ps</w>
ch ain
c ele
boun ce</w>
as ing</w>
whe els</w>
w rench</w>
v en
teenag er</w>
ro bo
par ents</w>
h un
fol lows</w>
di shes</w>
crow ded</w>
con test</w>
cla ps</w>
x y
wa xing</w>
sta dium</w>
ma il</w>
m it
graph y</w>
gg ling</w>
de ad</w>
crac ks</w>
colo rs</w>
cele br
bir d</w>
bar ten
b le
a x</w>
un seen</w>
snow mobile</w>
low er</w>
la ser</w>
hur dles</w>
hu gging</w>
fro zen</w>
f le
e ver
e mb
bas e</w>
zo o</w>
te x
tac k
shuff ling</w>
p rin
p pers</w>
noi se</w>
m y</w>
ic y</w>
hu g</w>
f ts</w>
do wn
di ver</w>
at ions</w>
app li
amer ican</w>
adju sting</w>
yel ling</w>
tor s</w>
separ ate</w>
p in</w>
p ans</w>
mov ed</w>
micro scope</w>
la wn
jac ks</w>
ir es</w>
gra ff
graff it
cast le</w>
bar re
ush i</w>
ty pes</w>
t te</w>
se ction</w>
sa lad</w>
s ushi</w>
pum p</w>
pine apple</w>
particip ating</w>
mu ddy</w>
in et</w>
in e
f ting</w>
f an
ey el
encoura ges</w>
dribb ling</w>
continu es</w>
blo cks</w>
wheel barrow</w>
stre tch</w>
st ed</w>
st aring</w>
preten ds</w>
poin t</w>
p lo
narr ating</w>
lea ding</w>
hop scotch</w>
h all</w>
dau ghter</w>
bran ch</w>
bi kes</w>
bag s</w>
b ent</w>
str a
sp on
sha ped</w>
po sing</w>
o s</w>
o ri
instruc ts</w>
in clu
fi ll</w>
fac ial</w>
dou ble</w>
com bing</w>
ch airs</w>
b right</w>
win dy</w>
ti p</w>
th ird</w>
teenag ers</w>
stir ring</w>
r hy
pres ent</w>
fil med</w>
di ves</w>
di g</w>
c ting</w>
athle tic</w>
to ma
smoo th</w>
sho re</w>
po se</w>
pat ter
pain ted</w>
pain tball</w>
kaya k</w>
in vol
grap es</w>
graffit i</w>
ge st
fini shes</w>
fid get</w>
ever y
conver s
con ne
com b</w>
bur ger</w>
be es</w>
b and
at ten
woo ded</w>
up per</w>
ti ss
th an</w>
snee zes</w>
sk y
sha ke</w>
se ment</w>
plan ts</w>
oper ating</w>
min ton</w>
lean ing</w>
l icks</w>
hu gs</w>
gymn ast
fig ure</w>
dra w</w>
chi sel</w>
cheer lead
ch ange</w>
bob sled</w>
ac ts</w>
w ide</w>
th umb
t ment</w>
skil let</w>
sit e</w>
pe el
l ler</w>
fini sh</w>
fac ing</w>
e u
d ge
crac king</w>
cli p</w>
cel lo</w>
c ted</w>
bo ats</w>
be low</w>
bad minton</w>
b end</w>
at ive</w>
wo ol</w>
w hole</w>
t aps</w>
sp reading</w>
scre w</w>
sau ce</w>
repor ter</w>
po l
me et</w>
lo ts</w>
f its</w>
dr ying</w>
bran ches</w>
ai red</w>
yol k</w>
tr ic
to ssing</w>
st ation</w>
snow boarding</w>
scre ams</w>
s us
p lu
p ad</w>
lo c
lif ted</w>
li p</w>
jac k</w>
gre y</w>
fe at
d it
co ach</w>
cas e</w>
cartwhe el</w>
ca ught</w>
c ries</w>
bir ds</w>
barten der</w>
as si
al low</w>
a er
tter y</w>
scre aming</w>
ru b</w>
pro jec
mar ker</w>
ki sses</w>
j er
har d
gi ant</w>
gg ed</w>
foo tage</w>
e ps</w>
cho p</w>
c ast</w>
c age</w>
bo xes</w>
adverti sement</w>
som er
seg way</w>
rhy th
pic ked</w>
fore st</w>
for k</w>
fil ls</w>
f ake</w>
dis c</w>
d board</w>
ag ain</w>
win d
whist ling</w>
uni forms</w>
th ick</w>
stu ck</w>
spe e
somer sa
sail boat</w>
recor ded</w>
proce eds</w>
ob stac
move ments</w>
man i
li ghting</w>
l icking</w>
in ning</w>
h ats</w>
gol f
fr ame</w>
fla g</w>
fl our</w>
eyebro w</w>
costum es</w>
car ri
cal f</w>
c ab
bat ting</w>
b ite</w>
al ing</w>
accordi on</w>
xy lo
vi l</w>
sle dding</w>
ro oms</w>
pat i
p itch
li ve</w>
in ten
ex plo
do l
cra ft</w>
cor ner</w>
car dboard</w>
brea king</w>
as king</w>
thumb s</w>
sma ller</w>
sh allow</w>
po ttery</w>
hol es</w>
di vers</w>
d ling</w>
cro sses</w>
b lin
appli ed</w>
appe ar</w>
we ar</w>
tro mb
th s</w>
stru cture</w>
st ream</w>
smo kes</w>
que st
profess ional</w>
pou red</w>
ob ser
m en
ke eping</w>
gh ted</w>
gent ly</w>
cu ps</w>
wr ites</w>
w ar
under ne
underne ath</w>
ti ps</w>
pho to
par ent</w>
pack age</w>
oy ster</w>
n ice</w>
mo tor</w>
mani pu
intervie wed</w>
inst al
ic es</w>
han g</w>
fli es</w>
f it
e la
c over</w>
va ult</w>
ti onal</w>
sus pen
stac k</w>
sharpe ner</w>
s wal
or che
orche str
le v
har ness</w>
gl iding</w>
fan cy</w>
dra ws</w>
craw ls</w>
cor rec
cheerlead ers</w>
bag pipes</w>
bab ies</w>
b ri
ap pla
wrest le</w>
sil ver</w>
si x</w>
shoul ders</w>
sculp ture</w>
marshmal lows</w>
hal l
fe males</w>
ex per
dru m
dis play</w>
dan cer</w>
col d</w>
chi p</w>
chain saw</w>
twir ling</w>
tur ned</w>
t balls</w>
sal on</w>
op ping</w>
ma g
li p
indi an</w>
i er</w>
ho od</w>
hall way</w>
gra b</w>
coun ts</w>
ac her</w>
win ter</w>
whi l
ti les</w>
te xt</w>
te a</w>
ste ep</w>
rai sing</w>
ne ar
ma rac
k y</w>
fini shing</w>
f ree</w>
disc us</w>
convers ation</w>
ban ging</w>
anima ls</w>
al ley</w>
xylo phone</w>
wa shed</w>
tight rope</w>
ta g</w>
spin ner</w>
sno r
slic ing</w>
se w</w>
san ding</w>
po ses</w>
lip stick</w>
ke ys</w>
hu man</w>
h aired</w>
h a
gymnast ics</w>
gi ft</w>
fur n
f ed</w>
de c
cu te</w>
crac k</w>
coo ks</w>
cal li
whil st</w>
tromb one</w>
tr av
str ings</w>
st al</w>
speci fic</w>
sof a</w>
re ve
p low</w>
ov en</w>
on ed</w>
n ers</w>
mu ch</w>
memb ers</w>
li ghter</w>
li d</w>
le tters</w>
le go</w>
ki ss</w>
inhal er</w>
in a</w>
ima ge</w>
i lity</w>
gu ns</w>
gi ven</w>
ent ly</w>
do ck</w>
din ner</w>
d ining</w>
char ac
wr ite</w>
tro du
te e</w>
sp rin
sing le</w>
mush rooms</w>
man eu
ing ed</w>
in trodu
ic ally</w>
gr ay</w>
excit ed</w>
en ting</w>
comple te</w>
cal led</w>
ca use</w>
c ru
bla ck
air plane</w>
wat ering</w>
shov eling</w>
musici ans</w>
mil king</w>
lawn mower</w>
kni ves</w>
in du
id ly</w>
decor ating</w>
cr ou
colo ring</w>
clo ses</w>
cho co
ba king</w>
appro aches</w>
al most</w>
ac e</w>
vehi cles</w>
u k
u ck
twi sting</w>
tr ay</w>
st ir</w>
sig ns</w>
s mel
pe els</w>
p r
or nam
op ing</w>
m ic</w>
e ars</w>
choco late</w>
che ck</w>
cal ls</w>
ca using</w>
bas s</w>
at ely</w>
va ul
swe at
suspen ded</w>
stra w</w>
spea k</w>
sh aved</w>
saus ages</w>
mo on</w>
ma th</w>
fing er
ex c
domin oes</w>
dis played</w>
che cking</w>
c us
beg inning</w>
ba th
at ure</w>
tou ch</w>
tiss ue</w>
th re
swe ep</w>
stru ggles</w>
stri al</w>
sol ve</w>
si zed</w>
s at</w>
rap idly</w>
pum ping</w>
p our</w>
orchestr a</w>
n u
l ens</w>
indu strial</w>
hard wood</w>
fini shed</w>
e i
dum p
cor k</w>
car ro
cam els</w>
c tor</w>
an ce</w>
ad just</w>
w e</w>
twir ls</w>
to oth
tin y</w>
stu ff</w>
stri ped</w>
spe d</w>
snow ball</w>
shi ft</w>
s wit
qu es</w>
pu t
mush room</w>
mal let</w>
m p</w>
kn uck
hu dd
down hill</w>
direc ting</w>
de ser
com ments</w>
ch r
calli graphy</w>
balan ces</w>
ar c
a stic</w>
wa ke</w>
wa ist</w>
t umb
t ted</w>
t op
su dd
s ke
pal m</w>
p airs</w>
motor cy
m ly</w>
instruc tion</w>
high chair</w>
groom ing</w>
grab bing</w>
flo ating</w>
dump ster</w>
dribb les</w>
dr yer</w>
d es</w>
cooki e</w>
cat cher</w>
c ri
brea thing</w>
bla de</w>
thre w</w>
techni ques</w>
te acher</w>
surf er</w>
su cking</w>
skate boarding</w>
sh er</w>
robo t</w>
poli shing</w>
pit ch</w>
le ep</w>
f oun
e tte</w>
deser t</w>
cr an
bu s</w>
as leep</w>
ani sh</w>
a ward</w>
tri m
todd lers</w>
su its</w>
sto od</w>
st er
st at
sle dge</w>
ski pping</w>
que tball</w>
peel er</w>
m ou
ki ssing</w>
kee per</w>
k ic
it al</w>
ine ss</w>
inclu ding</w>
ght ers</w>
eyel iner</w>
drop ping</w>
do dge</w>
dis playing</w>
di e</w>
cho ps</w>
can o
bar be
ad d</w>
ac c
whist le</w>
we ave</w>
vacu um
ti ghten
t in</w>
sp anish</w>
snow board</w>
s en
on i
mo on
l eng
gymn astic</w>
gath ering</w>
fit ness</w>
fi st</w>
en ly</w>
do ll</w>
cor d</w>
be cause</w>
arc ade</w>
ac ti
wi ping</w>
twi sts</w>
th o
tex ting</w>
swe eping</w>
stri kes</w>
ro ast</w>
re o
re la
pho to</w>
ne ed
mo tori
knuck les</w>
hi p</w>
every one</w>
cho reo
baske tballs</w>
wat ers</w>
teen s</w>
syn chr
surf s</w>
sur e</w>
str inged</w>
squ atting</w>
shuff le</w>
scal lo
re moved</w>
re ach</w>
rac ket</w>
pop ping</w>
pier ced</w>
on g
motori zed</w>
le tting</w>
it ure</w>
g en
en ter
dro p</w>
car ries</w>
bu tter</w>
boo ts</w>
bo l
b ling</w>
b il
wheel ed</w>
tr ad
th reading</w>
stor y</w>
st ers</w>
ss i
ra w</w>
patter n</w>
p ages</w>
o lo
mi sses</w>
lo tion</w>
je ans</w>
id er</w>
han gs</w>
go ats</w>
eye la
e ve</w>
e ty</w>
dru mming</w>
dra wn</w>
cli ppers</w>
ci vil</w>
ci gar
wh y</w>
wa its</w>
trad it
stom ping</w>
st i
soc ks</w>
si ve</w>
si ppy</w>
rol led</w>
re port</w>
qu ick</w>
qu et</w>
projec t</w>
perfor mer</w>
pe ns</w>
off ic
ne a
meas uring</w>
me ssing</w>
le ash</w>
g ather</w>
dre sses</w>
cov ering</w>
che t</w>
car to
bro ther</w>
br ings</w>
bel t</w>
barre l</w>
b y
ar gu
vari ety</w>
un lo
tt on</w>
str apped</w>
ste el</w>
snor k
se a
s words</w>
s nea
rele ases</w>
r al</w>
pup pets</w>
partic ular</w>
ou r
inser ts</w>
in ed</w>
id en
furn iture</w>
forma tion</w>
e as
dril ls</w>
cont roller</w>
co tton</w>
be st</w>
bath tub</w>
bac ks</w>
ar ena</w>
ai ls</w>
aer ob
ve st</w>
ta ins</w>
st airs</w>
sp reads</w>
si mi
sh el
s um
ro ws</w>
ro de
rode o</w>
recor der</w>
per fe
n av
mi x</w>
me al</w>
k in
jum ped</w>
ho me
grin ding</w>
gam es</w>
emb ro
e ting</w>
dir ty</w>
d en
cra shes</w>
chan ging</w>
car pe
but ter
barb er</w>
band age</w>
appla u
ap art</w>
ac comp
tradit ional</w>
te aches</w>
ta st
ta ken</w>
stir s</w>
sp at
some ones</w>
sol o</w>
marac as</w>
lun ges</w>
lo l
l ic
instal ling</w>
fer ence</w>
cigar ette</w>
chan ges</w>
ban gs</w>
b um
ar ch
an ts</w>
yaw ning</w>
work shop</w>
windo ws</w>
th um
sn apping</w>
sh ine</w>
scr at
scen es</w>
san der</w>
mon tage</w>
mo rt
lif e</w>
l en
k ins</w>
h on
gl ides</w>
for ming</w>
f ind</w>
e ment</w>
dum bb
d ges</w>
con v
con du
co ho
ch u
bus iness</w>
arran ging</w>
al ready</w>
al coho
wal ls</w>
wal ked</w>
to e</w>
synchr oni
sudd enly</w>
sto ol</w>
spat ula</w>
sla ps</w>
re tri
re pair</w>
re en
re aching</w>
rai sed</w>
rac quetball</w>
r ings</w>
r an</w>
po les</w>
oper ates</w>
mort ar</w>
manipu la
m bal
mbal s</w>
ka h</w>
k ick
it ten</w>
instruc tional</w>
i gh
home made</w>
gest ures</w>
ge ment</w>
f arm</w>
e ar
cur l</w>
con ference</w>
comple tes</w>
assemb ling</w>
al ter
swim mer</w>
spo r
sp lit</w>
sof tball</w>
simi lar</w>
sh apes</w>
sa y</w>
rubi k</w>
qu i
po king</w>
pas s
mi xes</w>
man ual</w>
k il
inst all</w>
glo ve</w>
fo am</w>
f ans</w>
expla in</w>
elephan ts</w>
dril ling</w>
discus s</w>
cy mbals</w>
com bs</w>
car ves</w>
can dle</w>
c one</w>
be ats</w>
ban k</w>
ac ou
ush es</w>
to ss</w>
tight en</w>
stuff ed</w>
stud ent</w>
stri ps</w>
sprin k
shov els</w>
ru g</w>
ro ck
r ange</w>
pun ch</w>
plan k</w>
par a</w>
pa pers</w>
need les</w>
ma s
kno cking</w>
jo gging</w>
i e</w>
hor n</w>
h um
fu r</w>
fr id
ff s</w>
encoura ging</w>
embro id
che ws</w>
boar der</w>
b er
as ked</w>
as hi
accomp ani
we ars</w>
tw ice</w>
ta sting</w>
str ange</w>
ste a
squ ir
spo t</w>
sol di
roast ed</w>
rid er</w>
ri ps</w>
pro ble
pi c</w>
particip ate</w>
ope ned</w>
le dge</w>
horse back</w>
hoo kah</w>
gro cer
graph ed</w>
foun d
found ation</w>
fi ghters</w>
f ashi
demonstr ated</w>
correc t</w>
cle aring</w>
ch asing</w>
carr y</w>
buc kets</w>
ball er
athle tes</w>
ste ering</w>
spee ch</w>
si ze</w>
sh ell</w>
scr am
scor es</w>
recor d</w>
posit e</w>
pol ice</w>
plan ting</w>
pac king</w>
numb ers</w>
mi x
ma t
m a</w>
l ining</w>
in o</w>
fla shing</w>
fla sh</w>
e f</w>
domin o</w>
direc tions</w>
conne cted</w>
ch al
butter fly</w>
acro bat
acou stic</w>
y outh</w>
w ri
vi si
st un
st ones</w>
sp its</w>
shoul d</w>
se ar
s pla
par t
out fits</w>
op posite</w>
ol y
mach in
ma ll</w>
lol li
enjo y</w>
de mo
d a</w>
cartwhe els</w>
carto on</w>
bre ast</w>
b in
b ic
an sw
alter n
tri ms</w>
tick ling</w>
tat too
t i</w>
squ at</w>
snow balls</w>
sel fi
re st</w>
pres ents</w>
pow ered</w>
po tat
pitch er</w>
pi ge
perfor mers</w>
par ag
parag l
p ast
o w
n arrow</w>
mb al</w>
ma car
lu ge</w>
leng th</w>
ho ver</w>
gu tters</w>
grocer y</w>
go ggles</w>
fla ming</w>
di d</w>
conv ey
com pan
choreo graphed</w>
ce p
cano e</w>
c hor
but cher</w>
bra iding</w>
au toma
x i
wo mans</w>
wa it</w>
tran s
train er</w>
tick les</w>
ten ts</w>
t ires</w>
straighten ing</w>
ste pping</w>
spor ting</w>
skate boards</w>
shuff les</w>
rot ating</w>
re p
r ice</w>
qu ar
prepar ed</w>
prepar ation</w>
pass eng
machin ery</w>
loo m</w>
la ss
l ure</w>
kn it</w>
k le</w>
in ner</w>
i on
exper i
dri es</w>
cy mbal</w>
cu stom
cre ates</w>
competit ive</w>
ch un
ch ases</w>
cas ino</w>
bor n</w>
back ward</w>
b ou
b ell</w>
ac k</w>
wei ghted</w>
vacuum ing</w>
up right</w>
ti ve</w>
thum b</w>
surf board</w>
su per
star es</w>
sla pping</w>
sky diving</w>
sh aping</w>
scallo ps</w>
rock y</w>
ro ping</w>
recei ving</w>
re li
pat ty</w>
pan el</w>
offic er</w>
noi sy</w>
mo wing</w>
macar ena</w>
jer se
head stand</w>
hand ling</w>
gr il
g y</w>
frid ge</w>
feat ures</w>
ent ers</w>
craw l</w>
che ered</w>
cab inet</w>
c lou
c are</w>
bo x
be ar</w>
bar s</w>
bal d</w>
back pack</w>
ang le</w>
am ong</w>
ad ed</w>
a xes</w>
a o
z z</w>
we ird</w>
ver ing</w>
uk u
uku le
ukule le</w>
t ent</w>
su n</w>
str ating</w>
sp ir
si ster</w>
sh ining</w>
s par
rest ing</w>
pe d
pat ch</w>
marshmal low</w>
la ps</w>
la ce</w>
in tric
ham m
go t</w>
fre e
f un
f el
eng ine</w>
ben e
b in</w>
au ction</w>
yaw ns</w>
up beat</w>
tu ally</w>
tooth brush</w>
t ty</w>
stret ched</w>
strai ght
spo ts</w>
smo oth
sli ghtly</w>
ri pping</w>
ra in</w>
preten d</w>
pla tes</w>
mo wers</w>
la st</w>
la ces</w>
l en</w>
kno wn</w>
ja mas</w>
ima ges</w>
ho ops</w>
golf er</w>
dun ks</w>
b ites</w>
acti v
wr itten</w>
vege table</w>
v al</w>
uni son</w>
um in
th ough</w>
synchroni zed</w>
spe n
somersa ult</w>
so ci
sle dge
ski ers</w>
sk ir
sho w
ro cking</w>
re ver
pro vid
pow der</w>
por ch</w>
pe de
pan ning</w>
ow ner</w>
on ce</w>
oly m
olym pic</w>
new sc
near by</w>
ne l</w>
me dic
mach ines</w>
m on</w>
lolli pop</w>
lear n</w>
lan es</w>
la y
kar ao
karao ke</w>
invol ving</w>
horse shoe</w>
helme ts</w>
gu lar</w>
gu ide</w>
exten ded</w>
di ps</w>
di mly</w>
cel l
cam p
barbe cu
bac king</w>
b ly</w>
assemb ly</w>
an cho
a fr
wat ched</w>
wa sher</w>
visi ble</w>
tic al</w>
th an
te ars</w>
tack les</w>
ta i</w>
straight en</w>
stit ching</w>
star ted</w>
st roller</w>
sp lit
sn aps</w>
sledge hammer</w>
side ways</w>
shi p</w>
sh ampo
se cur
rubi x</w>
potat oes</w>
play fully</w>
pa jamas</w>
on stage</w>
mo l
meas ure</w>
lo ses</w>
listen s</w>
lin er</w>
kick ball</w>
gr i
go r
glo ved</w>
finger nails</w>
fil m</w>
f an</w>
eng age</w>
encoura ged</w>
en ed</w>
ei ther</w>
dum ps</w>
con tents</w>
ca sting</w>
c tions</w>
bil ls</w>
as ed</w>
wind surfing</w>
w ants</w>
uni que</w>
ul ts</w>
tic ally</w>
t run
t a</w>
su cks</w>
str y</w>
scor e</w>
sc rubbing</w>
rid ers</w>
re spon
rai se</w>
po st</w>
o c
ne igh
n ut</w>
me eting</w>
jugg le</w>
hur dle</w>
hand les</w>
hair cut</w>
h ones</w>
fo c
f at</w>
eng aged</w>
ed ges</w>
do or
de ta
dar k
cri b</w>
ca m</w>
assemb le</w>
ancho r</w>
am p
tor ches</w>
te m
sp it</w>
soldi ers</w>
smoo thing</w>
she ets</w>
sharpe ns</w>
selfi e</w>
rhyth m</w>
pum ps</w>
po stal</w>
po ssi
pige ons</w>
pier cing</w>
pi ly</w>
on gs</w>
obstac le</w>
no o
min i</w>
min i
lan d
l y
l er
kno cked</w>
instruc ted</w>
ing ly</w>
il lu
ici an</w>
i gh</w>
go o
go ali
goali e</w>
flo ral</w>
exam ines</w>
en ding</w>
dy ed</w>
direc ts</w>
continu ously</w>
clo sing</w>
ch in</w>
cas ing</w>
c o</w>
bra ids</w>
be at
be ads</w>
alcoho l</w>
wi l
w are</w>
ush ing</w>
te aring</w>
tal ly</w>
str ong</w>
recei ves</w>
re ci
pede stri
parachu ting</w>
pad dling</w>
pad dle</w>
p ins</w>
oun ding</w>
org ani
ne ck
mi xed</w>
ma il
li sh</w>
lev el</w>
l ls</w>
j ar</w>
intric ate</w>
hamm ering</w>
gg le</w>
eyela shes</w>
eas y</w>
conta ining</w>
cer e
carri er</w>
ca kes</w>
c lar
c a</w>
boar ders</w>
bo ws</w>
baller ina</w>
av o
th er
te ach</w>
st ar</w>
sma shing</w>
sli ps</w>
sa ils</w>
rac es</w>
pres ent
pre tty</w>
prac ti
play ground</w>
on e
o p</w>
n ur
n at
mobi les</w>
mb s</w>
low ers</w>
lo go</w>
la tin</w>
inser t</w>
i sh</w>
hi ve</w>
ham burger</w>
go s</w>
fr y</w>
fi ghter</w>
fal len</w>
ev en
en ter</w>
e ffe
direc tion</w>
d ying</w>
cro co
croco di
cop ier</w>
carro ts</w>
bow ls</w>
bic y
be ver
ba thing</w>
b es</w>
adju st
ac tment</w>
a qu
v ase</w>
sw ir
su ck</w>
stru ms</w>
squee zing</w>
squee zes</w>
so da</w>
smi le</w>
ser vice</w>
s pi
run ner</w>
r ough</w>
quest ions</w>
pi e</w>
pe ice</w>
pas sed</w>
obstac les</w>
nu ts</w>
mon y</w>
mess age</w>
medic ine</w>
me d
m om
lar ger</w>
kic ked</w>
h at
gu tter</w>
ge ars</w>
g lue</w>
fre sh</w>
fin ds</w>
drop ped</w>
do dge
convey or</w>
celebr ating</w>
can v
cal m</w>
by e</w>
but t</w>
blon d</w>
be ating</w>
b ad</w>
woo d
vide o
to ld</w>
t aping</w>
stre ets</w>
stit ch</w>
ste ad</w>
ss ion</w>
sp ace</w>
so ck</w>
skir t</w>
ski ps</w>
ski p</w>
see m</w>
s ni
reli gi
ra dio</w>
put t</w>
pup py</w>
pit ches</w>
p li
n ame</w>
ma p</w>
list en</w>
la tion</w>
l ling</w>
in stead</w>
il ed</w>
i or</w>
h appe
gg er</w>
fla t
f ails</w>
er man</w>
en closed</w>
e k</w>
dre ssing</w>
dra gging</w>
dodge ball</w>
de ter
cur ls</w>
comment ator</w>
comm enting</w>
clar inet</w>
ch i</w>
camp fire</w>
bat tle</w>
att ach</w>
argu ing</w>
ad es</w>
win ks</w>
win ds</w>
tro wel</w>
ti me
th ers</w>
t read</w>
stru mming</w>
stri ke</w>
st ay</w>
squ ash</w>
spon ge</w>
snork eling</w>
sho wer</w>
religi ous</w>
rec ast</w>
push ups</w>
posit ions</w>
pop ular</w>
pe an
paras ail</w>
p per</w>
n ic</w>
moun ted</w>
moun tains</w>
motorcy cles</w>
mo tions</w>
me lo
lo ad</w>
li vely</w>
laun ches</w>
j ig
jig saw</w>
in front</w>
h ap
hap pily</w>
gi ggling</w>
g le</w>
fo recast</w>
fle xi
f rench</w>
f ell</w>
ex tre
encoura ge</w>
e ing</w>
dol lar</w>
decor ative</w>
cu lar</w>
cre w</w>
comp on
colle cting</w>
clo ser</w>
ce iling</w>
carpe ted</w>
canv as</w>
buil t</w>
bro ken</w>
bever age</w>
base balls</w>
barbecu e</w>
bal con
b ush</w>
al er</w>
afr ican</w>
a ma
w ires</w>
vie ws</w>
vi gor
tr ap
tighten ing</w>
tast e</w>
t ell</w>
su ch</w>
stuff ing</w>
stro kes</w>
smel ls</w>
sit ing</w>
sal t</w>
quest ion</w>
proble m</w>
pil lows</w>
perfe ct</w>
ou gh
ornam ents</w>
or din
no te</w>
new born</w>
nav ig
n a
musici an</w>
moon walk</w>
mass aged</w>
loc al</w>
lo gs</w>
lea ds</w>
le aps</w>
la id</w>
jo b</w>
in formation</w>
he at</w>
forma l</w>
fol low</w>
fi ed</w>
f ic
en er
electr ical</w>
dri ven</w>
don ut</w>
de signs</w>
dark ened</w>
cran e</w>
cov ers</w>
cli pping</w>
c um
bel ls</w>
bar e
arran ges</w>
ar ded</w>
ac cep
a le</w>
y ed</w>
wa xes</w>
surf ers</w>
st opping</w>
sma shes</w>
sig n
scre w
sc rub</w>
rec tan
rac k</w>
r an
present ation</w>
pati o</w>
pac ks</w>
ou ght</w>
oper ate</w>
ong side</w>
neigh bor
neighbor hood</w>
mus cular</w>
mess y</w>
melo dy</w>
m opping</w>
land sc
ke t
in spec
han ded</w>
gr and
fo il</w>
eng aging</w>
diff ic
de ad
crocodi le</w>
compan y</w>
class ical</w>
che cks</w>
charac ter</w>
cell phone</w>
cal cu
c ling</w>
bee keeper</w>
balcon y</w>
back flip</w>
al ongside</w>
accompani ed</w>
y ou
with in</w>
wal ker</w>
wal k
w and</w>
t work</w>
t om
sweat er</w>
su it
ste m</w>
ste am</w>
stac king</w>
she ars</w>
se es</w>
scre wing</w>
s a</w>
rot ates</w>
ri bb
rap id</w>
pli ers</w>
passeng er</w>
mi lit
mag ic</w>
li ghtly</w>
le tter</w>
in cre
il er</w>
han ding</w>
h ere</w>
gu iding</w>
gu ides</w>
g ar</w>
fri ed</w>
ev en</w>
ele v
di pping</w>
con gre
co ordin
cla i
can dy</w>
bol t</w>
baske ts</w>
bar n</w>
back stroke</w>
at op</w>
ar rows</w>
air ing</w>
ab ility</w>
z i
vigor ously</w>
tri ple</w>
time lapse</w>
te l</w>
swit ches</w>
surroun ding</w>
sn ap</w>
sle ds</w>
sla ms</w>
separ ating</w>
screw driver</w>
scre ws</w>
reve al</w>
per cus
oy sters</w>
milit ary</w>
loo se</w>
le ad</w>
je wel
je ep</w>
introdu ces</w>
inter view</w>
id ed</w>
i ght</w>
he sive</w>
gi ggles</w>
g room</w>
fla gs</w>
ff ing</w>
ex e
dra ma
descri be</w>
d ust</w>
con tor
co ins</w>
clean ed</w>
chee k</w>
cen tr
ca uses</w>
bra id</w>
black jack</w>
b led</w>
attach ment</w>
att ire</w>
ap par
ad hesive</w>
acrobat ic</w>
ac tors</w>
ac tions</w>
wi pe</w>
whist les</w>
walk way</w>
v ir
u ten
uten si
tar gets</w>
sup por
straighten s</w>
sp itting</w>
sla m</w>
si m
si fting</w>
sh ines</w>
sh av
ser ves</w>
sel y</w>
sc rubs</w>
rop rac
rol ler
repor ting</w>
rep airing</w>
pu ck</w>
po sed</w>
pean ut</w>
paragl iding</w>
ornam ent</w>
no te
n on</w>
mul ti</w>
mo sh</w>
microp hones</w>
me th
m ma
lap top</w>
jerse y</w>
ir ons</w>
inter e
in de
hoo die</w>
he ating</w>
glo wing</w>
fore head</w>
f s</w>
enjo ys</w>
ela bor
dun k</w>
di gs</w>
de br
d ice</w>
coun t</w>
cor al</w>
comple ting</w>
chi roprac
ch atting</w>
ca sts</w>
c aps</w>
bee f</w>
be arded</w>
au cti
at ly</w>
are as</w>
ap y</w>
ap r
an y</w>
aerob ics</w>
acc iden
ac ks</w>
a id</w>
wi ld</w>
we aves</w>
too k</w>
to wer</w>
ti l
ti ally</w>
th reads</w>
syn c</w>
sur pri
suit case</w>
spea ker</w>
s wa
rubb ed</w>
ribb on</w>
retri e
reci pe</w>
re al</w>
po rts</w>
po kes</w>
pad ded</w>
over head</w>
no zzle</w>
n um
mu g</w>
meth od</w>
memb er</w>
me ss</w>
man u
le gos</w>
l ick</w>
kno ck</w>
intervie wing</w>
inser ting</w>
ic e
ho ver
hand held</w>
g ate</w>
fac ility</w>
f ine</w>
explo ring</w>
ex hi
eng lish</w>
embroid ery</w>
el ls</w>
dre ss
direc tly</w>
debr is</w>
de m</w>
cus hi
climb er</w>
charac ters</w>
c ans</w>
bur n</w>
blin d
bag pipe</w>
b al</w>
arch ery</w>
al umin
ad ded</w>
acciden tally</w>
yol ks</w>
wa ding</w>
w ink</w>
vaul ting</w>
twir l</w>
tick led</w>
tan dem</w>
sty li
stre n
stren g
stac ks</w>
ser ving</w>
see ing</w>
sco ops</w>
ru ning</w>
re el</w>
ra in
ra g</w>
r at
proce d
practi sing</w>
po tter</w>
pack ages</w>
p y
p age</w>
on ions</w>
noo dles</w>
na ked</w>
mix ture</w>
li on</w>
k ites</w>
jum per</w>
jo ins</w>
inter acts</w>
infla ted</w>
hudd le</w>
ho oping</w>
gymn ast</w>
fin ally</w>
fi er</w>
ex press
elabor ate</w>
el bow</w>
e mer
do r</w>
do ctor</w>
dis k</w>
di spen
di aper</w>
cur ly</w>
cr ash</w>
continu e</w>
clou dy</w>
clo se
chi pping</w>
chee ks</w>
ce ss</w>
car ts</w>
c all</w>
buil ds</w>
brea k
bare foot</w>
as s</w>
z y</w>
wri st</w>
volle y</w>
vo ices</w>
v an
un g</w>
tt re
tra iler</w>
tr ou
tel y</w>
te sting</w>
t rop
ster n</w>
sp ital</w>
soci ali
smel ling</w>
sle eps</w>
sla p</w>
sing er</w>
sim ple</w>
shou ting</w>
sa wing</w>
poin ted</w>
par k
p aved</w>
ne atly</w>
n e</w>
mini ature</w>
mar ket</w>
ma ttre
ma rin
m ound</w>
liqu or</w>
kil t</w>
jewel ry</w>
ja zz</w>
ho spital</w>
ho ps</w>
ham mers</w>
g ers</w>
fri es</w>
flat ten
fla mes</w>
f ound</w>
eye glasses</w>
exten ds</w>
even tually</w>
dumbb ell</w>
dou gh
door way</w>
de l</w>
crou ches</w>
cor e</w>
con trap
cere mony</w>
bur ps</w>
br inging</w>
be am</w>
bb ing</w>
b on
au dit
attach ing</w>
aqu ari
ai s
y ell</w>
wei ght
we stern</w>
ven ue</w>
un known</w>
swe eps</w>
swal lows</w>
slic ed</w>
si p</w>
scram bled</w>
sa ws</w>
s in
s am
reen actment</w>
pump kins</w>
pro gr
part ner</w>
par tially</w>
p runing</w>
p lowing</w>
off ers</w>
o t</w>
note book</w>
newsc aster</w>
mas ks</w>
mar ble</w>
maneu vers</w>
li ghted</w>
la ter</w>
kne ading</w>
k o
k it</w>
jo y
it ies</w>
im it
i an</w>
hon ey</w>
ho tel</w>
he ated</w>
gro wn</w>
grap hi
floo rs</w>
fe sti
experi ence</w>
e very</w>
dra gs</w>
decor ated</w>
de sig
cy lin
cre ek</w>
cra fts</w>
comm un
close up</w>
cle ars</w>
chan ting</w>
camer a
c run
c ats</w>
bur ping</w>
bicy cles</w>
atten tion</w>
atten ding</w>
arr ange</w>
aquari um</w>
anima ted</w>
a w
' re</w>
y stal</w>
wa it
vie wers</w>
to wed</w>
tech no</w>
t ches</w>
swal lowing</w>
sty les</w>
stum p</w>
speci ali
sor ting</w>
snow boards</w>
ski ll</w>
skat er</w>
scar f</w>
san ta</w>
sa f
s pu
ra ther</w>
pro poses</w>
prin ter</w>
pre ssed</w>
pon y</w>
photo s</w>
par ked</w>
pac e</w>
p t</w>
p av
num er
nee ds</w>
me sses</w>
lo ading</w>
le gged</w>
invol ves</w>
inten se</w>
in t</w>
i fier</w>
hoo ked</w>
hi ps</w>
hi ding</w>
he ar</w>
gr at
gl ider</w>
g ang
fris bees</w>
for med</w>
fli pped</w>
festi val</w>
fen ced</w>
exc av
exam ining</w>
e st</w>
do w
do o</w>
dd le</w>
cur ved</w>
cro ssed</w>
crac ked</w>
cr ystal</w>
contrap tion</w>
co s
cla m</w>
cal ling</w>
cal i
brush ed</w>
bro ad
audit ori
arti sts</w>
arran gement</w>
we ed</w>
ur al</w>
u red</w>
twi st</w>
tumb ling</w>
tou r
to wn</w>
ta ught</w>
success ful</w>
sty ling</w>
stit ches</w>
st op
spu n</w>
snow boarder</w>
sla lo
sla b</w>
se al</w>
scr aping</w>
scr ap
s ling</w>
rever se</w>
re mov
re ma
pro posing</w>
por tion</w>
pla ster</w>
pedestri ans</w>
pati ent</w>
pac ifier</w>
p ain</w>
no r
mo del</w>
med ical</w>
mattre ss</w>
mar kers</w>
manipula tes</w>
ma ta
le af
jo in</w>
inter act</w>
ic ing</w>
head ed</w>
he ight</w>
hat chet</w>
guit ars</w>
gi e</w>
flo at</w>
fi shes</w>
fashi oned</w>
f our
e tly</w>
e se</w>
e m
drum mer</w>
dra wer</w>
demo strating</w>
de aling</w>
cor n</w>
co ats</w>
chun k</w>
chi sel
chal k</w>
carro t</w>
br ass</w>
beau ty</w>
ball room</w>
b it
auditori um</w>
apr on</w>
alumin um</w>
adverti sing</w>
a do
zz y</w>
y s
win ding</w>
wil dly</w>
wel der</w>
we dding</w>
w ant</w>
u ti
trim mer</w>
tri ed</w>
tour nam
ti on
thr u</w>
tech n
t an</w>
stop ped</w>
st ab
squ ar
so apy</w>
snow mobiles</w>
skate boarders</w>
shi fts</w>
she ering</w>
scrap book</w>
scr apes</w>
sco oping</w>
sc ream</w>
s mit
smit h</w>
remov al</w>
qui etly</w>
proced ure</w>
po lit
perfor med</w>
percus sion</w>
pad dles</w>
pac ked</w>
ope ner</w>
numer ous</w>
near ly</w>
n er
mel y</w>
manipula ting</w>
m ing
lo ads</w>
lo aded</w>
len ses</w>
le t
kno b</w>
kin ds</w>
inter section</w>
il l
hair y</w>
h us
h i</w>
gril ling</w>
gam bling</w>
flo ats</w>
fi xes</w>
deli vering</w>
de aler</w>
custom er</w>
con si
cam p</w>
box ers</w>
bo b</w>
blo wn</w>
at ors</w>
arran ged</w>
ais le</w>
ach ed</w>
zo oms</w>
wa kes</w>
v an</w>
u ts</w>
u la
tu ce</w>
tre at</w>
tournam ent</w>
top p
tho se</w>
sy stem</w>
sup port</w>
styli st</w>
stru ggling</w>
sprink les</w>
split s</w>
sp ac
somersa ults</w>
snea kers</w>
sli p</w>
slalo m</w>
sh aring</w>
san dy</w>
sal sa</w>
ri m</w>
rest s</w>
rectan gular</w>
re s
ra ft</w>
po c
pitch ed</w>
p run
p lun
one er</w>
on d</w>
nap kins</w>
mov ie</w>
mo r
mechan ic</w>
mail man</w>
m bo
loo s
ll a</w>
let tuce</w>
lea gue</w>
le aving</w>
k art</w>
it ed</w>
illu str
hover board</w>
ho pping</w>
he art</w>
gu i
gol den</w>
g au
fl icks</w>
fic ial</w>
fi sh
extre mely</w>
ex clai
en th
dumbb ells</w>
dum ping</w>
dress er</w>
don key</w>
do cum
di g
decor ations</w>
cu tter</w>
cra fting</w>
coordin ated</w>
congre g
con ven
competit ors</w>
cheer leading</w>
car ved</w>
br ought</w>
base ment</w>
barre ls</w>
b by</w>
attach es</w>
ac efully</w>
wrest lers</w>
wor ld</w>
wi ggling</w>
wi ggles</w>
w eld</w>
w arm</w>
vide os</w>
us i
unlo ading</w>
u es</w>
tumb les</w>
tt en</w>
trim med</w>
tran ce</w>
tab le
surr ound</w>
sub way</w>
stun ts</w>
stri king</w>
streng th</w>
st ly</w>
spe eds</w>
ski es</w>
sh ri
sh ly</w>
se ctions</w>
sc ri
ran do
r apping</w>
qu ite</w>
pu ddle</w>
progr am</w>
pre forming</w>
possi bly</w>
plu g</w>
pin ches</w>
pic nic</w>
pat ting</w>
park our</w>
pan cakes</w>
pa stry</w>
p re</w>
p ads</w>
ori en
orien tal</w>
n am</w>
mon it
mo di
mic ha
micha el</w>
me tal
me di
mat ching</w>
man ner</w>
ma sco
ma ker</w>
lo r</w>
lif ter</w>
li kes</w>
lass o</w>
la yer</w>
ket tle</w>
k up</w>
jac k
j un
inhal es</w>
id e
i als</w>
ho t
ho st</w>
gr ind</w>
gg y</w>
four th</w>
for t</w>
fir ing</w>
fin al</w>
exhi bit
excit edly</w>
ex tin
ex hal
enth usi
dro o
dri ed</w>
dec ides</w>
d led</w>
cur ren
contro ls</w>
con grat
comment ary</w>
colle ge</w>
co ws</w>
ch at</w>
carri ed</w>
c ame</w>
bri e
bre ath</w>
bo bbing</w>
be an</w>
ba ked</w>
b ushes</w>
automa tic</w>
aucti oneer</w>
arti ficial</w>
ar twork</w>
an kle</w>
you ths</w>
wor ked</w>
wo k</w>
w ou
wou ld</w>
trav eling</w>
topp ings</w>
thro at</w>
techn ician</w>
tattoo s</w>
tan e
t ching</w>
sum mer</w>
su gar</w>
str ap</w>
stea k</w>
stat ue</w>
stan t</w>
stac he</w>
speciali zed</w>
so il</w>
sle igh</w>
si on
shou ts</w>
shampo o</w>
se tt
ru b
rin sing</w>
rin ses</w>
rhyth mic</w>
re turns</w>
r ate</w>
pro pe
pro gre
por table</w>
per i
ped al</w>
pav ement</w>
par ade</w>
p le
or ch
op posing</w>
op pon
move ment</w>
mo stly</w>
masco t</w>
maneu ver</w>
make shift</w>
ma ri
m ps</w>
le ss
l one</w>
k a</w>
ju ice</w>
jack son</w>
it i
hun ting</w>
hudd led</w>
gri p</w>
gentle men</w>
floo ring</w>
fire place</w>
fire fighters</w>
enter ing</w>
emp lo
drama tic</w>
domin os</w>
di am
desc ends</w>
d id
d d</w>
con dit
cli st</w>
ch ant</w>
c able</w>
bun ny</w>
brie fly</w>
br and</w>
bou quet</w>
boo th</w>
b an</w>
as k</w>
ar tic
ap p</w>
announ ces</w>
aerob ic</w>
1 0</w>
we b
tu red</w>
tru cks</w>
trav els</w>
trac tors</w>
tom o
t board</w>
squar es</w>
sociali zing</w>
so le</w>
skat ers</w>
sk in
si mu
shi fting</w>
she aring</w>
ser ve</w>
sear ching</w>
se qu
scrat ches</w>
scoo ters</w>
scoo p</w>
sc an
saf ely</w>
roast s</w>
ri z
reve aling</w>
rele ase</w>
re play</w>
re fle
re ar</w>
re action</w>
r ab
quar ter
produ cts</w>
pri est</w>
pres enting</w>
posit i
pic kup</w>
ph ys
pain t
ori gam
origam i</w>
obser ving</w>
nur se</w>
ni p
neck lace</w>
ne ed</w>
nat ional</w>
mou se</w>
lu g</w>
loo p</w>
kee pers</w>
kaya king</w>
je t
j ap
inde x</w>
i ous</w>
ho riz
gr y</w>
gr av
g ical</w>
fro sting</w>
for ce</w>
flexi ble</w>
fin ding</w>
fi sts</w>
ff y</w>
fashi on</w>
ent ire</w>
encoura gement</w>
en ces</w>
emplo y
el et</w>
e f
e es</w>
du ck</w>
deta ils</w>
deli vers</w>
de stro
d a
cre d
condu ctor</w>
compon ents</w>
colle ction</w>
co aches</w>
chor ds</w>
cho ir</w>
cas es</w>
ca ster</w>
bol ts</w>
bin ding</w>
bi ll</w>
bat ter
bar ri
bar king</w>
ban g</w>
ban ds</w>
b ats</w>
au tomo
am us
al ity</w>
adjust ments</w>
a head</w>
ya wn</w>
v ices</w>
un successfully</w>
tur tle</w>
trun k</w>
ti pped</w>
tack le</w>
ta ining</w>
sy mbo
sweat shirt</w>
su v</w>
stun t</w>
str an
stom p</w>
ste ad
stat ion
spla shes</w>
snea ker</w>
sle ep</w>
skil l
ski is</w>
ske tch</w>
sig ning</w>
si mul
simul tane
she ers</w>
s ic
ru g
rug by</w>
rela xing</w>
rece ive</w>
re eling</w>
rai ling</w>
quarter back</w>
provid es</w>
produ ce</w>
proce ssing</w>
pow er
po ke</w>
pi er</w>
oun ge</w>
ol a</w>
obser ves</w>
ne qu
n g</w>
monit or</w>
mo ld</w>
mater ials</w>
manipu late</w>
man nequ
ma in
low ering</w>
loos en</w>
lawn mowers</w>
la mp</w>
la ge</w>
la b</w>
kne ads</w>
kin i</w>
kic ker</w>
ju dges</w>
jo king</w>
jo gs</w>
jap an
j o</w>
intervie ws</w>
in al</w>
im pro
i ss
i doo</w>
hun dre
hol id
h ay</w>
gu ard</w>
groom ed</w>
gre ets</w>
gr un
gen tle</w>
gang nam</w>
flu id</w>
flo wing</w>
fel t</w>
eyel id</w>
exe cu
en clo
enclo sure</w>
ela stic</w>
du g</w>
drum sticks</w>
dig ital</w>
di m</w>
decor ate</w>
dar tboard</w>
d ings</w>
d ering</w>
cr y</w>
cou ld</w>
correc tly</w>
congreg ation</w>
circu s</w>
cho ppy</w>
che fs</w>
car e
c ash</w>
but ts</w>
bur ns</w>
bu l
br ing</w>
bott ling</w>
bi kini</w>
bene fits</w>
bene ath</w>
bat ons</w>
at trac
at er</w>
applau ding</w>
altern ating</w>
ag gre
ad vice</w>
activ ity</w>
ach ers</w>
a pers</w>
y on</w>
wa king</w>
w els</w>
vie wer</w>
vaul ts</w>
v al
under wear</w>
umb er</w>
tur ing</w>
tter ing</w>
tou ri
top less</w>
tighten s</w>
ter rain</w>
tab let</w>
suppor ted</w>
super vi
su per</w>
str aps</w>
st ick
st en
st air
st ain
spra yer</w>
spo ons</w>
snow blower</w>
snee zing</w>
sma rt</w>
sla mming</w>
sh in
seg ways</w>
se as
scr ape</w>
s m
sm ell</w>
run ners</w>
ro de</w>
ro be</w>
retri eve</w>
re sid
ram ps</w>
qui et</w>
py ram
pu ff</w>
pre ci
poli shes</w>
peel ed</w>
past e</w>
pas sion
pad lock</w>
p ounding</w>
orch ard</w>
obser ve</w>
o dd</w>
narr ation</w>
modi fied</w>
mo d
mar ks</w>
ma tes</w>
loc ated</w>
lin ks</w>
le ver</w>
laun ch</w>
lan ded</w>
kn el
k les</w>
jo h
japan ese</w>
intere sting</w>
hol der</w>
high way</w>
har ne
happe ning</w>
ger idoo</w>
g on</w>
g n
f us
ener ge
en trance</w>
dribb le</w>
dra gged</w>
diam ond</w>
de als</w>
cu s</w>
con centr
comment ating</w>
com pla
co ol</w>
cla mp</w>
chun ks</w>
ch amp
bu ff</w>
boo ks</w>
blin ks</w>
ber ries</w>
be ani
back seat</w>
assi sted</w>
ar ed</w>
answ ering</w>
ang les</w>
wheel er</w>
w ins</w>
w are
ware house</w>
us ual</w>
un lock</w>
un boxing</w>
ton gs</w>
to ssed</w>
to bac
ti st</w>
th in
t shirt</w>
t ops</w>
swa ying</w>
stran ds</w>
str ain
sten ci
stead y</w>
stac ked</w>
squir ts</w>
squee ze</w>
squee gee</w>
spee ding</w>
sp ring</w>
sp an
soc ket</w>
sho ela
shav er</w>
see ds</w>
sc ale</w>
ru p
robo tic</w>
retrie ves</w>
ra ge</w>
provid ing</w>
pin ching</w>
pers onal</w>
p ats</w>
no w</w>
new ly</w>
ne on</w>
n t</w>
mol ding</w>
mo der
mix er</w>
metal lic</w>
meas ures</w>
mata dor</w>
mar ch</w>
mannequ in</w>
ma y
ma ts</w>
lic ated</w>
lear ns</w>
le mon</w>
kno w</w>
kne el</w>
kaya ks</w>
j i
instru men
inser ted</w>
i se</w>
horiz on
ho ola</w>
he dge</w>
gl ide</w>
gi fts</w>
gar ment</w>
g ongs</w>
fo cus</w>
flu ffy</w>
fil ter</w>
fe eling</w>
f ter</w>
extin gui
equ ations</w>
elev ated</w>
disc o</w>
di str
cru mbs</w>
congrat ula
comple x</w>
comple tely</w>
comp licated</w>
com ment</w>
colle cts</w>
ch ine
carpe ting</w>
car pen
camera man</w>
calcu la
c in
box er</w>
boo t</w>
blo w
bla des</w>
bi gger</w>
beani e</w>
be tter</w>
bac on</w>
b its</w>
avo id</w>
appro ach</w>
app lic
ap ar
amus ement</w>
ai ming</w>
y ear</w>
win king</w>
whi s
wh ite
we t
wait er</w>
vie wing</w>
ur ry</w>
up set</w>
up on</w>
un usual</w>
un folds</w>
tw in</w>
trop ical</w>
tri o</w>
tri angle</w>
trav el</w>
tou ched</w>
toma to</w>
tobac co</w>
to w</w>
ti led</w>
than k</w>
tal ked</w>
swit ching</w>
spla shing</w>
sol ving</w>
sn ack</w>
shu ck</w>
sho t
shin y</w>
ser ved</w>
secur ity</w>
secur e</w>
scal ing</w>
sc rap</w>
s ongs</w>
rest ed</w>
respon ds</w>
rele asing</w>
re turning</w>
rando m</w>
rain bow</w>
produ cing</w>
pla id</w>
peop les</w>
pa ying</w>
p ounds</w>
p ine</w>
out line</w>
mu stache</w>
mou ths</w>
motor bike</w>
moder n</w>
mil ks</w>
ma inten
mainten ance</w>
m ine</w>
lo cks</w>
li e</w>
knel t</w>
j el
it self</w>
inter ior</w>
im press
id ding</w>
i mp
hy ster
holid ay</w>
ho of</w>
high lights</w>
hi lls</w>
gre ens</w>
go of
g her</w>
fre shly</w>
flo ck</w>
fla shes</w>
fig ures</w>
fi le</w>
f air
eyela sh</w>
exclai ms</w>
en tial</w>
el bows</w>
dra in</w>
dough nut</w>
don uts</w>
diffic ul
desig ned</w>
desc ending</w>
de er</w>
dan ger
custom ers</w>
cross walk</w>
cro chet</w>
cre ation</w>
cra zy</w>
com par
cli sts</w>
chiroprac tor</w>
chine se</w>
champ ag
champag ne</w>
can yon</w>
c tly</w>
bu zz
bro ws</w>
br a</w>
blind folded</w>
assemb led</w>
artic le</w>
ar ro
ad van
ad dy</w>
a e
y ach
wel ds</w>
w ren
w ent</w>
ver bal
un wrapping</w>
ul ting</w>
train s</w>
ti sh</w>
thro wer</w>
th igh</w>
te am
ta ils</w>
surpri sed</w>
sub mer
sto rage</w>
station ary</w>
st ic
split ting</w>
sma cks</w>
slo wing</w>
simu la
sil ver
show casing</w>
sett ings</w>
sen ding</w>
se ven</w>
se cu
sc ent</w>
s man</w>
s ad
ro o
ri p</w>
resid ential</w>
repe tit
repe lling</w>
re ports</w>
ra il</w>
r ushing</w>
prin ting</w>
pop sic
poc ket</w>
pit ching</w>
pi les</w>
pi lation</w>
perfe ctly</w>
passion ately</w>
p per
ough ly</w>
ou d</w>
o tic</w>
o car
ocar ina</w>
no ds</w>
no dding</w>
nip ple</w>
mi ssing</w>
mi ght</w>
mas se
lu te</w>
landsc ape</w>
l ounge</w>
l on</w>
ko i</w>
jo ke</w>
inter acting</w>
inclu des</w>
in dic
in c
hyster ically</w>
hur ls</w>
hel ped</w>
graphi c</w>
gi st</w>
g a
fla tten</w>
ff er</w>
f ou
f lin
ey ed</w>
exc erci
enthusi ast
ei ght</w>
droo ling</w>
dow ns</w>
differ ence</w>
did geridoo</w>
d ered</w>
crun ches</w>
cra shing</w>
cr ust</w>
cr ushing</w>
commun ic
com pilation</w>
com for
colle ct</w>
col lar</w>
co ck
cli ent</w>
chan nel</w>
ch ase</w>
buil dings</w>
bri ghtly</w>
blin king</w>
bi lity</w>
bi b</w>
be ers</w>
b rac
aw k
ar my</w>
apar tment</w>
ali an</w>
al ph
ado le
activ ities</w>
ac cross</w>
zo om
wo ven</w>
wi g</w>
wi fe</w>
wa sh
w in</w>
w ho
vi a</w>
ver bal</w>
v at</w>
u ally</w>
tu al</w>
trun ks</w>
trou ble</w>
tric ep</w>
tri ps</w>
too th</w>
toma toes</w>
tit le</w>
tic s</w>
the se</w>
th ered</w>
ter i
tast es</w>
t tish</w>
st ates</w>
spra yed</w>
spe ctive</w>
sor ts</w>
sni ffs</w>
smooth s</w>
sli d</w>
sle e
simultane ously</w>
sign als</w>
show cases</w>
shel f</w>
sequ ence</w>
secon ds</w>
sea weed</w>
se x
se als</w>
sco ttish</w>
scal es</w>
s son</w>
re turn</w>
re ef</w>
rab bit</w>
ra y</w>
put ts</w>
progre ss</w>
pro mo
prin t</w>
popsic le</w>
pier ces</w>
penci ls</w>
past a</w>
partic i
partici pants</w>
p raises</w>
oppon ent</w>
ner v
nam ed</w>
n ative</w>
mul tic
mo ws</w>
mo i
mma ble</w>
man e</w>
lo ve</w>
li mb</w>
le sson</w>
le ave</w>
le an</w>
laugh ter</w>
l a</w>
kno ts</w>
k lift</w>
k it
jel ly</w>
ite ment</w>
inhal ing</w>
iden ti
i s
i phone</w>
heav ily</w>
he ar
groom er</w>
golf ing</w>
gest ure</w>
g les</w>
g ent</w>
g ators</w>
for klift</w>
fla mmable</w>
f ast
exc itement</w>
en gr
eas ily</w>
e sc
dum p</w>
dum b</w>
dd ers</w>
d umb
cur led</w>
cr ate</w>
cont acts</w>
con sole</w>
comp li
com bed</w>
co lou
clo set</w>
clo sely</w>
circu it</w>
che w</w>
ch y</w>
celebr ate</w>
c l
brea thes</w>
bo o</w>
bo iling</w>
bl urry</w>
be l</w>
automo bi
assi stance</w>
arch ae
archae olo
appla use</w>
an gry</w>
an a</w>
ai ms</w>
0 0</w>
zi p</w>
white board</w>
wh ites</w>
wet suit</w>
w ings</w>
vir on
verbal ly</w>
ver sion</w>
v s</w>
utensi ls</w>
utensi l</w>
unlo ad</w>
un wraps</w>
tw en
tran sla
tr icycle</w>
til ts</w>
th ier</w>
te sts</w>
tattoo ed</w>
tan go</w>
tan ce</w>
t rol
t apes</w>
swir ls</w>
sw ung</w>
surf boards</w>
sun g</w>
stick y</w>
st in
ssi vely</w>
spo tted</w>
spin ners</w>
so lu
sle eve</w>
skill fully</w>
skate boarder</w>
sk ele
sit u
silver ware</w>
si zes</w>
shri mp</w>
sh out</w>
se ws</w>
scr aper</w>
scal p</w>
s pil
s lows</w>
ro se</w>
ri ses</w>
re semb
r appe
prote ct</w>
prop ped</w>
prin ted</w>
pow dered</w>
pol ice
police man</w>
plan ks</w>
pe pper</w>
parachu tes</w>
p tion</w>
p ly</w>
or an
oran ges</w>
neck tie</w>
multic olo
mon ster</w>
mon key</w>
mit t</w>
mar ked</w>
mar k</w>
mar ches</w>
ma te</w>
low ered</w>
la mb</w>
la bel</w>
jo ined</w>
jo in
jet ski</w>
j am
inter pre
inspec ts</w>
inspec ting</w>
im por
illu strating</w>
hur ling</w>
hun t</w>
horizon tal</w>
hi king</w>
hi gher</w>
hand led</w>
h airs</w>
gro oms</w>
gr acefully</w>
gath ers</w>
gar den
g an
fur ry</w>
fru str
fr am
fli ght</w>
flatten ing</w>
flash lights</w>
fish erman</w>
fire men</w>
fire fighter</w>
feat uring</w>
fam ous</w>
f ar
express ions</w>
exhibit ion</w>
execu tes</w>
exam ine</w>
ex plan
equ ation</w>
en viron
el der</w>
ef fort</w>
dun king</w>
du tch</w>
do t</w>
discus sion</w>
difficul ty</w>
diffic ult</w>
deli very</w>
cushi on</w>
cu c
crou ching</w>
cred it</w>
cop ies</w>
conven tion</w>
comple ted</w>
competit or</w>
co ol
co ke</w>
chi ef</w>
cer am
cast les</w>
c tors</w>
c lin
bun k</w>
bum p</w>
bu y</w>
broad cast</w>
bra ke</w>
beat boxing</w>
be comes</w>
ball on</w>
bab bles</w>
ba ke</w>
b am
bam boo</w>
automobi le</w>
automa ted</w>
attrac tive</w>
at v</w>
ast ing</w>
assi st</w>
assemb les</w>
ar gue</w>
applic ation</w>
app er</w>
ani me</w>
an chor
alph ab
adole scent</w>
acrobat ics</w>
z umb
zumb a</w>
wren ches</w>
wic ker</w>
web site</w>
war ming</w>
vi su
ver tical</w>
ve sts</w>
vaul ter</w>
v il
v ar
tu bes</w>
tr ap</w>
touri sts</w>
ti mer</w>
ti ll</w>
ti ger</w>
th or
te sti
ta un
swe et</w>
stro be</w>
straighten er</w>
stom ps</w>
stir red</w>
st am
st air</w>
spo rt
solu tion</w>
sof tly</w>
sn at
sma sh</w>
sma rt
sla pped</w>
sl ide
slide show</w>
skele ton</w>
si ps</w>
sho ves</w>
se per
sculp ting</w>
scor ing</w>
sand castle</w>
sa id</w>
ro wing</w>
ri bs</w>
rele ased</w>
re gar
qu ality</w>
pyram id</w>
pu tter</w>
proble ms</w>
pr o</w>
possi ble</w>
po st
plan ted</w>
pier ce</w>
pack aging</w>
ov al</w>
on ion</w>
ne y</w>
mus cles</w>
moon walks</w>
mo thers</w>
mic s</w>
mi ke</w>
me ch
masse use</w>
marsh mel
m o</w>
m id</w>
loo ked</w>
lo cked</w>
li me</w>
lea p</w>
le ttering</w>
le cture</w>
le aping</w>
jac kets</w>
in spe
in j
ig n
id ent</w>
hand made</w>
grin ds</w>
ger man</w>
gam ing</w>
g ling</w>
fu zzy</w>
finger nail</w>
fair ly</w>
f tly</w>
f aster</w>
f a
ex cess</w>
enthusiast ically</w>
ele ss</w>
ele le</w>
effe cts</w>
e th
dum my</w>
dr ical</w>
di ed</w>
deter mine</w>
deta iled</w>
d less</w>
cylin drical</w>
cu p
cou gh
coo s</w>
conta ins</w>
conta in
cont rolled</w>
con es</w>
compe tes</w>
com pac
col i</w>
clo ths</w>
climb ed</w>
cin der</w>
chisel ing</w>
ceram ic</w>
celebr ates</w>
cam ping</w>
c coli</w>
c ape</w>
bum ps</w>
bro ccoli</w>
br ide</w>
black smith</w>
bla sting</w>
bb q</w>
batter y</w>
bar bells</w>
bab bling</w>
at ional</w>
assi sts</w>
as p
ar i</w>
answ ers</w>
aggre ssively</w>
adju sted</w>
accordi an</w>
accep ting</w>
ac hi
1 9
y tail</w>
water fall</w>
wa i
w on</w>
w on
vacuum s</w>
v aping</w>
uni formed</w>
uk elele</w>
u re
twi sted</w>
tw in
tri p</w>
trac ks</w>
tr a</w>
tou ch
tic ian</w>
the me</w>
th ma</w>
ten ding</w>
tem per
teen aged</w>
te o
teo ro
teoro lo
teorolo gist</w>
te ddy</w>
swal low</w>
sum mer
stu ri
stro king</w>
str inging</w>
stair case</w>
st ate</w>
st are</w>
st ap
squ at
spe ar</w>
spar ring</w>
snee ze</w>
sle ev
ski ier</w>
shu t</w>
sho re
shore line</w>
shi eld</w>
sha do
se ssion</w>
se m
sem i</w>
scrat ching</w>
s ou
ro ses</w>
rin se</w>
ri f
regar ding</w>
recei ver</w>
re els</w>
rac quet</w>
rac kets</w>
r ind</w>
r att
prun e</w>
profess ion
pre form</w>
power ful</w>
por k</w>
pon ytail</w>
plun ger</w>
phys ical</w>
peri od</w>
ped als</w>
pe tted</w>
patter ns</w>
part ners</w>
pain ter</w>
pac ed</w>
p ly
o t
o ls</w>
navig ate</w>
nat ural</w>
n ature</w>
moun ts</w>
moun ta
moun t</w>
moi sturi
mil ling</w>
me teorologist</w>
marac a</w>
mail box</w>
ma y</w>
m ur
m ex
lun ch</w>
lu gg
lugg age</w>
lo we
lass os</w>
la cing</w>
k er
joh n</w>
jerse ys</w>
inten tly</w>
hi ves</w>
hair dresser</w>
h am</w>
gu ided</w>
grav el</w>
grap h</w>
gr an
gen er
ge l</w>
furn ace</w>
fur ther</w>
free zer</w>
foc uses</w>
foc used</w>
fli ppers</w>
fire man</w>
fir es</w>
fe els</w>
f ying</w>
f itting</w>
exten sion</w>
explo re</w>
expla ing</w>
exhal es</w>
ex posed</w>
ex otic</w>
environ ment</w>
energe tic</w>
ener gy</w>
en ough</w>
en e
en der</w>
emp ties</w>
dra wers</w>
deter gent</w>
decor ates</w>
dec ide</w>
de vices</w>
de par
de e
d ging</w>
cu t
crow ds</w>
crou ched</w>
cro wn</w>
cor ners</w>
contain ers</w>
condu cting</w>
con te
co al</w>
clu bs</w>
clou ds</w>
climb ers</w>
cla ms</w>
chu bby</w>
ch er
cel ery</w>
carri age</w>
cap sized</w>
cap o
calcula tor</w>
by stan
brea st
ble w</w>
barri er</w>
bab ly</w>
ba ker</w>
b lu
b ind</w>
b idding</w>
b er</w>
b att
av or
as thma</w>
argu ment</w>
appro aching</w>
ang led</w>
alphab et</w>
al oud</w>
air port</w>
af ter
adjust ment</w>
ad mir
ad dresses</w>
acro bat</w>
ac tually</w>
youn g
yach t</w>
wr ong</w>
weight lifting</w>
we ath
w hose</w>
visu al</w>
video ing</w>
v el
ty ping</w>
ty e</w>
tric eps</w>
tre ss</w>
train ed</w>
tor n</w>
to wels</w>
tight ly</w>
tick le</w>
thin ks</w>
the ma
th ou
tal ent</w>
tack ling</w>
tack led</w>
ta ped</w>
t les</w>
swir ling</w>
swim suit</w>
sw an</w>
super market</w>
sup ports</w>
suc ker</w>
stru ggle</w>
str ad
sto ck</w>
st ering</w>
st able</w>
squat ted</w>
spo tting</w>
spec t
sp ar</w>
so a
sn acks</w>
smart phone</w>
sla ck</w>
sk it</w>
sit y</w>
si ons</w>
shu ts</w>
shot put</w>
sho wed</w>
shampo o
sear ch</w>
se am</w>
scar ed</w>
scallo p</w>
sail boats</w>
s ways</w>
s sel</w>
s at
ru s</w>
ru les</w>
ro man
repe ated</w>
re sort</w>
re si
re hear
rac ers</w>
pro mp
pro bably</w>
ply wood</w>
pla in</w>
pedestri an</w>
pe ar
passeng ers</w>
par ing</w>
paint brush</w>
p ound</w>
over looking</w>
oun ded</w>
ou fla
organi zing</w>
no thing</w>
ni val</w>
ni ke</w>
navig ating</w>
mod els</w>
mic ally</w>
meas ure
maneu vering</w>
man ic
ma thema
m med</w>
m ingly</w>
lun ge</w>
loc ation</w>
lo ck
lev els</w>
less ons</w>
la shes</w>
la s</w>
l ink</w>
kni f
knif es</w>
kne ad</w>
kn it
ju red</w>
ju dge</w>
ja w</w>
it ish</w>
introdu cing</w>
instrumen tal</w>
instruc tors</w>
in jured</w>
in ets</w>
i vely</w>
hoo ks</w>
h es</w>
gu n
grou t</w>
goo d
gest uring</w>
g as
g ad
foo t
fol k</w>
flu tes</w>
flin t</w>
flexi bility</w>
fe ather</w>
fac ts</w>
f er</w>
explo r
explan ation</w>
excav ation</w>
ex tra</w>
er ase</w>
e ag
du cks</w>
di vid
di p</w>
di ly</w>
depar tment</w>
dead lift</w>
d addy</w>
cu dd
cti vely</w>
coun ter
cor ds</w>
cont rolling</w>
conne ct</w>
compon ent</w>
com man
col um
co p</w>
co ck</w>
co ating</w>
co ached</w>
chu te</w>
car nival</w>
can n
cam oufla
c s</w>
bu ffing</w>
bri ef</w>
breast stroke</w>
bra kes</w>
bow tie</w>
boo gie</w>
blan k</w>
be i
bas in</w>
b ids</w>
au to</w>
appar ently</w>
an y
an them</w>
alli gators</w>
alcoho lic</w>
ai m</w>
ac tor</w>
a ff
2 0
z a</w>
wood working</w>
wood wind</w>
win ning</w>
w av
vir tual</w>
ve ssel</w>
ve g
uti li
up coming</w>
un screwing</w>
un ited</w>
umb les</w>
twin kle</w>
tt le
tru m</w>
trol ley</w>
trim mers</w>
tre at
tr ys</w>
tr avel
tion ist</w>
thr ough
thor oughly</w>
the ater</w>
than king</w>
ter n</w>
ter ing</w>
temper ature</w>
te x</w>
te thered</w>
te asing</w>
tan trum</w>
table top</w>
t u</w>
symbo ls</w>
swi ftly</w>
stuff s</w>
stor ical</w>
stan tly</w>
stain less</w>
st al
st ain</w>
sprink ling</w>
spir al</w>
spin dle</w>
spi kes</w>
spar ks</w>
so o
so lid</w>
sn a
ske tching</w>
sid el
si ft</w>
she ar</w>
shado w</w>
separ ates</w>
sel ec
seg ment</w>
see mingly</w>
sciss or</w>
sci en
scar y</w>
sc af
san ds</w>
sa i
sa fe</w>
s ounding</w>
s m</w>
roman tic</w>
roller skating</w>
ri pped</w>
ri d</w>
rhyth mically</w>
reve als</w>
re view</w>
re ly</w>
re d
re acts</w>
rat tle</w>
r ics</w>
positi oned</w>
pop corn</w>
pol ka</w>
po ts</w>
plu cks</w>
pi ani
piani st</w>
pen ed</w>
patter ned</w>
pati ently</w>
pal ms</w>
pa uses</w>
p lows</w>
p l
p ath
p at</w>
out er</w>
oper ated</w>
oc cu
o o</w>
ne ver</w>
ne ts</w>
n ic
mus cle</w>
multicolo red</w>
mi mics</w>
medi ately</w>
mech ani
mat ches</w>
man ages</w>
ma in</w>
m ural</w>
lowe en</w>
lo cking</w>
lo ad
lit ies</w>
lea shes</w>
lay ers</w>
lar s</w>
la tex</w>
l on
ke l</w>
jun gle</w>
joy stick</w>
joy fully</w>
ir a</w>
in iti
imit ates</w>
im mediately</w>
ill umin
i zed</w>
i li
hum ming</w>
hot dogs</w>
hon ey
ho e</w>
hi storical</w>
he aring</w>
he ading</w>
gymnast s</w>
gu es</w>
gre eting</w>
gr ape</w>
gr ad
go ers</w>
gau ge</w>
gad get</w>
g low</w>
g inal</w>
g en</w>
fru its</w>
foo ds</w>
foc using</w>
floo ded</w>
feat ure</w>
f au
extingui sher</w>
exten ding</w>
eth nic</w>
employ ee</w>
effe ct</w>
ear th</w>
e ver</w>
du st
drum stick</w>
dri vers</w>
di pped</w>
descri ption</w>
deli ght</w>
de tail</w>
da y
cur tain</w>
cro che
costum ed</w>
cor dless</w>
cool er</w>
consi sting</w>
con stantly</w>
comp ound</w>
com e
cla d</w>
cir cling</w>
cho pped</w>
chil ds</w>
chal len
can non</w>
bur sts</w>
bur p</w>
bur ner</w>
bun dled</w>
bu zz</w>
bu tting</w>
bro ke</w>
brac elet</w>
br itish</w>
bob sledding</w>
blind fold</w>
ble achers</w>
bla sts</w>
bei ge</w>
bat man</w>
band ages</w>
back flips</w>
b one</w>
ath ers</w>
at us</w>
arti stic</w>
archaeolo gical</w>
applau d</w>
ap ist</w>
an vil</w>
ama zing</w>
al ot</w>
ain s</w>
a wards</w>
2 0</w>
zo om</w>
z ers</w>
z ation</w>
y or
xy gen</w>
whe eling</w>
wav y</w>
w ls</w>
video taping</w>
vi br
ver sity</w>
ve lo
under way</w>
un screw</w>
um p
ump ire</w>
u ne
ty re</w>
ty ard</w>
twen ty</w>
tumb le</w>
treat ment</w>
tran smi
transmi ssion</w>
touch down</w>
tor ti
torti lla</w>
to bo
tobo gg
to asting</w>
to ast</w>
through out</w>
ther apist</w>
than ks</w>
th y</w>
ter ed</w>
team mates</w>
ta pe
tape stry</w>
summer sa
su s</w>
stic ker</w>
stenci l</w>
stan ts</w>
stan d
st on</w>
st ating</w>
squir ms</w>
sp ices</w>
sp here</w>
sol dering</w>
snow boarders</w>
sl and</w>
skin ny</w>
si pping</w>
si e</w>
shu cking</w>
shoela ces</w>
sho ving</w>
sho ps</w>
shel ls</w>
secu red</w>
sear ches</w>
sea son</w>
scrat ch</w>
s me
s ends</w>
s ab
rubi ks</w>
rout ines</w>
rol lers</w>
ro ad
ri ed</w>
resi stance</w>
refer ees</w>
rec y
rec lining</w>
rea dies</w>
re pairs</w>
rat chet</w>
ra m</w>
r av
pur pose</w>
pul l
pri or</w>
pre pping</w>
pre gn
pregn ant</w>
poli shed</w>
po sts</w>
pla za</w>
pla ting</w>
pe ers</w>
pac ket</w>
p lies</w>
out field</w>
oper ator</w>
op in
o xygen</w>
nerv ous</w>
nam es</w>
n al</w>
mor ning</w>
mol ten</w>
mid st</w>
mex ican</w>
meas ured</w>
me dit
me an</w>
mathema tical</w>
mar y</w>
mag ni
le ast</w>
la zer</w>
l ly</w>
knit ted</w>
kit ty</w>
ji g</w>
ir ing</w>
invol ved</w>
initi ally</w>
i sland</w>
i lities</w>
hundre ds</w>
hum ming
hu gged</w>
hou ses</w>
honey comb</w>
ho g</w>
hi dd
hidd en</w>
helme ted</w>
hel lo</w>
he al
harne ssed</w>
hal loween</w>
h it
guit ari
gu e
gril led</w>
good bye</w>
gi es</w>
gen cy</w>
g ave</w>
g ates</w>
g al
fu el</w>
for wards</w>
fo rested</w>
fl ings</w>
fit ted</w>
fi ves</w>
fen cers</w>
fe el</w>
fau c
fauc et</w>
f low</w>
extre me</w>
exper tly</w>
excerci se</w>
exam ple</w>
er t</w>
er ie</w>
er a</w>
enter taining</w>
emer gency</w>
embroid ering</w>
emb race</w>
elev ator</w>
e mo
e ira</w>
e ding</w>
du e</w>
docum ent</w>
direc ted</w>
di an</w>
desc end</w>
demo str
decor ation</w>
de pic
dd ed</w>
cylin der</w>
curren tly</w>
crow d
cour tyard</w>
cou rt
cop ying</w>
coo ing</w>
contor tionist</w>
continu ally</w>
conte stants</w>
condu cts</w>
concentr ating</w>
con ce
compla ins</w>
comment ates</w>
col lage</w>
co als</w>
co aching</w>
cli ffs</w>
cla mps</w>
cho o
che sted</w>
che ck
capo eira</w>
cano eing</w>
camoufla ge</w>
cab inets</w>
c led</w>
bystan ders</w>
bur st</w>
bum ping</w>
bu m</w>
bu g</w>
bro w</w>
bo dies</w>
blo wers</w>
bl end</w>
be ad</w>
bas ed</w>
bar ely</w>
ban ner</w>
bag ging</w>
b ru
b loo
audi o</w>
au str
appli ance</w>
applau ded</w>
appar atus</w>
answ er</w>
announ cing</w>
an kles</w>
an k</w>
am y</w>
altern ates</w>
ali g
al ls</w>
al lowing</w>
al le
al bum</w>
aer ial</w>
ab s</w>
a b</w>
yor k</w>
y et</w>
y ears</w>
wrest les</w>
wi se</w>
wheel ie</w>
whe ther</w>
whe ad</w>
weath erman</w>
we ap
water slide</w>
war dly</w>
w l</w>
val ve</w>
us k</w>
under side</w>
un to</w>
um p</w>
twe e
tu tu</w>
trop h
troph y</w>
travel ling</w>
trampo lines</w>
tor so</w>
tobogg an</w>
ti v
ti red</w>
the med</w>
th on</w>
th ed</w>
teri a</w>
temp er</w>
te ch</w>
t our</w>
sudd en</w>
suc ce
submer ged</w>
strain er</w>
stea dily</w>
ste ers</w>
ste als</w>
sta ys</w>
st e</w>
squ i
spo tter</w>
spo on
sp id
spid erman</w>
some where</w>
som one</w>
so on</w>
snor kel</w>
smooth ly</w>
ski i
sk ed</w>
sin king</w>
si zz
shu ttle
sho cked</w>
she er</w>
sh ades</w>
ser ious</w>
separ ated</w>
se t
se ating</w>
sa le</w>
s oun
s end</w>
s ari</w>
ru ler</w>
ro bes</w>
ro ads</w>
rid ding</w>
rema ins</w>
rema ining</w>
rece ip
receip t</w>
re placing</w>
re f</w>
r aps</w>
quar ter</w>
prote ction</w>
proce ed</w>
pres enter</w>
pou ch</w>
polit ical</w>
po e
pla stering</w>
pla cement</w>
pi es</w>
pers on
per spective</w>
pe bb
path way</w>
particip ates</w>
par ro
p raise</w>
p ra
over weight</w>
or n
oc cur
noo dle</w>
n d</w>
mul a</w>
mu les</w>
moon walking</w>
mo w</w>
mit ten</w>
mi ss</w>
mess aging</w>
mess ages</w>
mechani sm</w>
me tho
me dium</w>
mass ive</w>
marin a</w>
mari o</w>
manu ally</w>
ma l</w>
ma che
m ping</w>
m ops</w>
lo ves</w>
lo gy</w>
lev eling</w>
le ene
leene x</w>
la bel
l ery</w>
kno w
kar ts</w>
k leenex</w>
k id
jo int</w>
je an</w>
j our
j ing
jing le</w>
j am</w>
iss ues</w>
introdu ce</w>
inspe ct</w>
indic ates</w>
in v
in sides</w>
in forma
in as</w>
impress ive</w>
igh s</w>
ic op
hy dr
hus band</w>
hun g</w>
hi de</w>
hel icop
head banging</w>
he y</w>
he sit
he el</w>
hand le
hand ker
ha w
gy r
gro wing</w>
grand ma</w>
grab bed</w>
glo ss</w>
gla ss
gir aff
ge st</w>
gau ze</w>
gar ni
gar b</w>
g ain</w>
fun ctions</w>
frustr ated</w>
free style</w>
fr an
foun tain</w>
for mula</w>
for mer</w>
fla ps</w>
fid dling</w>
fid dles</w>
fi f
fi elder</w>
ex trac
er ly</w>
engr aving</w>
eng ages</w>
en ted</w>
en ing</w>
emp tying</w>
el ed</w>
ear ring</w>
e du
du ty</w>
dro ve</w>
dou bles</w>
dol ph
do jo</w>
do g
disc s</w>
direc t</w>
di stor
di spo
dead lifts</w>
danger ous</w>
d ged</w>
d ash</w>
cy cling</w>
cushi oned</w>
cur ve</w>
cur b</w>
cru ise</w>
croche ting</w>
cre ated</w>
cran k</w>
cra f
cow boys</w>
cov er
court room</w>
counter top</w>
cos me
conver sing</w>
conver se</w>
constru cting</w>
constru ct</w>
com b
cli pper</w>
chee se
char coal</w>
chain s</w>
ch ased</w>
celebr ation</w>
cann ons</w>
cali graphy</w>
c tures</w>
bur gers</w>
bu lls</w>
bro w
bro ad</w>
brea sts</w>
bra ided</w>
bob sle
bo r</w>
bo mbs</w>
blan kets</w>
bla ster</w>
bla ding</w>
bi kers</w>
ber ry</w>
bee keepers</w>
bee hive</w>
barbe que</w>
ban quet</w>
ban jo</w>
baller inas</w>
back ed</w>
b races</w>
awk wardly</w>
at i
arti facts</w>
arro whead</w>
ar che
anchor s</w>
an no
al ed</w>
air y</w>
af f</w>
acti ve</w>
acro bats</w>
acc ident</w>
ac ted</w>
ac compan
ab ilities</w>
zoom ed</w>
z ens</w>
y an
x e
wrest ler</w>
wrest ing</w>
wor n</w>
wo ol
wo m
wind surfer</w>
win ner</w>
whi pping</w>
wh ale</w>
weight lifter</w>
wa ste</w>
w rin
w re
w ound</w>
w o</w>
w id
w an
w ades</w>
w ad
vo cali
var ying</w>
vac cu
up wards</w>
up ward</w>
uni versity</w>
un cooked</w>
un able</w>
umb ling</w>
um my</w>
um e</w>
tu xe
tu gs</w>
tu bs</w>
trans action</w>
tra it</w>
to en
ti p
ti med</w>
ti eing</w>
th ink</w>
ten sion</w>
tech no
te t</w>
te dly</w>
te ases</w>
t light</w>
swe e
sw ad
suppor ting</w>
sup plies</w>
su bur
subur ban</w>
ste er</w>
ste aming</w>
star s</w>
spo tlight</w>
spir ited</w>
spi ky</w>
span ic</w>
some what</w>
some times</w>
soldi er</w>
so les</w>
snat ches</w>
slee py</w>
sky dive</w>
skil led</w>
ski i</w>
sizz ling</w>
sidel ines</w>
si mp
si bling</w>
sh re
sex y</w>
seas oning</w>
se ats</w>
sc roll</w>
sandwic hes</w>
sam sung</w>
sad dle</w>
s pool</w>
s ad</w>
s able</w>
ru mma
robo ts</w>
ro tiss
ro ped</w>
ri sing</w>
rela xes</w>
rectan gle</w>
re views</w>
re scu
re in
re gular</w>
ratt les</w>
rap ids</w>
que ts</w>
pul lu
pullu ps</w>
pu ffs</w>
profession ally</w>
produ ction</w>
produ ces</w>
positi oning</w>
por trait</w>
po tters</w>
plan er</w>
pin ch</w>
photo graph
per f
pen ny</w>
pe as</w>
par lor</w>
pal let</w>
pa w</w>
p ir
ou ts</w>
orn ate</w>
organi zed</w>
or m
orm ous</w>
onloo ker</w>
ong st</w>
one sie</w>
on y</w>
on line</w>
om elet</w>
o be
ni ght
nee ded</w>
ne tte</w>
ne cks</w>
nav el</w>
n ine</w>
n a</w>
mus t</w>
mom my</w>
mom ent</w>
mol ds</w>
mo ck</w>
mit ts</w>
mi m
mer ized</w>
me s
me mo
may be</w>
manu fac
ma ster</w>
ma ra
ma d</w>
lo st</w>
liqu ids</w>
lean ed</w>
lead er</w>
le gum</w>
le g
lap sed</w>
lan tern</w>
l umber</w>
l led</w>
l ids</w>
l f</w>
ki a</w>
ke tball</w>
ke pt</w>
k itten</w>
jo y</w>
jer k</w>
iss ue</w>
inter rup
incre di
impor tance</w>
illustr ation</w>
hur ts</w>
hundre d</w>
humming bird</w>
hot dog</w>
hor ns</w>
hoo ded</w>
hol low</w>
hit ter</w>
hi story</w>
hi sto
hi spanic</w>
he dges</w>
handker chief</w>
hand ful</w>
hal t</w>
hal f
guitari st</w>
gre et</w>
grand mother</w>
gr id</w>
gr ain</w>
gir l
garden ing</w>
fou l</w>
fore ground</w>
fore arm</w>
flo ps</w>
fle xing</w>
flatten s</w>
fi xed</w>
fi es</w>
fel ting</w>
fel low</w>
fee der</w>
f on
f lan
f air</w>
express ion</w>
exhal ing</w>
even ing</w>
ev ents</w>
er n</w>
equip ped</w>
enter tain</w>
en ormous</w>
employ ees</w>
ear phones</w>
e s
e at
dy es</w>
dri ps</w>
dr y
dough nuts</w>
dol ls</w>
dispen ses</w>
dic ing</w>
di gger</w>
di ag
destro y</w>
deli ver</w>
de ss
de sk
de s
de p
de al
dan gling</w>
d airy</w>
cy clists</w>
cur sive</w>
cur lers</w>
cuc umber</w>
cru mb
cr ush</w>
coun t
cos play</w>
conne cting</w>
con tem
comman ds</w>
com press
colle cted</w>
col l
cock tail</w>
co ast</w>
clo wn</w>
clo thed</w>
clean ser</w>
ci gar</w>
chisel s</w>
chiroprac tic</w>
childre ns</w>
cheerlead er</w>
char ging</w>
cel er
c loud</w>
c licking</w>
c asi
bun dle</w>
bubb legum</w>
bott led</w>
bo bs</w>
bel ches</w>
beau tician</w>
be ds</w>
bas ic</w>
bar k</w>
balan ced</w>
bal o
ba y</w>
ba it</w>
b read
b ones</w>
b lou
avo iding</w>
att ac
at tem
arche olo
applau ds</w>
appe aring</w>
an ing</w>
am ongst</w>
al lows</w>
ag er</w>
adverti ses</w>
ad ven
accompan ying</w>
accep ts</w>
ac celer
1 00</w>
´ s</w>
z one</w>
z ily</w>
x box</w>
wr apper</w>
whi r
water mel
w aved</w>
viol in
viol ently</w>
vil lage</w>
vibr ating</w>
v ine</w>
v in
v ic
v ent</w>
ush ed</w>
un it</w>
tun nel</w>
tun es</w>
tter ed</w>
tri bu
trans parent</w>
tr ous
trous ers</w>
tooth paste</w>
tiss ues</w>
ti que</w>
ther board</w>
th ighs</w>
tex tile</w>
testi mony</w>
techno logy</w>
tattoo ing</w>
tar y</w>
symbo l</w>
stan ces</w>
st ages</w>
st aff</w>
spo kes</w>
speci f
spe ed
snow plow</w>
sno wing</w>
sna kes</w>
sma cking</w>
slo pes</w>
slic er</w>
sit ups</w>
sing ers</w>
sil ent</w>
sid ed</w>
shuttle cock</w>
sh ined</w>
sh are</w>
separ ately</w>
sea food</w>
scan ner</w>
sc at
sax ap
sau te
sam ple</w>
s ons</w>
s ol</w>
s lot</w>
s light</w>
s king</w>
s ack</w>
rup tly</w>
run way</w>
rub ic</w>
rotiss erie</w>
ro of
ro ds</w>
rid den</w>
ri se</w>
repe ats</w>
rehear sing</w>
reen acting</w>
re l</w>
re g
re as
rac ketball</w>
ra quetball</w>
ra kes</w>
ra il
push up</w>
prep ped</w>
preci se</w>
pop ped</w>
po or</w>
plu gged</w>
plu cking</w>
pla n</w>
pe ppers</w>
pe acefully</w>
pe ace</w>
pat r
paragl ider</w>
par a
pad ding</w>
