[p] 243760
a 232779
the 53507
and 52678
is 52298
in 42565
of 36572
to 36211
man 35233
on 34667
with 21314
person 16792
are 16758
while 16732
woman 16206
, 15986
an 12314
his 11999
people 11718
young 10859
two 10014
at 9627
as 9257
boy 9157
her 8833
then 8825
girl 8458
playing 8229
group 7492
how 7385
it 7052
up 6584
into 6200
using 6084
down 5944
by 5046
he 4961
another 4909
sitting 4848
little 4720
some 4683
someone 4619
from 4612
their 4606
one 4463
out 4386
around 4350
men 4270
baby 4235
large 3924
that 3812
doing 3572
music 3569
off 3361
front 3352
ball 3350
over 3337
small 3312
holding 3285
standing 3217
for 3204
's 3197
other 3187
child 3065
they 2973
plays 2937
back 2934
showing 2847
she 2757
being 2670
talking 2665
water 2606
uses 2550
piece 2537
about 2511
wearing 2461
guy 2396
through 2329
room 2326
outside 2319
dance 2246
dancing 2244
riding 2221
table 2220
hair 2207
shown 2165
hands 2152
play 2151
hand 2088
several 2076
them 2059
floor 2027
women 2022
game 2003
- 1887
demonstrating 1871
does 1863
girls 1844
demonstrates 1799
each 1798
trying 1769
making 1755
white 1742
snow 1678
together 1602
kids 1599
inside 1595
shows 1580
sits 1577
make 1553
something 1528
machine 1522
three 1521
before 1518
field 1509
walking 1507
do 1506
stands 1503
kid 1476
very 1474
has 1458
children 1449
boys 1448
dog 1443
him 1439
throws 1439
holds 1438
lady 1431
across 1423
gym 1415
head 1397
onto 1396
different 1372
black 1371
camera 1354
stage 1342
ice 1337
runs 1333
top 1313
shirt 1293
jumps 1282
talks 1281
chair 1268
long 1264
car 1263
red 1261
who 1253
walks 1250
getting 1209
putting 1207
paper 1202
crowd 1195
toddler 1192
throwing 1184
side 1174
was 1172
board 1137
use 1121
performing 1121
behind 1120
puts 1103
running 1101
couple 1099
food 1090
laying 1076
jumping 1075
others 1071
having 1071
high 1070
swimming 1065
looking 1062
put 1059
eating 1059
blue 1046
wood 1040
face 1024
rope 1021
pool 1021
jump 1021
what 979
makes 966
takes 962
next 961
be 959
gets 947
watching 940
looks 932
video 928
falls 916
there 915
fire 909
cut 907
moving 904
tries 902
working 900
male 899
practicing 895
open 892
basketball 891
tree 889
wall 885
seen 879
moves 868
metal 866
bottle 862
rides 857
ground 847
kitchen 841
wooden 831
all 830
stand 829
hits 824
soccer 821
tool 820
explaining 815
song 810
football 809
like 806
giving 806
cutting 801
get 787
when 787
going 777
along 776
starts 774
its 769
air 768
boat 768
horse 766
bike 765
tie 762
street 757
rock 754
or 752
knife 746
can 739
golf 737
guitar 732
bed 725
green 724
track 720
toy 717
begins 713
hitting 710
but 699
baseball 698
female 689
set 689
blowing 686
mouth 683
adult 681
laughing 676
slowly 667
during 667
where 662
electric 659
picks 658
taking 657
explains 654
turns 654
places 654
feet 651
singing 645
performs 638
sit 632
against 632
speaking 631
" 629
blows 626
various 619
after 617
meat 617
glass 615
kicks 613
which 610
dark 607
climbing 605
show 604
line 603
watch 602
seated 602
walk 598
driving 593
team 589
object 584
pan 583
balls 583
exercise 583
few 582
living 577
dressed 575
under 575
older 574
way 573
fast 571
band 570
body 569
plastic 565
leg 564
house 564
perform 563
clean 559
pushing 558
towards 554
guys 554
have 553
speaks 551
work 551
pieces 551
arms 550
building 548
arm 547
dances 542
t 539
near 538
bar 536
hit 535
re@@ 533
tire 530
fish 530
paint 527
instrument 525
gives 523
four 522
time 521
dirt 520
lifts 520
pushes 519
fishing 519
legs 519
pulls 517
hill 516
middle 516
big 513
ride 513
throw 512
beer 511
flips 510
heavy 510
yellow 506
lifting 505
pair 505
blow 505
brush 505
attempts 501
goes 500
player 497
washing 495
lying 491
both 488
cleaning 488
sand 487
stick 486
balloon 486
type 485
snowy 484
look 484
phone 484
go 483
weight 483
cards 483
pole 480
bowl 479
cooking 477
outdoor 473
tennis 473
skiing 473
many 470
fingers 467
hat 466
wheel 464
teams 463
weights 463
applying 461
routine 459
indoor 458
away 456
kicking 455
box 452
area 450
bunch 449
himself 448
bag 448
beach 444
players 441
forth 440
glasses 437
take 431
foot 431
couch 429
between 428
grass 427
pink 427
hockey 427
outdoors 426
pulling 425
road 423
mother 420
audience 418
end 417
opens 416
court 415
skating 414
full 413
multiple 413
attempting 412
orange 411
watches 411
move 410
cuts 410
attached 409
teenage 409
background 404
dough 404
slow 403
properly 402
cat 401
e@@ 397
run 394
ed 394
adults 393
push 392
covered 391
place 391
eye 391
preparing 390
practice 390
shot 390
bicycle 387
es 383
rolling 382
truck 382
describing 381
old 381
door 380
talk 379
sticks 379
wine 379
painting 377
same 375
right 372
egg 372
musical 371
ski 371
eyes 369
lays 369
ocean 368
yard 367
held 366
ers 366
spinning 366
quickly 365
spins 365
laughs 364
swings 364
piano 364
ing 363
park 363
ready 362
light 360
not 358
bull 358
close 357
appears 357
s 356
describes 356
sewing 356
start 354
placing 354
pull 353
race 352
card 351
christmas 351
works 350
swinging 350
screen 349
apple 349
says 347
s@@ 345
lot 344
above 343
demonstration 343
swing 342
hold 340
listening 339
brushing 339
diving 338
climbs 337
ts 337
tricks 337
in@@ 336
opening 336
vehicle 336
shoe 334
flip 333
comes 333
were 332
forward 332
neck 332
dogs 332
saw 332
recording 331
p@@ 327
clothes 327
hot 327
eats 327
microphone 326
hole 326
instructions 325
hanging 324
string 324
applies 324
practices 323
ups 323
waves 323
first 323
folding 319
drum 319
spray 319
pipe 319
device 318
used 316
slide 315
motion 315
kick 315
un@@ 314
this 314
drinking 314
cheering 314
makeup 314
proper 313
hammer 313
loud 312
prepares 311
o@@ 311
news 311
sled 309
t@@ 307
fight 305
remove 302
help 302
c@@ 302
cheer 302
studio 302
catches 302
pick 302
try 301
gloves 301
fold 301
gas 301
belly 300
wax 300
mountain 299
made 299
individual 299
part 298
g@@ 298
lake 298
carpet 298
shoes 298
juggling 297
setting 296
plate 296
drums 295
picking 295
you 295
school 294
eggs 294
cake 294
clapping 291
book 291
cap 291
tractor 290
steps 289
bow 289
exercises 289
cream 288
mat 288
cloth 287
la@@ 284
y 284
sing 283
sheet 282
backwards 281
ring 280
so 280
ping 278
family 278
lights 277
feeding 277
finger 277
ropes 276
picture 276
a@@ 275
climb 274
left 274
shaking 274
lawn 274
kind 273
suit 273
thread 273
competition 273
basket 273
needle 272
beat 272
d@@ 272
apply 272
shaving 272
friends 271
cup 271
circle 270
wind 270
concrete 268
wrestling 267
friend 267
eat 267
drops 266
new 265
instruments 265
mom 265
gear 264
drives 264
pencil 264
power 261
break 261
bench 261
drill 261
nose 259
language 259
tutorial 259
drink 259
bowling 259
curling 259
foreign 258
teaching 258
create 258
trampoline 258
r@@ 257
dress 257
voice 257
event 257
without 255
tools 255
fun 255
bathroom 255
drawing 255
sink 255
edge 254
turning 254
leaves 254
er 253
massage 253
lift 253
cart 253
pulled 252
home 252
frisbee 252
bottom 251
. 251
laugh 251
brown 251
sort 251
just 251
horses 251
skis 251
rolls 250
colored 250
sword 250
tv 249
flute 249
bubble 249
pong 249
ting 248
reading 248
sidewalk 248
deck 248
iron 248
punching 248
pouring 246
special 246
sings 245
wrapping 245
roller 245
cliff 244
e 244
smiling 242
toward 242
rubbing 242
seat 241
beside 241
m@@ 241
river 241
cook 241
item 240
ly 239
surfing 239
removes 238
if 238
cross 237
empty 237
i@@ 236
grabs 236
style 236
swim 236
falling 235
o 234
tells 234
smoking 234
ling 233
demonstrate 233
parachute 233
chef 232
writing 231
club 231
mechanical 231
ladder 231
competing 230
watermelon 230
ted 229
clear 229
wave 229
k@@ 228
filled 228
de@@ 227
art 227
pe@@ 226
surface 226
tying 226
pours 226
eyebrows 226
tattoo 226
weather 226
half 225
class 224
animal 224
worker 224
hose 224
see 223
boxing 223
liquid 222
lands 222
faces 221
played 221
view 220
country 220
cheers 219
sports 219
mirror 219
racing 219
times 219
tune 219
y@@ 218
carefully 217
fall 217
father 217
really 217
scuba 217
sets 216
shakes 216
teen 216
stone 216
rink 216
clothing 215
flat 215
filming 215
b@@ 215
pen 215
sail 215
sleeping 215
hard 214
helping 214
i 214
brushes 214
d 214
se@@ 213
drinks 213
toilet 213
w@@ 212
placed 212
restaurant 212
no 211
al 211
chest 211
artist 211
square 211
mask 211
karate 211
hoop 210
ballet 210
smoke 209
match 209
workers 209
wash 209
themselves 208
le 208
rubs 208
helmet 207
u@@ 207
lit 207
shirtless 207
repeatedly 207
kite 206
removing 205
frying 205
pot 204
flying 203
until 203
shooting 203
ramp 203
church 203
television 202
flipping 201
ar@@ 201
computer 201
helps 200
li@@ 200
construction 200
items 200
target 200
points 199
equipment 199
cow 199
vacuum 199
shorts 198
ex@@ 197
lap 197
sliding 196
night 196
bottles 196
garbage 196
skates 196
herself 195
technique 195
catch 194
tap 194
scooter 194
rocks 193
busy 193
ma@@ 192
st@@ 192
crying 192
carving 192
smiles 191
cement 191
arts 191
fabric 191
your 190
ri@@ 190
net 190
cell 190
martial 190
en@@ 189
touches 189
wrap 189
window 188
round 188
counter 188
waving 188
asks 188
barbell 188
color 188
goal 188
swims 188
fighting 187
bat 187
telling 186
else 186
v@@ 186
sign 186
n@@ 186
ate 186
folds 186
skate 186
roll 185
store 185
blower 185
ti@@ 184
slides 184
course 184
pillow 184
; 183
f@@ 183
also 183
tall 182
prepare 182
skills 182
block 182
athlete 182
narrates 181
enjoying 181
slope 181
only 181
led 181
washes 181
snake 181
lo@@ 179
electronic 179
path 179
bo@@ 179
peel 179
bucket 179
yoga 179
jet 179
coming 178
do@@ 178
pile 177
motorcycle 177
wet 177
tied 176
desk 176
chewing 176
gum 176
fence 175
brick 175
purple 175
ho@@ 175
number 175
digging 175
tube 175
lane 175
fly 174
skateboard 174
trash 174
drive 173
marching 173
huge 173
an@@ 173
couples 173
birthday 173
traffic 173
costume 172
more 172
waiting 172
short 171
dad 171
sheep 171
coffee 170
chess 170
turn 169
son 169
parking 169
carrying 169
gathered 168
grassy 168
day 168
ties 168
ladies 167
cars 167
l@@ 166
hula 166
attempt 165
discussing 165
far 165
n't 165
tight 165
goat 165
stops 165
se 164
ac@@ 164
kneeling 164
m 164
pressing 164
good 164
balloons 164
order 163
al@@ 163
stretching 163
g 163
bu@@ 163
oil 163
reaches 163
scissors 163
ro@@ 162
di@@ 162
funny 162
sound 162
ks 162
workout 162
leaf 162
surrounded 161
concert 161
certain 161
wheelchair 161
spoon 161
l 160
er@@ 160
co@@ 160
pinball 160
position 158
teeth 158
woods 158
step 158
bungee 157
flowers 157
material 157
bread 157
button 157
remote 157
po@@ 156
h@@ 156
tongue 156
elephant 156
king 155
money 155
jacket 155
followed 155
lock 155
asian 155
sausage 155
juggles 155
nails 155
yarn 155
contact 155
ironing 155
unicycle 155
things 154
second 154
feeds 154
begin 153
ds 153
bends 153
creating 153
alligator 153
tile 153
fencing 153
petting 153
infant 152
speed 152
backyard 152
balancing 152
volleyball 152
at@@ 151
mo@@ 151
tapping 151
strip 151
ated 150
beard 150
ation 150
learning 150
burning 150
pizza 150
sky 150
sounds 150
ating 149
knees 149
sport 149
parts 148
pop 148
circular 148
heard 148
breaks 148
vegetables 148
exercising 148
form 148
les 147
shopping 147
party 147
massaging 147
deep 147
shoots 147
shop 146
bounces 146
design 146
crawling 146
dancers 146
shave 146
log 146
lies 145
past 145
give 145
saying 145
process 145
uniform 145
sh@@ 144
pops 144
leans 144
container 144
stove 144
milk 144
candles 144
knitting 144
substance 143
objects 143
violin 143
training 143
buttons 143
sunny 142
pit 142
individuals 142
spraying 142
fruit 142
bubbles 142
chopping 142
trumpet 142
mascara 142
roof 141
shape 141
mud 141
le@@ 141
presses 141
coin 141
camel 141
2 140
own 140
skin 140
k 140
control 140
stomach 140
gun 140
swimmers 140
bouncing 139
on@@ 139
persons 139
paints 139
carve 139
instructor 138
pictures 138
p 138
sailing 138
words 138
stretches 138
ch@@ 138
to@@ 138
great 138
colorful 138
con@@ 137
product 137
broom 137
indoors 137
cheese 137
peeling 137
series 136
dish 136
well 136
somebody 136
been 135
build 135
harmonica 135
nail 135
commercial 134
pre@@ 134
pass 134
ingredients 134
ps 134
dart 134
flower 134
trick 134
potato 134
feed 134
skier 134
pig 134
it@@ 133
bedroom 133
el@@ 133
knot 133
cube 133
puppet 133
atm 133
train 132
am@@ 132
ses 132
mans 132
cleans 132
leather 132
had 132
pointing 132
shots 132
blanket 132
treadmill 132
starting 131
still 131
balance 131
thrown 131
si@@ 131
trees 131
slice 131
dye 131
clay 131
lay 130
come 130
students 130
blonde 129
ear 129
catching 129
harp 129
wire 128
touching 128
gymnasium 128
soap 128
gold 128
grill 128
pants 128
platform 127
squats 127
elderly 127
gentleman 127
b 127
ad@@ 127
wrapped 127
adding 127
amount 127
counting 127
pressure 127
underwater 127
bricks 127
organ 127
mop 127
films 126
mixing 126
trimming 126
shovel 126
flame 126
slices 126
grinder 126
st 125
as@@ 125
cookies 125
bending 125
ter 125
garage 125
welding 125
poker 125
sharp 125
protective 124
keeps 124
will 124
gr@@ 124
tub 124
tank 124
plant 124
public 123
alone 123
n 123
passing 123
office 123
weaving 123
polish 123
ls 122
noises 122
performance 122
pretending 122
us 122
handle 122
center 122
press 122
shoot 122
groups 122
safety 121
upside 121
landing 121
fix 121
shed 121
puzzle 121
saxophone 121
cave 121
ab@@ 120
aged 120
axe 120
kneels 120
sprays 120
driveway 120
rod 120
dive 120
filling 120
keyboard 120
five 119
discusses 119
lined 119
lapse 119
notes 119
displays 119
beans 119
narrator 118
males 118
ates 118
records 118
massages 118
trim 118
batter 118
handstand 118
trapeze 118
knocks 118
crossing 118
darts 118
announcer 117
scene 117
sp@@ 117
bare 117
fixing 117
rubber 117
tosses 117
knee 117
towel 117
compete 117
pushed 117
passes 116
following 116
ons 116
happy 116
land 116
referee 116
circles 116
reads 116
roasting 116
coat 116
sharpen 116
javelin 116
ent 115
apples 115
tape 115
distance 115
bouncy 115
stop 115
napkin 115
pumpkin 115
sharpening 115
be@@ 114
bridge 114
clap 114
loudly 114
lets 114
ends 114
arrow 114
spectators 114
chain 114
sandwich 114
sea 114
factory 114
newspaper 114
gong 114
ding 113
yells 113
thin 113
th@@ 113
heads 113
hop 113
flashlight 113
monopoly 113
garden 112
headphones 112
sc@@ 112
beautiful 112
pi@@ 112
scrabble 112
straight 111
act 111
classroom 111
sunglasses 111
fe@@ 111
te@@ 111
tu@@ 111
done 111
hook 111
spin 111
cowboy 111
easter 111
snowman 111
' 110
gu@@ 110
trail 110
me@@ 110
city 110
ings 109
cleaner 109
raises 109
sticking 109
spread 109
clips 109
instructing 109
wipes 109
punches 109
toys 109
waxed 109
keep 108
j@@ 108
adjusts 108
for@@ 108
adds 108
laundry 108
parasailing 108
bath 108
copy 108
lacrosse 108
podium 107
torch 107
outfit 107
seems 107
cricket 107
ic@@ 107
surf 107
razor 107
bulldozer 107
shaves 107
war 107
onlookers 106
spaghetti 106
pond 106
ler 106
younger 106
shoulder 106
soft 106
lips 106
shirts 106
chips 106
chicken 106
pet 106
inflatable 106
bounce 106
polo 106
pancake 106
refrigerator 106
marbles 106
we@@ 105
contest 105
crowded 105
claps 105
teenager 105
wrench 105
wheels 105
follows 105
parents 105
dishes 105
tail 104
ne@@ 104
stadium 104
colors 104
ur@@ 104
bee 104
dead 104
cracks 104
waxing 104
mail 104
ax 104
lower 103
base 103
unseen 103
cu@@ 103
fla@@ 103
z@@ 103
ker 103
snowmobile 103
frozen 103
hurdles 103
hugging 103
laser 103
adjusting 102
hug 102
noise 102
american 102
zoo 102
shuffling 102
successfully 102
icy 102
diver 102
folded 102
ment 101
pans 101
yelling 101
car@@ 101
cooked 101
pin 101
separate 101
jacks 101
microscope 101
encourages 100
pro@@ 100
types 100
salad 100
muddy 100
participating 100
continues 100
pump 100
blocks 100
pineapple 100
dribbling 100
sushi 100
narrating 99
staring 99
bent 99
pretends 99
hall 99
point 99
bags 99
branch 99
bikes 99
stretch 99
daughter 99
toes 99
hopscotch 99
wheelbarrow 99
low 98
chairs 98
su@@ 98
instructs 98
facial 98
dry 98
fill 98
bright 98
ked 98
combing 98
shaped 98
double 98
filmed 97
vi@@ 97
ru@@ 97
teenagers 97
sides 97
bit 97
tip 97
dig 97
third 97
driver 97
athletic 97
dives 97
boards 97
present 97
windy 97
stirring 97
painted 96
shore 96
wi@@ 96
ar 96
paintball 96
finishes 96
graffiti 96
smooth 96
kayak 96
fidget 96
grapes 96
leaning 95
than 95
change 95
operating 95
shake 95
figure 95
wooded 95
draw 95
upper 95
plants 95
licks 95
sneezes 95
bobsled 95
chisel 95
hugs 95
below 94
lines 94
facing 94
/ 94
clip 94
wide 94
finish 94
bend 94
cracking 94
skillet 94
badminton 94
cello 94
ous 93
reporter 93
taps 93
spreading 93
lots 93
tr@@ 93
whole 93
branches 93
meet 93
par@@ 93
drying 93
sauce 93
bird 93
wool 93
lifted 92
ic 92
screams 92
station 92
lip 92
tables 92
der 92
grey 92
birds 92
pad 92
coach 92
cartwheel 92
bartender 92
tossing 92
mower 92
cries 92
caught 92
yolk 92
snowboarding 92
go@@ 91
screaming 91
cage 91
row 91
advertisement 91
footage 91
boxes 91
chop 91
giant 91
kisses 91
marker 91
stroke 91
forest 90
fake 90
fi@@ 90
ch 90
picked 90
again 90
fills 90
disc 90
fork 90
segway 90
proceeds 89
movements 89
frame 89
stuck 89
thick 89
bite 89
recorded 89
uniforms 89
ge@@ 89
te 89
flour 89
wraps 89
lighting 89
costumes 89
hats 89
eyebrow 89
sailboat 89
batting 89
flag 89
accordion 89
whistling 89
calf 89
ra@@ 88
live 88
sts 88
breaking 88
asking 88
cardboard 88
corner 88
craft 88
smaller 87
appear 87
thing 87
shallow 87
crosses 87
applied 87
holes 87
pottery 87
divers 87
thumbs 87
structure 86
gently 86
stream 86
professional 86
hi@@ 86
keeping 86
per@@ 86
poured 86
cups 86
smokes 86
hang 85
interviewed 85
ion 85
ine 85
ped 85
nice 85
tips 85
underneath 85
cover 85
writes 85
over@@ 85
package 85
flies 85
motor 85
oyster 85
harness 84
gliding 84
acting 84
dis@@ 84
ws 84
crawls 84
cap@@ 84
head@@ 84
draws 84
castle 84
fancy 84
stack 84
babies 84
bagpipes 84
cheerleaders 84
vault 84
sharpener 84
six 83
no@@ 83
display 83
wrestle 83
du@@ 83
females 83
chip 83
pose 83
marshmallows 83
silver 83
shoulders 83
comb 83
cold 83
dancer 83
chainsaw 83
sculpture 83
min@@ 82
mi@@ 82
indian 82
grab 82
hallway 82
cre@@ 82
fl@@ 82
twirling 82
turned 82
counts 82
salon 82
steep 81
conversation 81
or@@ 81
ful 81
winter 81
animals 81
text 81
free 81
raising 81
w 81
ned 81
key 81
finishing 81
alley 81
rap 81
mobile 81
tea 81
tiles 81
discus 81
screw 80
lipstick 80
human 80
cute 80
haired 80
gymnastics 80
cooks 80
washed 80
fed 80
cor@@ 80
sew 80
sanding 80
slicing 80
crack 80
spinner 80
xylophone 80
keys 80
tightrope 80
gift 80
tag 80
whilst 79
members 79
given 79
image 79
letters 79
much 79
dining 79
closed 79
hand@@ 79
th 79
sofa 79
able 79
specific 79
com@@ 79
strings 79
dinner 79
oven 79
lighter 79
lego 79
boats 79
dock 79
guns 79
kiss 79
trombone 79
inhaler 79
tee 78
excited 78
gray 78
called 78
write 78
age 78
x 78
complete 78
pu@@ 78
gs 78
single 78
en 78
airplane 78
licking 78
mushrooms 78
ap@@ 77
ad 77
closes 77
approaches 77
ves 77
almost 77
site 77
shoveling 77
decorating 77
man@@ 77
baking 77
musicians 77
coloring 77
knives 77
watering 77
lawnmower 77
milking 77
ering 76
check 76
ss 76
mar@@ 76
peels 76
vehicles 76
calls 76
twisting 76
tray 76
chocolate 76
ck 76
pping 76
causing 76
bass 76
stir 76
suspended 75
speak 75
beginning 75
displayed 75
ge 75
checking 75
ster 75
let 75
ys 75
ba@@ 75
parent 75
shaved 75
math 75
moon 75
straw 75
sausages 75
dominoes 75
rapidly 74
adjust 74
lens 74
sed 74
sat 74
tes 74
struggles 74
finished 74
touch 74
pumping 74
che@@ 74
pour 74
pets 74
cork 74
industrial 74
sledding 74
tissue 74
hardwood 74
orchestra 74
solve 74
sweep 74
camels 74
we 73
cast 73
directing 73
comments 73
striped 73
ning 73
ta@@ 73
ter@@ 73
tiny 73
stuff 73
balances 73
sped 73
bi@@ 73
h 73
twirls 73
downhill 73
calligraphy 73
mallet 73
mushroom 73
snowball 73
instruction 72
3 72
fit 72
highchair 72
grabbing 72
tion 72
palm 72
he@@ 72
cookie 72
breathing 72
pack 72
floating 72
grooming 72
waist 72
dryer 72
blade 72
wake 72
catcher 72
dribbles 72
dumpster 72
str@@ 71
teacher 71
techniques 71
rec@@ 71
action 71
asleep 71
dra@@ 71
section 71
award 71
ver@@ 71
bus 71
desert 71
threw 71
leading 71
skateboarding 71
sucking 71
pitch 71
robot 71
polishing 71
ss@@ 70
stood 70
gi@@ 70
ded 70
suits 70
ments 70
ying 70
ky 70
including 70
displaying 70
ve@@ 70
r 70
add 70
toddlers 70
qu@@ 70
word 70
skipping 70
sledge 70
chops 70
dropping 70
dodge 70
peeler 70
eyeliner 70
kissing 70
cord 69
spanish 69
ins 69
gathering 69
ty 69
als 69
ced 69
ke 69
gymnastic 69
snowboard 69
because 69
doll 69
fitness 69
whistle 69
boarding 69
weave 69
fist 69
plow 69
banging 69
arcade 69
zing 68
everyone 68
wiping 68
strikes 68
hip 68
photo 68
knuckles 68
roast 68
cr@@ 68
twists 68
sweeping 68
texting 68
basketballs 68
self 67
ant 67
av@@ 67
op@@ 67
teens 67
waters 67
ered 67
butter 67
bl@@ 67
drop 67
carries 67
ging 67
squatting 67
removed 67
reach 67
fully 67
ou@@ 67
motorized 67
letting 67
racket 67
boots 67
popping 67
surfs 67
stringed 67
shuffle 67
pierced 67
hangs 66
ul@@ 66
drumming 66
jeans 66
ca@@ 66
lotion 66
drawn 66
cks 66
read 66
goats 66
raw 66
wheeled 66
pattern 66
pages 66
threading 66
misses 66
plane 66
clippers 66
civil 66
why 65
performer 65
covering 65
pens 65
report 65
tions 65
belt 65
brother 65
project 65
measuring 65
gather 65
ched 65
barrel 65
messing 65
quick 65
waits 65
brings 65
lid 65
leash 65
bees 65
stomping 65
socks 65
sippy 65
ll 64
strapped 64
re 64
ce 64
ag@@ 64
arena 64
ten@@ 64
ally 64
particular 64
ears 64
variety 64
best 64
cking 64
controller 64
inserts 64
furniture 64
cotton 64
men@@ 64
sh 64
releases 64
bathtub 64
backs 64
steel 64
drills 64
swords 64
puppets 64
wear 63
ming 63
dirty 63
stairs 63
inter@@ 63
ci@@ 63
games 63
changing 63
apart 63
meal 63
spreads 63
mix 63
bandage 63
jumped 63
vest 63
x@@ 63
crashes 63
barber 63
rodeo 63
grinding 63
recorder 63
me 62
bangs 62
solo 62
tri@@ 62
teaches 62
back@@ 62
traditional 62
out@@ 62
taken 62
installing 62
u 62
stirs 62
changes 62
someones 62
cigarette 62
lunges 62
water@@ 62
maracas 62
glides 61
windows 61
scenes 61
wing 61
cla@@ 61
life 61
workshop 61
business 61
mu@@ 61
montage 61
find 61
arranging 61
ry 61
id@@ 61
already 61
shine 61
sander 61
snapping 61
yawning 61
walked 60
ser@@ 60
ously 60
gestures 60
stool 60
repair 60
shing 60
slaps 60
conference 60
c 60
raised 60
walls 60
instructional 60
spatula 60
homemade 60
completes 60
assembling 60
ions 60
farm 60
rings 60
poles 60
ran 60
operates 60
suddenly 60
curl 60
surfer 60
reaching 60
toe 60
mortar 60
racquetball 60
discuss 59
say 59
pairs 59
shapes 59
cymbals 59
beats 59
pr@@ 59
ens 59
ics 59
fans 59
can@@ 59
poking 59
ing@@ 59
install 59
manual 59
bank 59
ze 59
explain 59
drilling 59
mixes 59
similar 59
combs 59
split 59
glove 59
candle 59
foam 59
carves 59
softball 59
phones 59
cone 59
rubik 59
elephants 59
swimmer 59
horn 58
papers 58
asked 58
knocking 58
om@@ 58
ters 58
so@@ 58
toss 58
shovels 58
range 58
har@@ 58
encouraging 58
sized 58
tighten 58
shi@@ 58
us@@ 58
student 58
plank 58
stuffed 58
fur 58
swi@@ 58
rug 58
per 58
chews 58
punch 58
strips 58
needles 58
jogging 58
para 58
ledge 57
strange 57
wears 57
opened 57
twice 57
athletes 57
foundation 57
demonstrated 57
carry 57
buckets 57
il@@ 57
spot 57
clearing 57
participate 57
pe 57
rider 57
correct 57
tasting 57
roasted 57
rips 57
chasing 57
horseback 57
hookah 57
connected 56
speech 56
directions 56
scores 56
steering 56
war@@ 56
flash 56
ans 56
flashing 56
shell 56
police 56
size 56
ats 56
ery 56
packing 56
numbers 56
butterfly 56
record 56
sk@@ 56
acoustic 56
planting 56
domino 56
tur@@ 55
ining 55
should 55
ju@@ 55
too 55
ali@@ 55
ces 55
jo@@ 55
enjoy 55
outfits 55
stones 55
story 55
ms 55
ste@@ 55
ges 55
cartwheels 55
spits 55
opposite 55
youth 55
wa@@ 55
breast 55
cartoon 55
mall 55
jack 55
ents 54
performers 54
dy 54
length 54
narrow 54
dan@@ 54
rest 54
ely 54
presents 54
trims 54
ni@@ 54
ching 54
goggles 54
squat 54
choreographed 54
powered 54
flaming 54
gutters 54
luge 54
did 54
braiding 54
canoe 54
hover 54
pitcher 54
butcher 54
tickling 54
grocery 54
snowballs 54
tre@@ 53
ive 53
col@@ 53
wait 53
inner 53
ways 53
straightening 53
trainer 53
ff@@ 53
chases 53
sporting 53
fo@@ 53
lan@@ 53
chi@@ 53
de 53
kes 53
4 53
competitive 53
machinery 53
backward 53
womans 53
prepared 53
bell 53
dries 53
preparation 53
stepping 53
creates 53
pipes 53
loom 53
rotating 53
casino 53
knit 53
rice 53
shar@@ 53
lure 53
shuffles 53
tires 53
cymbal 53
tickles 53
skateboards 53
rocky 52
ity 52
roping 52
tw@@ 52
enters 52
iting 52
cheered 52
ving 52
handling 52
ars 52
ce@@ 52
panel 52
receiving 52
upright 52
care 52
rub 52
ations 52
features 52
among 52
slapping 52
officer 52
noisy 52
thumb 52
bars 52
skydiving 52
ard 52
weighted 52
shaping 52
stares 52
backpack 52
mowing 52
vacuuming 52
surfboard 52
bald 52
bear 52
cabinet 52
burger 52
crawl 52
axes 52
headstand 52
scallops 52
macarena 52
fridge 52
patty 52
weird 51
ve 51
sun 51
cat@@ 51
ele@@ 51
patch 51
tent 51
got 51
els 51
engine 51
auction 51
sting 51
pla@@ 51
bin 51
whi@@ 51
resting 51
shining 51
sister 51
tic 51
laps 51
ukulele 51
marshmallow 51
images 50
zes 50
slightly 50
plates 50
lar@@ 50
pretend 50
mic 50
last 50
.@@ 50
stretched 50
cur@@ 50
upbeat 50
kers 50
spots 50
wo@@ 50
ink 50
toothbrush 50
bites 50
yawns 50
hoops 50
golfer 50
ripping 50
dunks 50
laces 50
ide 49
powder 49
extended 49
off@@ 49
rocking 49
though 49
dimly 49
poses 49
nearby 49
sen@@ 49
written 49
rs 49
once 49
involving 49
unison 49
helmets 49
porch 49
sa@@ 49
hur@@ 49
stri@@ 49
dresses 49
assembly 49
somersault 49
synchronized 49
dips 49
owner 49
learn 49
machines 49
panning 49
olympic 49
play@@ 49
backing 49
vegetable 49
guide 49
lanes 49
skiers 49
karaoke 49
horseshoe 49
lollipop 49
watched 48
encouraged 48
onstage 48
mon@@ 48
ship 48
started 48
film 48
either 48
visible 48
snaps 48
listens 48
casting 48
loses 48
engage 48
fan 48
measure 48
contents 48
playfully 48
trac@@ 48
lu@@ 48
bar@@ 48
sideways 48
rolled 48
straighten 48
gloved 48
washer 48
pajamas 48
stitching 48
dumps 48
tackles 48
tears 48
bills 48
sledgehammer 48
potatoes 48
stroller 48
fingernails 48
liner 48
kickball 48
rubix 48
tai 48
pped 47
unique 47
wants 47
sto@@ 47
high@@ 47
handles 47
meeting 47
ki@@ 47
shes 47
pa@@ 47
engaged 47
assemble 47
br@@ 47
cam 47
post 47
shift 47
fire@@ 47
fat 47
juggle 47
edges 47
scrubbing 47
tically 47
riders 47
haircut 47
sucks 47
windsurfing 47
anchor 47
crib 47
score 47
hurdle 47
the@@ 46
ches 46
instructed 46
um 46
continuously 46
examines 46
rhythm 46
chin 46
closing 46
dyed 46
under@@ 46
mini 46
up@@ 46
floral 46
sheets 46
ade 46
alcohol 46
spit 46
pumps 46
lit@@ 46
torches 46
knocked 46
obstacle 46
braids 46
piercing 46
beads 46
smoothing 46
sharpens 46
soldiers 46
postal 46
directs 46
selfie 46
goalie 46
pigeons 46
strong 45
den@@ 45
receives 45
pins 45
ction 45
comm@@ 45
ns 45
ca 45
containing 45
jar 45
mixed 45
level 45
ir@@ 45
spe@@ 45
ke@@ 45
cal@@ 45
easy 45
parachuting 45
intricate 45
paddling 45
paddle 45
hammering 45
tearing 45
carrier 45
ballerina 45
eyelashes 45
lowers 44
teach 44
ov@@ 44
pan@@ 44
dying 44
logo 44
tro@@ 44
bal@@ 44
el 44
ther 44
pretty 44
bowls 44
flo@@ 44
star 44
ol@@ 44
playground 44
ff 44
hamburger 44
slips 44
bathing 44
smashing 44
insert 44
fallen 44
direction 44
ble 44
copier 44
fry 44
sails 44
carrots 44
latin 44
lining 43
tor 43
larger 43
questions 43
ite 43
soda 43
zed 43
calm 43
sure 43
medicine 43
squeezing 43
sho@@ 43
beating 43
cked 43
sla@@ 43
vo@@ 43
message 43
celebrating 43
squeezes 43
photo@@ 43
finds 43
her@@ 43
blond 43
vase 43
char@@ 43
service 43
hood 43
fresh 43
bad 43
butt 43
peice 43
dropped 43
rough 43
glue 43
conveyor 43
my 43
gutter 43
smile 43
runner 43
gears 43
pie 43
passed 43
suck 43
kicked 43
strums 43
obstacles 43
snow@@ 43
bun@@ 42
dr@@ 42
arguing 42
battle 42
seem 42
posing 42
streets 42
radio 42
told 42
dragging 42
enclosed 42
space 42
ghts 42
dressing 42
she@@ 42
commentator 42
commenting 42
gro@@ 42
skirt 42
attach 42
map 42
listen 42
fails 42
puppy 42
bel@@ 42
instead 42
hair@@ 42
curls 42
pitches 42
name 42
sock 42
campfire 42
putt 42
dodgeball 42
stitch 42
skips 42
skip 42
clarinet 42
chi 42
sand@@ 41
bs 41
mountains 41
motions 41
broken 41
sit@@ 41
wh@@ 41
african 41
test 41
built 41
case 41
sur@@ 41
crew 41
collecting 41
trowel 41
positions 41
load 41
lively 41
ically 41
ha@@ 41
encourage 41
decorative 41
infront 41
french 41
happily 41
winds 41
stay 41
af@@ 41
barbecue 41
f 41
sha@@ 41
parasail 41
mounted 41
closer 41
shower 41
ceiling 41
carpeted 41
launches 41
ger 41
giggling 41
fell 41
snorkeling 41
canvas 41
strumming 41
strike 41
jigsaw 41
beverage 41
popular 41
religious 41
baseballs 41
tread 41
sponge 41
dollar 41
motorcycles 41
bush 41
pushups 41
squash 41
forecast 41
winks 41
crane 40
forms 40
question 40
follow 40
problem 40
ently 40
im@@ 40
strokes 40
cho@@ 40
heat 40
tightening 40
ance 40
ary 40
information 40
ture 40
musician 40
formal 40
designs 40
siting 40
ical 40
arranges 40
clipping 40
wires 40
job 40
electrical 40
tell 40
such 40
covers 40
oning 40
leads 40
taste 40
leaps 40
perfect 40
squ@@ 40
bur@@ 40
dri@@ 40
local 40
driven 40
donut 40
tan@@ 40
note 40
moonwalk 40
salt 40
laid 40
massaged 40
newborn 40
ornaments 40
logs 40
darkened 40
stuffing 40
smells 40
pillows 40
checks 39
presentation 39
crocodile 39
ator 39
cellphone 39
company 39
neighborhood 39
engaging 39
muscular 39
messy 39
packs 39
foo@@ 39
fun@@ 39
backflip 39
handed 39
operate 39
1@@ 39
ver 39
foil 39
rack 39
melon 39
alongside 39
less 39
patio 39
accompanied 39
beekeeper 39
ck@@ 39
stopping 39
surfers 39
character 39
smashes 39
classical 39
bas@@ 39
mopping 39
scrub 39
balcony 39
melody 39
waxes 39
guides 38
atop 38
passenger 38
within 38
pen@@ 38
gh@@ 38
lightly 38
gre@@ 38
tted 38
handing 38
arrows 38
ob@@ 38
sweater 38
rapid 38
rotates 38
baskets 38
bolt 38
id 38
even 38
dipping 38
candy 38
ability 38
wand 38
steam 38
magic 38
guiding 38
letter 38
pliers 38
stacking 38
fried 38
barn 38
sli@@ 38
walker 38
sees 38
shears 38
backstroke 38
cli@@ 37
dec@@ 37
introduces 37
actors 37
attire 37
interview 37
hol@@ 37
groom 37
switches 37
screws 37
screwdriver 37
actions 37
wal@@ 37
surrounding 37
wr@@ 37
snap 37
star@@ 37
tly 37
tran@@ 37
plan@@ 37
cheek 37
ence 37
wor@@ 37
loose 37
cleaned 37
describe 37
adhesive 37
lead 37
tal@@ 37
au@@ 37
ders 37
tting 37
triple 37
mel@@ 37
separating 37
reveal 37
causes 37
attachment 37
acrobatic 37
dust 37
sl@@ 37
timelapse 37
sleds 37
braid 37
bb@@ 37
giggles 37
slams 37
blackjack 37
flags 37
jeep 37
vigorously 37
oysters 37
coins 37
military 37
scotch 37
any 36
aid 36
enjoys 36
repairing 36
heating 36
signs 36
laptop 36
straightens 36
bearded 36
microphones 36
ton 36
reporting 36
0 36
bing 36
areas 36
zer 36
digs 36
ward 36
sifting 36
hoodie 36
targets 36
ged 36
pin@@ 36
chatting 36
sal@@ 36
peanut 36
scrubs 36
gar@@ 36
jersey 36
sau@@ 36
caps 36
paragliding 36
multi 36
spitting 36
aerobics 36
ski@@ 36
glowing 36
ined 36
infla@@ 36
ssed 36
walkway 36
wipe 36
count 36
forehead 36
completing 36
serves 36
ornament 36
casts 36
cas@@ 36
dice 36
beef 36
shines 36
puck 36
whistles 36
slam 36
dunk 36
coral 36
irons 36
mosh 36
tower 35
climber 35
att@@ 35
overhead 35
ards 35
interviewing 35
member 35
fine 35
cing 35
real 35
wild 35
directly 35
speaker 35
fu@@ 35
handheld 35
proce@@ 35
raise 35
hoo@@ 35
rubbed 35
method 35
exploring 35
pic@@ 35
archery 35
facility 35
pokes 35
der@@ 35
took 35
ribbon 35
brea@@ 35
inserting 35
tin@@ 35
mil@@ 35
padded 35
recipe 35
et 35
added 35
lick 35
ure 35
dle 35
aring 35
lay@@ 35
debris 35
nozzle 35
accidentally 35
knock 35
slo@@ 35
english 35
characters 35
legos 35
gate 35
bagpipe 35
mess 35
sync 35
burn 35
fore@@ 35
mug 35
suitcase 35
threads 35
weaves 35
cans 35
embroidery 35
ams 34
hooping 34
gging 34
doctor 34
moved 34
ske@@ 34
ev@@ 34
naked 34
seeing 34
mit@@ 34
fin@@ 34
forming 34
boo@@ 34
ici@@ 34
joins 34
tive 34
pri@@ 34
ven@@ 34
cheeks 34
continue 34
eling 34
por@@ 34
dly 34
aling 34
call 34
finally 34
cycle 34
ative 34
ist 34
lion 34
gymnast 34
scoops 34
elbow 34
onions 34
serving 34
elaborate 34
jumper 34
die 34
win@@ 34
twirl 34
curly 34
rac@@ 34
ser 34
crash 34
chipping 34
interacts 34
disk 34
diaper 34
carts 34
wading 34
stacks 34
packages 34
inflated 34
cloudy 34
lers 34
mixture 34
break@@ 34
practising 34
builds 34
page 34
reel 34
barefoot 34
rag 34
potter 34
yolks 34
noodles 34
tickled 34
tandem 34
huddle 34
kites 34
vaulting 34
wink 34
ban@@ 33
beam 33
spo@@ 33
rela@@ 33
eyeglasses 33
bringing 33
eventually 33
pointed 33
bon@@ 33
bro@@ 33
shouting 33
swe@@ 33
extends 33
found 33
am 33
ceremony 33
ave 33
mound 33
bull@@ 33
slap 33
voices 33
doorway 33
stru@@ 33
hospital 33
liquor 33
attaching 33
testing 33
coo@@ 33
ari@@ 33
jewelry 33
paved 33
wrist 33
flames 33
inging 33
ple 33
hops 33
singer 33
sw@@ 33
crouches 33
dumbbell 33
miniature 33
cru@@ 33
smelling 33
neatly 33
fries 33
doors 33
hammers 33
sawing 33
trailer 33
burps 33
jazz 33
simple 33
volley 33
core 33
sleeps 33
kilt 33
iling 32
partner 32
enter 32
sky@@ 32
fr@@ 32
creek 32
experience 32
later 32
decorated 32
kit 32
drags 32
ja@@ 32
ip@@ 32
aquarium 32
sub@@ 32
're 32
clears 32
atten@@ 32
venue 32
attending 32
masks 32
chanting 32
hou@@ 32
newscaster 32
ately 32
hotel 32
yell 32
cra@@ 32
arrange 32
pruning 32
crafts 32
floors 32
bicycles 32
5 32
trans@@ 32
del@@ 32
late 32
lighted 32
attention 32
sy@@ 32
hive 32
honey 32
closeup 32
unknown 32
races 32
flu@@ 32
heated 32
notebook 32
every 32
maneuvers 32
partially 32
ages 32
grown 32
animated 32
ies 32
western 32
saws 32
sweeps 32
plowing 32
burping 32
sip 32
swallows 32
sliced 32
pumpkins 32
nuts 32
marble 32
cats 32
offers 32
scrambled 32
reenactment 32
barrow 32
kneading 32
glider 31
hum@@ 31
kno@@ 31
artists 31
keeper 31
goo@@ 31
intense 31
fenced 31
ingly 31
ai@@ 31
scarf 31
loo@@ 31
nu@@ 31
needs 31
crossed 31
calling 31
shel@@ 31
and@@ 31
cer 31
pressed 31
examining 31
loading 31
sorting 31
clam 31
most 31
involves 31
med 31
tches 31
hiding 31
contraption 31
angle 31
run@@ 31
messes 31
arrangement 31
viewers 31
techno 31
plu@@ 31
tle 31
festival 31
stump 31
flipped 31
snowboards 31
brushed 31
photos 31
ushes 31
curved 31
skill 31
hear 31
hips 31
crystal 31
mag@@ 31
clo@@ 31
towed 31
bla@@ 31
wind@@ 31
styles 31
pony 31
rather 31
printer 31
tic@@ 31
swallowing 31
legged 31
parked 31
fighters 31
hooked 31
wn 31
frisbees 31
pun@@ 31
cracked 31
santa 31
motorcy@@ 31
pace 31
skater 31
proposes 31
height 30
patient 30
model 30
ly@@ 30
ggle 30
manipulates 30
drummer 30
auditorium 30
dling 30
ries 30
interact 30
medical 30
town 30
chalk 30
3@@ 30
cts 30
beauty 30
work@@ 30
sted 30
dic@@ 30
icing 30
ones 30
brass 30
pain 30
apron 30
coats 30
bin@@ 30
des 30
em@@ 30
snowboarder 30
scraping 30
sling 30
demostrating 30
ids 30
nor@@ 30
taught 30
tumbling 30
reverse 30
headed 30
styling 30
spun 30
leaf@@ 30
advertising 30
portion 30
stitches 30
seal 30
mattress 30
markers 30
oun@@ 30
drawer 30
aluminum 30
bye 30
guitars 30
pedestrians 30
fashioned 30
fishes 30
float 30
dealing 30
slab 30
chunk 30
mic@@ 30
successful 30
chu@@ 30
join 30
carrot 30
hatchet 30
twist 30
pacifier 30
ballroom 30
plaster 30
proposing 30
sses 29
ils 29
wed 29
taping 29
je@@ 29
stab@@ 29
sno@@ 29
delivering 29
quietly 29
fixes 29
lenses 29
sn@@ 29
sel@@ 29
wildly 29
packed 29
nearly 29
san@@ 29
( 29
numerous 29
lin@@ 29
os 29
tan 29
down@@ 29
tried 29
tra@@ 29
stu@@ 29
scrapes 29
loads 29
want 29
arranged 29
kinds 29
ish 29
ten 29
fac@@ 29
views 29
sters 29
aisle 29
scooping 29
procedure 29
winding 29
grilling 29
ick 29
floats 29
soapy 29
percussion 29
pers 29
tor@@ 29
scream 29
manipulating 29
snowmobiles 29
thru 29
removal 29
shifts 29
customer 29
blown 29
bob 29
scrapbook 29
bre@@ 29
opener 29
hi 29
cro@@ 29
mill 29
stre@@ 29
stopped 29
wedding 29
paddles 29
intersection 29
performed 29
knob 29
loaded 29
trimmer 29
camp 29
gambling 29
ors 29
hairy 29
sheering 29
skateboarders 29
welder 29
dealer 29
boxers 29
repe@@ 28
support 28
acts 28
league 28
brought 28
those 28
coordinated 28
din@@ 28
ma 28
rests 28
movie 28
ley 28
every@@ 28
tournament 28
dies 28
napkins 28
splits 28
ec@@ 28
ough 28
rectangular 28
pat@@ 28
cle@@ 28
sharing 28
heart 28
ast@@ 28
ed@@ 28
struggling 28
decorations 28
beat@@ 28
attaches 28
rim 28
mechanic 28
system 28
zooms 28
somersaults 28
sandy 28
sprinkles 28
stylist 28
spac@@ 28
golden 28
sy 28
flicks 28
extremely 28
ap 28
basement 28
dumbbells 28
res@@ 28
cutter 28
carved 28
raft 28
kart 28
salsa 28
boun@@ 28
tho@@ 28
competitors 28
wakes 28
crafting 28
jer@@ 28
leaving 28
slip 28
van 28
pitched 28
cheerleading 28
lettuce 28
sneakers 28
treat 28
hopping 28
dumping 28
mailman 28
donkey 28
hoverboard 28
barrels 28
slalom 28
scri@@ 27
ct 27
preforming 27
ay 27
chan@@ 27
pads 27
ware 27
weld 27
wiggling 27
ase 27
ankle 27
program 27
possibly 27
ved 27
sil@@ 27
ama@@ 27
incre@@ 27
cted 27
ent@@ 27
picnic 27
ong 27
bat@@ 27
firing 27
subway 27
manner 27
surround 27
sque@@ 27
bou@@ 27
plug 27
host 27
world 27
college 27
michael 27
auctioneer 27
artwork 27
breath 27
skies 27
baked 27
excitedly 27
chat 27
came 27
pre 27
dried 27
ggy 27
strength 27
rapping 27
oriental 27
quite 27
sections 27
mon 27
fourth 27
warm 27
ght 27
stance 27
commentary 27
controls 27
final 27
carried 27
inhales 27
maker 27
pinches 27
decides 27
kettle 27
speeds 27
artificial 27
bobbing 27
automatic 27
tumbles 27
patting 27
bean 27
dar@@ 27
ines 27
sculp@@ 27
videos 27
emb@@ 27
matching 27
likes 27
ual 27
wiggles 27
rain 27
tch 27
striking 27
puddle 27
cows 27
stunts 27
pancakes 27
layer 27
wrestlers 27
trimmed 27
unloading 27
bushes 27
pastry 27
parkour 27
grind 27
lasso 27
descends 26
makeshift 26
prope@@ 26
movement 26
tters 26
dramatic 26
1 26
chant 26
clu@@ 26
shouts 26
bouquet 26
ple@@ 26
que@@ 26
ask 26
spir@@ 26
respon@@ 26
entering 26
opposing 26
shampoo 26
soil 26
hunting 26
gentlemen 26
stant 26
dges 26
scre@@ 26
announces 26
cable 26
pedal 26
nut 26
brand 26
technician 26
projec@@ 26
fid@@ 26
would 26
mascot 26
ig@@ 26
huddled 26
mer@@ 26
10 26
worked 26
toppings 26
lic 26
sugar 26
summer 26
portable 26
tattoos 26
steak 26
parachu@@ 26
rate 26
statue 26
rinses 26
rhythmic 26
'@@ 26
prote@@ 26
returns 26
lace 26
mp@@ 26
briefly 26
grip 26
clist 26
specialized 26
fighter 26
kil@@ 26
pavement 26
sleigh 26
lone 26
traveling 26
rinsing 26
sta@@ 26
booth 26
fireplace 26
flooring 26
strap 26
dd@@ 26
maneuver 26
youths 26
disc@@ 26
casing 26
parade 26
condit@@ 26
juice 26
mostly 26
firefighters 26
wok 26
jackson 26
bunny 26
fle@@ 26
wheel@@ 26
aerobic 26
app 26
mowers 26
dominos 26
throat 26
release 25
safely 25
socializing 25
encouragement 25
fists 25
tin 25
bang 25
ences 25
flexible 25
adjustments 25
rows 25
ures 25
sun@@ 25
gator 25
ach 25
force 25
ial 25
fashion 25
bill 25
mouse 25
details 25
ending 25
observing 25
caster 25
products 25
lar 25
serve 25
searching 25
scratches 25
eve 25
sup@@ 25
cam@@ 25
barking 25
here 25
rear 25
iled 25
components 25
need 25
presenting 25
national 25
bad@@ 25
cri@@ 25
fer@@ 25
binding 25
travels 25
squares 25
ples 25
scoop 25
frosting 25
refle@@ 25
nurse 25
tured 25
bands 25
necklace 25
revealing 25
duck 25
reaction 25
oms 25
our 25
bag@@ 25
ahead 25
ider 25
dre@@ 25
ness 25
trucks 25
collection 25
replay 25
tractors 25
finding 25
index 25
kayaking 25
pickup 25
hun@@ 25
loop 25
shifting 25
bolts 25
lug 25
coaches 25
roasts 25
pur@@ 25
co 25
skaters 25
delivers 25
scooters 25
entire 25
origami 25
choir 25
chords 25
conductor 25
shearing 25
priest 25
formation 24
lowering 24
py 24
activity 24
grun@@ 24
sketch 24
tac@@ 24
impro@@ 24
tional 24
drumsticks 24
ima@@ 24
announ@@ 24
produce 24
mou@@ 24
enclosure 24
sweatshirt 24
interviews 24
black@@ 24
digital 24
greets 24
advice 24
applauding 24
receive 24
amp@@ 24
beneath 24
bikini 24
benefits 24
dug 24
apers 24
gy 24
materials 24
bows 24
ng 24
hay 24
tipped 24
thers 24
ases 24
eds 24
main@@ 24
screwing 24
loosen 24
manipulate 24
cab@@ 24
don@@ 24
monitor 24
pier 24
trunk 24
guard 24
elastic 24
bring 24
judges 24
joking 24
chefs 24
circus 24
provides 24
dim 24
lab 24
alternating 24
observes 24
correctly 24
stunt 24
contor@@ 24
relaxing 24
tru@@ 24
mold 24
bor@@ 24
tex@@ 24
unsuccessfully 24
bul@@ 24
signing 24
dy@@ 24
splashes 24
gentle 24
processing 24
& 24
bottling 24
butts 24
fluid 24
flowing 24
eyelid 24
sleep 24
care@@ 24
turtle 24
suv 24
felt 24
choppy 24
reeling 24
tackle 24
decorate 24
icking 24
burns 24
railing 24
rugby 24
cry 24
sneaker 24
lamp 24
could 24
scram@@ 24
lows 24
poke 24
cash 24
dol@@ 24
kneads 24
gangnam 24
congregation 24
groomed 24
quarterback 24
jogs 24
kicker 24
stomp 24
batons 24
lawnmowers 24
yawn 24
dartboard 24
sheers 24
skiis 24
commentating 23
ft 23
supported 23
observe 23
answering 23
ear@@ 23
cool 23
clamp 23
mly 23
assisted 23
pounding 23
underwear 23
spoons 23
uring 23
highway 23
dragged 23
gon 23
mus@@ 23
marks 23
ber@@ 23
interesting 23
angles 23
waking 23
cti@@ 23
fus@@ 23
0@@ 23
um@@ 23
scrape 23
blo@@ 23
launch 23
narration 23
located 23
tightens 23
instal@@ 23
entrance 23
happening 23
oned 23
buff 23
6 23
odd 23
japanese 23
som@@ 23
ll@@ 23
supervi@@ 23
stra@@ 23
terrain 23
landed 23
straps 23
hu@@ 23
slamming 23
ared 23
retrieve 23
holder 23
turing 23
scen@@ 23
rode 23
sprayer 23
diamond 23
snowblower 23
sneezing 23
quiet 23
books 23
dispen@@ 23
super 23
pul@@ 23
chunks 23
robe 23
topless 23
aded 23
modified 23
deals 23
viewer 23
snork@@ 23
free@@ 23
smart 23
lever 23
sni@@ 23
bells 23
fre@@ 23
polishes 23
runners 23
dder 23
links 23
tablet 23
backseat 23
blinks 23
peeled 23
hy@@ 23
segways 23
dribble 23
berries 23
puff 23
ramps 23
vaults 23
smell 23
padlock 23
orchard 23
scale 22
lling 22
acc@@ 22
bly 22
measures 22
eye@@ 22
read@@ 22
inserted 22
sion 22
cont@@ 22
ack 22
cy@@ 22
equations 22
congratula@@ 22
complex 22
wins 22
ire 22
squeeze 22
ush 22
bigger 22
pats 22
kneel 22
bits 22
fter 22
stacked 22
aiming 22
non 22
of@@ 22
swaying 22
providing 22
gri@@ 22
unboxing 22
complicated 22
better 22
wheeler 22
q 22
lation 22
learns 22
comment 22
elevated 22
now 22
metallic 22
feeling 22
completely 22
nt 22
bab@@ 22
tongs 22
boot 22
explo@@ 22
smo@@ 22
mixer 22
squir@@ 22
glide 22
tist 22
tossed 22
personal 22
squirts 22
ths 22
know 22
strands 22
ffing 22
amusement 22
mer 22
filter 22
garment 22
tops 22
mats 22
apped 22
blow@@ 22
vol@@ 22
avoid 22
mannequin 22
molding 22
our@@ 22
ape 22
speeding 22
approach 22
bri@@ 22
warehouse 22
spring 22
fluffy 22
fil@@ 22
neon 22
crumbs 22
disco 22
tat@@ 22
umb@@ 22
kets 22
retrieves 22
carpen@@ 22
mb@@ 22
sea@@ 22
kayaks 22
tains 22
matador 22
distr@@ 22
steady 22
seeds 22
beanie 22
collects 22
wri@@ 22
tshirt 22
boxer 22
socket 22
blades 22
robotic 22
shaver 22
lemon 22
squeegee 22
fro@@ 22
bacon 22
ails 22
march 22
focus 22
roller@@ 22
cameraman 22
newly 22
gifts 22
unlock 22
hoola 22
carpeting 22
pinching 22
gongs 22
hedge 22
scaling 21
descending 21
exclaims 21
rest@@ 21
tow 21
peoples 21
ior 21
experi@@ 21
compar@@ 21
mustache 21
crazy 21
ton@@ 21
knelt 21
talked 21
top@@ 21
air@@ 21
responds 21
) 21
vely 21
pes 21
sid@@ 21
security 21
year 21
ail 21
ast 21
maintenance 21
outline 21
rainbow 21
deer 21
upset 21
acks 21
elbows 21
greens 21
assembled 21
random 21
secure 21
interior 21
lie 21
holiday 21
sum@@ 21
advan@@ 21
chinese 21
ol 21
ben@@ 21
waiter 21
highlights 21
freshly 21
songs 21
marin@@ 21
tter 21
served 21
customers 21
travel 21
hills 21
canyon 21
releasing 21
mom@@ 21
mouths 21
producing 21
buzz@@ 21
emp@@ 21
shiny 21
spar@@ 21
bra 21
returning 21
pounds 21
designed 21
donuts 21
motorbike 21
upon 21
locks 21
fen@@ 21
goof@@ 21
twin 21
unfolds 21
viewing 21
article 21
thank 21
trio 21
splashing 21
ther@@ 21
champagne 21
paying 21
tiled 21
kne@@ 21
switching 21
flashes 21
creation 21
figures 21
oc@@ 21
unusual 21
solving 21
emer@@ 21
itself 21
drain 21
modern 21
mal@@ 21
whis@@ 21
imp@@ 21
scrap 21
pine 21
file 21
blindfolded 21
tomato 21
touched 21
plaid 21
chiropractor 21
triangle 21
tropical 21
crosswalk 21
brows 21
snack 21
doughnut 21
crochet 21
flock 21
hoof 21
gers 21
eyelash 21
milks 21
tobacco 21
winking 21
shuck 21
repelling 20
activities 20
rushing 20
lounge 20
pt 20
comfor@@ 20
sin@@ 20
seven 20
smacks 20
simula@@ 20
missing 20
gras@@ 20
ician 20
sman 20
reports 20
stat@@ 20
sign@@ 20
helped 20
gg@@ 20
nods 20
landscape 20
narr@@ 20
piles 20
nodding 20
chase 20
apartment 20
passionately 20
difference 20
inten@@ 20
sor@@ 20
ner 20
graphic 20
includes 20
interacting 20
buildings 20
yed 20
showcasing 20
residential 20
scu@@ 20
flatten 20
aging 20
unwrapping 20
rot@@ 20
tails 20
perfectly 20
eyed 20
downs 20
posed 20
repetit@@ 20
collect 20
eight 20
ulting 20
joke 20
lon 20
client 20
accross 20
might 20
channel 20
went 20
crashing 20
crushing 20
dit@@ 20
printing 20
trains 20
surprised 20
hurls 20
crust 20
thigh 20
pper@@ 20
syn@@ 20
splitting 20
communic@@ 20
han@@ 20
storage 20
om 20
pocket 20
tures 20
nai@@ 20
2@@ 20
brightly 20
compilation 20
alian 20
ga@@ 20
are@@ 20
ffer 20
pitching 20
thrower 20
beers 20
crac@@ 20
ind 20
roo@@ 20
slowing 20
hysterically 20
collar 20
army 20
bib 20
inc@@ 20
sending 20
soc@@ 20
settings 20
stationary 20
drooling 20
blinking 20
sprin@@ 20
crunches 20
rail 20
koi 20
golf@@ 20
rip 20
welds 20
nipple 20
didgeridoo 20
lute 20
ocarina 20
scales 19
apping 19
via 19
cl@@ 19
wash@@ 19
lesson 19
angry 19
leave 19
new@@ 19
return 19
gles 19
sprayed 19
ades 19
esc@@ 19
5@@ 19
native 19
happe@@ 19
applause 19
participants 19
states 19
promo@@ 19
blurry 19
named 19
see@@ 19
win 19
trouble 19
cel@@ 19
dump 19
landsc@@ 19
wards 19
title 19
these 19
aims 19
fri@@ 19
fts 19
wig 19
nur@@ 19
gesture 19
closely 19
is@@ 19
easily 19
identi@@ 19
ray 19
ased 19
graphy 19
tooth 19
verbal 19
tal 19
sorts 19
stea@@ 19
circuit 19
console 19
fast@@ 19
organi@@ 19
praises 19
who@@ 19
ham@@ 19
limb 19
bil@@ 19
signals 19
band@@ 19
ctive 19
chy 19
wife 19
trunks 19
twi@@ 19
breathes 19
seconds 19
bra@@ 19
crate 19
assistance 19
dumb 19
heavily 19
lean 19
dumb@@ 19
slid 19
cer@@ 19
curled 19
combed 19
chew 19
progress 19
simultaneously 19
shelf 19
celebrate 19
love 19
sle@@ 19
zi@@ 19
mane 19
dders 19
print 19
compli@@ 19
vat 19
unlo@@ 19
seals 19
trips 19
woven 19
flammable 19
sequence 19
smooth@@ 19
tastes 19
colou@@ 19
rever@@ 19
cran@@ 19
forklift 19
scottish 19
tics 19
pon@@ 19
closet 19
knots 19
smooths 19
accompani@@ 19
excitement 19
lou@@ 19
nel 19
yo@@ 19
tomatoes 19
showcases 19
dding 19
laughter 19
zz@@ 19
sniffs 19
ually 19
pencils 19
rin@@ 19
boiling 19
pasta 19
int 19
la 19
rabbit 19
groomer 19
ana 19
golfing 19
dro@@ 19
inhaling 19
opponent 19
ults 19
iphone 19
jelly 19
popsicle 19
pierces 19
putts 19
mows 19
paras@@ 19
seaweed 19
contacts 19
tricep 19
reef 19
protect 18
rappe@@ 18
lowered 18
fron@@ 18
scraper 18
zip 18
cen@@ 18
powdered 18
far@@ 18
ites 18
olo@@ 18
argue 18
discussion 18
tests 18
fram@@ 18
printed 18
dot 18
len@@ 18
coke 18
mark 18
jam@@ 18
swung 18
effort 18
version 18
shout 18
wings 18
indi@@ 18
convention 18
credit 18
flight 18
famous 18
jum@@ 18
ti 18
clin@@ 18
coun@@ 18
spil@@ 18
cou@@ 18
examine 18
exhibition 18
known 18
cross@@ 18
ply 18
becomes 18
rose 18
gathers 18
assembles 18
brake 18
rid@@ 18
cushion 18
dge 18
ctors 18
oranges 18
furry 18
assist 18
market 18
crouching 18
executes 18
bake 18
cakes 18
abo@@ 18
tattooed 18
shrimp 18
skillfully 18
parachutes 18
tte 18
tapes 18
slows 18
spotted 18
stin@@ 18
altern@@ 18
tical 18
dutch 18
higher 18
ppy 18
beatboxing 18
imit@@ 18
situ@@ 18
planks 18
inspecting 18
mate 18
wei@@ 18
adolescent 18
buy 18
acrobatics 18
rises 18
inspects 18
tricycle 18
sol@@ 18
atv 18
marked 18
grooms 18
propped 18
joined 18
resemb@@ 18
jac@@ 18
ot 18
app@@ 18
broadcast 18
wetsuit 18
surfboards 18
copies 18
sews 18
unload 18
sleeve 18
label 18
automated 18
lamb 18
interpre@@ 18
cir@@ 18
monster 18
difficulty 18
scalp 18
utensils 18
unwraps 18
castles 18
swirls 18
hor@@ 18
flattening 18
equation 18
whiteboard 18
difficult 18
lic@@ 18
sizes 18
fisherman 18
tilts 18
aving 18
gan@@ 18
motor@@ 18
mitt 18
jetski 18
horizontal 18
featuring 18
illustrating 18
automobile 18
ral 18
verbally 18
completed 18
utensil 18
join@@ 18
pepper 18
handled 18
whites 18
babbles 18
bunk 18
firemen 18
hiking 18
firefighter 18
anime 18
thier 18
bamboo 18
transla@@ 18
scoo@@ 18
expressions 18
vs 18
spi@@ 18
gracefully 18
delivery 18
policeman 18
hurling 18
application 18
bump 18
dunking 18
sticky 18
attractive 18
hunt 18
competitor 18
spinners 18
reen@@ 18
hairs 18
monkey 18
marches 18
stor@@ 18
ballon 18
skateboarder 18
tango 18
silverware 18
flashlights 18
necktie 18
cape 17
rep@@ 17
problems 17
stomps 17
lecture 17
mid 17
bride 17
exper@@ 17
said 17
ger@@ 17
determine 17
ang@@ 17
enthusiastically 17
class@@ 17
celebrates 17
dles 17
eless 17
polit@@ 17
website 17
answers 17
ational 17
stair 17
wer 17
mike 17
trap 17
compac@@ 17
sely 17
accepting 17
ny 17
strobe 17
aps 17
died 17
sport@@ 17
effects 17
adverti@@ 17
cloths 17
solution 17
skeleton 17
slideshow 17
tun@@ 17
vests 17
tar@@ 17
cher 17
cones 17
ken 17
cting 17
aggressively 17
19@@ 17
illustr@@ 17
tain 17
adjusted 17
battery 17
vers 17
cess@@ 17
hard@@ 17
cess 17
oval 17
mo 17
quality 17
gaming 17
aming 17
sive 17
sco@@ 17
timer 17
seper@@ 17
packaging 17
inj@@ 17
bbq 17
gla@@ 17
tit@@ 17
warming 17
ribs 17
contains 17
fa@@ 17
possible 17
tt@@ 17
cit@@ 17
leap 17
pro 17
enter@@ 17
hus@@ 17
german 17
bee@@ 17
locked 17
assists 17
muscles 17
barbells 17
post@@ 17
stam@@ 17
blasting 17
grinds 17
ured 17
ani@@ 17
achi@@ 17
ceramic 17
cylindrical 17
cup@@ 17
till 17
fairly 17
handmade 17
fol@@ 17
ph@@ 17
tubes 17
laun@@ 17
stirred 17
ign@@ 17
fig@@ 17
detailed 17
tiger 17
til@@ 17
fingernail 17
mothers 17
ble@@ 17
softly 17
pyramid 17
sandcastle 17
taun@@ 17
leaping 17
sips 17
viol@@ 17
calcu@@ 17
lettering 17
rowing 17
dummy 17
jackets 17
deli@@ 17
climbed 17
chiseling 17
sculpting 17
ney 17
scoring 17
vertical 17
tourists 17
with@@ 17
released 17
lime 17
coos 17
excess 17
ong@@ 17
onion 17
camping 17
babbling 17
faster 17
newsc@@ 17
ice@@ 17
fuzzy 17
marshmel@@ 17
aching 17
sweet 17
masseuse 17
wrenches 17
controlled 17
straightener 17
smash 17
shoves 17
zumba 17
planted 17
asp@@ 17
cough@@ 17
bumps 17
eing 17
looked 17
fied 17
broccoli 17
pierce 17
putter 17
competes 17
vaulter 17
cinder 17
blacksmith 17
moonwalks 17
accordian 17
slapped 17
wicker 17
climbers 16
waterfall 16
mounta@@ 16
fying 16
state 16
mes 16
environment 16
actually 16
adjustment 16
wai@@ 16
patterns 16
mounts 16
semi 16
shut 16
crowds 16
sleev@@ 16
mur@@ 16
addresses 16
nature 16
regarding 16
cut@@ 16
staircase 16
argument 16
wel@@ 16
gran@@ 16
focuses 16
airport 16
wil@@ 16
stare 16
moisturi@@ 16
corners 16
excav@@ 16
gravel 16
graph 16
physical 16
after@@ 16
devices 16
ka@@ 16
scratching 16
fires 16
shoo@@ 16
sma@@ 16
guided 16
uniformed 16
lunch 16
milling 16
energy 16
dging 16
won 16
focused 16
bles 16
stap@@ 16
roses 16
won@@ 16
pedals 16
twisted 16
fitting 16
bal 16
soci@@ 16
ming@@ 16
bidding 16
session 16
conducting 16
sti@@ 16
ult 16
chubby 16
preform 16
shoreline 16
baker 16
moun@@ 16
avor@@ 16
decorates 16
some@@ 16
further 16
ster@@ 16
ham 16
ian 16
pork 16
tending 16
petted 16
energetic 16
gener@@ 16
paced 16
hives 16
grand@@ 16
exotic 16
lifter 16
dee@@ 16
acrobat 16
drawers 16
vice 16
natural 16
rif@@ 16
eu@@ 16
powerful 16
ty@@ 16
shield 16
hairdresser 16
gle 16
blew 16
furnace 16
angled 16
containers 16
spear 16
clams 16
teenaged 16
mount 16
tracks 16
batt@@ 16
ot@@ 16
sneeze 16
ols 16
cher@@ 16
bind 16
ber 16
feels 16
ukelele 16
teddy 16
bow@@ 16
continu@@ 16
corn 16
ender 16
lor 16
crouched 16
painter 16
gel 16
extension 16
period 16
rinse 16
may 16
ren@@ 16
fan@@ 16
constru@@ 16
admir@@ 16
theme 16
calculator 16
intently 16
aloud 16
decide 16
itting 16
alphabet 16
capsized 16
approaching 16
sparring 16
clubs 16
exposed 16
ponytail 16
freezer 16
smi@@ 16
reels 16
trip 16
jerseys 16
ta 16
barrier 16
sprink@@ 16
carriage 16
lea@@ 16
fireman 16
enough 16
swallow 16
crown 16
celery 16
quar@@ 16
explaing 16
blu@@ 16
detergent 16
sou@@ 16
plunger 16
horse@@ 16
stroking 16
exhales 16
navigate 16
partners 16
shu@@ 16
rind 16
ick@@ 16
mailbox 16
luggage 16
john 16
ba 16
empties 16
clouds 16
explore 16
racquet 16
rackets 16
vacuums 16
lacing 16
stringing 16
meteorologist 16
receiver 16
rub@@ 16
maraca 16
flippers 16
skiier 16
vaping 16
lassos 16
prune 16
asthma 16
nothing 15
navigating 15
hooks 15
actor 15
gesturing 15
skit 15
tress 15
ound 15
tion@@ 15
measure@@ 15
showed 15
mmed 15
flexibility 15
ori@@ 15
bes 15
extra 15
glo@@ 15
passengers 15
strad@@ 15
alligators 15
ily 15
jaw 15
shuts 15
any@@ 15
rus 15
scared 15
erase 15
rules 15
thou@@ 15
models 15
stock 15
link 15
brief 15
hon@@ 15
ven 15
introducing 15
squee@@ 15
clean@@ 15
mess@@ 15
tment 15
search 15
excavation 15
organizing 15
20@@ 15
docum@@ 15
levels 15
aves 15
location 15
ica 15
taped 15
aim 15
arr@@ 15
convers@@ 15
mat@@ 15
tightly 15
surpri@@ 15
pear@@ 15
brakes 15
foot@@ 15
component 15
divid@@ 15
connect 15
cords 15
asi@@ 15
resort 15
ctively 15
sat@@ 15
visual 15
colum@@ 15
il 15
bids 15
mers 15
ices 15
probably 15
assi@@ 15
apparently 15
lock@@ 15
consi@@ 15
swimsuit 15
fer 15
swirling 15
ounded 15
injured 15
scan@@ 15
alcoholic 15
ban 15
chute 15
basin 15
eag@@ 15
shampoo@@ 15
soa@@ 15
ach@@ 15
pil@@ 15
sways 15
instrumental 15
ively 15
ants 15
but@@ 15
weightlifting 15
supports 15
spotting 15
vel@@ 15
lessons 15
que 15
sions 15
department 15
young@@ 15
pedestrian 15
coating 15
controlling 15
spen@@ 15
ffs 15
demonstr@@ 15
sty@@ 15
poin@@ 15
towels 15
daddy 15
racers 15
boogie 15
tackled 15
torn 15
blank 15
swit@@ 15
tackling 15
whose 15
dip 15
spect@@ 15
formed 15
ung 15
trained 15
instructors 15
ctor 15
ght@@ 15
carnival 15
paintbrush 15
wit@@ 15
manic@@ 15
promp@@ 15
tles 15
lla 15
pound 15
maneuvering 15
uti@@ 15
gie 15
wrong 15
repeated 15
typing 15
explanation 15
las 15
stic 15
talent 15
squatted 15
spar 15
sailboats 15
yacht 15
struggle 15
nike 15
cudd@@ 15
swan 15
anthem 15
ducks 15
auto 15
speci@@ 15
thinks 15
knifes 15
coached 15
gun@@ 15
leng@@ 15
grout 15
ill@@ 15
explor@@ 15
cs 15
gas@@ 15
videoing 15
folk 15
scallop 15
eng@@ 15
paring 15
overlooking 15
deadlift 15
cop 15
plain 15
lashes 15
lunge 15
drum@@ 15
snacks 15
aer@@ 15
judge 15
mor@@ 15
flint 15
feather 15
sucker 15
stable 15
shotput 15
plywood 15
seam 15
smartphone 15
knead 15
supermarket 15
flutes 15
buffing 15
triceps 15
mobiles 15
slack 15
tickle 15
breaststroke 15
tye 15
bowtie 15
bum@@ 14
scaf@@ 14
positioned 14
tethered 14
centr@@ 14
ili@@ 14
gue 14
british 14
theater 14
hearing 14
come@@ 14
palms 14
extending 14
beh@@ 14
curren@@ 14
constantly 14
ginal 14
effect 14
feature 14
childs 14
mimics 14
joyfully 14
gen@@ 14
imitates 14
drumstick 14
safe 14
teasing 14
thanking 14
introdu@@ 14
anima@@ 14
conver@@ 14
segment 14
greeting 14
sands 14
applaud 14
united 14
awards 14
grad@@ 14
circling 14
focusing 14
day@@ 14
thoroughly 14
archaeological 14
hoe 14
sift 14
layers 14
earth 14
compound 14
never 14
video@@ 14
cep@@ 14
ional 14
tantrum 14
super@@ 14
winning 14
matches 14
ains 14
challen@@ 14
flow@@ 14
stal@@ 14
ever 14
pots 14
broke 14
conne@@ 14
unscrewing 14
fits 14
cooler 14
trum@@ 14
mari@@ 14
upcoming 14
historical 14
bracelet 14
patiently 14
loc@@ 14
backflips 14
manages 14
dipped 14
20 14
bandages 14
description 14
fir@@ 14
seemingly 14
spikes 14
solid 14
foods 14
immediately 14
obser@@ 14
lun@@ 14
muscle 14
humming 14
sounding 14
rics 14
buzz 14
occu@@ 14
rid 14
scien@@ 14
costumed 14
ethnic 14
bleachers 14
employee 14
ust 14
umbles 14
utili@@ 14
blasts 14
stain 14
dust@@ 14
equ@@ 14
spiral 14
lon@@ 14
bursts 14
q@@ 14
cordless 14
trys 14
trou@@ 14
bobsledding 14
heading 14
wood@@ 14
oper@@ 14
bundled 14
chopped 14
butting 14
pat 14
rhythmically 14
ina 14
detail 14
sketching 14
scary 14
batman 14
artistic 14
sel 14
tel@@ 14
jec@@ 14
woodworking 14
main 14
locking 14
destro@@ 14
ached 14
iding 14
load@@ 14
jungle 14
pl@@ 14
plows 14
burp 14
pianist 14
consisting 14
illumin@@ 14
temperature 14
asing 14
symbols 14
vessel 14
delight 14
choreo@@ 14
shadow 14
sai@@ 14
nic@@ 14
reveals 14
rely 14
red@@ 14
soo@@ 14
nets 14
outer 14
amazing 14
tballs 14
inning 14
drivers 14
trolley 14
gauge 14
gymnasts 14
mural 14
curtain 14
shav@@ 14
key@@ 14
pened 14
bone 14
veg@@ 14
blindfold 14
swiftly 14
separates 14
operated 14
compe@@ 14
gged 14
clad 14
alot 14
popcorn 14
ffe@@ 14
tabletop 14
hotdogs 14
door@@ 14
side@@ 14
lars 14
pain@@ 14
flooded 14
reacts 14
polka 14
pauses 14
scissor 14
latex 14
fruits 14
athers 14
goers 14
selec@@ 14
review 14
romantic 14
vac@@ 14
joystick 14
prin@@ 14
gadget 14
multicolored 14
stuffs 14
patterned 14
ball@@ 14
extinguisher 14
cles 14
plucks 14
tering 14
burner 14
virtual 14
trimmers 14
oo 14
beige 14
stainless 14
cannon 14
rollerskating 14
glow 14
woodwind 14
sprinkling 14
sparks 14
anvil 14
gues 14
twinkle 14
rattle 14
ripped 14
shear 14
leashes 14
grape 14
spindle 14
initially 13
forested 13
descend 13
clamps 13
harnessed 13
cliffs 13
secured 13
coaching 13
sab@@ 13
hundreds 13
peers 13
measured 13
purpose 13
temp@@ 13
fitted 13
ried 13
tom@@ 13
repairs 13
appe@@ 13
ric 13
broad@@ 13
rollers 13
alle@@ 13
answer 13
offic@@ 13
heal@@ 13
thy 13
mini@@ 13
ement 13
gates 13
based 13
ssion 13
applauded 13
celebr@@ 13
gave 13
emergency 13
embrace 13
road@@ 13
prepping 13
videotaping 13
effe@@ 13
treatment 13
morning 13
abs 13
conce@@ 13
prior 13
blend 13
shells 13
intere@@ 13
helmeted 13
involved 13
camouflage 13
readies 13
heav@@ 13
domin@@ 13
emo@@ 13
medi@@ 13
sus 13
referees 13
iring 13
6@@ 13
7 13
demostr@@ 13
scratch 13
ign 13
descri@@ 13
ratchet 13
unscrew 13
soldering 13
ram 13
nal 13
jun@@ 13
zation 13
sphere 13
stating 13
swa@@ 13
shops 13
banner 13
island 13
opin@@ 13
thanks 13
feel 13
announcing 13
names 13
gal@@ 13
conducts 13
z 13
alig@@ 13
tooth@@ 13
8 13
depic@@ 13
hello 13
retrie@@ 13
therapist 13
grilled 13
sends 13
dded 13
coals 13
ston 13
entertaining 13
fuel 13
aerial 13
plaza 13
fives 13
rav@@ 13
wls 13
nervous 13
midst 13
ab 13
alternates 13
excercise 13
resistance 13
ops 13
oping 13
hone 13
keepers 13
honeycomb 13
pull@@ 13
searches 13
tered 13
exam@@ 13
flow 13
bru@@ 13
routines 13
gh 13
extreme 13
contortionist 13
summersa@@ 13
ankles 13
stencil 13
ank 13
onal 13
med@@ 13
continually 13
jig 13
apparatus 13
houses 13
currently 13
allowing 13
reclining 13
burst 13
lap@@ 13
decoration 13
molten 13
blowers 13
packet 13
hugged 13
teammates 13
bystanders 13
least 13
amy 13
velo@@ 13
paste 13
tumble 13
directed 13
wavy 13
season 13
mps 13
spices 13
j 13
eding 13
flings 13
chested 13
choo@@ 13
pal@@ 13
halloween 13
bats 13
faucet 13
check@@ 13
cabinets 13
ghters 13
skinny 13
posts 13
ath@@ 13
bloo@@ 13
zers 13
lly 13
operator 13
sipping 13
v 13
mathematical 13
example 13
canoeing 13
expertly 13
rain@@ 13
squirms 13
capoeira 13
era 13
cled 13
ital 13
exe@@ 13
dled 13
une@@ 13
due 13
ailing 13
wheeling 13
commentates 13
austr@@ 13
umpire 13
outfield 13
underway 13
barely 13
sme@@ 13
transmission 13
stand@@ 13
aired 13
mobi@@ 13
recy@@ 13
cling 13
mean 13
tyre 13
bead 13
cylinder 13
rop@@ 13
dian 13
sweat@@ 13
knitted 13
preci@@ 13
bodies 13
plating 13
gies 13
alls 13
throughout 13
bug 13
polished 13
shoelaces 13
appliance 13
fal@@ 13
kitty 13
toast 13
mary 13
twenty 13
pregnant 13
ious 13
courtyard 13
complains 13
ion@@ 13
push@@ 13
mexican 13
color@@ 13
copying 13
audio 13
gue@@ 13
collage 13
toasting 13
ert 13
bumping 13
elevator 13
contestants 13
zoom 13
hog 13
cooing 13
born 13
hidden 13
shoving 13
brow 13
tortilla 13
embroidering 13
tapestry 13
kn@@ 13
oxygen 13
snowboarders 13
fencers 13
goodbye 13
table@@ 13
concentrating 13
lazer 13
forwards 13
hudd@@ 13
document 13
sticker 13
hat@@ 13
bagging 13
touchdown 13
tele@@ 13
album 13
medit@@ 13
rubiks 13
shucking 13
magni@@ 13
crowd@@ 13
lo 12
engages 12
protection 12
acted 12
tab@@ 12
ran@@ 12
audi@@ 12
hesit@@ 12
seating 12
issues 12
spec@@ 12
shades 12
informa@@ 12
ruler 12
direct 12
gest 12
grabbed 12
wrestles 12
shocked 12
york 12
flaps 12
edu@@ 12
sari 12
chal@@ 12
tired 12
former 12
miss 12
fiddles 12
kid@@ 12
4@@ 12
drove 12
political 12
accep@@ 12
teria 12
appro@@ 12
cover@@ 12
presenter 12
pres@@ 12
ented 12
unto 12
skin@@ 12
dged 12
aler 12
remains 12
artifacts 12
label@@ 12
strainer 12
sked 12
wl 12
xed 12
perspective 12
curve 12
aled 12
anno@@ 12
tutu 12
temper 12
yel@@ 12
converse 12
snea@@ 12
countertop 12
earring 12
proceed 12
demon@@ 12
prun@@ 12
bby 12
erly 12
years 12
fiddling 12
handle@@ 12
replacing 12
joint 12
cycling 12
insides 12
know@@ 12
construct 12
fic@@ 12
commun@@ 12
ities 12
praise 12
banquet 12
loves 12
inv@@ 12
serious 12
tiv@@ 12
lery 12
$ 12
succe@@ 12
cushioned 12
impressive 12
past@@ 12
grandma 12
braces 12
gauze 12
cere@@ 12
tching 12
put@@ 12
ket@@ 12
comb@@ 12
set@@ 12
burgers 12
charcoal 12
aw@@ 12
barbeque 12
brow@@ 12
functions 12
abilities 12
barten@@ 12
ir 12
ka 12
garni@@ 12
pebb@@ 12
seas@@ 12
soon 12
bulls 12
xi@@ 12
pies 12
introduce 12
bor 12
fli@@ 12
raps 12
backed 12
husband 12
beehive 12
extrac@@ 12
beekeepers 12
torso 12
celebration 12
breasts 12
gyr@@ 12
garb 12
mal 12
exten@@ 12
zy 12
spotter 12
distor@@ 12
jean 12
massive 12
beg@@ 12
hung 12
mping 12
duty 12
crank 12
cop@@ 12
wise 12
demo@@ 12
bikers 12
bicy@@ 12
steers 12
ne 12
roads 12
ridding 12
blaster 12
underside 12
dresser 12
gloss 12
glass@@ 12
created 12
inspect 12
somone 12
arti@@ 12
overweight 12
whe@@ 12
kleenex 12
hydr@@ 12
whether 12
dispo@@ 12
spiderman 12
stays 12
berry 12
send 12
toboggan 12
bobsle@@ 12
medium 12
chil@@ 12
ket 12
fs 12
giraff@@ 12
somersa@@ 12
trampolines 12
remaining 12
braided 12
you@@ 12
dojo 12
dangerous 12
spoon@@ 12
usk 12
vari@@ 12
metho@@ 12
craf@@ 12
constructing 12
lev@@ 12
remo@@ 12
helicop@@ 12
themed 12
ctures 12
dor 12
pac@@ 12
leveling 12
van@@ 12
nd 12
mario 12
banjo 12
steadily 12
formula 12
graphi@@ 12
caligraphy 12
yet 12
messages 12
jour@@ 12
zzy 12
fountain 12
sale 12
travelling 12
occur@@ 12
avo@@ 12
tial 12
eled 12
kick@@ 12
manu@@ 12
sinking 12
submerged 12
sail@@ 12
sudden 12
fif@@ 12
pouch 12
thr@@ 12
engraving 12
cruise 12
aved 12
emptying 12
hey 12
gain 12
snorkel 12
fielder 12
doubles 12
steals 12
discs 12
8@@ 12
manually 12
valve 12
mechanism 12
quarter 12
indicates 12
mache@@ 12
oth@@ 12
ature 12
curb 12
deadlifts 12
dolph@@ 12
mops 12
fran@@ 12
plun@@ 12
ump 12
smoothly 12
mid@@ 12
acrobats 12
cy 12
dash 12
cowboys 12
nav@@ 12
messaging 12
crun@@ 12
awkwardly 12
pathway 12
active 12
cum@@ 12
pra@@ 12
ening 12
clipper 12
parro@@ 12
squi@@ 12
ssing 12
twee@@ 12
da 12
tour 12
ballerinas 12
poe@@ 12
chased 12
ko@@ 12
weap@@ 12
dead@@ 12
kle 12
anchors 12
person@@ 12
lls 12
broad 12
jam 12
chains 12
marina 12
separated 12
ref 12
somewhere 12
soun@@ 12
conversing 12
cosme@@ 12
cheese@@ 12
ati@@ 12
blankets 12
noodle 12
frustrated 12
participates 12
hide 12
accident 12
wheelie 12
mow 12
bir@@ 12
haw@@ 12
arrowhead 12
growing 12
iti@@ 12
freestyle 12
tech 12
trophy 12
robes 12
dog@@ 12
heel 12
headbanging 12
actment 12
cannons 12
bombs 12
blading 12
thon 12
icks 12
sheer 12
skii@@ 12
differ@@ 12
crocheting 12
karts 12
plastering 12
placement 12
smith 12
mitten 12
moonwalking 12
weatherman 12
courtroom 12
jingle 12
mules 12
receipt 12
waterslide 12
scroll 11
rapids 11
supporting 11
moment 11
hooded 11
deliver 11
production 11
count@@ 11
applauds 11
umbling 11
drama@@ 11
diag@@ 11
enting 11
expression 11
histo@@ 11
horns 11
coll@@ 11
enjo@@ 11
cers 11
evening 11
interrup@@ 11
tedly 11
ads 11
wrestler 11
den 11
wers 11
online 11
taining 11
na 11
gn 11
des@@ 11
maybe 11
issue 11
accepts 11
twork 11
amongst 11
da@@ 11
advertises 11
bones 11
roped 11
archeolo@@ 11
gical 11
digger 11
history 11
camer@@ 11
dep@@ 11
wid@@ 11
grid 11
skilled 11
leaned 11
prac@@ 11
lost 11
wat@@ 11
teases 11
mad 11
val@@ 11
reviews 11
wresting 11
pum@@ 11
aning 11
quet 11
quets 11
wre@@ 11
less@@ 11
desig@@ 11
dering 11
rai@@ 11
fixed 11
desk@@ 11
memo@@ 11
connecting 11
appearing 11
importance 11
greet 11
fair 11
bus@@ 11
think 11
dairy 11
winner 11
refer@@ 11
tuxe@@ 11
nine 11
photograph@@ 11
foreground 11
vocali@@ 11
kept 11
regular 11
sam@@ 11
plo@@ 11
equipped 11
mitts 11
paw 11
wom@@ 11
wound 11
shre@@ 11
varying 11
crush 11
peas 11
span@@ 11
chick@@ 11
pinch 11
seasoning 11
cocktail 11
sexy 11
liquids 11
rising 11
timed 11
inged 11
skydive 11
adven@@ 11
bath@@ 11
ading 11
chain@@ 11
tubs 11
whipping 11
commands 11
outs 11
harmon@@ 11
fellow 11
clothed 11
ony 11
hedges 11
scar@@ 11
ern 11
nette 11
spotlight 11
upwards 11
enormous 11
gy@@ 11
hundred 11
compress@@ 11
pullups 11
basic 11
unable 11
half@@ 11
leader 11
upward 11
manufac@@ 11
cyclists 11
dir@@ 11
avoiding 11
press@@ 11
mommy 11
professionally 11
dry@@ 11
tension 11
beautician 11
ume 11
allows 11
bubblegum 11
incredi@@ 11
earphones 11
aping 11
weed 11
mul@@ 11
lled 11
handkerchief 11
wad@@ 11
wo 11
grandmother 11
onlooker 11
spee@@ 11
seats 11
pper 11
flops 11
planer 11
flattens 11
produces 11
attac@@ 11
bottled 11
convey@@ 11
tely 11
lids 11
foul 11
tugs 11
bread@@ 11
crumb@@ 11
needed 11
may@@ 11
supplies 11
night@@ 11
entertain 11
master 11
cigar 11
puffs 11
exhaling 11
cloud 11
py@@ 11
portrait 11
pallet 11
acceler@@ 11
illustration 11
eg@@ 11
clown 11
bundle 11
dolls 11
rein@@ 11
destroy 11
childrens 11
organized 11
molds 11
yan@@ 11
rectangle 11
mas 11
spirited 11
charging 11
dow@@ 11
lowed 11
suburban 11
dangling 11
chor@@ 11
belches 11
sibling 11
casi@@ 11
guitarist 11
perf@@ 11
hispanic 11
fon@@ 11
ornate 11
cursive 11
fting 11
kaya@@ 11
attem@@ 11
deal@@ 11
mock 11
must 11
rescu@@ 11
whale 11
windsurfer 11
aqu@@ 11
lapsed 11
tieing 11
swad@@ 11
somewhat 11
sometimes 11
chisels 11
zens 11
mes@@ 11
lantern 11
hollow 11
bait 11
eat@@ 11
ought 11
bobs 11
kia 11
drips 11
penny 11
worn 11
samsung 11
cheerleader 11
sidelines 11
flan@@ 11
zoomed 11
clicking 11
lf 11
bark 11
uncooked 11
dicing 11
cucumber 11
lumber 11
rumma@@ 11
bay 11
potters 11
jerk 11
snatches 11
suc@@ 11
weightlifter 11
vaccu@@ 11
waste 11
cleanser 11
wrin@@ 11
soles 11
sable 11
steaming 11
stars 11
hurts 11
balanced 11
fies 11
mirro@@ 11
sizzling 11
collected 11
pack@@ 11
hotdog 11
robots 11
cosplay 11
events 11
100 11
handful 11
synchroni@@ 11
chiropractic 11
flexing 11
relaxes 11
necks 11
ummy 11
onesie 11
positioning 11
inde@@ 11
wades 11
eps 11
sad 11
leg@@ 11
balo@@ 11
curlers 11
swee@@ 11
parlor 11
blou@@ 11
dess@@ 11
toen@@ 11
kitten 11
joy 11
soldier 11
pir@@ 11
employees 11
contem@@ 11
simp@@ 11
es@@ 11
yer 11
coast 11
steer 11
halt 11
spiky 11
forearm 11
bic@@ 11
obe@@ 11
dyes 11
girl@@ 11
hop@@ 11
iner 11
sandwiches 11
feeder 11
wan@@ 11
doughnuts 11
accompanying 11
mim@@ 11
grain 11
hummingbird 11
spin@@ 11
omelet 11
barb@@ 11
sk 11
navel 11
lau@@ 11
hones 11
amer@@ 11
acher 11
dispenses 11
merized 11
wool@@ 11
hitter 11
university 11
rattles 11
mara@@ 11
skii 11
tball 11
sci@@ 11
beds 11
mass@@ 11
ager 11
gardening 11
felting 11
sleepy 11
tet 11
tip@@ 11
saddle 11
transaction 11
spool 11
harne@@ 10
vie@@ 10
rail@@ 10
direc@@ 10
reenacting 10
rehearsing 10
ruptly 10
compla@@ 10
spon@@ 10
reas@@ 10
kin@@ 10
silent 10
plugged 10
ater 10
ide@@ 10
spokes 10
share 10
achers 10
clai@@ 10
runway 10
violin@@ 10
ado@@ 10
congre@@ 10
posit@@ 10
ey 10
thighs 10
finger@@ 10
zone 10
ators 10
precise 10
vibrating 10
ek 10
ue 10
slight 10
oes 10
mach@@ 10
vic@@ 10
zily 10
vine 10
arran@@ 10
gn@@ 10
therboard 10
technology 10
slot 10
specif@@ 10
tribu@@ 10
reg@@ 10
tary 10
ttered 10
para@@ 10
staff 10
stret@@ 10
vent 10
gril@@ 10
peppers 10
ake 10
sample 10
jugg@@ 10
rel 10
rise 10
paraglider 10
aches 10
thes 10
show@@ 10
pushup 10
peri@@ 10
repeats 10
scat@@ 10
ell 10
tally 10
lish 10
transparent 10
rods 10
ridden 10
village 10
concentr@@ 10
whir@@ 10
rea@@ 10
popped 10
expla@@ 10
zen 10
rakes 10
tissues 10
boarder 10
tique 10
stages 10
unit 10
grap@@ 10
lad 10
waved 10
embroid@@ 10
swir@@ 10
paint@@ 10
cle 10
toothpaste 10
rout@@ 10
ounds 10
ushed 10
snowplow 10
peace 10
strain@@ 10
ppers 10
symbol 10
fish@@ 10
ise 10
sided 10
floo@@ 10
sa 10
gular 10
smacking 10
wrapper 10
separately 10
ann@@ 10
stem 10
vin@@ 10
sof@@ 10
coordin@@ 10
crou@@ 10
clists 10
plan 10
slicer 10
´s 10
ut 10
patr@@ 10
stances 10
bling 10
roof@@ 10
sol 10
inal 10
conven@@ 10
trousers 10
carto@@ 10
padding 10
rotisserie 10
kles 10
tunes 10
saute@@ 10
seafood 10
reli@@ 10
camera@@ 10
fam@@ 10
singers 10
sons 10
watermel@@ 10
violently 10
perfor@@ 10
wait@@ 10
mov@@ 10
bac@@ 10
spla@@ 10
ere 10
practi@@ 10
sack 10
reci@@ 10
need@@ 10
speed@@ 10
ler@@ 10
peacefully 10
mbs 10
ner@@ 10
shined 10
textile 10
prepped 10
tattooing 10
cell@@ 10
televi@@ 10
mates 10
poor 10
snakes 10
snowing 10
saxap@@ 10
colle@@ 10
tunnel 10
rooms 10
orchestr@@ 10
mb 10
scanner 10
plucking 10
racketball 10
shuttlecock 10
xbox 10
rubic 10
raquetball 10
situps 10
sking 10
slopes 10
lass@@ 10
testimony 10
grav@@ 9
compu@@ 9
danger@@ 9
twe@@ 9
ette 9
blin@@ 9
amoun@@ 9
ash 9
barri@@ 9
shri@@ 9
ain@@ 9
pas@@ 9
gos 9
ace 9
ctions 9
aucti@@ 9
scho@@ 9
smoo@@ 9
enly 9
athle@@ 9
barbe@@ 9
cock@@ 9
ite@@ 9
gl@@ 9
pup@@ 9
iden@@ 9
thum@@ 9
va@@ 9
exerci@@ 9
swim@@ 9
fab@@ 9
ped@@ 9
plat@@ 9
slow@@ 9
fort 9
newsp@@ 9
automa@@ 9
fou@@ 9
fe 9
train@@ 9
cause 9
cast@@ 9
arro@@ 9
rt 9
suspen@@ 9
dum@@ 9
phys@@ 9
beauti@@ 9
stenci@@ 9
navig@@ 9
ji@@ 9
sad@@ 9
impress@@ 9
sher 9
youn@@ 9
iness 9
stum@@ 9
stain@@ 9
gger 9
oni@@ 9
deter@@ 9
hal@@ 9
stro@@ 9
appar@@ 9
pier@@ 9
flat@@ 9
scal@@ 9
ett@@ 9
ld 9
instruc@@ 9
uk@@ 9
unti@@ 9
pop@@ 9
exhibit@@ 9
uni@@ 9
ided 9
scope 9
pizz@@ 9
accordi@@ 9
saxop@@ 9
shoela@@ 9
ine@@ 8
paragl@@ 8
ires 8
indic@@ 8
od 8
vil 8
cour@@ 8
00 8
cheer@@ 8
-@@ 8
adver@@ 8
wels 8
mod@@ 8
rubb@@ 8
repor@@ 8
arch@@ 8
scr@@ 8
apper 8
neigh@@ 8
gor@@ 8
electr@@ 8
sociali@@ 8
7@@ 8
happ@@ 8
slee@@ 8
inclu@@ 8
tem@@ 8
barbecu@@ 8
base@@ 8
web@@ 8
percus@@ 8
ality 8
ush@@ 8
stan@@ 8
mp 8
power@@ 8
barre@@ 8
vices 8
nam@@ 8
bob@@ 8
ened 8
feat@@ 8
success@@ 8
batter@@ 8
rested 8
afr@@ 8
pie@@ 8
dau@@ 8
buil@@ 8
mata@@ 8
tee@@ 8
ridge 8
dozer 8
tage 8
rt@@ 8
selfi@@ 8
egg@@ 8
ggling 8
cow@@ 8
laugh@@ 8
bage 8
mming 8
competit@@ 8
grou@@ 8
practic@@ 8
sex@@ 8
cali@@ 8
comple@@ 8
gym@@ 8
cos@@ 8
sus@@ 8
chur@@ 8
xes 8
awk@@ 8
stir@@ 8
seg@@ 8
gra@@ 8
concer@@ 8
skate@@ 8
itch@@ 8
extingui@@ 8
pige@@ 8
pic 8
ounding 8
zoom@@ 8
thro@@ 8
submer@@ 8
poc@@ 8
scor@@ 8
mush@@ 8
exhi@@ 8
xylo@@ 8
trape@@ 8
cred@@ 7
aggre@@ 7
dun@@ 7
ight 7
teri@@ 7
conv@@ 7
condu@@ 7
impor@@ 7
camp@@ 7
stair@@ 7
land@@ 7
ya@@ 7
tance 7
recei@@ 7
ale 7
trav@@ 7
ream 7
joh@@ 7
rat@@ 7
argu@@ 7
garden@@ 7
ath 7
comp@@ 7
lead@@ 7
enthusi@@ 7
9 7
trap@@ 7
dress@@ 7
shampo@@ 7
excerci@@ 7
ep 7
discus@@ 7
ef@@ 7
progre@@ 7
butter@@ 7
phan@@ 7
stic@@ 7
fic 7
thin@@ 7
sung 7
xing 7
comment@@ 7
mechan@@ 7
ingredi@@ 7
chief 7
stry 7
skil@@ 7
lity 7
partic@@ 7
ram@@ 7
instrumen@@ 7
multi@@ 7
calli@@ 7
boar@@ 7
surroun@@ 7
pad@@ 7
shuff@@ 7
secu@@ 7
engr@@ 7
crow@@ 7
fris@@ 7
exclai@@ 7
synchr@@ 7
qui@@ 7
part@@ 7
skir@@ 7
ese 7
kni@@ 7
cuc@@ 7
ggles 7
visi@@ 7
vering 7
thumb@@ 7
rist@@ 7
dark@@ 7
doo 7
inf@@ 7
acti@@ 7
pine@@ 7
gang@@ 7
energe@@ 7
ells 7
ller 7
bott@@ 7
droo@@ 7
lol@@ 7
inst@@ 7
team@@ 7
woo@@ 7
oppon@@ 7
hel@@ 7
ever@@ 7
tric@@ 7
streng@@ 7
tten 7
ree 7
uts 7
scrat@@ 7
hover@@ 7
spective 7
straighten@@ 7
jet@@ 7
apy 7
vil@@ 7
butt@@ 7
desc@@ 7
tread@@ 7
spra@@ 7
bathro@@ 7
rhy@@ 7
raz@@ 7
tromb@@ 7
testi@@ 7
mself 6
scop@@ 6
skill@@ 6
secur@@ 6
zo@@ 6
apes 6
medic@@ 6
rema@@ 6
calcula@@ 6
by@@ 6
len 6
tighten@@ 6
proper@@ 6
circu@@ 6
chr@@ 6
profess@@ 6
rock@@ 6
elder 6
op 6
pitch@@ 6
frid@@ 6
shot@@ 6
apr@@ 6
weight@@ 6
spor@@ 6
activ@@ 6
contin@@ 6
ners 6
bbing 6
oughly 6
sig@@ 6
pou@@ 6
stov@@ 6
sett@@ 6
wn@@ 6
ee 6
bare@@ 6
brac@@ 6
kit@@ 6
rece@@ 6
rando@@ 6
pyram@@ 6
intric@@ 6
hamm@@ 6
attrac@@ 6
ful@@ 6
spea@@ 6
cases 6
cric@@ 6
styli@@ 6
low@@ 6
particip@@ 6
ei@@ 6
cartwhe@@ 6
kee@@ 6
tors 6
attemp@@ 6
tory 6
shly 6
automo@@ 6
urant 6
ttering 6
snat@@ 6
oly@@ 6
ough@@ 6
ility 6
est 6
gam@@ 6
gui@@ 6
execu@@ 6
eyel@@ 6
saf@@ 6
gry 6
9@@ 6
rab@@ 6
kar@@ 6
dou@@ 6
na@@ 6
dio 6
tty 6
mma@@ 6
numb@@ 6
> 6
nerv@@ 6
gling 6
? 6
gol@@ 6
grin@@ 6
var@@ 6
did@@ 6
ula@@ 6
pow@@ 6
aster 6
sequ@@ 6
bran@@ 6
lif@@ 6
mas@@ 6
forma@@ 6
sole 6
poli@@ 6
anchor@@ 6
park@@ 6
potat@@ 6
pass@@ 6
inet 6
tric 6
frustr@@ 6
addy 6
touri@@ 6
twir@@ 6
lolli@@ 6
rts 5
rehear@@ 5
express@@ 5
tician 5
micro@@ 5
tom 5
tual 5
toge@@ 5
crocodi@@ 5
prop@@ 5
deta@@ 5
/@@ 5
knuck@@ 5
ey@@ 5
archaeolo@@ 5
ie 5
alter@@ 5
tel 5
outh 5
,@@ 5
inspe@@ 5
profession@@ 5
pati@@ 5
simultane@@ 5
ues 5
thered 5
proced@@ 5
accomp@@ 5
metal@@ 5
spa@@ 5
cin@@ 5
ain 5
present@@ 5
artic@@ 5
ga 5
ond 5
fore 5
ushing 5
fel@@ 5
exc@@ 5
charac@@ 5
allow 5
onic 5
cture 5
one@@ 5
pol@@ 5
bility 5
bubb@@ 5
rol@@ 5
stache 5
maneu@@ 5
ari 5
ident 5
twen@@ 5
ow@@ 5
speciali@@ 5
ycle 5
grab@@ 5
alumin@@ 5
pily 5
embro@@ 5
extin@@ 5
tou@@ 5
cock 5
flin@@ 5
vege@@ 5
’@@ 5
bled 5
idding 5
ratt@@ 5
pean@@ 5
todd@@ 5
tents 5
graffit@@ 5
iler 5
yach@@ 5
pav@@ 5
asting 5
progr@@ 5
org@@ 5
stick@@ 5
simu@@ 5
congrat@@ 5
cushi@@ 5
nip@@ 5
volle@@ 5
aper 5
swal@@ 5
inhal@@ 5
snor@@ 4
gir@@ 4
gators 4
intervie@@ 4
chee@@ 4
gist 4
dings 4
mani@@ 4
kin 4
modi@@ 4
grat@@ 4
lear@@ 4
dig@@ 4
jewel@@ 4
flatten@@ 4
sever@@ 4
prepar@@ 4
coal 4
trance 4
stun@@ 4
arded 4
ier 4
sna@@ 4
elec@@ 4
birth@@ 4
horizon@@ 4
noi@@ 4
multicolo@@ 4
marsh@@ 4
ame 4
pli@@ 4
assemb@@ 4
trun@@ 4
semb@@ 4
bol@@ 4
squar@@ 4
ets 4
note@@ 4
ano 4
mine 4
oud 4
! 4
loos@@ 4
pede@@ 4
dril@@ 4
vir@@ 4
nee@@ 4
sement 4
hear@@ 4
individu@@ 4
zzle 4
chiroprac@@ 4
otic 4
ption 4
ys@@ 4
ghten@@ 4
diff@@ 4
ides 4
simi@@ 4
rhyth@@ 4
applic@@ 4
congreg@@ 4
ddle 4
hes 4
time@@ 4
eld 4
sic@@ 4
conta@@ 4
num@@ 4
fair@@ 4
arc@@ 4
ais@@ 4
astic 4
fur@@ 4
ass 4
atting 4
efully 4
ker@@ 4
ghter 4
ene@@ 4
fini@@ 4
opping 4
cool@@ 4
gement 4
zz 4
ttery 4
gerator 4
stac@@ 4
rele@@ 4
fing@@ 4
mbo@@ 4
ef 4
joy@@ 4
comman@@ 4
pho@@ 4
station@@ 4
trol@@ 4
shov@@ 4
ounge 4
cigar@@ 4
surf@@ 4
facts 3
val 3
near@@ 3
thre@@ 3
cus@@ 3
tween 3
techn@@ 3
difficul@@ 3
christ@@ 3
dd 3
stering 3
bene@@ 3
tern 3
&@@ 3
ongs 3
bit@@ 3
tter@@ 3
graphed 3
strating 3
iture 3
perfe@@ 3
[ 3
ela@@ 3
nat@@ 3
produ@@ 3
monit@@ 3
gher 3
idly 3
é 3
wren@@ 3
thor@@ 3
del 3
ill 3
cano@@ 3
white@@ 3
capo@@ 3
bystan@@ 3
diam@@ 3
summer@@ 3
holid@@ 3
ited 3
# 3
eth@@ 3
home@@ 3
ax@@ 3
ghting 3
four@@ 3
atedly 3
ized 3
kic@@ 3
resta@@ 3
rap@@ 3
weath@@ 3
resid@@ 3
moi@@ 3
amus@@ 3
sim@@ 3
custom@@ 3
counter@@ 3
provid@@ 3
reve@@ 3
mex@@ 3
objec@@ 3
enthusiast@@ 3
stud@@ 3
tast@@ 3
nam 3
gent 3
atly 3
cann@@ 3
port 3
erci@@ 3
quest@@ 3
baske@@ 3
bever@@ 3
ckey 3
touch@@ 3
grocer@@ 3
ope@@ 3
uck@@ 3
ffy 3
tially 3
inspec@@ 3
ena 3
aff@@ 3
indu@@ 3
invol@@ 3
conte@@ 3
ddy 3
ino 3
mir@@ 3
erie 3
dless 3
suit@@ 3
horiz@@ 3
cov@@ 3
ftly 3
vigor@@ 3
mics 3
passion@@ 3
boarders 3
compan@@ 3
peop@@ 3
stit@@ 3
smel@@ 3
dily 3
masse@@ 3
elev@@ 3
ao@@ 3
kah 3
fee@@ 3
mattre@@ 3
explan@@ 3
yar@@ 3
tradit@@ 3
sion@@ 3
vibr@@ 3
clar@@ 3
nis 3
geridoo 3
recor@@ 3
acou@@ 3
sidel@@ 3
marac@@ 3
sing@@ 3
flash@@ 3
orch@@ 3
xy@@ 3
tice 3
ula 3
adjust@@ 3
fit@@ 3
correc@@ 3
mech@@ 3
ribb@@ 3
ials 3
graph@@ 3
tight@@ 3
yaw@@ 3
wet@@ 3
stom@@ 3
fier 3
audit@@ 2
tane@@ 2
attach@@ 2
answ@@ 2
listen@@ 2
vid@@ 2
wrest@@ 2
tutori@@ 2
ordin@@ 2
appli@@ 2
hit@@ 2
temper@@ 2
tumb@@ 2
pit@@ 2
whist@@ 2
appla@@ 2
machin@@ 2
mannequ@@ 2
nap@@ 2
encoura@@ 2
ickly 2
ighs 2
meas@@ 2
trampo@@ 2
blon@@ 2
canv@@ 2
jamas 2
guitari@@ 2
mathema@@ 2
numer@@ 2
alphab@@ 2
good@@ 2
ae@@ 2
ghted 2
topp@@ 2
plies 2
scul@@ 2
fashi@@ 2
foun@@ 2
ques 2
guage 2
knel@@ 2
stal 2
chisel@@ 2
craw@@ 2
cele@@ 2
lowe@@ 2
yon 2
kup 2
sear@@ 2
sie 2
ican 2
ola 2
stead@@ 2
macar@@ 2
drive@@ 2
+ 2
balcon@@ 2
coura@@ 2
ancho@@ 2
adole@@ 2
close@@ 2
anish 2
jel@@ 2
dboard 2
dump@@ 2
excit@@ 2
wic@@ 2
vide@@ 2
twin@@ 2
eting 2
them@@ 2
: 2
humming@@ 2
dered 2
cular 2
verbal@@ 2
camoufla@@ 2
blan@@ 2
gest@@ 2
suppor@@ 2
again@@ 2
aff 2
roast@@ 2
prep@@ 2
runing 2
resi@@ 2
straight@@ 2
javel@@ 2
edly 2
deser@@ 2
vehi@@ 2
path@@ 2
sity 2
walk@@ 2
microp@@ 2
ssi@@ 2
croche@@ 2
knit@@ 2
lip@@ 2
urry 2
concre@@ 2
elabor@@ 2
screw@@ 2
smart@@ 2
ety 2
airing 2
hot@@ 2
dge@@ 2
gau@@ 2
spat@@ 2
cylin@@ 2
neck@@ 2
toma@@ 2
bed@@ 2
mechani@@ 2
too@@ 2
rage 2
mol@@ 2
ghtly 2
shin@@ 2
champ@@ 2
ference 2
versity 2
shuttle@@ 2
inets 2
instru@@ 2
shado@@ 2
guit@@ 2
melo@@ 2
;@@ 2
% 2
contrap@@ 2
alph@@ 2
rubi@@ 2
stran@@ 2
​@@ 2
possi@@ 2
visu@@ 2
ercial 2
accor@@ 2
buc@@ 2
travel@@ 2
apar@@ 2
– 2
wel 2
logy 2
"@@ 2
whil@@ 2
memb@@ 2
retri@@ 2
scent 2
ttle@@ 2
slalo@@ 2
clou@@ 2
kel 2
environ@@ 2
silver@@ 2
tu 2
aerob@@ 2
sm 2
n'@@ 2
contain@@ 1
arche@@ 1
techno@@ 1
lage 1
posite 1
tboard 1
initi@@ 1
ficial 1
ilities 1
@ 1
oneer 1
sizz@@ 1
solu@@ 1
parach@@ 1
honey@@ 1
festi@@ 1
igh@@ 1
stly 1
oce@@ 1
handker@@ 1
cand@@ 1
acrobat@@ 1
applau@@ 1
â@@ 1
brush@@ 1
tionist 1
colo@@ 1
ssel 1
hall@@ 1
ira 1
acciden@@ 1
pump@@ 1
jack@@ 1
box@@ 1
gar 1
ctly 1
ceram@@ 1
gymnast@@ 1
ballo@@ 1
flexi@@ 1
sandwic@@ 1
skele@@ 1
hyster@@ 1
decor@@ 1
lowing 1
thed 1
mach 1
mail@@ 1
carri@@ 1
usual 1
depar@@ 1
dodge@@ 1
bei@@ 1
`@@ 1
enth@@ 1
slic@@ 1
choco@@ 1
pers@@ 1
nea@@ 1
aquari@@ 1
alli@@ 1
\ 1
fau@@ 1
mely 1
ure@@ 1
ingre@@ 1
ener@@ 1
vacuum@@ 1
groom@@ 1
gymn@@ 1
through@@ 1
techni@@ 1
quarter@@ 1
meth@@ 1
etly 1
crosse 1
selves 1
ashi@@ 1
strai@@ 1
regar@@ 1
secon@@ 1
derly 1
chet 1
automobi@@ 1
mort@@ 1
beani@@ 1
dough@@ 1
|@@ 1
wav@@ 1
moder@@ 1
tish 1
apist 1
breast@@ 1
debr@@ 1
rup@@ 1
foc@@ 1
acro@@ 1
ange 1
ees 1
remov@@ 1
toi@@ 1
equip@@ 1
peel@@ 1
motori@@ 1
ë@@ 1
let@@ 1
dem 1
minton 1
brie@@ 1
lean@@ 1
oy@@ 1
contro@@ 1
auditori@@ 1
idoo 1
mbals 1
è@@ 1
mbal 1
stop@@ 1
milit@@ 1
airy 1
monop@@ 1
ketball 1
tournam@@ 1
= 1
umber 1
sax@@ 1
abble 1
fess@@ 1
court@@ 1
elele 1
yball 1
manipu@@ 1
vaul@@ 1
compon@@ 1
ential 1
ught 1
jap@@ 1
ular 1
mically 1
[@@ 1
refri@@ 1
skat@@ 1
lities 1
za 1
spu@@ 1
rotiss@@ 1
robo@@ 1
masco@@ 1
gad@@ 1
ste 1
atus 1
performan@@ 1
tobac@@ 1
scrap@@ 1
treat@@ 1
gen 1
ssively 1
dribb@@ 1
loween 1
sledge@@ 1
bably 1
itish 1
cus 1
multic@@ 1
somer@@ 1
tech@@ 1
accompan@@ 1
adul@@ 1
squat@@ 1
beau@@ 1
stern 1
sten@@ 1
windo@@ 1
popsic@@ 1
tually 1
] 1
chine@@ 1
ather 1
japan@@ 1
roman@@ 1
orn@@ 1
tra 1
trad@@ 1
emplo@@ 1
airs 1
tour@@ 1
boo 1
tobogg@@ 1
“ 1
mingly 1
iss@@ 1
gent@@ 1
eping 1
ply@@ 1
ifier 1
yor@@ 1
religi@@ 1
bot@@ 1
kins 1
manipula@@ 1
bel 1
penci@@ 1
