#version: 0.2
n ]</w>
[ n]</w>
i n
in g</w>
t h
a n
i s</w>
th e</w>
an d</w>
t o</w>
i n</w>
a r
i t
o f</w>
o u
o n</w>
th e
l a
e s</w>
l e</w>
h i
h o
w it
wit h</w>
o n
s t
e d</w>
a l
p la
e r</w>
w hi
ou n
ar e</w>
t ing</w>
whi le</w>
r e
a t</w>
o w
r a
a n</w>
o m
u s
y ing</w>
k ing</w>
d ing</w>
h is</w>
a s</w>
i t</w>
the r</w>
s om
r o
e r
t w
y oun
youn g</w>
o r
r i
e a
tw o</w>
h er</w>
on e</w>
o ther</w>
the n</w>
b e
pla ying</w>
c h
a t
s ho
l i
h e</w>
ou t</w>
d o
e l
o v
ow n</w>
ho w</w>
u p</w>
d e
i c
k s</w>
som e
sho w
d own</w>
s it
m a
t s</w>
l y</w>
s i
in to</w>
us ing</w>
d e</w>
l o
d s</w>
p u
a c
w h
s e
g e
b y</w>
f or
g e</w>
oun d</w>
an other</w>
ho l
e n</w>
u n
e n
th r
f o
i r</w>
ar ound</w>
sit ting</w>
the ir</w>
l it
t al
som e</w>
p p
si de</w>
t le</w>
f ro
st an
s m
some one</w>
lit tle</w>
fro m</w>
y s</w>
al l</w>
st ra
c h</w>
s h
l ing</w>
s p
m on
l ar
m p
g h
g h</w>
o f
de mon
lar ge</w>
demon stra
d i
t a
l e
ou t
u r
th at</w>
e x
do ing</w>
of f</w>
v ing</w>
ov er</w>
pla ys</w>
an c
t ting</w>
e ar
w al
j u
the m</w>
t i
sm all</w>
w at
hol ding</w>
fo r</w>
' s</w>
f e
a b
k e</w>
stan ding</w>
s s
d anc
tal king</w>
t o
p er
w a
b l
the y</w>
hi m</w>
show ing</w>
l s</w>
s he</w>
out side</w>
be ing</w>
b ac
lo o
m ov
re a
us es</w>
c t
s c
o p
m ing</w>
ear ing</w>
thr ow
ab out</w>
a l</w>
ch ing</w>
f i
e ra
ou gh</w>
w earing</w>
r un
r ying</w>
s t</w>
k es</w>
o o
t es</w>
c u
per for
v e</w>
thr ough</w>
h a
g ing</w>
show n</w>
s s</w>
to ge
toge ther</w>
ju mp
on g</w>
n ing</w>
ri ding</w>
o l
bac k</w>
danc ing</w>
se v
c om
era l</w>
sev eral</w>
la u
t e
p s</w>
s w
th ing</w>
v er
ea ch</w>
pla y</w>
ch es</w>
it e</w>
p re
r u
c k</w>
a pp
do es</w>
in s</w>
g i
demonstra ting</w>
t ed</w>
some thing</w>
lo w</w>
us h
demonstra tes</w>
wh ite</w>
ma king</w>
t rying</w>
u l
it s</w>
pp ing</w>
v es</w>
p a
p ar
o r</w>
s a
w or
ro ss</w>
lau gh
r ed</w>
n t</w>
l ow
re e</w>
ex pla
in side</w>
sit s</w>
d o</w>
show s</w>
ch e
wal king</w>
s k
ver y</w>
pu l
for e</w>
be fore</w>
th ree</w>
ma ke</w>
p ro
g a
sp ea
stan ds</w>
h as</w>
di f
st ar
d ri
t ri
sh a
fe re
m s</w>
hol ds</w>
g o
ac ross</w>
dif fere
throw s</w>
b u
b o
differe nt</w>
b ing</w>
t h</w>
i l
b la
p ra
on to</w>
q u
fo l
e e
f al
s el
in d</w>
gh t</w>
p o
bla ck</w>
bl ow
c le
ic ks</w>
pra ct
pract ic
l ong</w>
pla c
d ed</w>
c li
jump s</w>
run s</w>
li f
wh o</w>
s e</w>
f a
wal ks</w>
c on
ge tting</w>
wat ching</w>
d er</w>
be h
pu tting</w>
beh ind</w>
p ush
w as</w>
l ed</w>
t ur
in ing</w>
d es</w>
wat ch</w>
l ying</w>
c i
s n
cli m
u e</w>
throw ing</w>
mov ing</w>
r e</w>
perfor ming</w>
ea ting</w>
c ar
b r
p e
h el
el e
i c</w>
hi gh</w>
loo king</w>
pu ts</w>
s ing</w>
us e</w>
t e</w>
la ying</w>
er e</w>
run ning</w>
ha ving</w>
out do
ar d</w>
pu t</w>
bl ue</w>
g re
tal ks</w>
p ing</w>
ar ds</w>
b e</w>
fal ls</w>
fi l
se en</w>
in ging</w>
f ul
w oo
sw i
re c
ea r</w>
g s</w>
wh at</w>
ex t</w>
n ext</w>
laugh ing</w>
ma kes</w>
the re</w>
ta kes</w>
op en</w>
ge ts</w>
d y</w>
a ga
t er</w>
de n</w>
loo ks</w>
te mp
jump ing</w>
at temp
sel f</w>
be g
en ing</w>
k n
i r
g g
ele ct
ou s</w>
wor king</w>
practic ing</w>
cu t</w>
k ed</w>
r in
tri es</w>
woo den</w>
g ra
a d
s li
ic al</w>
de sc
f li
m an
b s</w>
h ea
al ong</w>
t ow
it ting</w>
c oo
s u
ro l
ic king</w>
sh ing</w>
s ur
li ke</w>
v i
h an
expla ining</w>
wa y</w>
y el
ou r</w>
h its</w>
gi ving</w>
ge t</w>
go ing</w>
s low
er ing</w>
m ming</w>
desc ri
c ra
wh en</w>
ss ed</w>
ri des</w>
w i
s es</w>
ma le</w>
m i
a f
star ts</w>
pre par
slow ly</w>
c an</w>
b i
a way</w>
s h</w>
or s</w>
ch ed</w>
c at
n s</w>
elect ri
c lo
c ol
ss ing</w>
beg ins</w>
gre en</w>
h itting</w>
f la
d ly</w>
ur ing</w>
mov es</w>
spea king</w>
al ly</w>
st and</w>
wh ere</w>
c a
bu t</w>
wat ches</w>
c la
blow ing</w>
ic k</w>
m e
electri c</w>
ss es</w>
cu tting</w>
m o
expla ins</w>
i ous</w>
er ed</w>
d uring</w>
ic k
at e</w>
r y</w>
spea ks</w>
s ea
d re
ta king</w>
pa in
fa st</w>
t en
af ter</w>
cle an
sn ow
v ar
mov e</w>
p le</w>
perfor ms</w>
p icks</w>
a s
laugh s</w>
aga in
var ious</w>
blow s</w>
again st</w>
d ra
sea ted</w>
l es</w>
in gs</w>
for th</w>
st ru
whi ch</w>
b le</w>
m self</w>
outdo ors</w>
n e
i ling</w>
st ing</w>
c ing</w>
w ra
hi mself</w>
d ar
fe w</w>
l ou
j o
er s</w>
t ly</w>
un der</w>
ha ve</w>
ful ly</w>
perfor m</w>
n o
cle an</w>
dri ving</w>
s qu
ol der</w>
dre ssed</w>
st ic</w>
danc e</w>
s inging</w>
tur ns</w>
en s</w>
s it</w>
h u
plac es</w>
m e</w>
p ou
push ing</w>
tow ards</w>
rec or
sk i
ri ght</w>
k icks</w>
in do
n ear</w>
d u
bi g</w>
f in
wal k</w>
y ed</w>
v y</w>
s o</w>
m p</w>
c king</w>
swi mming</w>
g o</w>
a ge</w>
br ush
w ing</w>
hi t</w>
ro w</w>
el ing</w>
d rin
gi ves</w>
w ard</w>
hea vy</w>
f our</w>
dar k</w>
go es</w>
pul ls</w>
c ks</w>
pp ed</w>
m ul
l ea
c re
push es</w>
b rea
yel low</w>
clim bing</w>
ear s</w>
ch an
snow y</w>
m ar
bo th</w>
t el
c o
c ov
at ta
lif ts</w>
p in
a ting</w>
d ro
ti e</w>
man y</w>
lif ting</w>
b oun
r ing</w>
sh ar
r on
m us
ju mp</w>
g ed</w>
sp e
sh es</w>
outdo or</w>
n ar
bu il
pro per
ju gg
f u
qu ick
proper ly</w>
col or
w r
indo or</w>
app lying</w>
x ing</w>
li st
quick ly</w>
li es</w>
loo k</w>
e en</w>
th row</w>
f f
t er
sa me</w>
bac k
rea dy</w>
sho o
t y</w>
c ho
tw een</w>
s er
ri de</w>
lau gh</w>
it ing</w>
be tween</w>
atta ched</w>
fe e
com pe
w ards</w>
g ging</w>
s low</w>
op ens</w>
k icking</w>
clean ing</w>
tal k</w>
pul ling</w>
ta ke</w>
mul ti
la r</w>
te en
op s</w>
ma de</w>
le e
l an
multi ple</w>
fe male</w>
s ed</w>
g es</w>
ful l</w>
ol d</w>
c e</w>
re p
ra i
hel d</w>
st re
pla yed</w>
for ward</w>
attemp ting</w>
teen age</w>
cov ered</w>
attemp ts</w>
pin k</w>
t ra
danc es</w>
b low</w>
w e
mus ical</w>
fol low
che ering</w>
c ur
c e
rol ling</w>
nar ra
fu l</w>
be n
b bing</w>
prepar ing</w>
pla stic</w>
d er
ea ts</w>
c l
t ou
fi r
cu ts</w>
com p
stre t
descri bing</w>
app ears</w>
coo king</w>
rea ding</w>
spe ci
r an
ov e</w>
wa shing</w>
di sc
us h</w>
no t</w>
w in
sho w</w>
ru n</w>
ro a
descri b
p i
u p
la ys</w>
plac ing</w>
p er</w>
el y</w>
con t
ab ove</w>
c es</w>
t ea
wor ks</w>
fir st</w>
sa ys</w>
lou d</w>
back wards</w>
b ur
u ff
describ es</w>
us ed</w>
c ti
n y</w>
com es</w>
w el
sw inging</w>
b al
disc us
ma ss
i g
di s
in stru
sur f
sm iling</w>
list ening</w>
in ning</w>
che er</w>
w ere</w>
sp ra
ho t</w>
fin i
clim bs</w>
clo se</w>
se t</w>
brush ing</w>
f t</w>
at es</w>
us t</w>
sp ins</w>
ski ing</w>
m ed</w>
li gh
un ny</w>
sm o
j ust</w>
st s</w>
s hi
d d
t ic
c r
th is</w>
c ou
app lies</w>
on al</w>
s lee
hol d</w>
er ci
star t</w>
pro per</w>
the m
k ee
el s</w>
y o
wi th
e at</w>
aga in</w>
han ging</w>
fli ps</w>
pul l</w>
g u
fol ding</w>
z ed</w>
prepar es</w>
wor k</w>
yo u</w>
ch ri
re move</w>
e mp
chri st
cat ches</w>
them sel
themsel ves</w>
rep ea
m en
f ac
v ed</w>
mass a
m as</w>
il l</w>
christ mas</w>
st ri
cra w
en jo
fol d</w>
kn e
te dly</w>
kn o
shar p
p icking</w>
k i
c al
po in
c ro
sp inning</w>
ru bbing</w>
op ening</w>
ee z
t ry</w>
pain ting</w>
fo re
ha pp
h er
repea tedly</w>
or e</w>
drin king</w>
tur ning</w>
stra i
sha king</w>
p ed</w>
l it</w>
app ly</w>
fal ling</w>
clim b</w>
ig n</w>
her self</w>
bal anc
b a
s ings</w>
s si
ne w</w>
sc ra
dro ps</w>
sw ings</w>
pre ten
narra tes</w>
sc rea
c ting</w>
a m
le ss</w>
cou ra
fee ding</w>
c oun
br own</w>
r s</w>
en coura
or an
fore ign</w>
el se</w>
cla pping</w>
car e
be side</w>
t en</w>
oran ge</w>
le ft</w>
jugg ling</w>
with out</w>
recor ding</w>
rea d</w>
m u
cre ate</w>
color ed</w>
s la
pul led</w>
an s</w>
surf ing</w>
comp le
tea ching</w>
sh ed</w>
ex erci
speci al</w>
g li
emp ty</w>
oo d</w>
buil ding</w>
in ter
par tic
p ick</w>
h ard</w>
pu n
pou ring</w>
n a
cont in
tow ard</w>
fil ming</w>
at ed</w>
t ying</w>
sur r
sk ating</w>
c rying</w>
b ling</w>
re moves</w>
in ed</w>
i f</w>
demonstra te</w>
se e</w>
me chan
che ers</w>
care fully</w>
st e
f all</w>
tel ls</w>
slee ping</w>
mechan ical</w>
c ed</w>
ad ju
wel l</w>
gra bs</w>
dri ves</w>
par a
re ally</w>
practic e</w>
compe ting</w>
cl ear</w>
x ed</w>
ti al</w>
n o</w>
fil led</w>
ss y</w>
co ra
c ts</w>
ru bs</w>
pou rs</w>
ic e</w>
vi e
su c
an i
fla t</w>
wra pping</w>
hel ping</w>
un der
p ush</w>
sha ving</w>
le ar
se e
rol ls</w>
sha kes</w>
k ick</w>
plac ed</w>
op era
h ear
in e</w>
w s</w>
un ti
sm oo
sh uff
hel ps</w>
ga the
surr oun
s ly</w>
f ron
e i
be low</w>
ti c</w>
di ving</w>
t u
ou sly</w>
hel p</w>
in st
f lo
wr iting</w>
wa ving</w>
p es</w>
han d
st ops</w>
se tting</w>
re moving</w>
fron t</w>
st ed</w>
p e</w>
ct ed</w>
y our</w>
w ea
unti l</w>
contin u
b us
al so</w>
y a
ra cing</w>
c t</w>
n ed</w>
m ore</w>
st o
rea ds</w>
hear d</w>
fli pping</w>
f lying</w>
de cora
com ing</w>
ch a
ce ss
smo king</w>
fa r</w>
bus y</w>
ar ding</w>
ta in</w>
sli ding</w>
coo k</w>
pu r
mar tial</w>
ee l</w>
sw ee
f rying</w>
c ross</w>
w re
v en</w>
swi ms</w>
it i
sho r
m il
we t</w>
t less</w>
st ir
se m
dri b
tal l</w>
fol ds</w>
enjo ying</w>
suc cess
on ly</w>
cu lar</w>
c rea
tel ling</w>
shi r
com men
b an
a p
sn eez
shir tless</w>
g r
ea d</w>
sa iling</w>
p ac
g er</w>
wa sh</w>
wa iting</w>
ti ed</w>
pre p
prep are</w>
pi er
h al
di gging</w>
d one</w>
ron ic</w>
li c</w>
g ood</w>
elect ronic</w>
ci r
shoo ting</w>
se ts</w>
de n
b ra
as ks</w>
l l</w>
fli p</w>
cr ow
c ked</w>
brea k</w>
b ea
wre st
t ac
po li
dra wing</w>
che wing</w>
wa shes</w>
se par
s an
lou dly</w>
gra ssy</w>
f unny</w>
bl on
bl es</w>
sm il
ri es</w>
p ops</w>
lif t</w>
shor t</w>
pur ple</w>
hu ge</w>
in t
in g
partic i
cti ve</w>
smil es</w>
practic es</w>
tou ches</w>
de e
an t</w>
n '
gathe red</w>
car ving</w>
bo arding</w>
ti ght</w>
i al</w>
pre ssing</w>
n' t</w>
in fla
i zed</w>
car rying</w>
c er
c hi
n ear
discus sing</w>
at i
kne eling</w>
si an</w>
p l
o b
li ght</w>
in di
cer tain</w>
ar ran
tw i
rea ches</w>
in ser
x es</w>
v e
swi m</w>
stret ching</w>
lo a
l d</w>
c or
al one</w>
whi st
surroun ded</w>
inter vie
exerci sing</w>
bo dy</w>
tw ir
pro te
b ar
u ti
squ are</w>
follow ed</w>
brush es</w>
sa w</w>
d ry</w>
cla p</w>
ya w
t ick
g ro
beg in</w>
wa xed</w>
ta pping</w>
sli des</w>
pa st</w>
fee ds</w>
f ri
ti gh
jugg les</w>
a sian</w>
se con
sa ying</w>
s unny</w>
dee p</w>
con cre
clo sed</w>
ta ble</w>
st u
secon d</w>
dri ve</w>
ben ds</w>
s o
p eel</w>
crea ting</w>
concre te</w>
bur ning</w>
success fully</w>
r ound</w>
ic ally</w>
fi gh
ex c
en ga
craw ling</w>
boun ces</w>
massa ging</w>
mar ching</w>
cat ch</w>
at ting</w>
thr own</w>
strai gh
f re
cir cular</w>
c k
st ill</w>
sk i</w>
sha ve</w>
gre at</w>
gi ve</w>
en ed</w>
brea ks</w>
some body</w>
m ea
lear ning</w>
color ful</w>
as sem
mp ing</w>
le ans</w>
dd le</w>
boun cing</w>
plac e</w>
f ly</w>
be at</w>
spra ying</w>
ir d</w>
hea d</w>
ge n
figh ting</w>
di rec
be en</w>
s ma
mea sur
cho pping</w>
s of
m in
wra p</w>
ee ds</w>
car ve</w>
s ol
ov er
ic ked</w>
fol ded</w>
balanc ing</w>
wr it
n ea
ha d</w>
w ed</w>
sp o
pain t</w>
shar p</w>
s y</w>
pe eling</w>
p lan
happ y</w>
en t</w>
buil d</w>
shoo ts</w>
recor ded</w>
k en</w>
it ed</w>
com e</w>
an g
st icks</w>
se n
ra pi
i d</w>
gu i
cat ching</w>
u ght</w>
st a
rec ei
i ls</w>
d ding</w>
clean s</w>
strai ght</w>
blon de</w>
tur n</w>
tou ching</w>
sneez es</w>
pa ssing</w>
low ing</w>
drin ks</w>
coo ked</w>
bea uti
wra pped</w>
v er</w>
star ting</w>
pre sses</w>
m m
der ly</w>
br ush</w>
yel ls</w>
tri mming</w>
pain ts</w>
on ing</w>
near by</w>
lan ds</w>
in es</w>
el derly</w>
ad ding</w>
z ing</w>
ti es</w>
rol l</w>
re lea
fi ve</w>
b ed</w>
a ged</w>
wat er</w>
to p</w>
mov ed</w>
kee ps</w>
h y
gg ling</w>
c y</w>
st er</w>
mi xing</w>
ben ding</w>
ar y</w>
a u
w ill</w>
prote ctive</w>
at m</w>
f l
cl u
at s</w>
w ho
recor ds</w>
fil med</w>
e ver
yel ling</w>
v ely</w>
sw ing</w>
push ed</w>
preten ding</w>
ob ser
kne els</w>
fi x</w>
coun ting</w>
u s</w>
poin ts</w>
follow s</w>
b are</w>
ab le</w>
shoo t</w>
s led</w>
pu b
pub lic</w>
poin ting</w>
la y</w>
la un
l er</w>
gli ding</w>
follow ing</w>
fil ling</w>
discus ses</w>
cur ling</w>
compe te</w>
boun cy</w>
v ol
v eling</w>
up side</w>
th in</w>
st y
sh ou
screa ms</w>
kno cks</w>
d ow
to sses</w>
sharp en</w>
ic an</w>
gg les</w>
fi xing</w>
el ed</w>
c al</w>
beauti ful</w>
roa sting</w>
re mo
drin k</w>
b rai
t ening</w>
pla u
pa sses</w>
ever y
ch u
ap plau
sharp ening</w>
man s</w>
l ined</w>
sc re
rai ses</w>
pe tting</w>
cla ps</w>
wh e
spea k</w>
screa ming</w>
re ct
mp s</w>
crow ded</w>
cro ssing</w>
am er
z en</w>
sof t</w>
re ac
fro zen</w>
d ou
al ing</w>
tri m</w>
sha ves</w>
mo st</w>
in y</w>
fe ed</w>
d dy</w>
st icking</w>
see ms</w>
hu gging</w>
gro om
gg ed</w>
encoura ges</w>
at ic</w>
youn ger</w>
wa xing</w>
remo te</w>
kee p</w>
instru cting</w>
at e
adju sts</w>
ad ds</w>
wi pes</w>
v ac
narra ting</w>
mu ddy</w>
le an
intervie wed</w>
h ur
f en
un i
t or
stret ches</w>
spra ys</w>
sp read</w>
smoo th</w>
si g
ow ing</w>
ex am
dis plays</w>
wi de</w>
infla table</w>
e m
dow n
d ead</w>
c ele
b ro
win dy</w>
pp o
pa ting</w>
p ow
p en
in vol
bo y</w>
b right</w>
a th
wra ps</w>
un seen</w>
sha ped</w>
separ ate</w>
s y
ra l</w>
pa ss</w>
ic y</w>
for m</w>
ex ten
continu es</w>
be nt</w>
adju sting</w>
whist ling</w>
vac u
pun ching</w>
partici pating</w>
instru cts</w>
i red</w>
dis played</w>
cele bra
ath le
amer ican</w>
vacu u
st uff
squ eez
pier ced</w>
para sailing</w>
fac ial</w>
tac k
sto p</w>
fini shes</w>
dou ble</w>
ca ught</w>
woo ded</w>
to o</w>
th an</w>
stir ring</w>
star ing</w>
sm el
sk ate
shuff ling</w>
preten ds</w>
po p</w>
pain ted</w>
mi ddle</w>
massa ges</w>
m an</w>
low er</w>
in clu
bl in
be e</w>
athle tic</w>
st om
sli de</w>
pro fe
profe ssi
pe t</w>
fi shing</w>
exc ited</w>
cra cks</w>
com bing</w>
col le
attemp t</w>
u pp
stu ck</w>
nea th</w>
lif ted</w>
fri s
en t
under neath</w>
li ed</w>
f ting</w>
f el
app ear</w>
al low</w>
upp er</w>
lean ing</w>
le ts</w>
k e
fris bee</w>
fa ke</w>
en ds</w>
drib bling</w>
dra w</w>
d rying</w>
con ne
c eeds</w>
wrest le</w>
wa ys</w>
sp reading</w>
opera ting</w>
n ice</w>
app roa
wea ving</w>
w ar
sm al
si l
or ting</w>
mi sses</w>
lan ding</w>
indo ors</w>
fil l</w>
th ick</w>
smal ler</w>
p icked</w>
gen tly</w>
fil ls</w>
ee p</w>
dd ling</w>
com m
cle ar
wa ves</w>
to ssing</w>
sh allow</w>
int era
de li
c ries</w>
b ri
app lied</w>
sha ved</w>
rapi dly</w>
ing le</w>
i ly</w>
gre y</w>
gi ant</w>
fac ing</w>
cra cking</w>
ani sh</w>
wa shed</w>
th ird</w>
s oun
re pa
gi ven</w>
tw ice</w>
ta ting</w>
st ac
pou red</w>
li ve</w>
fi c</w>
coun ts</w>
as king</w>
y m
tur ned</w>
sp anish</w>
sha ke</w>
se w</w>
mu ch</w>
man i
lee p</w>
f anc
as leep</w>
v o
st eep</w>
smo kes</w>
sk is</w>
s us
re moved</w>
on ed</w>
of f
ligh ter</w>
ir oning</w>
han ds</w>
gra p
ca p
brea king</w>
al i
writ es</w>
st ro
snow boarding</w>
si x</w>
pu la
professi onal</w>
ho o
fanc y</w>
f ree</w>
f ed</w>
di g</w>
cu te</w>
craw ls</w>
al s</w>
y e</w>
who le</w>
we i
u al</w>
st r
st er
sc o
s le
o ppo
mani pula
ki sses</w>
ha mm
g rin
fini shing</w>
dra ws</w>
col d</w>
w n</w>
ta l</w>
t t
par t</w>
or ing</w>
indi an</w>
gra b</w>
fini shed</w>
en tly</w>
cro sses</w>
at ely</w>
ta ps</w>
sn a
sli ce</w>
rect ly</w>
pro ceeds</w>
li cks</w>
gh tly</w>
g ri
comple te</w>
a part</w>
wr ite</w>
whi l
t ted</w>
ste ps</w>
si zed</w>
p it
l ling</w>
inst al
ban ging</w>
whil st</w>
w il
sus pen
speci fic</w>
s ingle</w>
pro po
m oun
l u
kee ping</w>
k y</w>
hu gs</w>
ha ired</w>
fli es</w>
clo ses</w>
cho p</w>
chan ge</w>
to o
ti ve</w>
on s</w>
i mp
gra y</w>
fil ms</w>
e t</w>
di ves</w>
d un
cal led</w>
al most</w>
su d
sli cing</w>
sho veling</w>
san ding</w>
pun ches</w>
ligh ting</w>
li cking</w>
hi ll</w>
as si
ac ting</w>
. .</w>
under water</w>
sy n
qu i
in du
flo ating</w>
decora ting</w>
d ru
cra ck</w>
twir ling</w>
th read</w>
t iny</w>
t ates</w>
stri ped</w>
stri al</w>
sp in</w>
si de
s at</w>
re sting</w>
n i
lea ding</w>
l ov
indu strial</w>
hal f</w>
ex t
every one</w>
ea ster</w>
down hill</w>
direc ting</w>
ca using</w>
suspen ded</w>
st rin
squ atting</w>
sol ve</w>
re w</w>
ki ssing</w>
i l</w>
fi ght</w>
fac e</w>
d iti
coo ks</w>
cal ls</w>
ca use</w>
b ble</w>
wh y</w>
swee p</w>
surf s</w>
sh u
s wal
ro b
pu mping</w>
pla y
ligh ts</w>
g ym
exerci se</w>
dro pping</w>
cr ou
b ab
ad just</w>
ac comp
yaw ning</w>
vi g
v en
v a
ten s</w>
sp ed</w>
sit i
rai sing</w>
poli shing</w>
per fe
partic u
p r
on ce</w>
h e
gym na
gra bbing</w>
dra wn</w>
dis playing</w>
che cking</w>
wrest ling</w>
vi l</w>
t ex
st ea
skate boarding</w>
scra bble</w>
partici p
op ened</w>
ki ss</w>
fini sh</w>
drib bles</w>
di r
b ly</w>
ad d</w>
z y</w>
w e</w>
th rew</w>
su cking</w>
ski pping</w>
ro du
p our</w>
mul t
int rodu
in ten
gymna stic</w>
fa ils</w>
f le
di d</w>
demonstra ted</w>
che ck</w>
b or
ta ken</w>
t iti
swee ping</w>
sk ed</w>
particu lar</w>
para chu
m ly</w>
inclu ding</w>
ex pl
diti onal</w>
dir ty</w>
d a
wi ping</w>
w om
w an
ur e</w>
twi sting</w>
tra ining</w>
ta ining</w>
t ran
strin ged</w>
st ood</w>
sk ates</w>
ra ce</w>
po pping</w>
p ri
p an</w>
mo tor
hu g</w>
h ar
bl ed</w>
be cause</w>
b ow
approa ches</w>
wei gh
wa its</w>
sle dding</w>
sha pe</w>
reac h</w>
rea ching</w>
ra w</w>
po siti
motor ized</w>
jump ed</w>
cho ps</w>
car ries</w>
bo xing</w>
ben d</w>
whe eled</w>
u m
stru ggles</w>
sk ate</w>
side ways</w>
sh e
rol led</w>
re la
qu ick</w>
qu e</w>
mil king</w>
le tting</w>
indi vi
i m
e la
e l</w>
be st</w>
al ready</w>
a mon
ve l</w>
stir s</w>
st ran
rai sed</w>
me ssing</w>
indivi du
han gs</w>
grap h
ga ther</w>
fla shing</w>
ci vil</w>
back ward</w>
at tac
z es</w>
yaw ns</w>
wea ve</w>
up right</w>
syn ch
sud den
sudden ly</w>
st it
sn app
ru b</w>
pre sen
pl u
pe els</w>
instal ling</w>
continu ously</w>
chan ging</w>
br ings</w>
wa ke</w>
tra ditional</w>
t om
stra pped</w>
st age</w>
spra y</w>
si mi
roa sted</w>
o ly</w>
la t
kn it</w>
k a
for ming</w>
f ind</w>
bo b
balanc es</w>
an e
tea ches</w>
synch ron
sp reads</w>
sc or
relea ses</w>
prepar ed</w>
poli sh</w>
opera tes</w>
op oly</w>
ne w
mon opoly</w>
measur ing</w>
grin ding</w>
f it</w>
arran ging</w>
wal ked</w>
titi ve</w>
su pp
sa y</w>
s wit
m at
inst ead</w>
inser ts</w>
gli des</w>
cti onal</w>
co a
au tom
wel ding</w>
wa ve</w>
vi si
un g</w>
ter n
star ted</w>
soun ds</w>
me made</w>
low s</w>
kn itting</w>
inst all</w>
ho memade</w>
expla in</w>
cov ering</w>
cor rec
che ered</w>
vi de
tigh ten</w>
stran ge</w>
sho t</w>
ro ck
ra n</w>
pro du
p an
no i
n er</w>
mil k</w>
l en</w>
han g</w>
groom ing</w>
graph ed</w>
fel l</w>
di ve</w>
cra shes</w>
comple tes</w>
cat e</w>
stuff ed</w>
stri kes</w>
snapp ing</w>
simi lar</w>
re o
pe ts</w>
le t</w>
individu al</w>
enjo y</w>
encoura ging</w>
e t
car ves</w>
at ten
a i
v els</w>
twir ls</w>
tou ch</w>
sty le</w>
stret ch</w>
sli ghtly</w>
sla ps</w>
sit e</w>
sil ver</w>
shuff le</w>
ri ps</w>
po ssi
po king</w>
particip ate</w>
on stage</w>
mi xes</w>
lo r</w>
lea ves</w>
l and</w>
kno cking</w>
instru ctional</w>
fla t
deli ver
de ci
craw l</w>
correc t</w>
con ver
comm erci
cho reo
assem bling</w>
al tern
ac ou
a sked</w>
y mp
w ears</w>
visi ble</w>
squ ats</w>
sli ces</w>
roa st</w>
or ts</w>
oppo site</w>
ol ymp
nar row</w>
lo ck</w>
list ens</w>
in tri
gi ggling</w>
conne cted</w>
commerci al</w>
cha sing</w>
balanc e</w>
ati ve</w>
win d
wat ched</w>
stom ping</w>
sto pping</w>
st ir</w>
sp rin
sp lit</w>
sp its</w>
sk y
sh ine</w>
ru bi
rock y</w>
list en</w>
la st</w>
kn ea
el ling</w>
e ven</w>
cur l</w>
cha ses</w>
an sw
ac t</w>
wa x</w>
un loa
tex ting</w>
stret ched</w>
ste pping</w>
shou ld</w>
scra m
ro tating</w>
jo gging</w>
j ac
go t</w>
fla ming</w>
en d</w>
discus s</w>
compe titive</w>
bal d</w>
an n
amon g</w>
acou stic</w>
a g
tri ms</w>
tick les</w>
t ty</w>
recei ving</w>
pro vi
pow ered</w>
po se</w>
op ing</w>
noi sy</w>
n ch</w>
massa ged</w>
l ine</w>
ing ly</w>
in ner</w>
happ ening</w>
gr ou
ent ers</w>
en ding</w>
dar k
d ded</w>
cre ates</w>
choreo graphed</w>
chan ges</w>
car ry</w>
ban gs</w>
b bed</w>
weigh ted</w>
we ird</w>
tri e
straigh tening</w>
sp i
shuff les</w>
sh ining</w>
sa f
re trie
re li
p run
ma l</w>
m ic</w>
lo ses</w>
gu lar</w>
d ying</w>
d ic
cont ro
color ing</w>
co lor</w>
ar m</w>
writ ten</w>
wa it</w>
vacuu ming</w>
t at
s er</w>
r hy
olymp ic</w>
m med</w>
j e
ir ing</w>
happ ily</w>
encoura ged</w>
d yed</w>
che ws</w>
cat ed</w>
bor n</w>
ad ver
accomp ani
wom ans</w>
vide o
ush ing</w>
uni que</w>
tu ally</w>
tick ling</w>
ta st
synchron ized</w>
stra ting</w>
st al</w>
sk il
sel y</w>
scra t
s and</w>
play fully</w>
pac king</w>
or ted</w>
m owing</w>
kn own</w>
in spe
grou p</w>
ea l</w>
e u
dri es</w>
direc ts</w>
commen ting</w>
brai ding</w>
ar gu
adver ti
up beat</w>
twi sts</w>
th reading</w>
star es</w>
st ick</w>
sha ping</w>
scor es</w>
ro cking</w>
pra cti
invol ving</w>
il ed</w>
enga ged</w>
ea sy</w>
ce p
ann oun
th ough</w>
str ong</w>
ri pping</w>
preten d</w>
pa ddling</w>
lov ed</w>
lear n</w>
l ining</w>
instru cted</w>
h un
f ic
exten ded</w>
di mly</w>
bob sled</w>
a vo
z o
wat ering</w>
wan ts</w>
vig or
te en</w>
tal ly</w>
ta p</w>
straigh ten</w>
squ ir
sp ar
rhy th
ra te</w>
plan ting</w>
min i
mi xed</w>
man ual</w>
jugg le</w>
in hal
g loved</w>
fre nch</w>
fo c
enga ge</w>
ei ther</w>
e ven
dri lling</w>
de mo
celebra ting</w>
boun ce</w>
w ear</w>
sna ps</w>
sn or
sky diving</w>
pp y</w>
mo bi
le go</w>
laun dry</w>
lar ger</w>
il lu
hand ling</w>
gli sh</w>
fre sh</w>
fo o
en glish</w>
du mps</w>
zo om
surroun ding</w>
su cks</w>
smoo thing</w>
sharp ens</w>
s on</w>
s in
repa ir</w>
re v
pre tty</w>
po stal</w>
ow s</w>
over head</w>
on g
me ssy</w>
mass age</w>
kno cked</w>
it es</w>
intri cate</w>
flo ral</w>
fal len</w>
e ing</w>
dro p</w>
cor rectly</w>
clo ser</w>
buil t</w>
bu t
bri e
beg inning</w>
ba d</w>
b al</w>
an y</w>
af ri
vigor ously</w>
ul t</w>
t earing</w>
t each</w>
se ar
recei ves</w>
r ough</w>
pier cing</w>
ou r
ou gh
or d
low ers</w>
hea d
fol low</w>
fin ds</w>
f f</w>
exam ines</w>
cro ssed</w>
con taining</w>
con stru
cal m</w>
bro ken</w>
blon d</w>
b eating</w>
ati onal</w>
tack les</w>
squeez es</w>
si mp
ro tates</w>
reli gi
re ve
pa ssed</w>
ou ght</w>
obser ves</w>
measur e</w>
lat in</w>
la id</w>
k icked</w>
i en
dro pped</w>
di ps</w>
dd les</w>
d ang
cla i
c ry</w>
c a</w>
be l
b ye</w>
assem ble</w>
ar ti
yel l</w>
win ks</w>
to ld</w>
th o
ta sting</w>
t ro
stru ms</w>
squeez ing</w>
sp on
sm i
show ca
rubi k</w>
ri ed</w>
religi ous</w>
pun ch</w>
pu lar</w>
po pular</w>
perfe ct</w>
pe ted</w>
me d
m y</w>
it e
ir on</w>
inser t</w>
hamm ering</w>
dra gging</w>
crow d</w>
clear ing</w>
car peted</w>
bac king</w>
argu ing</w>
ar ded</w>
tu m
to ss</w>
t ter</w>
su ck</w>
stru mming</w>
st i
spo ts</w>
sp lit
snor k
sma shing</w>
ski ps</w>
ski p</w>
see m</w>
sc rubbing</w>
sc a
s wa
recor d</w>
rapi d</w>
pu t
p ho
opera te</w>
n um
n e</w>
mi x</w>
me di
ligh tly</w>
lea ds</w>
han ded</w>
fi ed</w>
f ound</w>
ext re
er ous</w>
en ter</w>
en closed</w>
en a</w>
electri cal</w>
dro o
decora tive</w>
com bs</w>
clo sing</w>
cla ss
ca sting</w>
attac h</w>
an k</w>
z e</w>
wind surfing</w>
tic ally</w>
ta ping</w>
ster n</w>
so ci
sn i
sli ps</w>
se nt</w>
se es</w>
se cur
ru bbed</w>
rea l</w>
pu mps</w>
pan ning</w>
or t</w>
moun ted</w>
ma car
macar ena</w>
m el
lo cal</w>
li vely</w>
laun ches</w>
f ur
encoura ge</w>
en ter
dd led</w>
dark ened</w>
colle cting</w>
clean er</w>
clean ed</w>
ci den
chan ting</w>
ch atting</w>
afri can</w>
ac rob
ac ciden
a head</w>
v ated</w>
tigh tening</w>
su ch</w>
ssi ve</w>
sp itting</w>
smel ls</w>
sma shes</w>
shi ft</w>
sh ines</w>
se g
pro ce
po sing</w>
parachu ting</w>
mo pping</w>
m ol
lea ps</w>
la ss
gg le</w>
for mal</w>
enjo ys</w>
dri ven</w>
cli pping</w>
class ical</w>
b at
arran ges</w>
x i
with in</w>
tri ple</w>
tel l</w>
sur e</w>
success ful</w>
su b
sta y</w>
sprin k
slee ps</w>
sla pping</w>
sit ing</w>
pre ss</w>
pr om
p or
p at
ong side</w>
obser ve</w>
o p</w>
nea tly</w>
mus cular</w>
mobi le</w>
loo se</w>
loo se
ligh ted</w>
la ter</w>
h i</w>
gui ding</w>
gui des</w>
fri ed</w>
f ea
e y</w>
dru mming</w>
dri ll</w>
ca st</w>
c lou
be tter</w>
an gular</w>
al ongside</w>
ad ded</w>
accompani ed</w>
win k</w>
wa xes</w>
ur ed</w>
tat too
straigh tens</w>
se wing</w>
scre wing</w>
r out
qui e
quie tly</w>
or g
or ed</w>
o d
new born</w>
min i</w>
mi lit
milit ary</w>
j er
it self</w>
g lowing</w>
fl uff
enga ging</w>
cur ly</w>
contro l</w>
con du
comple ting</w>
ce fully</w>
ca uses</w>
bo tt
bl own</w>
bac ks</w>
at op</w>
acrob atic</w>
ac cep
a r</w>
too k</w>
tick led</w>
tel y</w>
t a</w>
stac king</w>
sneez ing</w>
si ve</w>
si fting</w>
separ ating</w>
sc ore</w>
sc oo
s pla
rev eal</w>
rep orting</w>
re spon
pa dded</w>
ord in
on ally</w>
o c
j a
introdu ces</w>
hand le</w>
gi c</w>
ela bo
ee ding</w>
ea si
descri be</w>
decora ted</w>
contin ue</w>
clou dy</w>
c op
brush ed</w>
bar be
ani m
wil dly</w>
wil d</w>
ul ting</w>
tur ed</w>
the s</w>
t y
sla ms</w>
ser ving</w>
repa iring</w>
re ver
par ked</w>
p rin
p oun
p ans</w>
ov en</w>
ka ya
jo ins</w>
intervie wing</w>
infla ted</w>
han ding</w>
ha ir
fin e</w>
fa shi
f at</w>
expl oring</w>
di rectly</w>
di pping</w>
comp li
c y
be arded</w>
app ro
acciden tally</w>
win ds</w>
whist le</w>
w ins</w>
ti ally</w>
t ical</w>
swi r
su per
sto pped</w>
smoo th
sli ced</w>
si mult
shou ting</w>
seg way</w>
see ing</w>
screa m</w>
saf ely</w>
rout ine</w>
rai se</w>
pra i
mult i</w>
man eu
inser ting</w>
in e
gre e
fen cing</w>
fen ced</w>
fa ster</w>
ex clai
elabo rate</w>
dri ed</w>
di gs</w>
de sig
co ordin
c us
c over</w>
bur ps</w>
bur ping</w>
bur n</w>
buil ds</w>
wea ves</w>
wa ding</w>
tri mmed</w>
the d</w>
ta ins</w>
t ears</w>
smi le</w>
simult ane
ser ves</w>
scram bled</w>
practi sing</w>
po kes</w>
para gliding</w>
ou d</w>
na ked</w>
le gged</w>
kno ck</w>
jo in</w>
ite dly</w>
intera cts</w>
in te
in front</w>
hand held</w>
h and</w>
g ol
fla sh</w>
fin ally</w>
exc itedly</w>
cir c
ca sts</w>
c en
c an
br inging</w>
ba king</w>
af ter
' re</w>
z zy</w>
we stern</w>
ush es</w>
un known</w>
tow ed</w>
stru ggling</w>
ster ically</w>
smel ling</w>
simp le</w>
s orting</w>
ro pe</w>
propo sing</w>
pre ssed</w>
pre sent</w>
plan t</w>
pa ved</w>
p t</w>
org ani
mini at
miniat ure</w>
ma gic</w>
m ee
l in
intera ct</w>
inten se</w>
imp re
i d
hy sterically</w>
hi gh
hea ted</w>
gr own</w>
fli pped</w>
exten ds</w>
even tually</w>
e very</w>
dun ks</w>
crou ches</w>
cra cked</w>
cov ers</w>
con si
clear s</w>
bow ling</w>
bo t
bar king</w>
ba ked</w>
atta ching</w>
applau ds</w>
anim ated</w>
vacuu m</w>
swee ps</w>
swal lows</w>
stuff ing</w>
squ at</w>
some where</w>
soci ali
snork eling</w>
s ound</w>
ro ping</w>
propo ses</w>
par tially</w>
pac k</w>
off ers</w>
la te</w>
im it
ig n
hu man</w>
h ere</w>
groom ed</w>
g er
exam ining</w>
ex e
dra gs</w>
d om
d folded</w>
car ved</w>
cal ling</w>
b un
b eats</w>
atten ding</w>
arran ge</w>
applau d</w>
al ized</w>
wi pe</w>
th in
ta ught</w>
t r
sur f</w>
super vi
st able</w>
sna p</w>
smo ke</w>
sho vel</w>
sc ul
san dy</w>
sa wing</w>
sa il</w>
s pu
ra ther</w>
possi ble</w>
perfor med</w>
n eeds</w>
med ical</w>
m atic</w>
li ck</w>
ke y</w>
invol ves</w>
in j
hoo ked</w>
h ear</w>
for med</w>
ff ing</w>
f our
di sp
de ta
de aling</w>
d ye</w>
cur ved</w>
commen tates</w>
cen tra
brie fly</w>
blin dfolded</w>
a w
te sting</w>
stit ching</w>
spu n</w>
sco oping</w>
poin ted</w>
pit ches</w>
pac ked</w>
obser ving</w>
o m</w>
near ly</w>
mi m
me sses</w>
manipula tes</w>
m ous</w>
m ma
loa ded</w>
li kes</w>
lea ve</w>
knea ding</w>
it ted</w>
ho ps</w>
hea ded</w>
hair y</w>
g ical</w>
four th</w>
fashi oned</w>
ex per
du mping</w>
dre ssing</w>
desc ends</w>
demo strating</w>
cou ld</w>
commen ts</w>
clo sely</w>
che cks</w>
brai d</w>
arran ged</w>
a ma
1 0</w>
win ding</w>
wel d</w>
w ant</w>
tur ing</w>
tri ed</w>
to m</w>
thr u</w>
sur pri
st ly</w>
so ap
soap y</w>
she ering</w>
shar ing</w>
ro t
rect angular</w>
presen ts</w>
pit ched</w>
pe eled</w>
p lowing</w>
p lo
or ien
orien tal</w>
num erous</w>
manipula ting</w>
m ely</w>
lea ving</w>
l er
gg er</w>
ge st
foo t</w>
fin al</w>
fi xes</w>
ex hal
er y</w>
easi ly</w>
droo ling</w>
deliver ing</w>
ct ly</w>
coordin ated</w>
con gra
commen tating</w>
chi pping</w>
chi p</w>
ca me</w>
b lo
al oud</w>
z on
wor ked</w>
war m</w>
wa kes</w>
un successfully</w>
tra veling</w>
ti re</w>
tho se</w>
swit ches</w>
stri king</w>
speci alized</w>
sla p</w>
simultane ously</w>
sha pes</w>
sh ly</w>
scra ping</w>
re sts</w>
ra pping</w>
qu id</w>
prun ing</w>
pre forming</w>
po ses</w>
perfe ctly</w>
maneu ver
lo cated</w>
li quid</w>
lan ded</w>
l ls</w>
k son</w>
jac kson</w>
j ap
ic ing</w>
gol den</w>
fle xi
fic ial</w>
fi sh</w>
ff s</w>
f us
extre mely</w>
en th
du g</w>
cra fting</w>
coun t</w>
cora l</w>
congra tu
con stan
com pla
c ru
br ought</w>
bo bbing</w>
bo ards</w>
b le
b in
autom atic</w>
atta ches</w>
ar ed</w>
applau ding</w>
after wards</w>
zoom s</w>
wi ggling</w>
w ou
wou ld</w>
w in</w>
vi ly</w>
us i
tast e</w>
surr ound</w>
st ically</w>
st ab
scra pes</w>
rol ler
ro ck</w>
rhyth mic</w>
re turns</w>
re si
qu ite</w>
pu mp</w>
possi bly</w>
p ic
p atting</w>
mi cha
micha el</w>
man u
ma ke
m er
low ering</w>
low ered</w>
loa ds</w>
l ines</w>
l en
it al</w>
inhal es</w>
in al</w>
ho ri
hi g
hi ding</w>
hea vily</w>
hand les</w>
gro om</w>
flo ats</w>
flo at</w>
flexi ble</w>
fi ring</w>
exclai ms</w>
enth usi
ent ering</w>
dra matic</w>
di m</w>
deci des</w>
com for
com bed</w>
ch at</w>
car ried</w>
brea thing</w>
blin ks</w>
bi gger</w>
b ites</w>
arti ficial</w>
announ ces</w>
ag gre
a e
wi ggles</w>
up set</w>
tran s
ti m
ti l
t re
st or
ssi on
skil l
sk in
sk et
shou ts</w>
ser ved</w>
sear ching</w>
sco ops</w>
sc rubs</w>
ru p
rin sing</w>
rela xing</w>
re ma
put t</w>
presen ting</w>
por table</w>
p y</w>
oppo sing</w>
na ils</w>
n ee
mo ti
mo stly</w>
mo on
mi ssing</w>
mee t</w>
make shift</w>
la p
l one</w>
jap ane
japane se</w>
in crea
hu ddled</w>
hori zon
h eating</w>
gr ind</w>
fli cks</w>
f ts</w>
f r
enthusi a
en tire</w>
em bro
ea th</w>
di st
de stro
cra zy</w>
coo l</w>
ch ar
celebra te</w>
bo ard</w>
bar e
b ul
avo i
ar t</w>
answ ering</w>
an y
altern ating</w>
ae rob
win king</w>
wa king</w>
w ent</w>
us ual</w>
unloa ding</w>
tra vels</w>
to ssed</w>
ti ps</w>
te st</w>
tack led</w>
t ti
t an</w>
su per</w>
stra tes</w>
stea dy</w>
ste p</w>
st ati
ssi vely</w>
sof tly</w>
sig n</w>
scre w</w>
s lo
ro bo
reve aling</w>
qui et</w>
po sed</w>
pac ks</w>
p re</w>
on ary</w>
na vig
n u
n er
n ational</w>
mp ed</w>
mo p</w>
mo di
ma g
loose n</w>
loa ding</w>
kaya king</w>
ho pping</w>
hig her</w>
hi stor
gri lling</w>
gen tle</w>
gathe ring</w>
g ue</w>
fil m</w>
fi g
f lowing</w>
er sa
en er
ele vated</w>
ei ght</w>
e yed</w>
dri lls</w>
do m</w>
do d
deliver s</w>
de ter
con centra
comple tely</w>
com b</w>
cli p</w>
cho ppy</w>
c ow
br ing</w>
blin king</w>
ben eath</w>
bea t
barbe ll</w>
as ed</w>
ar ing</w>
ang led</w>
aerob ic</w>
y et</w>
un ic
ti pped</w>
tal lic</w>
ta ped</w>
swal lowing</w>
su al</w>
sty ling</w>
stro ke</w>
stati onary</w>
split s</w>
sociali zing</w>
sig ning</w>
sh iny</w>
ser ve</w>
se p
san ta</w>
rin ses</w>
resi den
residen tial</w>
relea sing</w>
recei ve</w>
re eling</w>
r om
provi des</w>
po le</w>
pin ches</w>
per s
pa ssion
p hy
phy s
ough ly</w>
od d</w>
o s</w>
modi fied</w>
me tallic</w>
manipula te</w>
loa d</w>
l un
jo gs</w>
ir ons</w>
inser ted</w>
gree ts</w>
gli de</w>
g ital</w>
for m
fin ding</w>
ener ge
ela stic</w>
dun k</w>
disp en
di gital</w>
di es</w>
decora te</w>
d den</w>
cur ls</w>
cro che
cra sh</w>
cli ps</w>
celebra tes</w>
c el
c all</w>
bott ling</w>
bot tom</w>
bab bles</w>
aw k
at tra
assi sted</w>
z z
wat ers</w>
up wards</w>
up on</w>
twir l</w>
tou ched</w>
tigh tens</w>
the red</w>
th reads</w>
th i
swa ying</w>
supp orted</w>
som ersa
sm art</w>
sla mming</w>
si mu
shi fting</w>
sha mp
sh earing</w>
scul p
scra pe</w>
retrie ve</w>
re n
poli shes</w>
po ke</w>
pin ching</w>
p ati
no w</w>
ner v
n on</w>
ma in
m ou
knea ds</w>
jo king</w>
inte resting</w>
ine se</w>
g ar
fu n</w>
fluff y</w>
fen ce</w>
dru ms</w>
drib ble</w>
dra gged</w>
di stra
constan tly</w>
compli cated</w>
comple ted</w>
comm unic
ch inese</w>
cap si
bl ur
ac h</w>
whist les</w>
vie wing</w>
un usual</w>
un lock</w>
un folds</w>
to p
top less</w>
to a
ti vely</w>
ti led</w>
tattoo ed</w>
tal ked</w>
stit ch</w>
stac ked</w>
spla shing</w>
sla m</w>
secur e</w>
scrat ches</w>
sa u
robo tic</w>
ro cks</w>
retrie ves</w>
ran dom</w>
provi ding</w>
produ cing</w>
pow er
poun ding</w>
pe d
new ly</w>
mi d</w>
medi ately</w>
man a
m b</w>
lear ns</w>
kn eel</w>
imp ro
im mediately</w>
ic s</w>
hamm ers</w>
exe cu
embro id
deter m
desc ending</w>
de als</w>
d y
cra shing</w>
cow boy</w>
congratu la
comple x</w>
colle cts</w>
chi sel
che w</w>
c ran
bur ns</w>
bri ghtly</w>
bab bling</w>
b a</w>
avo id</w>
assi sts</w>
app ar
ang ry</w>
ali an</w>
ai ming</w>
adverti sing</w>
a do
wat er
w oven</w>
w on</w>
w ind</w>
vie w</w>
twi st</w>
tro p
trop ical</w>
th or
ta i</w>
swit ching</w>
surpri sed</w>
sub mer
spra yed</w>
sp eeding</w>
sol ving</w>
smel l</w>
shu ck</w>
sho vels</w>
sh out</w>
scoo p</w>
sc rub</w>
sc aling</w>
sa id</w>
roa sts</w>
ro de</w>
respon ds</w>
re turning</w>
re el</w>
prom o
pro p
plan ted</w>
pers onal</w>
passion ately</w>
pa ying</w>
p ats</w>
o tic</w>
no ds</w>
no dding</w>
mo der
moder n</w>
mil ks</w>
men t</w>
l led</w>
kn el
knel t</w>
jo h
inclu des</w>
hur t</w>
ho r
fre shly</w>
flat ten</w>
fel t</w>
enthusia stically</w>
em er
e ve</w>
dre ss</w>
desig ned</w>
cur led</w>
cou gh
cop y</w>
colle ct</w>
but ts</w>
bu ff</w>
blur ry</w>
bare foot</w>
applau ded</w>
an tic</w>
ad v
0 0</w>
wr ong</w>
wa r</w>
ver bal</w>
ver b
verb ally</w>
un wrapping</w>
tor n</w>
tast es</w>
t ch</w>
st ick
ss ly</w>
squir ts</w>
sp ir
sma cks</w>
slow ing</w>
sla pped</w>
skill fully</w>
shu t</w>
showca sing</w>
sev en</w>
sen ding</w>
se x
scre ws</w>
ri p</w>
rhyth m
rep elling</w>
relea sed</w>
relea se</w>
re ly</w>
r ushing</w>
produ ce</w>
pier ces</w>
pho ne</w>
pe tted</w>
pa ddle</w>
na med</w>
n or
mm y</w>
mat ching</w>
mar ked</w>
m bles</w>
lo gical</w>
laun ch</w>
ju d
jo ined</w>
intera cting</w>
i an</w>
horizon tal</w>
hel ped</w>
ga ting</w>
g run
g ang
for ms</w>
fig ure</w>
fe els</w>
fe eling</w>
d ered</w>
cr ushing</w>
commen t</w>
cap sized</w>
c ri
bar ks</w>
ba ke</w>
assem bled</w>
as k</w>
adv anc
adju sted</w>
ac ts</w>
ac cross</w>
2 0
z i
wi se</w>
w o
vi bra
vi a</w>
unloa d</w>
u m</w>
tu al</w>
tti sh</w>
tigh tly</w>
ti red</w>
the se</w>
sw ung</w>
su ppo
stom p</w>
stir red</w>
st y</w>
spo tted</w>
sol o</w>
sni ffs</w>
smooth s</w>
shamp oo
sep era
sco ttish</w>
rin gs</w>
ri ses</w>
rhythm ically</w>
re s
re pe
ra ted</w>
per cus
over looking</w>
ne t</w>
n ative</w>
mma ble</w>
men ting</w>
m ows</w>
m ir
m ex
m bling</w>
lo cking</w>
lo cked</w>
li e</w>
la y
l on
invol ved</w>
inj ured</w>
inhal ing</w>
in dic
hur ls</w>
gra cefully</w>
fur ther</w>
fur ry</w>
flat tening</w>
fla mmable</w>
fac es</w>
f loo
expla ined</w>
exam ine</w>
dun king</w>
du mb</w>
di ed</w>
den ti
d ling</w>
coa ched</w>
co stu
ch y</w>
bu z
brea thes</w>
bl ank</w>
bin ding</w>
ban g</w>
b by</w>
b an</w>
b all</w>
appro ach</w>
al ed</w>
ai ms</w>
aggre ssively</w>
yaw n</w>
win ning</w>
ver tical</w>
v ir
un wraps</w>
tum bles</w>
trans f
thor oughly</w>
thi er</w>
t an
stick y</w>
st ates</w>
sprink les</w>
split ting</w>
so a
sneez e</w>
slow s</w>
sli d</w>
simu la
showca ses</w>
se ws</w>
sc ared</w>
sc al
s ort</w>
re sem
re g
re en
r owing</w>
prote ct</w>
pro pped</w>
prin ted</w>
pre ci
pow dered</w>
parachu te</w>
p ea
o logical</w>
no thing</w>
ne ed</w>
mul tic
mi ght</w>
mar ch</w>
lea d</w>
le an</w>
l o</w>
kno w</w>
jo y
inten tly</w>
inspe cts</w>
inspe cting</w>
in gui
illu strating</w>
ic i
i or</w>
hun ting</w>
hu ddle</w>
ho lic</w>
ho ck
hock ey</w>
har ne
happ ens</w>
hand made</w>
hand led</w>
h ou
gui de</w>
grap hi
gr ound</w>
go of
gi ggle</w>
gathe rs</w>
g old</w>
g n
foc used</w>
fic ult</w>
fea turing</w>
fa mous</w>
fa ir
f tly</w>
f ry</w>
execu tes</w>
ex ce
en ough</w>
ele ss</w>
e v
dre sses</w>
dif ficult</w>
di e</w>
determ ine</w>
desc end</w>
da y</w>
d led</w>
cti vely</w>
crou ching</w>
compe tes</w>
col ors</w>
co holic</w>
clim bed</w>
chi l
cha se</w>
ch i</w>
bu y</w>
brai ds</w>
bo xes</w>
be comes</w>
autom ated</w>
attra ctive</w>
assi st</w>
assem bles</w>
ar gue</w>
al coholic</w>
a m</w>
wh eel</w>
w ri
un boxing</w>
twi sted</w>
tum bling</w>
til ts</w>
ti onal</w>
ti ll</w>
thr ough
th ank</w>
ten ding</w>
t ar
swee t</w>
swal low</w>
su s</w>
sty les</w>
stra ted</w>
stom ps</w>
spar ring</w>
so li
sma sh</w>
slee py</w>
si zz
sho ves</w>
sculp ting</w>
sc oring</w>
saf e</w>
s ways</w>
s ung</w>
s king</w>
s al
ro pes</w>
rin se</w>
ri pped</w>
rever se</w>
reac ts</w>
re turn</w>
re cted</w>
prai ses</w>
positi oned</w>
poli shed</w>
pier ce</w>
pati ently</w>
pac ed</w>
p lea
oun ded</w>
nerv ous</w>
nee ded</w>
na m</w>
n ic
men ti
men tal</w>
measur es</w>
measur ed</w>
loo ked</w>
lin dri
lindri cal</w>
lea ping</w>
le y</w>
la be
grin ds</w>
gi ggles</w>
gg y</w>
gest uring</w>
ger man</w>
gang nam</w>
fu zzy</w>
floo ded</w>
fair ly</w>
f ying</w>
f ru
f fe
f ar
exhal es</w>
exerci ses</w>
ex posed</w>
ex plo
era mic</w>
deta iled</w>
cy lindrical</w>
crou ched</w>
cre ated</w>
conver se</w>
cont rolled</w>
con tains</w>
col lap
cap tur
cal i
c eramic</w>
brea k
brai ded</w>
ble w</w>
bla sting</w>
beat boxing</w>
au cti
at u
approa ching</w>
accep ting</w>
vi ol
vacuu ms</w>
v elling</w>
ur es</w>
uni formed</w>
tri ps</w>
tra in</w>
through out</w>
th y</w>
th an
teen aged</w>
te sts</w>
tack ling</w>
ta un
t ered</w>
swir ls</w>
stac ks</w>
spo tting</w>
sp il
snow ing</w>
sn o
smooth ly</w>
skate boards</w>
sho cked</w>
sem i</w>
scrat ching</w>
sca le</w>
sc u
sc ary</w>
san d
s oo
repea ted</w>
ren tly</w>
reg arding</w>
rea r</w>
r ow
r a</w>
prun e</w>
pre form</w>
power ful</w>
positi ons</w>
pl un
phys ical</w>
pho to
nic ely</w>
navig ate</w>
mol ding</w>
ma y</w>
m or
lass o</w>
l ly</w>
inter pre
in iti
hur ts</w>
ho n
gui ded</w>
groom s</w>
graphi c</w>
foc uses</w>
fi re</w>
fee l</w>
expla ing</w>
expl ore</w>
ex otic</w>
energe tic</w>
emp ties</w>
em bra
el l</w>
di ly</w>
decora tes</w>
deci de</w>
conver sing</w>
conne ct</w>
condu cting</w>
compla ins</w>
chu bby</w>
cho pped</w>
chisel ing</w>
chan t</w>
capsi zes</w>
bur p</w>
bro ke</w>
bab ly</w>
b ind</w>
b b
atu ral</w>
at ically</w>
ar cha
ad dresses</w>
ac tually</w>
2 0</w>
who se</w>
war dly</w>
wa i
video ing</w>
vi gating</w>
va ulting</w>
uni form</w>
under way</w>
un ited</w>
ty ping</w>
tw in</w>
tran sp
tra ined</w>
thin ks</w>
ten ed</w>
tack le</w>
ta il</w>
t un
t ering</w>
swir ling</w>
swi ftly</w>
su ally</w>
stro king</w>
stri ke</w>
str inging</w>
sta in
st in
squ i
squ e
squ at
squat ted</w>
sp an
soun ding</w>
soli d</w>
si ps</w>
si ft</w>
shu ts</w>
show ed</w>
sho pping</w>
sc ent</w>
sa ils</w>
s able</w>
rep orts</w>
re fle
ra tes</w>
ra pp
pro bably</w>
pr o</w>
positi on</w>
poin t</w>
po lit
pit ching</w>
pac k
p on
p ly</w>
or ig
oc cur
ne ver</w>
na vigating</w>
n atural</w>
multic ol
mil ling</w>
me ss
m ingly</w>
lun ges</w>
le vel</w>
le scent</w>
kn ead</w>
iti sh</w>
introdu cing</w>
intervie ws</w>
imit ates</w>
hur ling</w>
ho me</w>
hel lo</w>
harne ssed</w>
happ ened</w>
g oo
fru strated</w>
fore sted</w>
fi xed</w>
f un
exten ding</w>
ext ra</w>
exce ss</w>
ex ca
even ly</w>
e ver</w>
e st</w>
e sca
e ological</w>
dru m</w>
describ ed</w>
de c
d ering</w>
cy c
cough ing</w>
cont rolling</w>
com par
brie f</w>
bo x</w>
bo w</w>
bi dding</w>
be i
balanc ed</w>
ba thing</w>
b on
b ite</w>
b er</w>
awk wardly</w>
au str
at v</w>
archa eological</w>
ar s</w>
appar ently</w>
answ ers</w>
announ cing</w>
an ti
ama zing</w>
ado lescent</w>
1 9
wel ds</w>
war ming</w>
vir tual</w>
video taping</w>
vi sed</w>
va ping</w>
uti li
up coming</w>
un screwing</w>
tran sla
tick le</w>
than king</w>
th n
thn ic</w>
ter ned</w>
te thered</w>
supp orts</w>
su v</w>
stro kes</w>
stan d
stain less</w>
sta r</w>
st are</w>
squeez e</w>
sn at
si on</w>
shi fts</w>
sh ears</w>
sh ear</w>
ser ious</w>
separ ated</w>
see mingly</w>
se cti
scre en</w>
s l
rom antic</w>
roller skating</w>
ri d</w>
reve als</w>
rep eats</w>
re gular</w>
re d
qu e
proce ed</w>
pre gn
pregn ant</w>
po pped</w>
plu cks</w>
pla in</w>
percus sion</w>
pat terned</w>
pa uses</w>
out er</w>
organi zing</w>
opera ted</w>
on line</w>
multicol ored</w>
mim ics</w>
mex ican</w>
mat ch</w>
mar in
manu ally</w>
maneuver ing</w>
mana ges</w>
m ill</w>
lon ger</w>
lass os</w>
kn itted</w>
k o
joy fully</w>
joh n</w>
instru mental</w>
in ted</w>
in a</w>
illu min
hu gged</w>
hol l
histor ical</w>
hea ding</w>
gri lled</w>
fro sting</w>
foc using</w>
fi d
f y</w>
f itting</w>
extre me</w>
exper tly</w>
every thing</w>
en gra
e thnic</w>
e d
distra cted</w>
dis play</w>
di rected</w>
di pped</w>
d r
d on
cu be</w>
crow d
cro ss
costu med</w>
contro ls</w>
continu ally</w>
constru cting</w>
constru cted</w>
consi sting</w>
condu cts</w>
concentra ting</w>
cla d</w>
circ ling</w>
cho o
car tw
but t</w>
bur st</w>
bun dled</w>
bu tting</w>
br itish</w>
bei ge</w>
bar ely</w>
avoi ding</w>
at ical</w>
arti stic</w>
ar ri
an no
accep ts</w>
ac hi
a side</w>
a er
y or
yor k</w>
whe eling</w>
wa vy</w>
vi sual</w>
va ult</w>
up ward</w>
un screw</w>
tw en
twen ty</w>
tt ered</w>
tr ys</w>
toa sting</w>
to pp
tim es</w>
them atical</w>
the rs</w>
the r
tea sing</w>
suc ceeds</w>
submer ged</w>
stru ggle</w>
stan t</w>
st ating</w>
squir ms</w>
spi ral</w>
spe ed</w>
sp s</w>
sp eeds</w>
skin ny</w>
skil led</w>
sin k</w>
sil ently</w>
si c</w>
sho ving</w>
sex y</w>
separ ates</w>
sen ds</w>
secur ed</w>
sea l</w>
scal es</w>
roa d</w>
reac t</w>
rea dies</w>
re sted</w>
re placing</w>
re hear
prom p
professi onally</w>
pro je
pri or</w>
pre pping</w>
particip ates</w>
out stretched</w>
orig inal</w>
oc cu
ob sc
ni ke</w>
mol ten</w>
mo d
mir ro
me ted</w>
mar ks</w>
ma thematical</w>
m it
low ed</w>
lo cks</w>
lea st</w>
le ssly</w>
laugh ed</w>
l a</w>
ke pt</w>
inter rup
initi ally</w>
in form
i phone</w>
hu mming</w>
ho w
ho p</w>
hi dden</w>
hel meted</w>
he y</w>
hamm er</w>
grun ting</w>
gr owing</w>
ga ve</w>
g la
for wards</w>
fl ings</w>
fa st
fa iling</w>
f ra
f itted</w>
f its</w>
ext ingui
ex tra
every where</w>
enter taining</w>
embra ce</w>
el d</w>
ea ten</w>
e qui
e moti
direc t</w>
di spo
di ag
d ue</w>
d ea
cur rently</w>
coo ing</w>
con gre
colle cted</w>
coa ches</w>
cli pped</w>
ci ous</w>
chil ds</w>
che sted</w>
cel era
bu mping</w>
br ow
bow ls</w>
blo cks</w>
b at</w>
b ased</w>
b ad
au di
app ed</w>
any thing</w>
an tly</w>
an d
al lowing</w>
aer ial</w>
ac celera
ab o
a mus
a ir
20 1
1 00</w>
y ou
y es</w>
y be</w>
wrest les</w>
wor k
whe ther</w>
wei ght</w>
vie ws</w>
vibra ting</w>
var ying</w>
v el
un to</w>
un cooked</w>
tra velling</w>
tra vel</w>
ti p</w>
ti med</w>
th um
t led</w>
t ele
supp orting</w>
supervi ses</w>
sud den</w>
su m
su bur
subur ban</w>
stea dily</w>
ste ers</w>
ste ering</w>
ste als</w>
stac k</w>
st on</w>
squ ea
squ a
sprink ling</w>
spo t</w>
spla shes</w>
sp ar</w>
sno w</w>
sn ea
slee p</w>
sket ching</w>
sizz ling</w>
sen d</w>
sel e
sau te
sa d</w>
rup tly</w>
ri sing</w>
ri dding</w>
rec lining</w>
re st</w>
ra ps</w>
ra ble</w>
polit ical</w>
pin e</w>
pa ddles</w>
p ound</w>
p oo
p low</w>
over weight</w>
ou tw
organi zed</w>
or n
or mous</w>
on going</w>
n ine</w>
moun ts</w>
mou se</w>
mi ss</w>
mat ically</w>
ma ybe</w>
ma ssive</w>
m old</w>
low een</w>
lo st</w>
li sh</w>
lea p</w>
le v
labe led</w>
ki d</w>
k ar
ir s</w>
introdu ce</w>
inspe ct</w>
indic ates</w>
in t</w>
impro ve</w>
impre ssive</w>
ho ver
hi oned</w>
head banging</w>
he sit
hal loween</w>
hal f
ha ir</w>
h ung</w>
h eat</w>
gra bbed</w>
gr and</w>
ge st</w>
g y
g lo
fre e
fl u
fi f
fi ddling</w>
fa iled</w>
exhal ing</w>
enter tain</w>
enga ges</w>
en ormous</w>
emp tying</w>
embroid ering</w>
ele g
du tch</w>
dro ve</w>
dra in</w>
down ward</w>
dispo sable</w>
di vi
dang ling</w>
dang erous</w>
danc ed</w>
d le</w>
cus hioned</w>
cr ush</w>
constru ct</w>
conne cting</w>
com b
clo thed</w>
cla ssi
chi r
ch ased</w>
care ful</w>
can o
cal cu
ca sually</w>
c ym
c ore</w>
bu ffing</w>
bro ad
bott led</w>
bo iling</w>
blin k</w>
bla ding</w>
bl end</w>
ben ch</w>
bel ches</w>
bad ly</w>
bac ked</w>
ba sic</w>
b road</w>
b re
b il
at ter</w>
app earing</w>
answ er</w>
anc e</w>
an ing</w>
al u
al ig
ad m
accompani es</w>
ab ruptly</w>
a wake</w>
zoom ed</w>
z ily</w>
y an
wor n</w>
whi pping</w>
whe els</w>
wa ved</w>
wa des</w>
w o</w>
viol ently</w>
ver tically</w>
v or
ush ed</w>
un even</w>
un cor
un able</w>
tran spar
transpar ent</w>
ti eing</w>
tea ses</w>
t ru
t ary</w>
supp ort</w>
stru ck</w>
sta ys</w>
st ering</w>
st ate</w>
spir ited</w>
spi ky</w>
span ic</w>
soun dly</w>
some what</w>
some times</w>
snat ches</w>
sn oring</w>
sle ds</w>
ski is</w>
sin king</w>
sil ent</w>
si ded</w>
she ers</w>
she er</w>
sh are</w>
separ ately</w>
se cu
sc an</w>
sc an
sa ting</w>
sa mp
sa m
ru mma
ro ped</w>
ri dden</w>
rema ining</w>
rela xes</w>
rela x</w>
rec re
reac ting</w>
re nt</w>
put ts</w>
produ ces</w>
preci se</w>
pre pped</w>
prai sing</w>
poo r</w>
pon y</w>
po or
poor ly</w>
pla ting</w>
pea cefully</w>
pack aged</w>
p ol
out h</w>
ou red</w>
orn ate</w>
or che
on i
off screen</w>
ne ss</w>
narra ted</w>
n is</w>
n al</w>
mus t</w>
moun t</w>
moon walks</w>
moon walking</w>
mo w</w>
mit ten
mim icking</w>
men ts</w>
mel ted</w>
me sm
mar y</w>
mar i
ma in</w>
lov es</w>
lo gi
lean ed</w>
lar ing</w>
lar es</w>
la cing</w>
ki d
ki a</w>
j i
inter mitten
int on</w>
increa sing</w>
in ous</w>
in o</w>
in de
in cre
incre di
impre ssed</w>
hun d
hund red</w>
hoo ded</w>
hol low</w>
high lighting</w>
hi spanic</w>
hi king</w>
he sive</w>
he al
gre et</w>
ga in</w>
g st</w>
g l
fle xing</w>
flat tens</w>
fla shes</w>
fla iling</w>
fin ely</w>
fi es</w>
fa ir</w>
f ted</w>
f ries</w>
explo des</w>
ex pe
equi pped</w>
enter tains</w>
ear ed</w>
e ffe
du mp</w>
dri ps</w>
do cked</w>
dist orted</w>
dispen ses</w>
dic ing</w>
di an</w>
destro y</w>
deli ver</w>
deli cious</w>
dee ply</w>
de fla
de fen
da d</w>
d ges</w>
d ab
cym bal</w>
croche ting</w>
croche t</w>
coo ling</w>
continu ing</w>
collap ses</w>
coa ching</w>
classi c</w>
char ging</w>
cartw he
cano eing</w>
cal ming</w>
c run
bur sts</w>
bob sledding</w>
ban da
back stroke</w>
ba thed</w>
ba gging</w>
b lock</w>
avoi ds</w>
austr alian</w>
atten d</w>
assi sting</w>
anti que</w>
anc ho
an ying</w>
amon gst</w>
altern ates</w>
al lows</w>
adverti ses</w>
ad hesive</w>
accomp anying</w>
a sc
z a
w on
vor ite</w>
un successful</w>
ul ts</w>
ul ted</w>
thin k</w>
the mself</w>
tattoo ing</w>
ta pes</w>
t ling</w>
t i</w>
swi ss</w>
supervi sing</w>
stuff s</w>
stea ming</w>
star tled</w>
ssi ly</w>
squ ee
sp ee
so on</w>
sli pp
slipp ery</w>
skate board</w>
si pping</w>
shu cking</w>
sharp ened</w>
sh re
sh ined</w>
sel ling</w>
sel l</w>
se l</w>
se du
se aled</w>
sc ri
sc en
rot ated</w>
rot ate</w>
ri ously</w>
res ulting</w>
rehear sing</w>
reen acting</w>
re f
re ci
poun ds</w>
positi ve</w>
po st</w>
po logi
plu gged</w>
plu cking</w>
pic tured</w>
pi e
pa per</w>
p at</w>
or t
on es</w>
om ing</w>
od dly</w>
mp y</w>
moun ta
mirro red</w>
mil ked</w>
mesm er
mesmer ized</w>
menti ons</w>
mel t</w>
medi um</w>
me ssily</w>
mar k</w>
mag ni
ma d</w>
m ur
lo sing</w>
li zed</w>
le veling</w>
lass o
lar ly</w>
la ced</w>
l y
l ove</w>
kid die</w>
k il
jud ged</w>
it alian</w>
infla te</w>
in ts</w>
in k
illu strates</w>
ign ite</w>
ic a</w>
i sing</w>
i sed</w>
i s
i es</w>
i denti
ho ping</w>
histor ic</w>
hi de</w>
heal thy</w>
half way</w>
gu e
g one</w>
fri en
frien dly</w>
fo cu
focu s</w>
fluff s</w>
fli ck</w>
fl ung</w>
fl inging</w>
fir es</w>
fi ddles</w>
fea tured</w>
fa vorite</w>
f ou
f ically</w>
expl or
exe cute</w>
exam ined</w>
ex presses</w>
ex it</w>
eu ro
esca pe</w>
en ded</w>
emp tied</w>
emer ges</w>
em be
eleg ant</w>
e g
dri pping</w>
don al
do ck</w>
di sm
di sh</w>
dea d
de plo
de pic
da ily</w>
cross e</w>
cre ative</w>
cra ft</w>
cr ushes</w>
cr ushed</w>
coun ter</w>
conver ses</w>
cont orts</w>
compla ining</w>
col li
cli cking</w>
chi ps</w>
ch al
captur es</w>
ca sual</w>
c uring</w>
c eeding</w>
brea d</w>
bl ind</w>
beauti fully</w>
bea ten</w>
barbe cu
ban d
b iting</w>
b ill</w>
ar ab
amus ed</w>
ama zed</w>
al y
adverti sed</w>
adm iring</w>
achi eve</w>
ab dom
a pologi
a far</w>
5 0</w>
z oo
y our
work out</w>
who m</w>
whi r
wh ines</w>
w rec
vo cali
vi siting</w>
ver sus</w>
v eless</w>
uni denti
under stand</w>
under ground</w>
un tying</w>
un boxes</w>
tur e</w>
tri angular</w>
tele vised</w>
ta ined</w>
t angled</w>
stri p</w>
stin ky</w>
stand ard</w>
st ring</w>
sque als</w>
spo on</w>
speci fically</w>
sp it</w>
soo thing</w>
soci al</w>
snow boards</w>
sni ffing</w>
smoo thes</w>
sma cking</w>
sli ght</w>
slee veless</w>
ski m</w>
simula ted</w>
shor tly</w>
sho ve</w>
sen ior</w>
sel fi
selfi e</w>
secu rely</w>
scre e
scor ed</w>
sc rubbed</w>
sc rolling</w>
sam sung</w>
s orts</w>
s or
s ick</w>
run g</w>
rubi x</w>
ri sh</w>
respon ding</w>
resem bling</w>
rep els</w>
rema ins</w>
recre ational</w>
recei ved</w>
re turned</w>
re tra
re tail</w>
ra ging</w>
r ushes</w>
r us
r inging</w>
pun ched</w>
pu mped</w>
pu ffing</w>
propo se</w>
proje cted</w>
proce ssing</w>
pro gra
presen ted</w>
positi oning</w>
plun ging</w>
plu g</w>
pi ed</w>
ped aling</w>
pe an</w>
para sail</w>
par tying</w>
par tly</w>
par a</w>
pa ired</w>
on coming</w>
occu pied</w>
n g</w>
mur ky</w>
mo i
mo ck</w>
mi ssed</w>
men ted</w>
med it
mar ches</w>
maneuver s</w>
main tain</w>
ma sked</w>
m ick
li ving</w>
li ar</w>
len g
la dy</w>
la crosse</w>
la ces</w>
la ble</w>
jo k
jo inted</w>
jo ining</w>
jer ks</w>
ja zzy</w>
intermitten tly</w>
instal led</w>
in ve
imp ort
imit ating</w>
i rish</w>
i ously</w>
hoo ks</w>
hoo king</w>
hoo k</w>
holl ering</w>
ho i
hi des</w>
hea v
har ve
h ers</w>
h ears</w>
goof ing</w>
ger ly</w>
gen era
ge ting</w>
fr o</w>
fou l</w>
for ce</w>
fli cking</w>
fla pping</w>
fl ushes</w>
fif ty</w>
fi eld</w>
ff ici
fa il</w>
fa des</w>
f ran
f lou
f er
exper ien
every body</w>
ev alu
er ously</w>
en g
el led</w>
el ding</w>
ea gerly</w>
droo ls</w>
dra matically</w>
dra ining</w>
dra ined</w>
dr ys</w>
down wards</w>
discus sed</w>
di sn
di p</w>
dang erously</w>
d ely</w>
cti on</w>
cop ying</w>
conver sating</w>
conne cts</w>
congratula tes</w>
con f
communic ate</w>
com ic</w>
co at</w>
cli cks</w>
cl inton</w>
circ led</w>
circ le</w>
chir ping</w>
chi sel</w>
chi ro
che cked</w>
chan ged</w>
ch ur
cat i
cap tured</w>
calcu late</w>
cal mly</w>
c it
c are</w>
buz zed</w>
bur ned</w>
brea the</w>
bow l</w>
bot tle</w>
bla sts</w>
bl ending</w>
bat tling</w>
bat ter</w>
ba shing</w>
b owing</w>
b ound</w>
b oo
awk ward</w>
autom atically</w>
ang le</w>
amer ica</w>
altern ately</w>
al le
advanc ed</w>
abdom inal</w>
a ss
6 0</w>
zoom ing</w>
zoo m</w>
your self</w>
y set</w>
y ea
yea h</w>
x box</w>
wr inging</w>
wind surfs</w>
wi ped</w>
whi sp
water skiing</w>
w ro
wro te</w>
w ound</w>
w ob
video taped</w>
video s</w>
v ent</w>
v ating</w>
ush y</w>
un folding</w>
ul tim
tu ral</w>
tu cks</w>
tt ers</w>
tra ck</w>
ti ppy</w>
ti pping</w>
ti ling</w>
ti le</w>
th a
ten nis</w>
tea sed</w>
te sti
te m
te ch
ta pe</w>
ta g</w>
ta ble
t ext</w>
t ches</w>
swi shes</w>
surf ac
su rely</w>
su es</w>
sty led</w>
stri pped</w>
stra ddles</w>
stit ches</w>
sti ve</w>
stea dies</w>
ste st</w>
ste er</w>
stab bing</w>
st ap
spil ling</w>
spi ked</w>
speci ally</w>
spe ct
sp ing</w>
somersa ulting</w>
soa king</w>
snow s</w>
snow board</w>
sla mmed</w>
sl ur
skin ned</w>
ski ms</w>
sin ce</w>
simp ly</w>
sig ns</w>
si gh
shampoo ed</w>
sh ri
sh ell</w>
sepera te</w>
sear ch</w>
se curing</w>
se als</w>
se aling</w>
scul pt</w>
scram bling</w>
scram bles</w>
scoo ts</w>
scan ning</w>
s way</w>
s p</w>
s k</w>
rus sian</w>
ru ral</w>
row ly</w>
ro se</w>
rever ses</w>
rep eating</w>
reen act</w>
rec ently</w>
re viewing</w>
re places</w>
ran dom
random ly</w>
ra ces</w>
que sti
qu ently</w>
prop elled</w>
prin ting</w>
pre vi
pre vent</w>
pre teen</w>
pre ss
pre forms</w>
practi c</w>
pol o</w>
plan ts</w>
pla stering</w>
pin ned</w>
pin ched</w>
pin ch</w>
phys ically</w>
p ry</w>
p reaching</w>
ov al</w>
oun ding</w>
op ed</w>
off ering</w>
occur ring</w>
obser ved</w>
o h</w>
nor mal</w>
no tic
ni ght</w>
ne go
nego ti
ne cess
navig ates</w>
nar rowly</w>
mounta inous</w>
mol ds</w>
mm er</w>
mick ey</w>
mess a
mana ging</w>
m ops</w>
m c
m ber</w>
lit e</w>
li an</w>
lea shed</w>
la yed</w>
la thers</w>
la p</w>
la ce</w>
kno tted</w>
kn ow
k ly</w>
jok ingly</w>
jac ent</w>
j ab
it h</w>
inter ior</w>
instru ct</w>
infla ting</w>
infla tes</w>
indi a</w>
inclu de</w>
in v
in complete</w>
import ant</w>
imit ate</w>
illumin ated</w>
ic ed</w>
ic apped</w>
i ss
i sh</w>
i ent</w>
hun g
hu mor
hi lly</w>
heav yset</w>
head butts</w>
head butting</w>
hea ts</w>
hea ds</w>
har mon
happ en</w>
hand icapped</w>
gri pping</w>
gr ow
goof y</w>
ge rated</w>
g y</w>
g row</w>
free zing</w>
fran tically</w>
for cefully</w>
fl own</w>
fir mly</w>
fi red</w>
fa ther</w>
fa stest</w>
f it
explor es</w>
ex press</w>
ex cep
ex ag
ev al</w>
er ts</w>
energe tically</w>
en sure</w>
easi er</w>
e ving</w>
e ffici
dy es</w>
dy eing</w>
du mped</w>
dre w</w>
dra ped</w>
dod ges</w>
do cu
di sa
de po
de al
deal t</w>
dang les</w>
da ma
d ged</w>
d ge</w>
d a</w>
cyc ling</w>
cur rent</w>
crowd surfs</w>
congratula ted</w>
con tem
comp act</w>
communic ates</w>
comfor table</w>
col oured</w>
clu ttered</w>
clo se
clear ly</w>
che er
chal len
cat ely</w>
can a
cana dian</w>
ca ged</w>
bu mps</w>
bu mp</w>
break dancing</w>
bor ne</w>
bor ed</w>
bel ls</w>
bb q</w>
b ushy</w>
b ought</w>
b om
b ic</w>
atten ded</w>
attac ks</w>
at tered</w>
at or</w>
argu es</w>
arab ic</w>
ar med</w>
ar m
ar es</w>
approa ched</w>
appro pri
anno ying</w>
an aly
altern ate</w>
air borne</w>
adverti se</w>
ad mi
ad jacent</w>
ad dressing</w>
ac tively</w>
1 2</w>
´ s</w>
zi lian</w>
z um
zum ba</w>
woo len</w>
wom en</w>
win ces</w>
wi red</w>
wi dely</w>
wh ining</w>
weigh t
wa de</w>
vocali zes</w>
vo cal</w>
va i
vai lable</w>
v in
v ate</w>
utili zing</w>
us ps</w>
ur g
ur ban</w>
unloa ded</w>
unidenti fied</w>
un packing</w>
un cont
uncont rol
uncontrol la
uncontrolla bly</w>
u c
uc ous</w>
ty pe</w>
tw ink
tw el
twel ve</w>
tun ing</w>
tu gue
tugue se</w>
tt les</w>
tro tting</w>
transf er</w>
tra ins</w>
tra cing</w>
tra ces</w>
tow ing</w>
to r</w>
titi vely</w>
ti ered</w>
th rea
threa ded</w>
ten ds</w>
tal ler</w>
table top</w>
ta pped</w>
t ten</w>
t les</w>
t ers</w>
t ear</w>
sy ste
swit ch</w>
swa ddled</w>
sur gical</w>
suppo sed</w>
suppo se</w>
suc ce
su ma
suma bly</w>
stu mbles</w>
stre n
stren g
stre et</w>
stra ddling</w>
sti ff</w>
star ed</w>
stap ling</w>
st al
squee zed</w>
squea ky</w>
sprink led</w>
spo ke</w>
spil ls</w>
spi der
spider man</w>
spe ctive</w>
sp ending</w>
sp el
sp ac
sol ves</w>
sma shed</w>
sli p</w>
slee ved</w>
sin ks</w>
shoo k</w>
shampoo s</w>
sedu ctively</w>
sear ches</w>
scu ba</w>
scrat ch</w>
scen ic</w>
sand blasting</w>
s sem
s ou
s on
s len
slen der</w>
s ic
s a</w>
s .</w>
roller blading</w>
ro aring</w>
rin k
ri ous</w>
respon d</w>
repe titive</w>
refle ctive</w>
rec iting</w>
rec ites</w>
rea ting</w>
re views</w>
re spective</w>
re qu
re me
re els</w>
re ali
rai d</w>
ra ucous</w>
ra ting</w>
ra p</w>
ra iny</w>
r o</w>
qu atic</w>
qu al</w>
pun ct
pul l
prun es</w>
prote cting</w>
promo tional</w>
promo ting</w>
proce ssed</w>
pro fus
profus ely</w>
prin t</w>
pre sumably</w>
pr one</w>
por tuguese</w>
po tted</w>
plu gging</w>
plea sed</w>
play ful</w>
plan ing</w>
pit ch</w>
per ha
perha ps</w>
per f
pen sive</w>
ped als</w>
pat ch</w>
par k</w>
par alle
paralle l</w>
pac ka
pa ir</w>
p op
p han
ow ns</w>
over turned</w>
ov ers</w>
outw ard</w>
on looking</w>
off er</w>
of ten</w>
o live</w>
o be
num b
necess ary</w>
near est</w>
ne tic</w>
ne at</w>
na iling</w>
mon it
mo sh</w>
mo cking</w>
mi mic</w>
messa ging</w>
men tary</w>
medi eval</w>
me ss</w>
mc donal
mat t</w>
marin ated</w>
mar ry</w>
mar ac
maneu ver</w>
man ic
manic ured</w>
main ly</w>
magni fying</w>
mag netic</w>
ma shing</w>
m o</w>
lov ing</w>
loose ning</w>
loo ses</w>
lo se</w>
lea fy</w>
le g
lay ered</w>
laun ching</w>
lan d
la ting</w>
la test</w>
la ps</w>
know le
kn ows</w>
ki ly</w>
k ite
joh n
je sus</w>
jac ked</w>
jac k</w>
j ingle</w>
j c
jc b</w>
introdu ced</w>
inten sely</w>
instal ls</w>
ing er
individu ally</w>
incredi bly</w>
in cl
ic es</w>
i se</w>
i re</w>
i den
hur ting</w>
hur dling</w>
hung ry</w>
hu ddling</w>
hou se</w>
hol ing</w>
high ly</w>
hesit ates</w>
han dy</w>
ha wai
ha le</w>
h earing</w>
h a</w>
gra du
gr ows</w>
go tten</w>
gl ue</w>
gest ures</w>
ga sps</w>
ga me</w>
g urg
g le</w>
g inger
g ely</w>
g an
fus sy</w>
fus ses</w>
fun ky</w>
fu riously</w>
form er</w>
for ced</w>
flou red</w>
flo ps</w>
fla ils</w>
fl or
fi shes</w>
fi led</w>
fel low</w>
fe stive</w>
far ts</w>
fal se</w>
fac ed</w>
fa mi
f on
f lowered</w>
expl ored</w>
experien ced</w>
exca vated</w>
exc erci
exag gerated</w>
euro pean</w>
et ching</w>
enjo yed</w>
engra ving</w>
en sues</w>
emoti onally</w>
embroid ers</w>
em b
ele ssly</w>
ele mentary</w>
ear ly</w>
e qual</w>
e du
dod ging</w>
do tted</w>
do g</w>
do g
divi ded</w>
disn ey</w>
disa ssem
dis appears</w>
dis ab
diag onal</w>
destro ys</w>
demo strates</w>
deci ding</w>
d ul
d run
cu ddling</w>
cran king</w>
cra zily</w>
cor po
continu ed</w>
conf used</w>
comm on</w>
com man
color fully</w>
co sm
co m</w>
co ating</w>
clear ed</w>
cla mps</w>
ck les</w>
chu g</w>
chiro practic</w>
cha ined</w>
ch in</w>
cat chy</w>
car ing</w>
captur e</w>
cali for
cal li
ca uti
ca ting</w>
ca si
c enter</w>
bu ried</w>
brea ded</w>
bra zilian</w>
bra ve</w>
bow s</w>
boun ced</w>
blo cking</w>
blo cked</w>
bel ching</w>
be li
be e
be come</w>
be an</w>
bat man</w>
barbecu ing</w>
ba kes</w>
b m
b laring</w>
b er
aucti oning</w>
attemp ted</w>
attemp s</w>
attac k</w>
appar ent</w>
anc ient</w>
am es</w>
al ign</w>
ai m</w>
aggre ssive</w>
af raid</w>
af fe
accomp any</w>
accep t</w>
ac tive</w>
ac knowle
ac king</w>
ac cu
ab se
ab and
a vailable</w>
a quatic</w>
yan ks</w>
y ol
yol k</w>
y i
y c
x im
xim ately</w>
with draw</w>
win ged</w>
wi ggle</w>
wi elding</w>
whisp ers</w>
whi sking</w>
we ver</w>
we e</w>
wat ery</w>
wal ing</w>
wa ke
w rink
w all</w>
vie wed</w>
vide o</w>
ve y</w>
us a</w>
ur ging</w>
ur ges</w>
un screws</w>
un in
un finished</w>
ultim ate</w>
u t</w>
u .
twink le</w>
tur es</w>
tum ble</w>
tu gs</w>
tu cking</w>
tt ering</w>
tri c</w>
tre ated</w>
tre at</w>
transf er
tra ver
topp les</w>
toa st</w>
ti vated</w>
ti oni
tioni st</w>
ti fic</w>
thum bing</w>
th om
thom as</w>
tex as</w>
ter n</w>
temp or
tempor ary</w>
taun ts</w>
tattoo s</w>
tar get</w>
tac tical</w>
t wit
t tle</w>
t ough</w>
t on</w>
synchron ised</w>
swit ched</w>
sw er
sw ears</w>
sw e
swe pt</w>
sw ar
surroun ds</w>
suc ked</w>
suc ceeding</w>
su g
stu ri
stra ined</w>
stir ing</w>
stab i
sta ying</w>
sta irs</w>
st rung</w>
st rea
sque aling</w>
squa sh</w>
squ ints</w>
sprin ts</w>
sprin ting</w>
spi kes</w>
spect ate</w>
somersa ulted</w>
somersa ult</w>
some ones</w>
sociali ze</w>
snork ling</w>
snea ks</w>
sn u
smoo thed</w>
smi ley</w>
slow er</w>
slo ppy</w>
sli pping</w>
skill ful</w>
sigh s</w>
sig n
sic le</w>
shre dded</w>
sho re</w>
shar es</w>
sh ru
sh inning</w>
sh eared</w>
sex ual</w>
ser rated</w>
ser iously</w>
sepera ting</w>
sel ls</w>
see ming</w>
secur es</w>
sea s
se y</w>
se dly</w>
scri be</w>
scre wed</w>
scrat ched</w>
sc ue</w>
sc roll</w>
sc ien
scien tific</w>
sc hoo
schoo l</w>
sc attered</w>
sc ares</w>
sc ans</w>
san iti
saniti zing</w>
sa ve</w>
s un
s playing</w>
s outh</w>
s old</w>
s ingly</w>
s eating</w>
s .
ru s</w>
roa ming</w>
ri pe</w>
rev s</w>
resem bles</w>
rema in</w>
rela ted</w>
rec a
re w
re vol
re st
re scue</w>
re scu
re place</w>
re mon
remon ial</w>
re marks</w>
re jo
re finishing</w>
re commen
re arranging</w>
rapp elling</w>
ran k</w>
ra tely</w>
ra king</w>
r ounded</w>
r oughly</w>
pur po
pu ffs</w>
propo sed</w>
prop els</w>
prop elling</w>
produ ced</w>
pro vo
pri m
prim iti
primiti ve</w>
pr ou
prou dly</w>
pp ling</w>
pop sicle</w>
plun ges</w>
plu cked</w>
photo graphed</w>
phan t</w>
per taining</w>
per son</w>
per ched</w>
pati ent</w>
parachu tes</w>
par tial</w>
pain ful</w>
pa y</w>
pa st
p sy
p lying</w>
p lows</w>
p li
p ins</w>
p ic</w>
p ee
ow ard</w>
orche stra
or tionist</w>
op ro</w>
on a</w>
off ici
off ered</w>
oc casi
occasi onally</w>
ob no
o tive</w>
o ther
numb ered</w>
notic es</w>
ni a</w>
nerv ously</w>
negoti ating</w>
ne tted</w>
n inj
n f
nf l</w>
n a</w>
moi sturi
mir es</w>
mari o</w>
man ta</w>
m ushing</w>
m un
m on</w>
lun ging</w>
lu lar</w>
lo t</w>
li shed</w>
li k
li gently</w>
li cked</w>
lea gue</w>
lea f
le ston</w>
le gen
lau s</w>
lap sed</w>
lan tern</w>
lan gu
langu age</w>
l tural</w>
l oun
l g</w>
ko re
ko i</w>
kaya k</w>
ka h</w>
k ind</w>
k in
jud ging</w>
jo ke</w>
jo g</w>
jer ky</w>
jer king</w>
j eep</w>
intri cately</w>
interrup ted</w>
interpre ting</w>
inter national</w>
inter nal</w>
inform ative</w>
inform ational</w>
ine ss</w>
inde pen
increa ses</w>
incl ined</w>
in ward</w>
in ver
in ness</w>
in hale</w>
in between</w>
impre ss</w>
ign ites</w>
i sy</w>
i menting</w>
i mag
i b
ib bean</w>
hy dra
humor ous</w>
hu ddles</w>
how ls</w>
how ling</w>
horizon tally</w>
ho wever</w>
ho ly</w>
head butt</w>
har d
hamm ered</w>
h us
h eel</w>
gurg ling</w>
gu inness</w>
grun ts</w>
gro aning</w>
gri ma
gri ll</w>
gradu ally</w>
gi g
gig antic</w>
gar ni
g opro</w>
g lu
g lee
g ers</w>
g ate</w>
fu ture</w>
fra med</w>
for ces</w>
foo ted</w>
fo reca
fo am
foam y</w>
flo ck</w>
fli ck
fle xes</w>
fle x</w>
fla shed</w>
fla ps</w>
figh ts</w>
fid geting</w>
fi ling</w>
ff er</w>
ff ed</w>
fea tures</w>
fe de
fast ens</w>
fami liar</w>
f oward</w>
extra ct</w>
exper imenting</w>
exclai ming</w>
excep t</w>
exca vating</w>
ex pressing</w>
ex pre
ex change</w>
ex act</w>
et te</w>
er ra
ent ered</w>
en h
emoti onal</w>
emer ging</w>
embe dded</w>
emb racing</w>
ele phant</w>
effe ctively</w>
ea stern</w>
ea st</w>
ea cho
eacho ther</w>
e y
e tted</w>
e tic</w>
e pic</w>
e m</w>
e dly</w>
du sty</w>
dri fts</w>
dra ins</w>
dou bles</w>
dog sled</w>
dod ge</w>
dist ur
disab led</w>
dis gu
dic ed</w>
di ligently</w>
destro ying</w>
den tly</w>
dead lifts</w>
de nt</w>
dark er</w>
dama ged</w>
dab s</w>
d ically</w>
d i</w>
d ers</w>
cur vy</w>
cur sive</w>
cu rious</w>
cu ltural</w>
cru ising</w>
crowd surfing</w>
crow ed</w>
crou ch</w>
cran ked</w>
coun try</w>
cosm etic</w>
cop ies</w>
contem pla
cont ortionist</w>
consi sts</w>
consi st
congratu late</w>
con ven
con su
con sol
compli ments</w>
communic ating</w>
commen ces</w>
comfor t</w>
co ated</w>
close up</w>
clai ms</w>
ck ling</w>
ck le</w>
ck ered</w>
choo se</w>
che f</w>
che ckered</w>
char leston</w>
ch u</w>
ch ea
ch atter</w>
centra l</w>
cel lular</w>
ce remonial</w>
ce ful</w>
car ibbean</w>
car elessly</w>
capsi zing</w>
califor nia</w>
c laus</w>
c her</w>
bul l</w>
bul l
bu isy</w>
bu cking</w>
broad casting</w>
bo xed</w>
bo pping</w>
bo iled</w>
bo bs</w>
bo ating</w>
bm x</w>
bla ck
beat boxes</w>
banda ging</w>
band aged</w>
ba thes</w>
ba sh</w>
b lee
b ir
autom otive</w>
audi o</w>
as se
arri ve</w>
ar i
appropri ate</w>
appro ximately</w>
announ ced</w>
an a</w>
am uses</w>
alig ns</w>
al ways</w>
ai med</w>
admi re</w>
ad ult</w>
ad mires</w>
ad ditional</w>
ac k</w>
abo ard</w>
aband oned</w>
a wa
a v
a id</w>
3 60</w>
2 x
1 5</w>
’ s</w>
y out
yout u
youtu be</w>
xi ously</w>
x y</w>
wri ggling</w>
wre nch</w>
wor shi
won dering</w>
won der
wonder ful</w>
wind surf</w>
wi sh</w>
wi i</w>
wi der</w>
wi de
who oping</w>
who ever</w>
whi p</w>
wel comes</w>
weight lifting</w>
wea ved</w>
we some</w>
war ded</w>
wan ting</w>
w rings</w>
w ounded</w>
vibra te</w>
vac cu
va st</w>
v is</w>
v in</w>
utili zes</w>
up stairs</w>
unti es</w>
unin tel
unintel li
unintelli gi
uni ver
uni or</w>
under handed</w>
uncor k</w>
un wrap</w>
un tie</w>
un opened</w>
un locks</w>
un hook</w>
un expe
u r</w>
u ps</w>
u k
u ated</w>
tti me</w>
tro ts</w>
tri pping</w>
transla tes</w>
transla te</w>
tra ce</w>
topp le</w>
to pping</w>
tigh tened</w>
ti on</w>
ti me</w>
ti an</w>
tho dically</w>
thi gh</w>
ther n</w>
the ring</w>
the med</w>
th wise</w>
th u
th day</w>
tex ts</w>
tea se</w>
te h</w>
ta bly</w>
t ree</w>
t ball</w>
sy m
swi shing</w>
sw arm</w>
suppo sedly</w>
supervi sed</w>
succe ed</w>
sub scribe</w>
stri py</w>
stri pping</w>
strea m</w>
stra te</w>
stit ched</w>
stea m</w>
ste ms</w>
star ring</w>
stab s</w>
stab bed</w>
sta mp</w>
sta ding</w>
st ron
st ore</w>
st ling</w>
st in</w>
st ical</w>
st ers</w>
squir ting</w>
squi shing</w>
squi sh</w>
squ ating</w>
spra y
spo oning</w>
spo ken</w>
spel un
spee ded</w>
spar kly</w>
sp oo
sp icy</w>
sp angled</w>
so ars</w>
snow mobi
snowmobi ling</w>
sni ff</w>
smo ked</w>
slur ping</w>
skil ls</w>
ski pped</w>
ski mming</w>
ski i</w>
ski i
ski es</w>
sket ched</w>
sket ch</w>
sk top</w>
sk in</w>
sk at
sit uated</w>
simultane ous</w>
simula ting</w>
sil hou
silhou etted</w>
side nt</w>
si x
si red</w>
show ering</w>
shor ter</w>
sho e</w>
she par
shepar d</w>
shar ping</w>
sha kily</w>
sh y</w>
sele cts</w>
se wn</w>
se ttles</w>
se cre
sculp ts</w>
sco tch</w>
sc run
sc iss
sciss ors</w>
saute ed</w>
sau te</w>
san g</w>
san ds</w>
samp ling</w>
samp le</w>
sa ws</w>
sa il
sa dly</w>
s ati
rumma ges</w>
ru pt</w>
row dy</w>
rot ary</w>
ro y
ro cked</w>
ro ars</w>
ri se</w>
rew arding</w>
reve aled</w>
res on
requ ired</w>
repe l</w>
repa ired</w>
remo d
reme mber</w>
reli eve</w>
red headed</w>
red dish</w>
rec reating</w>
rec o
rea ched</w>
re placed</w>
re in
re fere
ra tional</w>
ra p
ra kes</w>
ra ining</w>
r y
r d</w>
r ar
quick er</w>
qu in</w>
purpo sely</w>
pull up</w>
provi de</w>
prote cted</w>
promp ted</w>
progra m</w>
pro of</w>
previ ous</w>
pre sident</w>
pra ying</w>
pra cting</w>
pp le</w>
poin ty</w>
po ten
po ked</w>
plu gs</w>
plea san
pla te</w>
pla n</w>
pl ush</w>
pl us</w>
pi lo
pi ka
pika chu</w>
photo bom
perf oming</w>
per i
per fo
pea ceful</w>
pat ri
past e</w>
par ts</w>
par take</w>
packa ging</w>
pa le</w>
p rying</w>
p ir
pir ou
p iling</w>
p hi
p h</w>
p each</w>
outw ards</w>
out lined</w>
ou ring</w>
other wise</w>
organi ze</w>
orchestra l</w>
op tical</w>
olymp ics</w>
of t</w>
occur s</w>
ob je
o o</w>
o k</w>
nu de</w>
nor m
norm ally</w>
no ting</w>
no kia</w>
ninj a</w>
ni gh
nigh ttime</w>
nee d
need le
ne quin</w>
ne g
neg ative</w>
narra te</w>
nar rar
na il</w>
mu mbles</w>
mod eling</w>
mo m</w>
mil d</w>
mi ch
menti oning</w>
mel ting</w>
mel lows</w>
medit ating</w>
me thodically</w>
me ssed</w>
marin ating</w>
marac a</w>
mar king</w>
manu fac
man nequin</w>
m other</w>
m oping</w>
m ing
m es</w>
m ble</w>
m al
m a</w>
lov ely</w>
loo sing</w>
leng thwise</w>
le i
lei surely</w>
le go
lego s</w>
lay ering</w>
lat ter</w>
lat ino</w>
lasso ing</w>
land sca
la n</w>
kn its</w>
kaya ks</w>
k it
jer k</w>
j unior</w>
j et
inver ted</w>
inv iting</w>
intri gu
interrup ts</w>
inten ds</w>
inte rested</w>
in ting</w>
in stant</w>
in spi
in corpo
in ary</w>
impro vised</w>
ign ore</w>
identi fies</w>
iden tical</w>
id a</w>
ic e
i g</w>
hus ky</w>
hur ry</w>
hover s</w>
hover ing</w>
hor sing</w>
holl ers</w>
hol ler</w>
hoi sts</w>
ho pes</w>
ho p
ho g</w>
high light</w>
hawai ian</w>
harve sting</w>
hard core</w>
har dly</w>
h in
gy rates</w>
gu iness</w>
grow ls</w>
gri ps</w>
gree ting</w>
gra sps</w>
gra sping</w>
gr ounded</w>
glo bal</w>
glee fully</w>
gh a
genera ted</w>
ga ins</w>
g ross</w>
g or
g on</w>
g ator</w>
g ated</w>
g as</w>
g al
fus sing</w>
ful ler</w>
fre quently</w>
fon dling</w>
fo a
flor ida</w>
flo pping</w>
fin er</w>
fin ed</w>
fel ting</w>
far ther</w>
f low</w>
f ling</w>
f ing</w>
extingui shing</w>
extingui sh</w>
ext ru
explo de</w>
exc iting</w>
ex pensive</w>
ex pan
ex p
ex iting</w>
et ch</w>
er up
enthusia stic</w>
en acting</w>
en act</w>
ele ven</w>
effici ently</w>
effe ctive</w>
edu cati
educati onal</w>
e ye</w>
e x</w>
e ves</w>
e f
dul l</w>
du mmy</w>
du ck</w>
du al</w>
drun k</w>
dri fting</w>
dra g</w>
dow ning</w>
dow ned</w>
dom e
do or</w>
do cking</w>
distur bed</w>
distra ct</w>
dispen sing</w>
dism oun
disgu sted</w>
dis app
diag onally</w>
di ver
di stant</w>
di ss
di o</w>
deta iling</w>
desig ning</w>
desig n</w>
deplo ys</w>
depic ts</w>
den se</w>
demon stating</w>
deli cate</w>
dee per</w>
dec ent</w>
de vel
de sp
de sktop</w>
de sired</w>
de m</w>
dark ly</w>
dab bing</w>
d less</w>
d ice</w>
d ging</w>
cur ving</w>
cti on
crun chy</w>
crun ches</w>
crow s</w>
cre e
cra fted</w>
cr ys</w>
cough s</w>
cou r
costu me</w>
cor ral</w>
coo s</w>
contempla tes</w>
cont orting</w>
constru cts</w>
constan t</w>
congre ss</w>
congratula ting</w>
concentra tes</w>
con tain</w>
con fede
compli mented</w>
compar ing</w>
compar es</w>
comfor tably</w>
com pu
com pressed</w>
com posed</w>
col lar
coa xing</w>
clo thing</w>
clo ck
clock wise</w>
clean ly</w>
cla pped</w>
ck er</w>
ci v
cho king</w>
chisel s</w>
chi pped</w>
cheer ful</w>
chan ts</w>
ch ats</w>
cauti ously</w>
cartwhe els</w>
care ssing</w>
car fully</w>
calli graphic</w>
ca v
ca st
ca sing</w>
ca mping</w>
ca ke</w>
c ee
c apped</w>
buz zes</w>
but cher</w>
bur nt</w>
bu sting</w>
bu mpy</w>
bu b
bre at
breat h</w>
bra kes</w>
br an
bon eless</w>
bo il</w>
blow drying</w>
bla zing</w>
bir thday</w>
bil ly</w>
bi king</w>
bi kes</w>
bi e</w>
beli eve</w>
be coming</w>
bar re
bar k</w>
banda ges</w>
bab ys</w>
ba gged</w>
b run
b ops</w>
b ol
b less</w>
b ats</w>
b ating</w>
audi ble</w>
au di</w>
attac king</w>
at tering</w>
at tat
arri ves</w>
ar ched</w>
apologi zing</w>
any one</w>
ali ke</w>
al oft</w>
al erts</w>
ag it
after ward</w>
afri ca</w>
ado rable</w>
ad vi
ad mini
ad am</w>
acknowle dges</w>
accelera tes</w>
accelera ted</w>
ac tual</w>
ac cor
abse iling</w>
ab original</w>
a wesome</w>
a mid</w>
a de
9 0</w>
8 0</w>
2x 4</w>
. and</w>
' d</w>
za gs</w>
z ig
z er</w>
z el
zel da</w>
youn gest</w>
you n</w>
you g</w>
yel led</w>
y u
yu mmy</w>
y o</w>
y ar
yar n</w>
y a</w>
x y
x ious</w>
wrink led</w>
wri ggles</w>
wrec ked</w>
wre sting</w>
wre n
wr angle</w>
worshi ping</w>
wor th</w>
wor ld</w>
wor e</w>
wom ens</w>
wo ke</w>
wi shing</w>
wi re
whir ling</w>
whi ps</w>
whe re
wel coming</w>
weigh s</w>
we tting</w>
we ts</w>
water proof</w>
war ns</w>
war ms</w>
war mly</w>
wan ted</w>
wan ders</w>
wan dering</w>
wake boarding</w>
wai ving</w>
w ee
w are</w>
vol ley</w>
viol ent</w>
video ed</w>
vel cr
velcr o</w>
ve ge
ve gas</w>
va ults</w>
va mp
vamp ire</w>
v s</w>
v eled</w>
v ates</w>
uti ful</w>
unti ed</w>
unloa ds</w>
univer sit
universit y</w>
unintelligi ble</w>
unexpe ct
unexpect edly</w>
un stuck</w>
un locking</w>
un fold</w>
un crosses</w>
un covered</w>
un cover</w>
un coordinated</w>
ul try</w>
ul ous</w>
u. s.</w>
u tra
utra l</w>
u n</w>
u lic</w>
ty ne</w>
tw eight</w>
tu gging</w>
tu cked</w>
tu ck</w>
tu bu
tubu lar</w>
tro j
tri mmer</w>
tri ce
tri cal</w>
transp orting</w>
transp lan
transla ting</w>
transfer ring</w>
transf ers</w>
tra mp
tr ance</w>
to tally</w>
to tal</w>
til ted</w>
tigh ter</w>
tic ing</w>
ti ring</w>
ti onally</w>
ti ming</w>
ti l</w>
thum b</w>
tho lic</w>
thin king</w>
the tic</w>
the ns</w>
the n
tha i</w>
th s</w>
th ra
th inner</w>
th ick
testi fying</w>
ter ri
ten ted</w>
te ch</w>
taun ting</w>
tan dem</w>
ta gging</w>
t v</w>
t run
t reading</w>
t in</w>
t ank</w>
syste matic</w>
syn cing</w>
syn c
sync s</w>
sym me
symme trical</w>
swi vels</w>
swi ffer</w>
swer ves</w>
swa m</w>
sw ear</w>
supervi se</w>
sum o</w>
sum mari
sum es</w>
submer ges</w>
su mm
su ing</w>
sty lized</w>
stu ff</w>
stron ger</w>
strin gs</w>
stret chy</w>
streng then</w>
stre ssed</w>
straigh tened</w>
stra pping</w>
stra it
ster i
stal led</w>
stabi li
sta ple</w>
sta b</w>
st stroke</w>
st ored</w>
st ig
st atic</w>
squir ming</w>
squi shes</w>
squa shing</w>
spelun king</w>
spar ing</w>
sp y</w>
sp ends</w>
sp a
soo the</w>
some ting</w>
soa ked</w>
sni ps</w>
sn orts</w>
smil ed</w>
sm u
sm ears</w>
sm earing</w>
slo pp
slopp ily</w>
slo ping</w>
slo bb
sl inging</w>
sky dives</w>
sky dive</w>
skil fully</w>
ski mo</w>
ski dding</w>
sket ches</w>
skat er</w>
sk ying</w>
six ty</w>
simula tes</w>
simi larly</w>
sign als</w>
sig nal</w>
si ly</w>
si fts</w>
shru gs</w>
showca sed</w>
shar ed</w>
shamp oo</w>
sha de</w>
sep h</w>
sen ate</w>
see med</w>
secti oning</w>
secti on</w>
secre t</w>
sea ttle</w>
sea son</w>
se t
scree ching</w>
scram ble</w>
scra pping</w>
scor ted</w>
sc atter</w>
saute ing</w>
sati s
san ded</w>
sal u
sal ts</w>
sa wed</w>
s ultry</w>
s owing</w>
rumma ging</w>
ru sty</w>
ru ff</w>
ru bic</w>
ron oun
roller skate</w>
ro o
roo ting</w>
rin sed</w>
ri ly</w>
rever sing</w>
retrie ving</w>
rescu ed</w>
repe titively</w>
remod eling</w>
reci eving</w>
rec yc
rec lined</w>
rea d
re que
re presenting</w>
re plays</w>
re na
re finish</w>
re arranges</w>
rapp el</w>
ra mp</w>
ra ke</w>
r ounding</w>
r ough
qu o
qu ir
qu ing</w>
q at
qat ar</w>
put ated</w>
punct uring</w>
pu ling</w>
provo cati
promp ts</w>
promp ting</w>
proce ss</w>
pro pe
prope l</w>
pro ceeding</w>
pro cee
pri vate</w>
preci sely</w>
pre ps</w>
pre p</w>
prai sed</w>
practic ed</w>
practi se</w>
pr oud</w>
power washing</w>
plu ck</w>
pleasan t</w>
play in</w>
plan k</w>
plan e</w>
pla ted</w>
pin ning</w>
pi pe</w>
pi le</w>
peri od
period ically</w>
percus sive</w>
ped al</w>
pe ddling</w>
pe cking</w>
pe aling</w>
patri otic</w>
pat ty</w>
para sails</w>
para glide</w>
par t
pan ned</w>
pack age</w>
pa ving</w>
p ronoun
p lowed</w>
p ick
ow here</w>
over turns</w>
over taken</w>
over night</w>
over cast</w>
out lining</w>
oun g</w>
or y</w>
on strates</w>
on ne
on d</w>
om s</w>
off stage</w>
obsc ure</w>
obno xiously</w>
o ka
oka y</w>
o inted</w>
o ci
o at
oat mea
oatmea l</w>
nu clear</w>
nor th</w>
no d</w>
ni sh</w>
needle point</w>
nee dle</w>
ne y</w>
ne ws</w>
ne utral</w>
na vel</w>
n tly</w>
n owhere</w>
n on
n ical</w>
n eeding</w>
n d</w>
n ated</w>
mun ching</w>
mu mbling</w>
mou thing</w>
moon walk</w>
moisturi zing</w>
mod els</w>
mo de
mo aning</w>
ming ling</w>
min or</w>
min cing</w>
mich eal</w>
mi s
mi d
mex ic
mexic o</w>
mess aged</w>
mel low</w>
mee ting</w>
me mor
me an</w>
me an
mcdonal d</w>
mar ried</w>
manufac tured</w>
manu ever
manuever ing</w>
maneuver ed</w>
main tains</w>
ma sk</w>
ma je
m y
m ow
m outh</w>
m ic
lu te</w>
lou der</w>
loose ns</w>
loo dy</w>
lo ps</w>
lo p</w>
lo ck
lo cate</w>
lit te</w>
lik ely</w>
ligh tweight</w>
lif ing</w>
li sting</w>
li m
li king</w>
lev it
levit ating</w>
leng thy</w>
leg al</w>
lear ned</w>
le vels</w>
le ct
la zy</w>
la ser</w>
kore an</w>
kno t</w>
kite boarding</w>
ki ssed</w>
ki ds</w>
k ick
k er</w>
k a</w>
ju stin</w>
ju icy</w>
john son</w>
jo seph</w>
jet skiing</w>
jer sey</w>
je an</w>
jab bing</w>
ja m</w>
ja gged</w>
j ov
j ou
j et</w>
j an
j ames</w>
inve stig
intrigu ed</w>
interpre tive</w>
intera ctive</w>
inter locking</w>
inten ded</w>
inspi rational</w>
indic ate</w>
incredi ble</w>
increa se</w>
in ter</w>
in s
in je
in formal</w>
in er</w>
in cess
incess antly</w>
imag inary</w>
ign oring</w>
ign iting</w>
ice skating</w>
i mm
i lit
i der</w>
hydra ulic</w>
hun ched</w>
hor se
hop scotch</w>
hon king</w>
hol lowed</w>
ho st</w>
ho pe</w>
ho o</w>
ho ning</w>
hi lar
hi kes</w>
hi c
hic cu
harmon ic</w>
har der</w>
har de
hand some</w>
hair less</w>
ha w
h ul
h it
gy rating</w>
gu y</w>
gu mmy</w>
gro ov
grima ces</w>
gri pped</w>
gra ff
gr ins</w>
goo gle</w>
gol fing</w>
go d</w>
gla ss</w>
ginger ly</w>
gi r
gg led</w>
ge e</w>
gar ian</w>
gan ga
ganga m</w>
ga u
g n</w>
g ly</w>
fu el</w>
fre ely</w>
fra ming</w>
for warded</w>
for tun
fo ggy</w>
fluff ing</w>
flo p</w>
fli r
flat tened</w>
fla v
fl ys</w>
fil tering</w>
fi x
ffe l</w>
fe tches</w>
fashi on</w>
fac e
f rea
f low
f an
execu ting</w>
ex its</w>
ex er
ex changing</w>
ex a
evalu ate</w>
eu rope</w>
erra tically</w>
er sed</w>
enter tained</w>
embro ider</w>
em itting</w>
em barks</w>
el vis</w>
el ses</w>
el ong
el der</w>
ei ffel</w>
eg g</w>
ef for
ed ited</w>
ear th</w>
e vil</w>
e skimo</w>
e scorted</w>
e li
e gged</w>
e di
e ber</w>
du sted</w>
du pli
droo l</w>
dri er</w>
dome stic</w>
docu menting</w>
do zing</w>
do x</w>
do gs</w>
diver se</w>
dist ingui
diss ol
dispen sed</w>
dispen se</w>
disp er
dism an
disc overs</w>
disc over</w>
disc onne
disc arded</w>
disapp ointed</w>
dis lo
differe ntly</w>
dic es</w>
di stressed</w>
di d
devel oped</w>
deta ches</w>
desig nated</w>
depic ting</w>
den tyne</w>
demonstra iting</w>
demo lished</w>
deliver ed</w>
deli be
defla tes</w>
defen ds</w>
decora tively</w>
deci ded</w>
dec lares</w>
dead lifting</w>
de te
de f
de ere</w>
de er</w>
dd ha</w>
dar th</w>
d rank</w>
d or
d les</w>
d j</w>
d ining</w>
d eal</w>
d am
dam on</w>
d able</w>
cus sing</w>
cu ddles</w>
cru mbling</w>
cru de</w>
cri ss
cri spy</w>
crea my</w>
cran ks</w>
cra ving</w>
coun tless</w>
cor es</w>
cont orted</w>
consu ming</w>
consol es</w>
consist ent</w>
congre gate</w>
confede rate</w>
condu ct</w>
con vin
con ve
con tained</w>
con fron
con clu
con cer
compe te
compar ed</w>
comman ds</w>
comfor ts</w>
comb ines</w>
com ical</w>
colli de</w>
collar ed</w>
coa stal</w>
co splaying</w>
co ke</w>
co ats</w>
clo gged</w>
cla sped</w>
cla sh</w>
cla mped</w>
cla mp</w>
cl in
cl en
ck y</w>
ck en</w>
civ ic</w>
cit y</w>
cit rus</w>
ci ously</w>
chur ning</w>
chur ch</w>
chu gs</w>
chu cking</w>
chu ck</w>
choo sing</w>
choo ses</w>
cho kes</w>
chea p</w>
che w
challen ged</w>
cha ir</w>
ch r
cat a
cartwhe eled</w>
cap turing</w>
cap tivated</w>
can ned</w>
ca used</w>
ca tholic</w>
ca ps</w>
ca ching</w>
c tor</w>
c enters</w>
bus king</w>
bull do
bu ying</w>
bu tt
bu ddha</w>
brun ette</w>
brow sing</w>
broad cast</w>
bri gh
break dances</w>
break dance</w>
brea ststroke</w>
brea ding</w>
bra ke</w>
bra ces</w>
bow led</w>
bo ils</w>
bo died</w>
bo b</w>
bla st</w>
bl ended</w>
bi g
bi ent</w>
bi eber</w>
bi d</w>
bel on
bea ded</w>
be utiful</w>
be tting</w>
be aring</w>
bare footed</w>
bar bie</w>
ban ner</w>
bal ling</w>
bal ck</w>
back up</w>
back door</w>
bab y
ba the</w>
ba gs</w>
b rew</w>
b ou
b loody</w>
b lares</w>
b es</w>
b each</w>
b atting</w>
av era
austr ali
australi a</w>
aucti oned</w>
attat ches</w>
ati on</w>
ate dly</w>
at te
ass orted</w>
ass oci
asc ends</w>
asc ending</w>
arm wrestling</w>
ar t
app ing</w>
app e
anno yed</w>
anim atedly</w>
ani a</w>
ang rily</w>
ancho ring</w>
ancho r</w>
an ther</w>
am putated</w>
am bient</w>
al lowed</w>
affe ction
advanc ing</w>
advanc e</w>
adju stable</w>
ad dressed</w>
accu mu
acciden tly</w>
ac to</w>
ac ted</w>
ac ce
ab rupt</w>
a st
a person</w>
a a</w>
4 th</w>
4 0</w>
3 rd</w>
3 d</w>
3 0</w>
3 0
201 3</w>
1 0
. com</w>
' ll</w>
zi ps</w>
za gging</w>
za g</w>
z il</w>
z able</w>
yo ta</w>
yi elding</w>
yel ping</w>
yan ked</w>
ya y</w>
y ond</w>
y on</w>
x er</w>
wr itting</w>
wor ce
woo l
woo d</w>
woo d
wom an
wob bly</w>
wob bling</w>
wo ken</w>
with draws</w>
win try</w>
win e</w>
wil ling</w>
wil li
wi shes</w>
whir ls</w>
whi sked</w>
wh el
wel ded</w>
weigh ed</w>
wei gh</w>
water ski</w>
war s</w>
war ri
warri ors</w>
war med</w>
war ing</w>
wal led</w>
wai ves</w>
wa sh
wash ing
washing ton</w>
wa ching</w>
w w</w>
w ings</w>
vo ices</w>
vigor ous</w>
ver i
ven ting</w>
vel in</w>
vege table</w>
ve ers</w>
v ice</w>
v ei
v anish</w>
us al
usal em</w>
uncor king</w>
un wanted</w>
un t
un rolls</w>
un ra
unra vels</w>
un paved</w>
un pack</w>
un or
unor tho
unortho dox</w>
un o</w>
un lea
un hooks</w>
un happy</w>
un fortun
unfortun ately</w>
un folded</w>
un doing</w>
un comfortably</w>
un baked</w>
um bi
u tters</w>
u to</w>
u sts</w>
u ri
uri zed</w>
u ba</w>
u ally</w>
ty pes</w>
twit ches</w>
twi ddle</w>
tur tle</w>
tur quo
turquo ise</w>
tur ous</w>
tu tor
troj an</w>
tro t</w>
tri ck</w>
tri bu
tri bal</w>
traver sing</w>
traver ses</w>
transplan t</w>
transp orted</w>
transp ort</w>
trans forming</w>
tran siti
tr owing</w>
tow s</w>
tow er</w>
tor onto</w>
to yota</w>
to i
toi let</w>
to g
til ting</w>
ti ron
ti dying</w>
thu mping</w>
thra shing</w>
thr usts</w>
thick er</w>
then tic</w>
the w</w>
the ning</w>
the irs</w>
the e</w>
th re
th owing</w>
th ought</w>
th inning</w>
tex tured</w>
testi fies</w>
ter y</w>
ter min
ter ally</w>
ten d</w>
tech no</w>
tea l</w>
te g
teg ically</w>
te es</w>
te eing</w>
te e</w>
taun t</w>
tast y</w>
tar geting</w>
tar es</w>
tan ned</w>
tan go</w>
tal en
talen ted</w>
ta ut</w>
ta ged</w>
t ye</w>
t t</w>
t rai
t on
t ning</w>
t lessly</w>
t icking</w>
t fully</w>
t ching</w>
t che
t ative</w>
syste matically</w>
synchron ous</w>
swir led</w>
swi pe</w>
swi ming</w>
swi ft</w>
swar ms</w>
swar ming</w>
swa mpy</w>
sw o
sw eat</w>
sw ea
swea ty</w>
sus pic
suspic ious</w>
surpri ses</w>
surfac e</w>
surf er</w>
sur vi
sug ge
suc k
submer ging</w>
sub du
su do
sudo k
sudok u</w>
su ction</w>
sty lish</w>
stu mbling</w>
stu dying</w>
stru m</w>
stri bu
stre wn</w>
stre ching</w>
stran gely</w>
straigh ter</w>
stra y</w>
stra tegically</w>
stra ins</w>
stra ining</w>
stom ped</w>
stin k</w>
stea my</w>
ste pped</w>
ste mmed</w>
sta mping</w>
sta ined</w>
sta in</w>
st un
st rolling</w>
st ones</w>
st le</w>
st ic
st ered</w>
st en
squir t</w>
squ inting</w>
squ ared</w>
spray paints</w>
spoo l</w>
spon ge
spla shed</w>
spir it
speci ali
spe c
spar se</w>
spac ious</w>
sp ort</w>
sp elling</w>
sp ell</w>
sp at</w>
sp are</w>
sp an</w>
sou thern</w>
sou ped</w>
somersa ults</w>
sol ved</w>
sol dering</w>
so ggy</w>
so aring</w>
so ar</w>
snow ed</w>
snork els</w>
snor es</w>
snea king</w>
snat ch</w>
snapp y</w>
snapp ed</w>
smoo thens</w>
smoo then</w>
smo ky</w>
smo key</w>
sm ith</w>
sm eared</w>
slo ped</w>
sli thers</w>
sli pped</w>
sli m</w>
skii ing</w>
ski d</w>
sk ins</w>
sk e
sk a
sizz le</w>
sit ed</w>
simu late</w>
sil ver
sig ned</w>
si mon</w>
si des</w>
shuff led</w>
shu cks</w>
shri mp</w>
shri ll</w>
sho ne</w>
shi pped</w>
shi fted</w>
she ered</w>
shar on</w>
shampoo ing</w>
sha p
sha ky</w>
sha ken</w>
sha ggy</w>
sha ding</w>
sh rin
shrin k</w>
sh red</w>
sh er
sh el
shel ving</w>
sh ee
sh attering</w>
sh an
ser ted</w>
sepera ted</w>
sele cting</w>
sele ct</w>
seg ways</w>
see k</w>
sedu ctive</w>
secti ons</w>
secti oned</w>
se where</w>
se same</w>
se rena
se qu
sequ ined</w>
se a</w>
scrun ching</w>
screa med</w>
scra p</w>
scoo ting</w>
sco oped</w>
sc uff
sc ol
scol ds</w>
sc anti
scanti ly</w>
sc af
satis fied</w>
sand ler</w>
sa ving</w>
sa ved</w>
sa v
sa ddled</w>
s wearing</w>
s thetic</w>
s played</w>
s our</w>
s orted</w>
s ong</w>
s older</w>
s ling</w>
s lan
s in</w>
s i</w>
s ear</w>
s at
sat ur
s as</w>
s an</w>
s ac
ry an</w>
run ny</w>
run n
run ing</w>
ru stling</w>
ru ff
ru do
rudo l
rudol ph</w>
roy als</w>
rout e</w>
rough hou
roughhou sing</w>
rom e</w>
rol ler</w>
rob erts</w>
ro om</w>
rin ged</w>
ri ppling</w>
ri mmed</w>
ri dic
ri dged</w>
rhy ming</w>
revol uti
rever sed</w>
rever be
retrie ved</w>
retra c
retrac table</w>
rest ingly</w>
reson ates</w>
resi stant</w>
resem ble</w>
reque sts</w>
rep orted</w>
ren ov
rela xed</w>
rejo ices</w>
refle cted</w>
refere n
ref er</w>
recyc led</w>
recommen ds</w>
reco g
recog ni
reci ative</w>
rec overs</w>
rec ent</w>
reali stic</w>
read ju
rea dying</w>
re v</w>
re set</w>
re played</w>
re mini
remini sc
re min
re lu
relu ct
re loads</w>
re inde
reinde er</w>
re gu
re gi
re do</w>
re boun
rapp els</w>
ra z
ra ms</w>
ra fting</w>
ra do</w>
ra ced</w>
ra c
ra bly</w>
r ush</w>
questi ons</w>
qu een</w>
pur pose</w>
pun ting</w>
pu zz
psy ching</w>
provi ded</w>
prote cts</w>
pronoun ce</w>
promo tes</w>
promo ted</w>
progra mming</w>
