[n] 525593
a 235145
. 104779
the 55887
and 53103
is 52507
in 42837
of 37211
to 36550
on 35745
with 21563
are 16835
while 16755
, 16184
his 12499
an 12388
it 10961
young 10867
two 10075
her 9878
at 9697
as 9229
then 8846
playing 8305
how 7399
up 7243
down 6727
into 6249
using 6124
by 5382
another 5194
he 4992
around 4919
sitting 4889
their 4879
some 4840
out 4778
someone 4753
little 4748
from 4660
one 4220
large 4028
other 4008
that 3863
doing 3803
off 3780
over 3618
them 3497
plays 3467
small 3383
holding 3369
for 3308
's 3285
standing 3228
talking 3105
they 3017
him 2896
showing 2845
she 2778
outside 2722
being 2712
about 2565
uses 2532
wearing 2487
through 2368
shown 2323
together 2299
riding 2186
back 2158
dancing 2142
several 2102
play 1984
each 1953
does 1899
demonstrating 1877
something 1867
- 1845
demonstrates 1828
white 1806
making 1777
trying 1769
inside 1590
sits 1588
do 1577
shows 1567
walking 1554
before 1533
three 1530
make 1523
very 1505
stands 1484
has 1477
holds 1447
across 1440
throws 1437
different 1433
onto 1401
black 1344
long 1305
jumps 1279
runs 1277
who 1255
walks 1231
getting 1221
watching 1212
putting 1206
behind 1204
was 1196
watch 1178
red 1145
throwing 1143
performing 1129
high 1102
puts 1100
laying 1087
running 1082
having 1079
looking 1075
put 1062
blue 1060
eating 1044
talks 1039
falls 1029
use 1018
what 981
next 979
laughing 978
makes 976
there 968
takes 962
open 961
gets 958
be 956
looks 945
jumping 936
moving 935
seen 909
working 902
practicing 897
cut 897
tries 886
wooden 877
along 850
all 846
like 839
explaining 830
hits 818
" 813
giving 810
get 803
going 795
when 794
rides 790
starts 772
its 764
slowly 758
away 740
begins 721
green 719
hitting 717
speaking 707
can 707
but 705
or 702
watches 698
stand 697
blowing 694
electric 683
cutting 679
explains 672
during 668
speaks 662
taking 660
fast 659
where 657
after 655
performs 640
picks 639
laughs 637
various 633
against 633
blows 633
seated 631
forth 621
which 610
outdoors 606
himself 597
few 595
under 585
have 583
perform 582
clean 581
driving 580
older 574
singing 574
dressed 573
dance 571
sit 570
pushing 562
towards 560
places 558
kicks 557
near 553
big 549
turns 542
walk 541
swimming 540
hit 530
gives 526
four 525
heavy 525
dark 524
goes 523
pulls 522
pushes 517
yellow 515
climbing 514
snowy 507
both 505
lying 495
lifts 494
go 488
many 484
tie 480
jump 472
moves 469
lifting 469
outdoor 468
properly 465
indoor 464
applying 462
quickly 459
look 457
throw 456
same 451
laugh 440
ride 440
attached 438
between 434
slow 432
kicking 431
cleaning 431
opens 431
talk 430
pulling 430
take 424
multiple 421
female 421
full 419
attempting 411
forward 411
teenage 408
attempts 407
covered 404
pink 404
dances 399
blow 399
musical 398
cheering 398
preparing 392
plastic 392
right 388
cuts 386
describing 385
cooking 384
old 381
held 380
ready 379
appears 378
not 377
show 376
washing 375
run 375
lays 369
above 366
rolling 366
works 363
first 362
says 360
backwards 359
loud 359
male 359
describes 358
swinging 355
placing 355
move 346
smiling 345
listening 345
made 343
cheer 343
eats 342
so 341
climbs 340
were 340
hot 340
close 339
brushing 338
spins 335
comes 333
used 328
this 325
applies 324
hold 322
skiing 321
start 319
proper 318
again 314
hanging 313
flips 313
pull 312
prepares 311
work 308
you 306
played 305
remove 304
folding 304
catches 303
themselves 302
set 301
christmas 300
eat 299
picking 290
fold 290
opening 287
spinning 287
painting 286
repeatedly 282
drinking 281
shaking 278
apply 278
climb 276
falling 276
herself 275
try 273
sings 273
new 272
drops 270
narrates 269
swings 269
brown 265
feeding 265
foreign 263
else 263
beside 263
clapping 263
orange 262
left 262
juggling 262
without 261
recording 261
turning 259
create 259
colored 259
pulled 257
just 256
teaching 254
empty 253
special 253
building 251
hard 247
pick 247
pouring 245
rubbing 245
filming 242
toward 242
crying 240
removes 239
if 239
demonstrate 239
see 238
cheers 238
carefully 237
fall 236
reading 235
tells 235
mechanical 235
sleeping 235
grabs 234
well 234
drives 234
practice 232
really 232
competing 232
filled 231
no 228
clear 228
pours 227
flat 225
helping 224
push 223
sing 222
lit 222
skating 222
shaving 221
shakes 218
kick 218
rolls 216
helps 215
below 213
placed 212
tying 210
help 210
surfing 209
writing 207
waving 206
setting 205
removing 205
stops 205
wrapping 204
until 203
your 203
also 203
more 201
rubs 201
flying 200
heard 200
flipping 200
smoking 199
busy 197
sliding 196
cook 196
racing 196
martial 195
frying 194
swims 193
wet 191
tall 189
enjoying 189
only 188
; 187
telling 187
far 187
shirtless 185
prepare 183
waiting 183
digging 183
done 183
wash 183
electronic 182
good 182
sets 181
asks 181
shooting 181
break 180
flip 180
drawing 179
chewing 179
grassy 178
funny 178
loudly 178
washes 178
pops 177
lift 177
purple 176
short 176
huge 176
cross 174
tied 173
practices 173
smiles 173
touches 172
gathered 171
front 171
carving 171
tight 170
n't 169
carrying 169
coming 168
discussing 167
folds 167
kneeling 166
certain 165
reaches 164
diving 164
pressing 163
alone 162
stretching 162
own 162
swim 162
surrounded 161
exercising 161
light 160
followed 159
square 159
brushes 159
clap 158
saw 158
begin 156
waxed 155
past 154
tapping 154
slides 154
feeds 154
asian 153
juggles 153
sunny 152
saying 152
deep 152
bends 151
drive 151
second 151
concrete 150
creating 150
burning 150
peel 150
round 149
bounces 149
crawling 149
marching 148
massaging 148
catch 148
circular 147
thrown 147
still 146
give 146
great 146
breaks 146
shave 146
colorful 145
somebody 145
learning 145
bouncing 144
un@@ 144
leans 144
ski 143
been 142
fighting 142
spraying 142
chopping 141
re@@ 139
carve 139
a@@ 138
balancing 138
place 137
had 137
2 136
paint 136
lies 135
build 135
sharp 135
peeling 135
recorded 134
shoots 134
wrap 134
sticks 133
catching 133
cleans 132
happy 132
straight 131
s 131
blonde 131
touching 130
passing 130
sneezes 130
drinks 130
starting 129
wrapped 129
brush 129
nearby 128
yells 128
elderly 128
trimming 128
adding 128
lands 128
come 127
five 127
keeps 126
bending 125
i 125
mixing 125
paints 125
protective 124
' 124
will 124
atm 124
filmed 122
records 122
yelling 121
fix 121
roll 121
pretending 121
kneels 121
counting 121
successfully 121
swing 121
pushed 121
bare 120
points 120
follows 120
public 119
following 119
discusses 119
lay 119
shoot 119
pointing 119
bouncy 119
presses 119
compete 119
curling 119
filling 119
upside 118
thin 118
screams 118
cooked 118
knocks 118
fixing 117
tosses 117
beautiful 117
sharpen 117
roasting 116
drink 116
passes 115
us 115
top 114
in@@ 114
mans 114
reads 114
sharpening 114
raises 113
turn 113
claps 113
petting 113
speak 112
screaming 112
p@@ 112
crowded 112
fly 112
crossing 112
/ 111
dry 111
soft 111
ties 111
frozen 111
closed 110
trim 110
feed 110
shaves 110
encourages 109
sticking 109
seems 109
hugging 109
keep 108
adjusts 108
younger 108
adds 108
instructing 108
waxing 108
remote 108
narrating 107
interviewed 107
muddy 107
wipes 107
stretches 106
spread 106
displays 106
sprays 106
smooth 106
o@@ 105
wide 105
lined 105
dead 105
inflatable 105
windy 104
bright 104
adjusting 103
unseen 103
bent 103
continues 103
shaped 103
separate 103
pass 103
folded 103
displayed 102
instructs 102
american 102
participating 102
punching 102
whistling 102
facial 101
parasailing 101
pierced 101
stop 100
double 100
finishes 100
caught 100
lower 99
painted 99
e@@ 99
staring 99
than 99
too 99
pretends 99
pop 99
massages 99
middle 99
shuffling 99
wooded 99
athletic 99
stirring 99
slide 98
attempt 98
excited 98
combing 98
pet 98
cracks 98
fishing 98
lifted 97
low 97
appear 96
underneath 96
t 96
leaning 95
fake 95
lets 95
upper 95
frisbee 95
dribbling 95
ing 94
k@@ 94
wrestle 94
nice 94
operating 94
spreading 94
icy 94
landing 93
stuck 93
t@@ 93
beat 93
weaving 93
indoors 93
fill 93
misses 93
smaller 92
thick 92
picked 92
fills 92
waves 91
shallow 91
applied 91
tossing 91
cries 91
rapidly 90
facing 90
grey 90
aged 90
drying 90
giant 90
cracking 90
shaved 90
given 89
third 89
draw 89
washed 89
asking 88
m@@ 88
twice 88
poured 88
counts 88
spanish 87
much 87
asleep 87
shake 87
y 87
sew 87
removed 86
steep 86
gently 86
breaking 86
hands 86
smokes 86
skis 86
lighter 86
ironing 86
de@@ 85
gliding 85
six 85
d@@ 85
professional 85
crawls 85
free 85
dig 85
writes 85
wraps 85
fancy 85
fed 85
snowboarding 85
i@@ 84
cold 84
kisses 84
whole 84
e 83
sailing 83
indian 83
ting 83
grab 83
proceeds 82
boy 82
taps 82
apart 82
la@@ 82
licks 82
slice 82
live 81
steps 81
d 81
write 81
ted 81
draws 81
whilst 80
ts 80
keeping 80
closes 80
specific 80
haired 80
single 80
flies 80
b@@ 80
chop 80
hugs 80
g@@ 79
almost 79
es 79
crosses 79
gray 79
called 79
films 79
read 79
led 78
shoveling 78
.. 78
finishing 78
punches 78
sanding 78
licking 78
slicing 78
o 77
finished 77
decorating 77
floating 77
underwater 77
crack 77
half 76
directing 76
striped 76
sat 76
everyone 76
tiny 76
ed 76
leading 76
twirling 76
causing 76
industrial 76
thread 76
downhill 76
spin 76
easter 76
suspended 75
cute 75
face 75
calls 75
squatting 75
cooks 75
dives 75
fight 75
solve 75
kissing 75
why 74
adjust 74
change 74
pumping 74
complete 74
exercise 74
lights 74
dropping 74
sweep 74
checking 73
grabbing 73
once 73
displaying 73
raising 73
drawn 73
polishing 73
yawning 73
3 72
add 72
form 72
skateboarding 72
dribbles 72
kiss 72
scrabble 72
we 71
c@@ 71
l@@ 71
demonstrated 71
threw 71
check 71
gymnastic 71
fails 71
turned 71
pour 71
skipping 71
did 71
sucking 71
dirty 70
including 70
particular 70
n@@ 70
sweeping 70
stood 69
hug 69
approaches 69
wiping 69
twisting 69
sped 69
because 69
training 69
popping 69
stringed 69
banging 69
race 69
pan 69
skates 69
bend 68
wrestling 68
carries 68
reach 68
motorized 68
waits 68
raw 68
finish 68
jumped 68
shape 68
chops 68
struggles 67
opened 67
ar@@ 67
best 67
quick 67
sideways 67
letting 67
already 67
wheeled 67
lighting 67
milking 67
hangs 66
raised 66
flashing 66
gather 66
taken 66
messing 66
backward 66
stirs 66
civil 66
s@@ 65
continuously 65
peels 65
upright 65
installing 65
brings 65
suddenly 65
weave 65
yawns 65
strapped 64
n 64
l 64
traditional 64
find 64
ma@@ 64
ate 64
balances 64
roasted 64
spray 64
sled 64
knit 64
acting 63
fit 63
teaches 63
ding 63
con@@ 63
measuring 63
prepared 63
spreads 63
releases 63
operates 63
grinding 63
polish 63
skate 63
monopoly 63
glides 62
walked 62
say 62
inserts 62
instead 62
covering 61
cheered 61
started 61
f@@ 61
changing 61
homemade 61
sized 61
install 61
explain 61
wave 61
sounds 61
welding 61
knitting 61
strange 60
li@@ 60
shot 60
completes 60
tighten 60
hang 60
grooming 60
ran 60
crashes 60
fell 60
reaching 60
milk 60
se 59
individual 59
enjoy 59
strikes 59
encouraging 59
k 59
stuffed 59
similar 59
pets 59
snapping 59
carves 59
onstage 58
asked 58
slightly 58
leaves 58
knocking 58
slaps 58
land 58
instructional 58
poking 58
touch 58
participate 58
assembling 58
correct 58
silver 58
mixes 58
twirls 58
stretch 58
style 58
rips 58
surfs 58
shuffle 58
crawl 58
connected 57
narrow 57
ends 57
wears 57
visible 57
listens 57
le 57
ds 57
squats 57
commercial 57
giggling 57
arranging 57
roast 57
opposite 57
sledding 57
balance 57
chasing 57
slices 57
watched 56
rocky 56
ded 56
side 56
er 56
chases 56
last 56
listen 56
able 56
let 56
u@@ 56
spits 56
dive 56
split 56
shine 56
curl 56
stopping 56
stomping 56
stir 56
discuss 55
should 55
texting 55
head 55
among 55
got 55
competitive 55
stepping 55
wax 55
flaming 55
rotating 55
bald 55
acoustic 55
jogging 55
bangs 54
happening 54
receiving 54
carry 54
st 54
noisy 54
trims 54
changes 54
creates 54
choreographed 54
powered 54
massaged 54
tickles 54
weird 53
straightening 53
al@@ 53
loses 53
weighted 53
resting 53
shining 53
color 53
coloring 53
shuffles 53
encouraged 52
wait 52
st@@ 52
written 52
dyed 52
le@@ 52
happily 52
chews 52
vacuuming 52
olympic 52
wake 52
unique 51
sand 51
commenting 51
group 51
playfully 51
ho@@ 51
synchronized 51
womans 51
pose 51
ba@@ 51
dries 51
ra@@ 51
mowing 51
braiding 51
tickling 51
directs 51
enters 50
inner 50
rocking 50
stick 50
bu@@ 50
involving 50
ti@@ 50
engaged 50
upbeat 50
easy 50
rolled 50
shaping 50
stares 50
twists 50
threading 50
scores 50
instructed 49
strong 49
ly 49
extended 49
di@@ 49
g 49
though 49
m 49
dimly 49
pretend 49
water 49
4 49
learn 49
bobsled 49
paddling 49
ripping 49
wants 48
y@@ 48
either 48
arm 48
engage 48
celebrating 48
mixed 48
tap 48
ge 48
french 48
drilling 48
juggle 48
manual 48
straighten 48
gloved 48
en@@ 48
bounce 48
watering 48
planting 48
larger 47
snaps 47
handling 47
english 47
wear 47
laundry 47
fresh 47
skydiving 47
dumps 47
lego 47
beginning 46
overhead 46
repair 46
surrounding 46
built 46
massage 46
pretty 46
messy 46
floral 46
ge@@ 46
to@@ 46
bad 46
drop 46
closer 46
correctly 46
sucks 46
intricate 46
fallen 46
knocked 46
smoothing 46
sharpens 46
postal 46
lowers 45
ering 45
receives 45
follow 45
teach 45
calm 45
broken 45
examines 45
beating 45
ling 45
crossed 45
containing 45
p 45
finds 45
blond 45
ri@@ 45
even 45
me@@ 45
rough 45
h@@ 45
vigorously 45
it@@ 45
piercing 45
tearing 45
observes 44
dying 44
rub 44
squeezes 44
measure 44
rotates 44
assemble 44
pa@@ 44
dips 44
dropped 44
bye 44
laid 44
tackles 44
passed 44
cry 44
latin 44
kicked 44
packing 44
arguing 43
squeezing 43
w@@ 43
told 43
dragging 43
yell 43
perfect 43
carpeted 43
insert 43
clearing 43
punch 43
hammering 43
backing 43
popular 43
religious 43
crowd 43
iron 43
tasting 43
strums 43
rubik 43
winks 43
king 42
seem 42
! 42
enclosed 42
closing 42
found 42
an@@ 42
spots 42
lightly 42
toss 42
rapid 42
decorative 42
attach 42
electrical 42
si@@ 42
leads 42
operate 42
mix 42
pe@@ 42
stretched 42
scrubbing 42
smashing 42
combs 42
strumming 42
record 42
suck 42
skips 42
skip 42
lo@@ 41
se@@ 41
pre@@ 41
real 41
african 41
fi@@ 41
co@@ 41
ex@@ 41
chanting 41
collecting 41
sp@@ 41
cleaned 41
lively 41
encourage 41
chatting 41
.@@ 41
be@@ 41
slips 41
mounted 41
pumps 41
local 41
on@@ 41
launches 41
panning 41
ahead 41
sees 41
cleaner 41
darkened 41
macarena 41
windsurfing 41
enjoys 40
re 40
posing 40
moved 40
tightening 40
teen 40
v@@ 40
ha@@ 40
clipping 40
fully 40
such 40
leaps 40
parachuting 40
spitting 40
driven 40
line 40
smashes 40
classical 40
mopping 40
shines 40
smells 40
any 39
guides 39
observe 39
drumming 39
later 39
better 39
within 39
ca 39
loose 39
slapping 39
muscular 39
ch@@ 39
tell 39
triple 39
stay 39
bo@@ 39
lighted 39
added 39
alongside 39
accompanied 39
guiding 39
neatly 39
hi 39
fried 39
mobile 39
drill 39
sleeps 39
atop 38
r@@ 38
quietly 38
straightens 38
itself 38
engaging 38
gra@@ 38
over@@ 38
backs 38
curly 38
causes 38
glowing 38
acrobatic 38
ta@@ 38
blown 38
mini 38
sewing 38
completing 38
newborn 38
control 38
military 38
waxes 38
wink 38
introduces 37
ac@@ 37
decorated 37
handle 37
ice 37
c 37
reporting 37
ked 37
continue 37
sifting 37
ps 37
ga@@ 37
describe 37
ous 37
took 37
handed 37
padded 37
separating 37
el@@ 37
brushed 37
reveal 37
sneezing 37
cloudy 37
stacking 37
tra@@ 37
tickled 37
score 37
man 36
pans 36
ated 36
interviewing 36
cu@@ 36
fine 36
repairing 36
wildly 36
wild 36
directly 36
w 36
bearded 36
formal 36
joins 36
er@@ 36
exploring 36
arranges 36
dipping 36
serving 36
ca@@ 36
fat 36
accidentally 36
handing 36
inflated 36
parked 36
my 36
casting 36
slams 36
enter 35
safely 35
shouting 35
fenced 35
or@@ 35
seeing 35
raise 35
wins 35
al 35
digs 35
ning 35
routine 35
inserting 35
mar@@ 35
winds 35
shed 35
elaborate 35
multi 35
dried 35
scream 35
faster 35
builds 35
burping 35
burps 35
stopped 35
sliced 35
burn 35
segway 35
fencing 35
whistle 35
bringing 34
hand 34
naked 34
pro@@ 34
're 34
handheld 34
flash 34
ru@@ 34
pokes 34
finally 34
excitedly 34
sting 34
baking 34
infront 34
paragliding 34
boxing 34
interacts 34
smile 34
wading 34
ks 34
knock 34
scrambled 34
practising 34
legged 34
tears 34
serves 34
casts 34
join 34
ers 34
trimmed 34
weaves 34
ses 33
applauds 33
eventually 33
intense 33
interact 33
extends 33
clears 33
forming 33
th@@ 33
r 33
lining 33
sorting 33
barking 33
struggling 33
attaching 33
covers 33
b 33
wa@@ 33
present 33
flipped 33
crouches 33
magic 33
unknown 33
towed 33
heated 33
miniature 33
smelling 33
every 33
bowling 33
grown 33
animated 33
western 33
simple 33
cracked 33
hysterically 33
dunks 33
proposing 33
plant 33
roping 32
ab@@ 32
zes 32
applaud 32
ating 32
drags 32
human 32
attending 32
calling 32
rubbed 32
examining 32
arrange 32
somewhere 32
squat 32
groomed 32
sound 32
carved 32
partially 32
beats 32
sweeps 32
swallows 32
vacuum 32
offers 32
stuffing 32
proposes 32
snorkeling 32
vi@@ 31
1 31
possible 31
sed 31
sure 31
snap 31
medical 31
needs 31
me 31
most 31
involves 31
briefly 31
ping 31
ten 31
cast 31
sandy 31
ned 31
cover 31
press 31
curved 31
taught 31
wipe 31
rather 31
sawing 31
commentates 31
shovel 31
hooked 31
hear 31
dealing 31
performed 31
blindfolded 31
dye 31
lick 31
smoke 31
descends 30
leave 30
checks 30
ro@@ 30
manipulates 30
pointed 30
fourth 30
packed 30
nearly 30
ming 30
observing 30
ve 30
siting 30
ze 30
closely 30
messes 30
arranged 30
testing 30
ble 30
comments 30
paved 30
baked 30
scooping 30
10 30
demostrating 30
ter 30
hops 30
spun 30
stitching 30
pitches 30
braid 30
par@@ 30
fashioned 30
likes 30
could 30
loaded 30
dumping 30
hairy 30
kneading 30
commentating 29
act 29
delivering 29
po@@ 29
fixes 29
weld 29
( 29
) 29
ne@@ 29
numerous 29
rectangular 29
tried 29
zing 29
sharing 29
want 29
easily 29
ging 29
presents 29
came 29
winding 29
sted 29
h 29
soapy 29
rope 29
oriental 29
manipulating 29
final 29
thru 29
chipping 29
pack 29
mu@@ 29
mo@@ 29
plowing 29
leaving 29
aloud 29
successful 29
chip 29
pitched 29
peeled 29
drooling 29
sheering 29
preforming 28
sc@@ 28
pressed 28
switches 28
brought 28
those 28
ms 28
rests 28
poses 28
mi@@ 28
applauding 28
ty 28
dug 28
located 28
afterwards 28
icing 28
ched 28
slap 28
de 28
pruning 28
attaches 28
here 28
5 28
simultaneously 28
scraping 28
worked 28
golden 28
les 28
landed 28
perfectly 28
liquid 28
extremely 28
du@@ 28
rapping 28
specialized 28
shapes 28
unsuccessfully 28
warm 28
bobbing 28
automatic 28
traveling 28
ck 28
wakes 28
crafting 28
count 28
key 28
fish 28
striking 28
jackson 28
coral 28
rock 27
lowering 27
exclaims 27
taping 27
dramatic 27
flexible 27
wiggling 27
handles 27
possibly 27
entering 27
win 27
bigger 27
up@@ 27
scrapes 27
firing 27
hiding 27
surround 27
announces 27
ce 27
michael 27
would 27
for@@ 27
zooms 27
taste 27
dim 27
floats 27
pump 27
do@@ 27
rhythmic 27
quite 27
returns 27
breathing 27
heavily 27
om@@ 27
lines 27
carried 27
combed 27
inhales 27
decides 27
artificial 27
patting 27
groom 27
bites 27
float 27
stable 27
chat 27
blinks 27
makeshift 26
ining 26
answering 26
cool 26
ic 26
heating 26
shouts 26
crazy 26
missing 26
opposing 26
min@@ 26
searching 26
gu@@ 26
upset 26
6 26
japanese 26
huddled 26
meet 26
scoops 26
portable 26
served 26
scrubs 26
less 26
alternating 26
flicks 26
relaxing 26
z@@ 26
celebrate 26
lone 26
surf 26
rinsing 26
sh@@ 26
wiggles 26
mostly 26
nails 26
entire 26
putt 26
grind 26
ates 25
nt 25
inter@@ 25
barbell 25
waking 25
beneath 25
loading 25
te 25
ful 25
packs 25
loosen 25
gathering 25
fla@@ 25
higher 25
tes 25
travels 25
elevated 25
pre 25
bring 25
tan 25
completely 25
grilling 25
film 25
softly 25
tossed 25
eyed 25
chi@@ 25
revealing 25
super 25
coordinated 25
end 25
headed 25
comb 25
ls 25
went 25
gentle 25
tackled 25
quiet 25
flowing 25
drills 25
steady 25
kayaking 25
choppy 25
tips 25
sign 25
winking 25
clip 25
step 25
hopping 25
unloading 25
delivers 25
aerobic 25
blinking 25
mop 25
socializing 24
ss 24
cho@@ 24
inserted 24
assisted 24
celebrates 24
digital 24
greets 24
receive 24
splits 24
serve 24
th 24
load 24
loads 24
tipped 24
cting 24
lock 24
clips 24
screwing 24
manipulate 24
pu@@ 24
odd 24
residential 24
ching 24
metallic 24
elastic 24
stationary 24
provides 24
releasing 24
rinses 24
yet 24
shiny 24
call 24
crash 24
styling 24
curls 24
pinches 24
babbles 24
signing 24
& 24
bottling 24
ously 24
swallowing 24
ir@@ 24
finding 24
reeling 24
modified 24
decorate 24
pole 24
bottom 24
santa 24
dunk 24
jogs 24
irons 24
supported 23
constantly 23
drums 23
dis@@ 23
hi@@ 23
man@@ 23
dragged 23
interesting 23
cted 23
scrape 23
wi@@ 23
non 23
fun 23
swaying 23
tightens 23
complicated 23
ons 23
chinese 23
des 23
now 23
joking 23
slamming 23
retrieve 23
twirl 23
upwards 23
completed 23
upon 23
cor@@ 23
fluffy 23
smart 23
shifting 23
pinching 23
touched 23
polishes 23
poke 23
kneads 23
dribble 23
threads 23
fence 23
shearing 23
waters 23
descending 22
angry 22
cla@@ 22
sa@@ 22
pounding 22
ingly 22
talked 22
slam 22
complex 22
ial 22
kneel 22
scratches 22
stacked 22
dressing 22
aiming 22
rocks 22
providing 22
random 22
ine 22
secure 22
presenting 22
learns 22
gi@@ 22
tattooed 22
immediately 22
sail 22
producing 22
assists 22
per@@ 22
ch 22
mp@@ 22
avoid 22
chew 22
whistles 22
advertising 22
f 22
unfolds 22
crashing 22
splashing 22
tiled 22
brightly 22
topless 22
retrieves 22
babbling 22
hammers 22
unusual 22
cowboy 22
deals 22
burns 22
collects 22
robotic 22
shes 22
newly 22
stitch 22
unlock 22
scaling 21
ant 21
said 21
enthusiastically 21
sprayed 21
ving 21
shout 21
at@@ 21
knelt 21
af@@ 21
gh@@ 21
responds 21
applauded 21
so@@ 21
blurry 21
pats 21
nods 21
nodding 21
hurt 21
passionately 21
won 21
includes 21
te@@ 21
barefoot 21
ni@@ 21
scoop 21
freshly 21
flatten 21
car@@ 21
personal 21
view 21
dress 21
collect 21
eight 21
returning 21
designed 21
qu@@ 21
rode 21
ment 21
curled 21
ct 21
speeding 21
ges 21
wind 21
surprised 21
woven 21
paying 21
gs 21
switching 21
buff 21
ved 21
solving 21
felt 21
reel 21
modern 21
shovels 21
scrub 21
roasts 21
twist 21
copy 21
tropical 21
planted 21
milks 21
smell 21
shuck 21
tai 21
repelling 20
lowered 20
release 20
rushing 20
acts 20
seven 20
smacks 20
ke 20
ja@@ 20
col@@ 20
produce 20
shut 20
ask 20
ered 20
helped 20
der 20
named 20
tive 20
figure 20
launch 20
adjusted 20
verbal 20
assembled 20
comment 20
interacting 20
showcasing 20
bake 20
unwrapping 20
feeling 20
ans 20
skillfully 20
glide 20
ad@@ 20
petted 20
squirts 20
marked 20
ky 20
joined 20
accross 20
su@@ 20
crushing 20
paddle 20
torn 20
feels 20
tastes 20
wrong 20
matching 20
capsized 20
horizontal 20
released 20
verbally 20
slowing 20
ally 20
sending 20
pierces 20
war 20
rip 20
slapped 20
via 19
faces 19
bang 19
rec@@ 19
j@@ 19
solo 19
no@@ 19
swung 19
native 19
tired 19
am@@ 19
bl@@ 19
examine 19
involved 19
these 19
sh 19
aims 19
com@@ 19
aggressively 19
tightly 19
bri@@ 19
lie 19
national 19
furry 19
binding 19
injured 19
further 19
breathes 19
ying 19
spotted 19
coached 19
net 19
locked 19
en 19
dumb 19
ches 19
rises 19
ped 19
explained 19
approach 19
blank 19
bing 19
unload 19
hurls 19
tting 19
stirred 19
rhythmically 19
flammable 19
flattening 19
scottish 19
fo@@ 19
smooths 19
x 19
sniffs 19
overlooking 19
gracefully 19
inhaling 19
dunking 19
stomp 19
mows 19
protect 18
nothing 18
descend 18
powdered 18
argue 18
printed 18
determine 18
cing 18
scared 18
happens 18
famous 18
states 18
thoroughly 18
ce@@ 18
need 18
known 18
cks 18
chase 18
hunting 18
becomes 18
winning 18
giggle 18
focused 18
gathers 18
assembles 18
sort 18
assist 18
crouching 18
executes 18
intently 18
shi@@ 18
cked 18
alcoholic 18
parachute 18
slows 18
sy 18
ou@@ 18
know 18
inspecting 18
lean 18
slid 18
inspects 18
ring 18
test 18
propped 18
jo@@ 18
bal@@ 18
might 18
sneeze 18
our 18
handmade 18
sews 18
automated 18
braids 18
fry 18
lead 18
tumbles 18
splitting 18
colors 18
bun@@ 18
buy 18
unwraps 18
ke@@ 18
ged 18
difficult 18
rowing 18
climbed 18
pi@@ 18
vertical 18
featuring 18
illustrating 18
enough 18
handled 18
sprinkles 18
showcases 18
thier 18
sk@@ 18
guide 18
march 18
bed 18
sticky 18
attractive 18
huddle 18
gold 18
competes 18
hockey 18
chi 18
yawn 18
positioned 17
gesturing 17
nervous 17
stomps 17
mid 17
measured 17
measures 17
return 17
safe 17
fin@@ 17
accepting 17
converse 17
ther 17
unboxing 17
twisted 17
praises 17
fr@@ 17
patiently 17
giggles 17
contains 17
tending 17
bra@@ 17
german 17
exercises 17
ropes 17
beatboxing 17
sways 17
paced 17
lit@@ 17
1@@ 17
reverse 17
hur@@ 17
grinds 17
styles 17
ceramic 17
blew 17
cylindrical 17
created 17
era@@ 17
thank 17
till 17
fairly 17
tumbling 17
braided 17
needed 17
crouched 17
detailed 17
rinse 17
polished 17
ver 17
leaping 17
em@@ 17
approaching 17
sparring 17
tilts 17
exposed 17
wheel 17
sculpting 17
scoring 17
swallow 17
fe@@ 17
out@@ 17
fuzzy 17
sweet 17
exhales 17
flooded 17
reacts 17
controlled 17
smash 17
shoves 17
gangnam 17
looked 17
sleepy 17
pierce 17
ripped 17
scale 16
tw@@ 16
bs 16
chant 16
throughout 16
feel 16
tests 16
actually 16
semi 16
shocked 16
go@@ 16
addresses 16
regarding 16
ju@@ 16
focuses 16
lin@@ 16
physical 16
scratching 16
fire 16
tu@@ 16
guided 16
uniformed 16
ven@@ 16
broke 16
rear 16
barks 16
connect 16
u 16
med 16
conducting 16
chubby 16
preform 16
20 16
decorates 16
smoothly 16
bar@@ 16
energetic 16
train 16
cts 16
exotic 16
nicely 16
spotting 16
ing@@ 16
mping 16
powerful 16
molding 16
teenaged 16
conversing 16
cra@@ 16
bind 16
stacks 16
trips 16
tackling 16
chopped 16
scary 16
nu@@ 16
may 16
swirls 16
burp 16
repeated 16
decide 16
capsizes 16
ent 16
chiseling 16
ic@@ 16
explaing 16
positions 16
vacuums 16
hurts 16
complains 16
navigate 16
taped 16
fu@@ 16
empties 16
explore 16
grooms 16
snowing 16
skateboards 16
lasso 16
prune 16
navigating 15
forested 15
harnessed 15
fixed 15
gging 15
extending 15
showed 15
extra 15
drum 15
imitates 15
shuts 15
bite 15
answers 15
interviews 15
hello 15
united 15
brief 15
oring 15
died 15
introducing 15
archaeological 15
che@@ 15
level 15
reports 15
sift 15
never 15
bow 15
cha@@ 15
milling 15
tly 15
ul@@ 15
je@@ 15
ear@@ 15
19@@ 15
7 15
iling 15
described 15
iled 15
bled 15
ry 15
bidding 15
probably 15
announcing 15
bi@@ 15
apparently 15
oven 15
swirling 15
shing 15
evenly 15
solid 15
pro 15
bathing 15
bat@@ 15
sounding 15
dy 15
adolescent 15
natural 15
atv 15
controlling 15
ol@@ 15
pp@@ 15
bur@@ 15
twin 15
app@@ 15
way 15
whose 15
uniform 15
formed 15
trained 15
men@@ 15
ssed 15
har@@ 15
happened 15
sips 15
typing 15
tackle 15
squatted 15
position 15
videoing 15
pitching 15
underway 15
amazing 15
thinks 15
excess 15
swiftly 15
strike 15
balanced 15
awkwardly 15
cking 15
imp@@ 15
stroking 15
frustrated 15
dar@@ 15
he@@ 15
2@@ 15
hurling 15
coughing 15
lunges 15
home 15
knead 15
stringing 15
vaulting 15
shopping 15
tethered 14
tre@@ 14
british 14
ran@@ 14
op@@ 14
strokes 14
screws 14
wh@@ 14
mimics 14
joyfully 14
display 14
uring 14
thanking 14
online 14
accepts 14
stare 14
videotaping 14
squeeze 14
circling 14
focusing 14
organizing 14
ur@@ 14
the@@ 14
proceed 14
gri@@ 14
unscrewing 14
lu@@ 14
match 14
fitting 14
aside 14
serious 14
star 14
upcoming 14
mil@@ 14
mill 14
historical 14
conducts 14
z 14
fa@@ 14
manages 14
regular 14
8 14
frosting 14
dipped 14
seemingly 14
grilled 14
na@@ 14
oping 14
percussion 14
instrumental 14
repeats 14
rid 14
costumed 14
ely 14
ethnic 14
supports 14
extreme 14
continually 14
plain 14
avoiding 14
yed 14
longer 14
popped 14
burst 14
cru@@ 14
viewing 14
hugged 14
heading 14
bla@@ 14
bul@@ 14
directed 14
bundled 14
ves 14
pla@@ 14
ina 14
artistic 14
constructing 14
shifts 14
constructed 14
il@@ 14
maneuvering 14
everything 14
dri@@ 14
consisting 14
expertly 14
shift 14
reveals 14
outer 14
warming 14
ball 14
barely 14
manually 14
knitted 14
oned 14
sta@@ 14
operated 14
ster 14
rings 14
clad 14
pregnant 14
suv 14
mexican 14
pauses 14
romantic 14
controls 14
separated 14
john 14
born 14
multicolored 14
patterned 14
plucks 14
virtual 14
concentrating 14
beige 14
stainless 14
rollerskating 14
late 14
welds 14
distracted 14
cube 14
shear 14
shears 14
tickle 14
vaping 14
lassos 14
scales 13
initially 13
secured 13
kn@@ 13
ite 13
pped 13
fitted 13
sts 13
wal@@ 13
direct 13
childs 13
teasing 13
york 13
loo@@ 13
based 13
anc@@ 13
gave 13
am 13
prepping 13
prior 13
anything 13
helmeted 13
outstretched 13
skilled 13
commen@@ 13
ong 13
readies 13
silently 13
laughed 13
grunting 13
replacing 13
unscrew 13
fits 13
bly 13
visual 13
moti@@ 13
ces 13
$ 13
succeeds 13
kept 13
ve@@ 13
gre@@ 13
gar@@ 13
lic 13
sends 13
day 13
sexy 13
ored 13
entertaining 13
aerial 13
100 13
sink 13
humming 13
'@@ 13
ows 13
bel@@ 13
emp@@ 13
upward 13
spiral 13
currently 13
professionally 13
allowing 13
molten 13
ery 13
trys 13
react 13
hop 13
least 13
wed 13
seal 13
ily 13
bowls 13
wavy 13
butts 13
sw@@ 13
flings 13
au@@ 13
chested 13
clipped 13
blocks 13
skinny 13
ea@@ 13
thing 13
sho@@ 13
tal 13
mathematical 13
tic 13
hand@@ 13
squirms 13
cli@@ 13
submerged 13
due 13
failing 13
struggle 13
swi@@ 13
everywhere 13
nike 13
wheeling 13
ali@@ 13
speed 13
hey 13
eaten 13
bat 13
eled 13
br@@ 13
hammer 13
eing 13
separates 13
coaches 13
collected 13
twenty 13
embrace 13
kes 13
la 13
speeds 13
toasting 13
bumping 13
cooing 13
hidden 13
shoving 13
iphone 13
participates 13
growing 13
forwards 13
vault 13
supporting 12
engages 12
abruptly 12
dra@@ 12
heat 12
improve 12
grand 12
mounts 12
grabbed 12
wrestles 12
answer 12
miss 12
tri@@ 12
ss@@ 12
yes 12
maybe 12
drove 12
political 12
cri@@ 12
hon@@ 12
unto 12
da@@ 12
downward 12
vibrating 12
lost 12
sm@@ 12
ob@@ 12
clu@@ 12
fiddling 12
foo@@ 12
ary 12
connecting 12
screw 12
construct 12
appearing 12
we@@ 12
ongoing 12
nine 12
ben@@ 12
cushioned 12
impressive 12
under@@ 12
ured 12
varying 12
crush 12
vo@@ 12
rising 12
timed 12
travel 12
leap 12
introduce 12
dutch 12
raps 12
backed 12
clothed 12
stu@@ 12
stack 12
spot 12
bench 12
enormous 12
massive 12
rest 12
basic 12
hung 12
cur@@ 12
steers 12
ridding 12
wo@@ 12
ure 12
ys 12
hair 12
ious 12
reclining 12
forms 12
mold 12
inspect 12
overweight 12
disc@@ 12
whether 12
send 12
tip 12
comp@@ 12
labeled 12
bottled 12
play@@ 12
lan@@ 12
oning 12
entertain 12
kar@@ 12
fl@@ 12
exhaling 12
dangerous 12
sketching 12
sleep 12
careful 12
supervises 12
int 12
organized 12
pound 12
hor@@ 12
plow 12
suburban 12
dangling 12
belches 12
steadily 12
dding 12
off@@ 12
ci@@ 12
paddles 12
rea@@ 12
travelling 12
spar 12
steering 12
drain 12
sudden 12
failed 12
accompanies 12
halloween 12
mouse 12
emptying 12
splashes 12
steals 12
stri@@ 12
ns 12
? 12
kid 12
indicates 12
uncooked 12
x@@ 12
ending 12
danced 12
disposable 12
flu@@ 12
sizzling 12
boiling 12
ver@@ 12
sad 12
badly 12
pine 12
chased 12
broad 12
embroidering 12
casually 12
id 12
blend 12
headbanging 12
sprinkling 12
blink 12
buffing 12
snow 12
awake 12
eling 11
coaching 11
hooded 11
deliver 11
sli@@ 11
ian 11
silent 11
classic 11
ter@@ 11
sses 11
share 11
mus@@ 11
support 11
amongst 11
impressed 11
advertises 11
goo@@ 11
roped 11
narrated 11
point 11
dump 11
precise 11
antique 11
state 11
leaned 11
ative 11
teases 11
sti@@ 11
ically 11
bea@@ 11
graphic 11
cooling 11
attend 11
poor 11
tru@@ 11
relax 11
greet 11
fair 11
loves 11
increasing 11
melted 11
3@@ 11
equipped 11
delicious 11
highlighting 11
para@@ 11
bathed 11
ov@@ 11
whipping 11
alternates 11
continuing 11
va@@ 11
deeply 11
distorted 11
hundred 11
unable 11
transparent 11
ridden 11
head@@ 11
dad 11
allows 11
tr@@ 11
bursts 11
collapses 11
angled 11
ee@@ 11
praising 11
pony 11
wo 11
stays 11
bobsledding 11
mount 11
flattens 11
adhesive 11
produces 11
ately 11
assisting 11
remaining 11
struck 11
fries 11
waved 11
flashes 11
offscreen 11
block 11
main 11
destroy 11
sha@@ 11
entertains 11
tor@@ 11
spirited 11
charging 11
flailing 11
ger 11
hispanic 11
pen@@ 11
ornate 11
canoeing 11
avoids 11
sided 11
aring 11
must 11
sinking 11
sails 11
uneven 11
tieing 11
stra@@ 11
somewhat 11
sometimes 11
separately 11
vertically 11
hollow 11
australian 11
gain 11
gged 11
drips 11
us@@ 11
worn 11
zoomed 11
calming 11
ced 11
plating 11
finely 11
dicing 11
snatches 11
hiking 11
el 11
packaged 11
flexing 11
relaxes 11
reacting 11
poorly 11
wades 11
violently 11
hy@@ 11
ff@@ 11
docked 11
spiky 11
soundly 11
snoring 11
accompanying 11
crochet 11
mimicking 11
explodes 11
peacefully 11
ten@@ 11
scan 11
prepped 11
putts 11
dispenses 11
wheels 11
sheer 11
cr@@ 11
crocheting 11
locking 11
ji@@ 11
sleds 11
snow@@ 11
moonwalks 11
moonwalking 11
mow 11
bagging 11
cymbal 11
mary 11
sking 11
lacing 11
sheers 11
skiis 11
backstroke 11
themself 10
ent@@ 10
reenacting 10
rehearsing 10
complaining 10
selling 10
mark 10
historic 10
gen@@ 10
plugged 10
tedly 10
escape 10
cro@@ 10
ang@@ 10
ani@@ 10
ly@@ 10
healthy 10
ki@@ 10
star@@ 10
fiddles 10
bill 10
tively 10
et@@ 10
den@@ 10
biting 10
exit 10
ck@@ 10
amused 10
sell 10
positive 10
advertised 10
0@@ 10
converses 10
fires 10
friendly 10
mad 10
ed@@ 10
judged 10
ever 10
illustrates 10
wor@@ 10
ti 10
sen@@ 10
mp 10
hoping 10
is@@ 10
think 10
9 10
amazed 10
50 10
post 10
rotated 10
elegant 10
ignite 10
soon 10
tapes 10
pan@@ 10
kiddie 10
tle 10
hol@@ 10
supervising 10
plan@@ 10
halfway 10
contorts 10
resulting 10
blasting 10
whi@@ 10
fluffs 10
achieve 10
inflate 10
melt 10
kil@@ 10
lea@@ 10
can@@ 10
love 10
sub@@ 10
afar 10
hoo@@ 10
paper 10
italian 10
featured 10
bon@@ 10
tically 10
rela@@ 10
startled 10
iting 10
bread 10
pat 10
beaten 10
mentions 10
pictured 10
craft 10
pie@@ 10
flung 10
leveling 10
crushed 10
zed 10
per 10
crushes 10
sipping 10
losing 10
ical 10
high@@ 10
beautifully 10
unsuccessful 10
tur@@ 10
oddly 10
execute 10
laced 10
flick 10
flinging 10
oo@@ 10
chips 10
admiring 10
expresses 10
casual 10
creative 10
dripping 10
pounds 10
clicking 10
pur@@ 10
sharpened 10
coa@@ 10
emptied 10
fre@@ 10
rates 10
steaming 10
gro@@ 10
rotate 10
counter 10
gone 10
medium 10
captures 10
mirrored 10
slippery 10
sealed 10
ening 10
messily 10
ar 10
os 10
dock 10
lessly 10
daily 10
itting 10
stuffs 10
dic@@ 10
chu@@ 10
hide 10
swiss 10
examined 10
shined 10
favorite 10
lat@@ 10
tattooing 10
focus 10
emerges 10
mesmerized 10
pow@@ 10
blind 10
skateboard 10
milked 10
plucking 10
shucking 10
repels 9
ils 9
cl@@ 9
fro 9
um 9
mat@@ 9
ssive 9
mon@@ 9
simulated 9
dangerously 9
fades 9
captured 9
pping 9
ures 9
sleeveless 9
force 9
murky 9
pes 9
responding 9
intermittently 9
sla@@ 9
gg@@ 9
received 9
clinton 9
everybody 9
underground 9
presented 9
care 9
discussed 9
blending 9
remains 9
masked 9
tat@@ 9
ng 9
changed 9
chirping 9
hollering 9
projected 9
versus 9
slight 9
bowing 9
pumped 9
visiting 9
maintain 9
connects 9
irish 9
sorts 9
hooking 9
installed 9
plug 9
bling 9
specifically 9
social 9
whom 9
comic 9
fail 9
boo@@ 9
snowboards 9
squ@@ 9
back@@ 9
hears 9
batter 9
pat@@ 9
returned 9
checked 9
brow@@ 9
sto@@ 9
rushes 9
parasail 9
thered 9
eagerly 9
hu@@ 9
drys 9
scrubbed 9
stinky 9
alternately 9
workout 9
hea@@ 9
dramatically 9
spit 9
puffing 9
flapping 9
living 9
occupied 9
imitating 9
lish 9
cap@@ 9
pedaling 9
blasts 9
strip 9
scrolling 9
battling 9
hers 9
partly 9
oncoming 9
antly 9
bin@@ 9
punched 9
automatically 9
conversating 9
sal@@ 9
processing 9
bottle 9
fer@@ 9
menting 9
circle 9
bowl 9
rate 9
foul 9
coat 9
dip 9
goofing 9
ligh@@ 9
sty 9
breathe 9
tangled 9
flo@@ 9
fil@@ 9
char@@ 9
ssing 9
sick 9
calculate 9
standard 9
jazzy 9
raging 9
maneuvers 9
shortly 9
circled 9
mock 9
triangular 9
flicking 9
obsc@@ 9
securely 9
smacking 9
chisel 9
gla@@ 9
soothing 9
missed 9
congratulates 9
partying 9
draining 9
drained 9
samsung 9
sor@@ 9
lady 9
201@@ 9
demonstra@@ 9
jerks 9
ny 9
skim 9
sive 9
flushes 9
plunging 9
ringing 9
downwards 9
jointed 9
coo@@ 9
fifty 9
awkward 9
whines 9
positioning 9
squeals 9
recreational 9
understand 9
eng@@ 9
mps 9
untying 9
spoon 9
stea@@ 9
copying 9
clicks 9
zi@@ 9
dif@@ 9
drools 9
ens 9
selfie 9
resembling 9
bound 9
shove 9
abdominal 9
advanced 9
burned 9
calmly 9
pri@@ 9
string 9
win@@ 9
buzzed 9
retail 9
televised 9
ground 9
smoothes 9
field 9
marches 9
stroke 9
care@@ 9
joining 9
compe@@ 9
scored 9
lacrosse 9
dom@@ 9
para 9
unboxes 9
bashing 9
laces 9
propose 9
sniffing 9
paired 9
senior 9
america 9
hides 9
rubix 9
communicate 9
ear 8
sn@@ 8
sway 8
since 8
ized 8
current 8
tic@@ 8
recently 8
ensure 8
comfortable 8
original 8
any@@ 8
mm@@ 8
sit@@ 8
gest 8
heads 8
straddles 8
rep@@ 8
tile 8
important 8
5@@ 8
00 8
sent 8
congratulated 8
atten@@ 8
compact 8
offering 8
-@@ 8
addressing 8
et 8
spilling 8
she@@ 8
videotaped 8
lling 8
gy 8
comb@@ 8
pinned 8
heavyset 8
clearly 8
express 8
argues 8
ken 8
yel@@ 8
stru@@ 8
attacks 8
sp 8
demon@@ 8
tape 8
tucks 8
dge 8
cycling 8
steadies 8
oval 8
interior 8
russian 8
stating 8
attended 8
ati@@ 8
ance 8
tal@@ 8
7@@ 8
happen 8
cluttered 8
include 8
12 8
age 8
firmly 8
press@@ 8
wri@@ 8
prevent 8
bbq 8
butt 8
jokingly 8
fri@@ 8
ord@@ 8
shampooed 8
lathers 8
soaking 8
wiped 8
caged 8
wringing 8
ppy 8
swishes 8
imitate 8
sy@@ 8
bushy 8
spo@@ 8
easier 8
preforms 8
normal 8
zy 8
wound 8
india 8
iced 8
airborne 8
locks 8
skinned 8
styled 8
heats 8
incomplete 8
goofy 8
propelled 8
unfolding 8
repeating 8
father 8
approached 8
sung 8
ened 8
stitches 8
printing 8
her@@ 8
sealing 8
replaces 8
observed 8
seals 8
dly 8
managing 8
brea@@ 8
pul@@ 8
tered 8
breakdancing 8
ined 8
spar@@ 8
grow 8
drew 8
signs 8
wit@@ 8
lap 8
dle 8
rested 8
preteen 8
yourself 8
fun@@ 8
randomly 8
ll 8
as@@ 8
sculpt 8
dodges 8
coloured 8
lly 8
teased 8
narrowly 8
reverses 8
jer@@ 8
hilly 8
dangles 8
skims 8
bored 8
tan@@ 8
depo@@ 8
illuminated 8
coun@@ 8
wrote 8
lev@@ 8
stic 8
down@@ 8
dealt 8
navigates 8
physically 8
board 8
tipping 8
dumped 8
mbles 8
securing 8
arabic 8
somersaulting 8
seperate 8
mickey 8
handicapped 8
8@@ 8
races 8
steer 8
rural 8
v 8
inflates 8
canadian 8
yeah 8
pry 8
bought 8
shell 8
molds 8
tted 8
frantically 8
armed 8
advertise 8
knotted 8
explores 8
est 8
videos 8
oh 8
pinched 8
gripping 8
alternate 8
specially 8
plants 8
annoying 8
vely 8
stripped 8
actively 8
stabbing 8
hun@@ 8
die 8
energetically 8
simply 8
lite 8
fid@@ 8
scanning 8
forcefully 8
scrambles 8
instruct 8
occurring 8
cti@@ 8
tty 8
layed 8
zoom 8
spiked 8
bumps 8
bump 8
dyes 8
dyeing 8
ple 8
search 8
rose 8
fit@@ 8
slammed 8
snowboard 8
scoots 8
adjacent 8
inflating 8
analy@@ 8
zooming 8
flown 8
fol@@ 8
crea@@ 8
draped 8
track 8
preaching 8
tag 8
leashed 8
reviewing 8
fastest 8
headbutting 8
headbutts 8
reenact 8
fired 8
fied 8
freezing 8
waterskiing 8
foot 8
windsurfs 8
tiling 8
plastering 8
lace 8
text 8
ish 8
pinch 8
mops 8
mountainous 8
woo@@ 8
mbling 8
tennis 8
xbox 8
bells 8
polo 8
communicates 8
scrambling 8
snows 8
tippy 8
crowdsurfs 8
apparent 7
dre@@ 7
recites 7
aggressive 7
hearing 7
reciting 7
presumably 7
holing 7
exaggerated 7
mming 7
highly 7
acking 7
flails 7
straddling 7
lar@@ 7
ries 7
latest 7
pe 7
attack 7
house 7
ley 7
former 7
marks 7
enjoyed 7
rom@@ 7
women 7
scra@@ 7
promotional 7
perhaps 7
capture 7
accept 7
squeezed 7
promoting 7
profusely 7
ensues 7
excavated 7
buried 7
20@@ 7
ancient 7
blocked 7
park 7
aim 7
experienced 7
respond 7
emotionally 7
gestures 7
suppose 7
stared 7
reviews 7
han@@ 7
crazily 7
potted 7
common 7
stapling 7
prunes 7
festive 7
pleased 7
align 7
tuning 7
unpacking 7
len 7
disassem@@ 7
cating 7
plugging 7
installs 7
wired 7
matt 7
il 7
spoke 7
auctioning 7
atically 7
center 7
consi@@ 7
demo@@ 7
vocalizes 7
bakes 7
transfer 7
smoo@@ 7
reflective 7
abo@@ 7
barbecuing 7
marinated 7
become 7
urban 7
jesus 7
brave 7
body 7
shampoos 7
dog 7
chained 7
excerci@@ 7
supposed 7
parallel 7
lating 7
bee@@ 7
vocal 7
box 7
winces 7
repetitive 7
ared 7
shook 7
extra@@ 7
protecting 7
tends 7
seductively 7
attempted 7
beg@@ 7
looses 7
outward 7
sin@@ 7
clamps 7
stumbles 7
lose 7
utilizing 7
coating 7
sandblasting 7
instru@@ 7
spending 7
handy 7
faced 7
chin 7
incredibly 7
ele@@ 7
defla@@ 7
wing 7
offer 7
spiderman 7
flowered 7
brazilian 7
funky 7
hurdling 7
glo@@ 7
flops 7
wade 7
glue 7
fast@@ 7
threaded 7
print 7
mini@@ 7
ral 7
bre@@ 7
trains 7
monit@@ 7
boun@@ 7
hesitates 7
ors 7
tea@@ 7
bounced 7
hurting 7
launching 7
row 7
sleeved 7
breaded 7
tt@@ 7
demostrates 7
european 7
bows 7
belching 7
ft 7
batman 7
neat 7
unidentified 7
tac@@ 7
tles 7
tear 7
destroys 7
nailing 7
deciding 7
cleared 7
dling 7
jcb 7
disappears 7
forced 7
type 7
im@@ 7
solves 7
magnetic 7
ty@@ 7
overturned 7
aling 7
roaring 7
nearest 7
furiously 7
slip 7
turing 7
sinks 7
necessary 7
mess 7
caring 7
zzy 7
onlooking 7
engraving 7
traces 7
engra@@ 7
disney 7
tracing 7
fishes 7
reels 7
pitch 7
filed 7
switch 7
afraid 7
shly 7
loosening 7
jacked 7
jack 7
rable 7
fellow 7
mocking 7
lled 7
prone 7
etching 7
ref@@ 7
portuguese 7
equal 7
pac@@ 7
´s 7
stiff 7
ggy 7
often 7
owns 7
surgical 7
taller 7
slender 7
gasps 7
aw@@ 7
smashed 7
lows 7
scratch 7
ckles 7
olive 7
squeaky 7
tabletop 7
son@@ 7
individually 7
twelve 7
catchy 7
chiropractic 7
sa 7
messaging 7
cranking 7
towing 7
active 7
scenic 7
uncontrollably 7
fussy 7
mimic 7
hungry 7
whining 7
colorfully 7
maneuver 7
divided 7
core 7
diagonal 7
explored 7
pair 7
attemps 7
early 7
mou@@ 7
street 7
usps 7
processed 7
of@@ 7
introduced 7
raucous 7
bal 7
mainly 7
mashing 7
pedals 7
dodging 7
zumba 7
searches 7
false 7
layered 7
chug 7
rainy 7
confused 7
obe@@ 7
game 7
manicured 7
fy 7
knows 7
spills 7
sprinkled 7
dotted 7
embroiders 7
rin@@ 7
cyc@@ 7
widely 7
aquatic 7
leafy 7
rap 7
playful 7
sur@@ 7
fusses 7
continued 7
elementary 7
mmy 7
war@@ 7
gotten 7
blocking 7
cy 7
indi@@ 7
rollerblading 7
huddling 7
respective 7
loving 7
cuddling 7
defen@@ 7
tiered 7
trotting 7
ters 7
blaring 7
woolen 7
ne 7
lay@@ 7
bil@@ 7
laps 7
grows 7
farts 7
tapped 7
phone 7
marry 7
mosh 7
available 7
ban@@ 7
planing 7
patch 7
accompany 7
jingle 7
medieval 7
intensely 7
ber@@ 7
floured 7
scuba 7
swaddled 7
unloaded 7
magnifying 7
rappelling 6
viewed 6
sand@@ 6
scroll 6
moun@@ 6
propelling 6
fying 6
ine@@ 6
ards 6
grunts 6
spir@@ 6
central 6
seriously 6
humorous 6
cultural 6
disabled 6
expre@@ 6
seating 6
patient 6
experimenting 6
snu@@ 6
framed 6
informational 6
kin@@ 6
skillful 6
adult 6
ins 6
ap@@ 6
tail 6
pins 6
secures 6
swears 6
flaps 6
pertaining 6
na 6
remain 6
ya@@ 6
offered 6
s.@@ 6
sca@@ 6
gree@@ 6
informative 6
and@@ 6
seeming 6
als 6
expe@@ 6
ey 6
dabs 6
carelessly 6
excavating 6
east 6
exact 6
boxed 6
aimed 6
rately 6
squealing 6
cal 6
stan@@ 6
offici@@ 6
judging 6
plying 6
forces 6
groaning 6
rearranging 6
lized 6
claims 6
tucking 6
ski@@ 6
internal 6
inte@@ 6
iring 6
water@@ 6
south 6
ction 6
effectively 6
socialize 6
school 6
international 6
ser@@ 6
aucti@@ 6
roaming 6
sold 6
sells 6
partial 6
proudly 6
mer@@ 6
arrive 6
propels 6
somersaulted 6
aligns 6
seperating 6
alig@@ 6
bandaging 6
treated 6
bandaged 6
horizontally 6
temporary 6
ceremonial 6
ster@@ 6
grill 6
shredded 6
coated 6
ston 6
ites 6
impress 6
winged 6
slower 6
parachutes 6
dec@@ 6
drifts 6
however 6
bathes 6
soa@@ 6
lunging 6
vey 6
beatboxes 6
bopping 6
scattered 6
eastern 6
photographed 6
howling 6
exten@@ 6
urges 6
inward 6
primitive 6
larly 6
graph@@ 6
texas 6
wall 6
dusty 6
concentra@@ 6
someones 6
target 6
retra@@ 6
ey@@ 6
gigantic 6
resembles 6
mel@@ 6
rounded 6
scientific 6
leaf@@ 6
comfort 6
rs 6
chatter 6
usa 6
ckle 6
negotiating 6
aboard 6
dy@@ 6
shore 6
additional 6
roughly 6
swept 6
foamy 6
glu@@ 6
proce@@ 6
entered 6
pho@@ 6
switched 6
produced 6
noi@@ 6
urging 6
tumble 6
somersault 6
congratulate 6
sneaks 6
staying 6
tugs 6
consists 6
interrupted 6
but@@ 6
eg@@ 6
dges 6
butting 6
seas@@ 6
tering 6
caribbean 6
interpre@@ 6
bles 6
succeeding 6
communicating 6
ignites 6
cause 6
some@@ 6
scares 6
admire 6
copies 6
smoothed 6
ough 6
commences 6
checkered 6
shares 6
save 6
unfinished 6
related 6
spectate 6
intricately 6
video 6
admires 6
hammered 6
rescue 6
topples 6
fights 6
attra@@ 6
taunts 6
bull 6
blee@@ 6
foward 6
ct@@ 6
damaged 6
abandoned 6
plows 6
ctive 6
tough 6
ard 6
plunges 6
ently 6
mario 6
bro@@ 6
buisy 6
hal@@ 6
ari@@ 6
multi@@ 6
stically 6
num@@ 6
diligently 6
cursive 6
ttering 6
expressing 6
kayak 6
kne@@ 6
tial 6
dodge 6
surrounds 6
wielding 6
capsizing 6
sun@@ 6
boating 6
amuses 6
collap@@ 6
ssively 6
fastens 6
interpreting 6
ddling 6
heel 6
except 6
ger@@ 6
future 6
lantern 6
serrated 6
smiley 6
id@@ 6
eal 6
doubles 6
asse@@ 6
crowed 6
ultimate 6
exclaiming 6
fidgeting 6
bobs 6
conver@@ 6
kia 6
automotive 6
drains 6
replace 6
hooks 6
notices 6
unscrews 6
tely 6
yanks 6
crouch 6
screwed 6
appropriate 6
embedded 6
chef 6
diced 6
wea@@ 6
ack 6
watery 6
raking 6
ended 6
ckling 6
flexes 6
inbetween 6
deadlifts 6
table 6
sucked 6
scans 6
treat 6
slipping 6
strained 6
sexual 6
holy 6
compliments 6
gradually 6
ela@@ 6
comple@@ 6
cont@@ 6
contortionist 6
ort 6
ow@@ 6
der@@ 6
fore@@ 6
remarks 6
garni@@ 6
ka@@ 6
ona 6
always 6
thumbing 6
flex 6
fir@@ 6
approximately 6
puffs 6
joke 6
sighs 6
jerking 6
painful 6
occasionally 6
enh@@ 6
indepen@@ 6
dent 6
dently 6
jeep 6
familiar 6
emotional 6
league 6
illumin@@ 6
stro@@ 6
hel@@ 6
howls 6
filing 6
ripe 6
see@@ 6
ill 6
charleston 6
wee 6
coordin@@ 6
wiggle 6
audio 6
ana 6
var@@ 6
toast 6
lot 6
conven@@ 6
netted 6
ino 6
inj@@ 6
exchange 6
numbered 6
synchronised 6
gers 6
eral 6
lapsed 6
darker 6
> 6
squints 6
licked 6
nervously 6
360 6
colli@@ 6
gurgling 6
sloppy 6
closeup 6
legen@@ 6
plucked 6
perched 6
15 6
whispers 6
pee@@ 6
bash 6
emerging 6
inclined 6
flock 6
koi 6
epic 6
destroying 6
kno@@ 6
strung 6
ir 6
jerky 6
choose 6
stiring 6
tattoos 6
cranked 6
por@@ 6
headbutt 6
sprinting 6
waling 6
curious 6
ffed 6
scratched 6
huddles 6
nfl 6
embracing 6
pay 6
sma@@ 6
eachother 6
aid 6
cruising 6
revs 6
boarding 6
jog 6
features 6
bmx 6
flashed 6
parachu@@ 6
manta 6
california 6
xi@@ 6
flick@@ 6
sprints 6
curvy 6
lg 6
cellular 6
fro@@ 6
whisking 6
extract 6
black@@ 6
boiled 6
proposed 6
announced 6
gopro 6
kah 6
broadcasting 6
sanitizing 6
loun@@ 6
singly 6
kind 6
twinkle 6
increases 6
tactical 6
country 6
tric 6
spikes 6
squash 6
claus 6
thomas 6
shinning 6
guinness 6
foreca@@ 6
cosmetic 6
elephant 6
bucking 6
refinishing 6
snorkling 6
yolk 6
sheared 6
awa@@ 6
language 6
dogsled 6
mushing 6
inhale 6
popsicle 6
crowdsurfing 6
ited 6
withdraw 6
abseiling 5
repel 5
rap@@ 5
elling 5
tain 5
bumpy 5
ell 5
cran@@ 5
chil@@ 5
dense 5
agit@@ 5
mim@@ 5
owing 5
hesit@@ 5
apologizing 5
ove 5
repaired 5
cre@@ 5
ws 5
compares 5
evalu@@ 5
ig 5
tom 5
phi@@ 5
actual 5
compu@@ 5
gator 5
plea@@ 5
prying 5
sem@@ 5
wide@@ 5
fal@@ 5
grasping 5
sang 5
esca@@ 5
gon 5
expan@@ 5
bol@@ 5
anyone 5
fere@@ 5
adam 5
hopes 5
greeting 5
cheerful 5
sely 5
adorable 5
congress 5
president 5
silhouetted 5
detailing 5
dr@@ 5
/@@ 5
roars 5
eleven 5
dabbing 5
skin@@ 5
dged 5
finer 5
time 5
comparing 5
labe@@ 5
interested 5
tech@@ 5
congratulating 5
pra@@ 5
cree@@ 5
dull 5
distant 5
bating 5
apologi@@ 5
fussing 5
alike 5
stripy 5
gr@@ 5
ok 5
stems 5
identi@@ 5
ex 5
narrate 5
gor@@ 5
6@@ 5
wondering 5
designing 5
florida 5
tightened 5
desktop 5
taining 5
carfully 5
assem@@ 5
clapped 5
global 5
uni@@ 5
inviting 5
cour@@ 5
den 5
ational 5
rotary 5
ttered 5
,@@ 5
expensive 5
ignore 5
dismoun@@ 5
cartwheels 5
strate 5
billy 5
mother 5
supervised 5
spooning 5
wounded 5
bandages 5
burnt 5
sev@@ 5
depicts 5
hawaiian 5
cat@@ 5
partake 5
awesome 5
peach 5
unwrap 5
ai@@ 5
marinating 5
simultaneous 5
explode 5
deploys 5
deplo@@ 5
growls 5
showering 5
ith 5
husky 5
whip 5
pple 5
identical 5
fli@@ 5
narrar@@ 5
generated 5
bops 5
disgusted 5
outwards 5
harvesting 5
buz@@ 5
situated 5
swarm 5
protected 5
buzzes 5
costume 5
gyrates 5
sparkly 5
weightlifting 5
arched 5
clockwise 5
stamp 5
biking 5
compressed 5
photo@@ 5
capped 5
soars 5
duck 5
bikes 5
air@@ 5
clothing 5
utilizes 5
surfac@@ 5
stripping 5
blowdrying 5
angle 5
str@@ 5
wish 5
squea@@ 5
messed 5
curving 5
obje@@ 5
melting 5
chats 5
pointy 5
jac@@ 5
smel@@ 5
supposedly 5
dless 5
rakes 5
dded 5
tripping 5
arding 5
bbing 5
coaxing 5
birthday 5
tion 5
decent 5
olympics 5
exiting 5
spee@@ 5
sle@@ 5
ried 5
deeper 5
foa@@ 5
plus 5
paste 5
mal 5
ig@@ 5
organize 5
lied 5
flow 5
store 5
ur 5
lor 5
eves 5
nail 5
parts 5
boneless 5
saute 5
settles 5
erup@@ 5
brakes 5
mes 5
nighttime 5
exp@@ 5
breath 5
que 5
delicate 5
wonderful 5
accelerated 5
peaceful 5
nude 5
mannequin 5
cker 5
bats 5
mble 5
afterward 5
inve@@ 5
gating 5
methodically 5
sands 5
ste@@ 5
rein@@ 5
ctively 5
educational 5
composed 5
legos 5
speeded 5
plugs 5
constructs 5
required 5
kayaks 5
sculpts 5
deta@@ 5
2x4 5
contain 5
attacking 5
distract 5
tease 5
stabbed 5
ushing 5
oni@@ 5
piling 5
topple 5
downed 5
hovers 5
ars 5
exc@@ 5
eye 5
lovely 5
ade@@ 5
subscribe 5
cast@@ 5
q@@ 5
calligraphic 5
stream 5
occurs 5
inverted 5
drifting 5
emer@@ 5
latino 5
ddled 5
windsurf 5
raining 5
allow 5
sail@@ 5
efficiently 5
fling 5
ma 5
swa@@ 5
mal@@ 5
redheaded 5
cleanly 5
audi 5
design 5
chisels 5
chipped 5
trace 5
ann@@ 5
ual 5
trans@@ 5
shy 5
temp@@ 5
modeling 5
casing 5
unhook 5
flopping 5
spea@@ 5
wriggling 5
skills 5
previous 5
underhanded 5
whoever 5
ate@@ 5
youn@@ 5
instant 5
hurry 5
chants 5
rowdy 5
frequently 5
noting 5
impro@@ 5
xy 5
desired 5
desp@@ 5
dging 5
mentioning 5
replaced 5
squating 5
perfoming 5
aloft 5
shakily 5
som@@ 5
ust 5
busting 5
etch 5
crafted 5
sketch 5
dice 5
sau@@ 5
butcher 5
lengthwise 5
rated 5
succeed 5
camping 5
otherwise 5
normally 5
lou@@ 5
rummages 5
ign 5
hoists 5
jerk 5
grasps 5
stand@@ 5
reached 5
skipped 5
wider 5
skimming 5
ouring 5
incorpo@@ 5
mumbles 5
dist@@ 5
orts 5
suspen@@ 5
steam 5
stical 5
latter 5
low@@ 5
kit@@ 5
mom 5
thed 5
ments 5
interrupts 5
hovering 5
reddish 5
optical 5
vast 5
ama@@ 5
contorting 5
youtube 5
outlined 5
plate 5
plan 5
boil 5
blazing 5
pale 5
sauteed 5
scal@@ 5
translates 5
nar@@ 5
enact 5
tional 5
pikachu 5
bub@@ 5
alerts 5
darkly 5
purposely 5
relieve 5
audible 5
thr@@ 5
starring 5
revealed 5
negative 5
sadly 5
crys 5
90 5
farther 5
dummy 5
sprin@@ 5
layering 5
divi@@ 5
quicker 5
gest@@ 5
babys 5
skin 5
rise 5
practing 5
fea@@ 5
80 5
cel@@ 5
diti@@ 5
wii 5
contemplates 5
identifies 5
tree 5
selects 5
barre@@ 5
fle@@ 5
dio 5
cav@@ 5
docking 5
pilo@@ 5
wel@@ 5
horsing 5
wrings 5
questi@@ 5
themed 5
sketched 5
illu@@ 5
prom@@ 5
advi@@ 5
drunk 5
downing 5
sniff 5
choking 5
wrec@@ 5
accelerates 5
uk@@ 5
hog 5
far@@ 5
surpri@@ 5
coos 5
spe@@ 5
marking 5
loosing 5
tim@@ 5
highlight 5
ba 5
fuller 5
unties 5
cake 5
wanting 5
crunchy 5
bagged 5
amid 5
tters 5
gated 5
slurping 5
hardly 5
stabs 5
stitched 5
knits 5
tar@@ 5
ness 5
effective 5
extinguishing 5
extinguish 5
grounded 5
improvised 5
scoo@@ 5
poten@@ 5
fined 5
dispensing 5
crows 5
corral 5
simulating 5
dual 5
prompted 5
fondling 5
sharping 5
intends 5
demonstating 5
dish 5
onal 5
diagonally 5
perfo@@ 5
lon@@ 5
views 5
acknowledges 5
lan 5
with@@ 5
yo@@ 5
iti@@ 5
’s 5
gha@@ 5
cate 5
complimented 5
welcomes 5
scree@@ 5
swishing 5
refle@@ 5
becoming 5
enthusiastic 5
praying 5
extru@@ 5
shepard 5
shorter 5
oming 5
ore 5
constant 5
gains 5
exciting 5
arrives 5
recreating 5
enacting 5
whooping 5
blading 5
junior 5
hardcore 5
thering 5
gleefully 5
increa@@ 5
caressing 5
ushes 5
leisurely 5
dou@@ 5
whe@@ 5
ninja 5
tball 5
tian 5
our@@ 5
africa 5
landsca@@ 5
squirting 5
hollers 5
unlocks 5
provide 5
holler 5
topping 5
packaging 5
mild 5
shoe 5
concentrates 5
believe 5
spoken 5
ups 5
inst@@ 5
teh 5
inal 5
gross 5
moping 5
stading 5
upstairs 5
drag 5
ush 5
poked 5
felting 5
plush 5
unopened 5
grips 5
fig@@ 5
thigh 5
uncork 5
bran@@ 5
gal@@ 5
pullup 5
hin@@ 5
org@@ 5
disturbed 5
photobom@@ 5
'd 5
program 5
vin 5
squishing 5
squish 5
pirou@@ 5
.and 5
sters 5
accor@@ 5
bless 5
orche@@ 5
orchestral 5
aboriginal 5
vibrate 5
spangled 5
scissors 5
maraca 5
shu@@ 5
pain@@ 5
guiness 5
remember 5
cautiously 5
trots 5
bark 5
mellows 5
smoked 5
spicy 5
saws 5
sewn 5
nokia 5
translate 5
crunches 5
skies 5
ought 5
skii 5
coughs 5
rocked 5
snowmobiling 5
lasso@@ 5
lassoing 5
meditating 5
sample 5
sampling 5
texts 5
rewarding 5
weaved 5
untie 5
wrench 5
admini@@ 5
vaccu@@ 5
strapping 4
rappel 4
ings 4
attatches 4
fron@@ 4
stabili@@ 4
repea@@ 4
ascending 4
snorts 4
ins@@ 4
ulted 4
ising 4
acted 4
confron@@ 4
offstage 4
mumbling 4
mode@@ 4
showcased 4
conclu@@ 4
lif@@ 4
married 4
mic@@ 4
lop 4
scri@@ 4
bes 4
ware 4
erratically 4
grins 4
tin 4
uncoordinated 4
imaginary 4
simulates 4
waiving 4
blares 4
convin@@ 4
toge@@ 4
mouthing 4
ach 4
mouth 4
angrily 4
aga@@ 4
ast@@ 4
gripped 4
wr@@ 4
tv 4
condu@@ 4
pleasant 4
inspirational 4
cy@@ 4
tucked 4
elses 4
hoo 4
handsome 4
4th 4
welcoming 4
diverse 4
cussing 4
30 4
smu@@ 4
blin@@ 4
messaged 4
johnson 4
uncover 4
vates 4
earth 4
ersed 4
uncovered 4
tches 4
flys 4
3d 4
aled 4
appe@@ 4
ssy 4
3rd 4
jud@@ 4
armwrestling 4
exer@@ 4
stronger 4
dily 4
def@@ 4
wresting 4
thumb 4
egg 4
challen@@ 4
gingerly 4
rob@@ 4
dislo@@ 4
lightweight 4
disman@@ 4
static 4
nical 4
alized 4
don@@ 4
damon 4
u.s. 4
christ@@ 4
dod@@ 4
chr@@ 4
proje@@ 4
host 4
exchanging 4
learned 4
news 4
associ@@ 4
meeting 4
ilit@@ 4
ies 4
rock@@ 4
summari@@ 4
mingling 4
auctioned 4
bid 4
sol@@ 4
civic 4
elder 4
flop 4
thinner 4
pic@@ 4
oatmeal 4
ats 4
ruff 4
spac@@ 4
compared 4
depicting 4
flattened 4
amputated 4
band@@ 4
womens 4
stretchy 4
gn@@ 4
set@@ 4
crispy 4
juicy 4
blended 4
span@@ 4
quing 4
ka 4
ick 4
tionally 4
skydives 4
detaches 4
trance 4
xious 4
shampoo 4
bathe 4
belon@@ 4
comfor@@ 4
incessantly 4
harmonic 4
repetitively 4
grimaces 4
percussive 4
bee 4
harve@@ 4
countless 4
exa@@ 4
bearing 4
ambient 4
flow@@ 4
backup 4
brunette 4
avera@@ 4
sixty 4
velcro 4
onstrates 4
videoed 4
obscure 4
entertained 4
totally 4
res@@ 4
accomp@@ 4
ctional 4
centers 4
pedal 4
swerves 4
blast 4
wore 4
powerwashing 4
spa@@ 4
refinish 4
rusty 4
iner 4
drier 4
sna@@ 4
deflates 4
hilar@@ 4
capturing 4
jean 4
glass 4
pl@@ 4
fix@@ 4
transfers 4
fashion 4
clean@@ 4
mask 4
mow@@ 4
ddles 4
ler 4
ick@@ 4
thinking 4
wishing 4
dles 4
celebra@@ 4
tha@@ 4
mid@@ 4
representing 4
cep@@ 4
bob@@ 4
gh 4
overtaken 4
wakeboarding 4
genera@@ 4
slo@@ 4
conve@@ 4
manufactured 4
crude 4
brew 4
caps 4
periodically 4
unloads 4
sily 4
laring 4
kids 4
tramp@@ 4
bb@@ 4
bou@@ 4
bowled 4
yelled 4
achi@@ 4
mis@@ 4
disappointed 4
eving 4
you@@ 4
effor@@ 4
models 4
season 4
crumbling 4
coats 4
creamy 4
breading 4
cken 4
syn@@ 4
gyrating 4
tating 4
breakdance 4
breakdances 4
dj 4
investig@@ 4
fetches 4
advance 4
ticing 4
brake 4
increase 4
igniting 4
mented 4
drank 4
sumes 4
choosing 4
tilted 4
gir@@ 4
wren@@ 4
prompts 4
staple 4
deci@@ 4
plane 4
remodeling 4
sel@@ 4
skilfully 4
gl@@ 4
interlocking 4
systematic 4
pile 4
beach 4
demolished 4
lar 4
framing 4
forwarded 4
scatter 4
attac@@ 4
taunting 4
wrangle 4
where@@ 4
defends 4
bulldo@@ 4
zer 4
wrecked 4
dozing 4
trun@@ 4
wanders 4
plowed 4
gee 4
hoi@@ 4
captivated 4
coke 4
big@@ 4
liking 4
consuming 4
san@@ 4
wom@@ 4
hope 4
busking 4
ory 4
mmer 4
mmed 4
wee@@ 4
stylized 4
ania 4
art@@ 4
suing 4
sty@@ 4
memor@@ 4
overturns 4
elvis 4
2013 4
ren@@ 4
cartwheeled 4
peddling 4
swear 4
rescued 4
criss@@ 4
manu@@ 4
delibe@@ 4
sifts 4
congregate 4
seemed 4
sian 4
deal 4
whips 4
impre@@ 4
baby@@ 4
pick@@ 4
tuck 4
ddle 4
bloody 4
kissed 4
summ@@ 4
salts 4
mean@@ 4
egged 4
edited 4
choreo@@ 4
tented 4
eskimo 4
craving 4
slinging 4
transferring 4
cata@@ 4
beutiful 4
ta 4
smears 4
jov@@ 4
ignoring 4
neutral 4
harder 4
panned 4
loosens 4
who@@ 4
minor 4
reali@@ 4
buying 4
.com 4
gau@@ 4
10@@ 4
declares 4
gummy 4
obnoxiously 4
syncing 4
dentyne 4
munching 4
stuff 4
chucking 4
ply 4
buddha 4
acto 4
scrapping 4
vir@@ 4
needing 4
aa 4
laugh@@ 4
precisely 4
sectioning 4
sharp@@ 4
elong@@ 4
jab@@ 4
wise 4
dices 4
decoratively 4
atte@@ 4
documenting 4
bodied 4
rummaging 4
screeching 4
beh@@ 4
craw@@ 4
sni@@ 4
wets 4
mod@@ 4
weighs 4
practiced 4
30@@ 4
ind 4
lengthy 4
clogged 4
private 4
wrinkled 4
gly 4
steri@@ 4
clo@@ 4
jan@@ 4
swiffer 4
advancing 4
side@@ 4
braces 4
rooting 4
lim@@ 4
ascends 4
trimmer 4
spends 4
shade 4
too@@ 4
face@@ 4
levitating 4
yo 4
unexpectedly 4
interpretive 4
edi@@ 4
contorted 4
clasped 4
incredible 4
40 4
emitting 4
boils 4
pon@@ 4
hollowed 4
warns 4
likely 4
twi@@ 4
groov@@ 4
provocati@@ 4
lops 4
balck 4
sear@@ 4
sauteing 4
flav@@ 4
plated 4
form@@ 4
cosplaying 4
shre@@ 4
kick@@ 4
vel 4
total 4
syncs 4
dete@@ 4
assorted 4
conduct 4
tubular 4
balling 4
clash 4
louder 4
hiccu@@ 4
xed 4
uncrosses 4
wriggles 4
puling 4
reversing 4
sumo 4
consoles 4
comforts 4
distressed 4
soothe 4
visi@@ 4
squirming 4
dor@@ 4
determ@@ 4
freely 4
red@@ 4
section 4
strait@@ 4
intended 4
pinning 4
cores 4
cle@@ 4
dled 4
pealing 4
citrus 4
rearranges 4
mellow 4
bags 4
similarly 4
fan@@ 4
patriotic 4
world 4
gic 4
quir@@ 4
korean 4
gangam 4
ised 4
deadlifting 4
overnight 4
delivered 4
exits 4
lazy 4
package 4
someting 4
dining 4
signals 4
foggy 4
caused 4
wandering 4
concer@@ 4
compete@@ 4
hydraulic 4
anchor 4
hit@@ 4
eli@@ 4
commands 4
inter 4
praised 4
bic 4
demonstraiting 4
q 4
chooses 4
sketches 4
outlining 4
son 4
practi@@ 4
prompting 4
clin@@ 4
chugs 4
chokes 4
salu@@ 4
shrugs 4
consistent 4
da 4
developed 4
ane@@ 4
google 4
deere 4
proceeding 4
imm@@ 4
harde@@ 4
vampire 4
drool 4
slobb@@ 4
docu@@ 4
discover 4
eless 4
worth 4
procee@@ 4
dogs 4
seattle 4
super@@ 4
poun@@ 4
ints 4
symmetrical 4
mcdonald 4
smearing 4
intrigued 4
sloppily 4
terri@@ 4
gn 4
okay 4
god 4
shared 4
ulous 4
youn 4
moaning 4
non@@ 4
congre@@ 4
yummy 4
unintelligible 4
challenged 4
annoyed 4
gely 4
ciously 4
squishes 4
supervise 4
australia 4
recieving 4
discovers 4
embroider 4
needle 4
pin@@ 4
needlepoint 4
tiring 4
proud 4
vol@@ 4
distingui@@ 4
honking 4
broadcast 4
accidently 4
sloping 4
til 4
wan@@ 4
ramp 4
swivels 4
tou@@ 4
pecking 4
sno@@ 4
caching 4
allowed 4
veled 4
jou@@ 4
py 4
clen@@ 4
darth 4
vie@@ 4
tun@@ 4
fluffing 4
grin@@ 4
apping 4
eld 4
yarn 4
ounding 4
strings 4
snips 4
hook 4
clamped 4
manuevering 4
laun@@ 4
dable 4
un 4
unfold 4
altern@@ 4
strengthen 4
ker 4
thai 4
locate 4
pluck 4
frea@@ 4
nowhere 4
contained 4
haw@@ 4
distra@@ 4
inten@@ 4
my@@ 4
abrupt 4
tech 4
james 4
submerges 4
filtering 4
waterproof 4
cky 4
golfing 4
practise 4
mean 4
church 4
worshiping 4
churning 4
mincing 4
blow@@ 4
accumu@@ 4
nish 4
dusted 4
garian 4
invol@@ 4
retrieving 4
soaked 4
violent 4
ff 4
jam 4
mped 4
oun@@ 4
litte 4
replays 4
sparing 4
vs 4
confederate 4
ise 4
batting 4
university 4
zags 4
skidding 4
iceskating 4
occu@@ 4
skater 4
youg 4
run@@ 4
prep 4
timing 4
hopscotch 4
designated 4
dissol@@ 4
disper@@ 4
affection@@ 4
cuddles 4
city 4
ggling 4
part@@ 4
lov@@ 4
chuck 4
hul@@ 4
jersey 4
j 4
north 4
warmly 4
comical 4
anther 4
swam 4
sowing 4
clamp 4
straightened 4
domestic 4
listing 4
collared 4
evaluate 4
ya 4
jetskiing 4
jet 4
'll 4
tagging 4
ggled 4
differently 4
nd 4
graff@@ 4
did@@ 4
signal 4
wire@@ 4
hikes 4
overcast 4
barefooted 4
kiteboarding 4
dee@@ 4
lifing 4
surf@@ 4
parasails 4
guy 4
chair 4
reclined 4
coastal 4
hear@@ 4
justin 4
bieber 4
deer 4
oung 4
mor@@ 4
paving 4
levels 4
dispense 4
velling 4
inje@@ 4
pipe 4
rounding 4
wetting 4
aperson 4
arm@@ 4
fuel 4
canned 4
unlocking 4
lock@@ 4
embarks 4
rake 4
roa@@ 4
zig@@ 4
maintains 4
opera@@ 4
browsing 4
ctor 4
tary 4
sk 4
horse@@ 4
addressed 4
combines 4
ths 4
preps 4
beaded 4
cross@@ 4
animatedly 4
discarded 4
lect@@ 4
hunched 4
micheal 4
moonwalk 4
tugging 4
stre@@ 4
plank 4
maje@@ 4
stored 4
rot@@ 4
sof@@ 4
jabbing 4
stab 4
brigh@@ 4
qatar 4
anchoring 4
indicate 4
comm@@ 4
acce@@ 4
joseph 4
interactive 4
cheap 4
ney 4
paraglide 4
tandem 4
decided 4
wat@@ 4
nod 4
process 4
evil 4
zily 4
hairless 4
senate 4
youngest 4
executing 4
flir@@ 4
volley 4
backdoor 4
ation 4
betting 4
vegas 4
harmon@@ 4
joy@@ 4
informal 4
embe@@ 4
free@@ 4
medit@@ 4
banner 4
patty 4
playin 4
secret 4
reli@@ 4
laser 4
dupli@@ 4
lute 4
maneuvered 4
zelda 4
mexico 4
smiled 4
night 4
rubic 4
rubi@@ 4
bac@@ 4
bob 4
strates 4
warms 4
tank 4
xy@@ 4
navel 4
propel 4
vaults 4
honing 4
sanded 4
dispensed 4
rinsed 4
europe 4
stalled 4
adjustable 4
sultry 4
rollerskate 4
unstuck 4
jagged 4
puncturing 4
escorted 4
whirling 4
transporting 4
nuclear 4
oms 4
trice@@ 4
cranks 4
tighter 4
sawed 4
scramble 4
moisturizing 4
treading 4
butt@@ 4
chew@@ 4
translating 4
skying 4
skydive 4
disconne@@ 4
woke 4
spelunking 4
untied 4
squashing 4
breaststroke 4
collide 4
eiffel 4
testifying 4
legal 4
knot 4
catholic 4
barbie 4
lo 3
rappels 3
scaf@@ 3
harne@@ 3
rehear@@ 3
uncomfortably 3
questions 3
sping 3
indic@@ 3
rimmed 3
readju@@ 3
ske@@ 3
dun@@ 3
irs 3
len@@ 3
mani@@ 3
appro@@ 3
thrashing 3
subdu@@ 3
wood 3
stab@@ 3
intervie@@ 3
reminisc@@ 3
sandler 3
clai@@ 3
answ@@ 3
roberts 3
wishes 3
alu@@ 3
com 3
rejo@@ 3
theirs 3
span 3
promoted 3
traversing 3
willi@@ 3
list@@ 3
ological 3
dow@@ 3
arded 3
vate 3
thrusts 3
targeting 3
accu@@ 3
shoo@@ 3
promotes 3
reloads 3
cen@@ 3
thre@@ 3
medi@@ 3
swearing 3
sneaking 3
recovers 3
recommends 3
stemmed 3
unti@@ 3
tutor@@ 3
boxes 3
em 3
ink@@ 3
tribu@@ 3
donal@@ 3
arri@@ 3
regi@@ 3
stering 3
mon 3
um@@ 3
tor 3
referen@@ 3
4@@ 3
regu@@ 3
talented 3
somersaults 3
unbaked 3
loose@@ 3
&@@ 3
unrolls 3
athle@@ 3
tching 3
worce@@ 3
lls 3
bab@@ 3
cheer@@ 3
shrimp 3
lares 3
scantily 3
spon@@ 3
ut 3
techno 3
soar 3
kite@@ 3
zil 3
turous 3
shampooing 3
wards 3
rippling 3
strangely 3
thumping 3
termin@@ 3
tend 3
smoky 3
stribu@@ 3
hou@@ 3
protects 3
ung 3
clim@@ 3
swarming 3
kee@@ 3
waives 3
shap@@ 3
tog@@ 3
every@@ 3
seductive 3
weighed 3
strating 3
tribal 3
warmed 3
med@@ 3
snowed 3
traverses 3
euro@@ 3
strolling 3
urized 3
textured 3
yi@@ 3
twir@@ 3
unt@@ 3
refer 3
stic@@ 3
[ 3
revol@@ 3
work@@ 3
mul@@ 3
asc@@ 3
prai@@ 3
trai@@ 3
dd@@ 3
encoura@@ 3
runny 3
stly 3
surfer 3
wine 3
jugg@@ 3
shaky 3
dies 3
uncor@@ 3
unpack 3
transported 3
jump@@ 3
multic@@ 3
bow@@ 3
rejoices 3
thor@@ 3
tlessly 3
queen 3
undoing 3
veri@@ 3
toa@@ 3
fore 3
previ@@ 3
san 3
spec@@ 3
psy@@ 3
acrob@@ 3
scu@@ 3
tative 3
stepped 3
tning 3
spat 3
embroid@@ 3
strategically 3
swirled 3
shelving 3
stamping 3
remo@@ 3
venting 3
stain 3
tfully 3
lap@@ 3
ture 3
turtle 3
scen@@ 3
fra@@ 3
vide@@ 3
pou@@ 3
rected 3
rush 3
taunt 3
ful@@ 3
twit@@ 3
taun@@ 3
ulting 3
advanc@@ 3
swift 3
skid 3
fel@@ 3
dang@@ 3
strains 3
spare 3
thentic 3
calcu@@ 3
systematically 3
squared 3
sable 3
arti@@ 3
writting 3
sten@@ 3
stylish 3
rafting 3
sin 3
iny 3
ital 3
rest@@ 3
rams 3
rac@@ 3
rably 3
uno 3
shuffled 3
tidying 3
fif@@ 3
sling 3
zips 3
ringed 3
room 3
cartw@@ 3
contin@@ 3
stun@@ 3
mechan@@ 3
wintry 3
waring 3
tho@@ 3
swampy 3
sher@@ 3
itted 3
vin@@ 3
thought 3
yay 3
taged 3
cele@@ 3
usalem 3
swarms 3
tex@@ 3
cow@@ 3
umbi@@ 3
synchronous 3
shifted 3
inging 3
art 3
toronto 3
surely 3
mobi@@ 3
ridged 3
toyota 3
stumbling 3
punct@@ 3
purpose 3
ici@@ 3
ha 3
teal 3
stran@@ 3
ames 3
wood@@ 3
scrap 3
seperated 3
pol@@ 3
soggy 3
surface 3
transforming 3
chir@@ 3
xes 3
john@@ 3
snatch 3
retractable 3
recommen@@ 3
suction 3
tern@@ 3
stained 3
sweat 3
toilet 3
squirt 3
wobbly 3
squee@@ 3
show@@ 3
main@@ 3
ld 3
amus@@ 3
puzz@@ 3
rung 3
shading 3
gical 3
shrink 3
fies 3
mber 3
scan@@ 3
mirro@@ 3
deter@@ 3
sizzle 3
saute@@ 3
sear 3
uto 3
ator 3
posed 3
fic@@ 3
polit@@ 3
gui@@ 3
willing 3
suspicious 3
sorted 3
spacious 3
synchron@@ 3
vice 3
iously 3
assi@@ 3
twitches 3
shee@@ 3
snapped 3
ign@@ 3
scooting 3
ggle 3
sil@@ 3
shone 3
tows 3
unpaved 3
unhappy 3
row@@ 3
ssi@@ 3
soo@@ 3
scuff@@ 3
embra@@ 3
straighter 3
unravels 3
sections 3
studying 3
ble@@ 3
yelping 3
suck@@ 3
ong@@ 3
continu@@ 3
remin@@ 3
skins 3
effici@@ 3
stal@@ 3
perfor@@ 3
gang@@ 3
gan@@ 3
si 3
yond 3
psyching 3
sudoku 3
satur@@ 3
fen@@ 3
voices 3
recent 3
usual 3
shan@@ 3
flat@@ 3
ines 3
ree 3
speciali@@ 3
whel@@ 3
segways 3
poli@@ 3
teeing 3
turquoise 3
slee@@ 3
ancho@@ 3
runing 3
saved 3
slur@@ 3
exce@@ 3
ics 3
transiti@@ 3
vanish 3
realistic 3
simp@@ 3
ppling 3
els 3
tilting 3
ired 3
veers 3
ton@@ 3
southern 3
vegetable 3
dea@@ 3
yielding 3
sly 3
simon 3
types 3
sugge@@ 3
9@@ 3
trick 3
mo 3
reboun@@ 3
sea 3
thicker 3
sparse 3
smeared 3
sour 3
transport 3
rent 3
ruff@@ 3
restingly 3
sav@@ 3
ridic@@ 3
slow@@ 3
bble 3
stray 3
mess@@ 3
thee 3
ults 3
taut 3
zag 3
extingui@@ 3
dering 3
0 3
reported 3
rely 3
tro@@ 3
unfortunately 3
replayed 3
wobbling 3
sus@@ 3
tially 3
swo@@ 3
strewn 3
squir@@ 3
oured 3
reluct@@ 3
reset 3
wars 3
satisfied 3
resemble 3
thinning 3
skil@@ 3
slim 3
bby 3
stom@@ 3
tee 3
unfolded 3
ere 3
sides 3
sweaty 3
rustling 3
seek 3
ddy 3
cal@@ 3
inspe@@ 3
ward 3
vei@@ 3
tt 3
reci@@ 3
ska@@ 3
chy 3
submerging 3
preci@@ 3
whirls 3
slan@@ 3
tees 3
punting 3
pun@@ 3
sac@@ 3
spirit@@ 3
ually 3
weigh 3
shaggy 3
bor@@ 3
fur@@ 3
reciative 3
thowing 3
moi@@ 3
wool@@ 3
rev@@ 3
steamy 3
relaxed 3
runn@@ 3
revoluti@@ 3
smokey 3
affe@@ 3
zagging 3
slithers 3
fted 3
boards 3
stle 3
grou@@ 3
trojan 3
gle 3
mental 3
ggles 3
liar 3
scooped 3
unhooks 3
mee@@ 3
renov@@ 3
resistant 3
tiron@@ 3
sequined 3
trowing 3
sewhere 3
mcdonal@@ 3
plac@@ 3
sea@@ 3
serted 3
trot 3
disp@@ 3
streng@@ 3
ftly 3
tter 3
suc@@ 3
splashed 3
terally 3
vigorous 3
readying 3
60 3
passion@@ 3
uba 3
skiiing 3
tche@@ 3
gy@@ 3
sharon 3
roughhousing 3
ton 3
pronounce 3
raced 3
accelera@@ 3
rev 3
souped 3
tening 3
zable 3
wra@@ 3
sectioned 3
smoothens 3
initi@@ 3
sloped 3
redo 3
mol@@ 3
warriors 3
royals 3
ght 3
rently 3
smith 3
ears 3
swipe 3
sport 3
survi@@ 3
lun@@ 3
xer 3
pers@@ 3
smo@@ 3
unorthodox 3
straining 3
screen 3
shred 3
inous 3
smi@@ 3
solder 3
stered 3
welded 3
beauti@@ 3
ead 3
robo@@ 3
thening 3
tasty 3
quently 3
attemp@@ 3
serena@@ 3
tanned 3
shaken 3
woman@@ 3
ber 3
yanked 3
utters 3
particu@@ 3
repe@@ 3
waching 3
unwanted 3
sponge@@ 3
rating 3
ire 3
inv@@ 3
saving 3
rhyming 3
snea@@ 3
new@@ 3
mov@@ 3
raz@@ 3
sas 3
uncorking 3
thew 3
shipped 3
dom 3
soaring 3
snappy 3
reversed 3
riously 3
sited 3
provided 3
recycled 3
wings 3
bom@@ 3
surprises 3
programming 3
selecting 3
prin@@ 3
select 3
tele@@ 3
sug@@ 3
screamed 3
smoothen 3
transplant 3
ever@@ 3
dian 3
ticking 3
walled 3
nis 3
tch 3
reverbe@@ 3
recogni@@ 3
s. 3
rudolph 3
reindeer 3
resonates 3
acou@@ 3
shrill 3
strum 3
mb 3
signed 3
scolds 3
oc@@ 3
stones 3
kly 3
iss@@ 3
solved 3
spell 3
spelling 3
comman@@ 3
song 3
spi@@ 3
velin 3
rome 3
washington 3
nor@@ 3
simulate 3
prote@@ 3
rying 3
tery 3
grow@@ 3
scrunching 3
sually 3
stin@@ 3
snores 3
correc@@ 3
saddled 3
requests 3
yon 3
slipped 3
tares 3
barbecu@@ 3
splayed 3
ingle 3
gue@@ 3
roller 3
streching 3
reflected 3
whisked 3
ww 3
silver@@ 3
ryan 3
knea@@ 3
ven 3
leg@@ 3
sheered 3
retrieved 3
ffs 3
sthetic 3
shucks 3
titively 3
rado 3
unlea@@ 3
woken 3
shattering 3
stink 3
magni@@ 3
snorkels 3
swiming 3
spraypaints 3
squinting 3
stomped 3
route 3
withdraws 3
tower 3
tango 3
zz@@ 3
testifies 3
tye 3
twiddle 3
ginger@@ 3
sesame 3
waterski 3
soldering 3
spool 3
abse@@ 2
mounta@@ 2
rapp@@ 2
soun@@ 2
orting 2
shru@@ 2
audi@@ 2
repa@@ 2
interrup@@ 2
alle@@ 2
;@@ 2
lished 2
rus 2
mic 2
reating 2
class@@ 2
roy@@ 2
cou@@ 2
exca@@ 2
chea@@ 2
logical 2
descri@@ 2
anno@@ 2
shri@@ 2
drun@@ 2
chri@@ 2
ordin@@ 2
arab@@ 2
direc@@ 2
negoti@@ 2
plo@@ 2
sizz@@ 2
marin@@ 2
barbe@@ 2
excep@@ 2
whist@@ 2
tural 2
beat@@ 2
mpy 2
ank 2
spray@@ 2
whir@@ 2
sl@@ 2
perfe@@ 2
lable 2
hydra@@ 2
ther@@ 2
organi@@ 2
packa@@ 2
atta@@ 2
bott@@ 2
ultim@@ 2
bus@@ 2
iden@@ 2
infla@@ 2
succe@@ 2
blon@@ 2
ttles 2
aning 2
sam@@ 2
yan@@ 2
ares 2
pr@@ 2
tire 2
ado@@ 2
kily 2
gate 2
tally 2
eared 2
consist@@ 2
reson@@ 2
thers 2
graphi@@ 2
upp@@ 2
calli@@ 2
fanc@@ 2
topp@@ 2
ite@@ 2
rescu@@ 2
u.@@ 2
deli@@ 2
cately 2
comfortably 2
cartwhe@@ 2
grap@@ 2
fashi@@ 2
than@@ 2
compli@@ 2
stabi@@ 2
conf@@ 2
gymna@@ 2
earing 2
corpo@@ 2
tigh@@ 2
acknowle@@ 2
vating 2
veling 2
pating 2
attered 2
inde@@ 2
shou@@ 2
ph 2
cauti@@ 2
thes 2
ssion@@ 2
tless 2
av@@ 2
pull@@ 2
vil 2
thum@@ 2
sating 2
sigh@@ 2
stling 2
chiro@@ 2
pract@@ 2
broad@@ 2
fus@@ 2
consol@@ 2
scrun@@ 2
provo@@ 2
ffer 2
curing 2
moisturi@@ 2
half@@ 2
thin@@ 2
experien@@ 2
hawai@@ 2
ler@@ 2
eleg@@ 2
synch@@ 2
practic@@ 2
+ 2
ue 2
orig@@ 2
spel@@ 2
icked 2
fris@@ 2
een 2
stage 2
coura@@ 2
edu@@ 2
ffe@@ 2
spect@@ 2
ult 2
exerci@@ 2
close@@ 2
erci@@ 2
chal@@ 2
ron@@ 2
consu@@ 2
grima@@ 2
ner 2
imag@@ 2
dir@@ 2
disn@@ 2
inning 2
reg@@ 2
thu@@ 2
gger 2
seg@@ 2
sepera@@ 2
rumma@@ 2
inting 2
dark@@ 2
destro@@ 2
mun@@ 2
obno@@ 2
adm@@ 2
admi@@ 2
whisp@@ 2
hig@@ 2
them@@ 2
: 2
ko@@ 2
gol@@ 2
zo@@ 2
tivated 2
tom@@ 2
dresses 2
atter 2
rank 2
pea@@ 2
explor@@ 2
dered 2
cular 2
near@@ 2
mag@@ 2
compla@@ 2
blur@@ 2
hair@@ 2
reco@@ 2
pean 2
eu@@ 2
tually 2
contem@@ 2
transfer@@ 2
splaying 2
again@@ 2
exclai@@ 2
dely 2
strated 2
hover@@ 2
vocali@@ 2
pensive 2
beli@@ 2
roller@@ 2
thy 2
edly 2
ath@@ 2
power@@ 2
ders 2
intermitten@@ 2
flor@@ 2
cious 2
croche@@ 2
utili@@ 2
wind@@ 2
land@@ 2
humor@@ 2
concre@@ 2
elabo@@ 2
desc@@ 2
wake@@ 2
differe@@ 2
spra@@ 2
soli@@ 2
strin@@ 2
pli@@ 2
sprink@@ 2
supp@@ 2
dul@@ 2
ry@@ 2
recre@@ 2
simu@@ 2
push@@ 2
unidenti@@ 2
fon@@ 2
video@@ 2
ghtly 2
ag@@ 2
fee@@ 2
fts 2
tened 2
footed 2
lik@@ 2
reme@@ 2
ops 2
floo@@ 2
ner@@ 2
equi@@ 2
fru@@ 2
secu@@ 2
ette 2
inton 2
mit@@ 2
onally 2
occur@@ 2
vibra@@ 2
til@@ 2
yc@@ 2
electri@@ 2
reac@@ 2
ttle 2
attering 2
marac@@ 2
requ@@ 2
person 2
int@@ 2
menti@@ 2
​@@ 2
notic@@ 2
squa@@ 2
kore@@ 2
jap@@ 2
thern 2
erra@@ 2
chan@@ 2
zon@@ 2
self 2
wil@@ 2
vated 2
hill 2
dro@@ 2
circ@@ 2
aly@@ 2
sociali@@ 2
blo@@ 2
fic 2
times 2
ped@@ 2
que@@ 2
– 2
ser 2
perf@@ 2
flou@@ 2
weight@@ 2
siti@@ 2
sign@@ 2
"@@ 2
eeding 2
shor@@ 2
wn 2
shuff@@ 2
tains 2
skii@@ 2
swer@@ 2
clou@@ 2
wob@@ 2
dama@@ 2
tled 2
snor@@ 2
ersa@@ 2
sey 2
stern 2
stick@@ 2
announ@@ 2
] 2
spoo@@ 2
bull@@ 2
shir@@ 2
prun@@ 2
wrink@@ 2
inhal@@ 2
appropri@@ 2
n'@@ 2
refere@@ 2
diag@@ 1
then@@ 1
kid@@ 1
inspi@@ 1
adver@@ 1
histor@@ 1
nch 1
ica 1
cit@@ 1
promo@@ 1
rational 1
site 1
tling 1
ficial 1
fac@@ 1
@ 1
enthusi@@ 1
ction@@ 1
vor@@ 1
inary 1
op 1
enter@@ 1
sud@@ 1
simultane@@ 1
disgu@@ 1
abdom@@ 1
expl@@ 1
ior 1
dispo@@ 1
bir@@ 1
weigh@@ 1
dically 1
ond 1
thetic 1
break@@ 1
applau@@ 1
bare@@ 1
jok@@ 1
distur@@ 1
your@@ 1
indivi@@ 1
sculp@@ 1
cated 1
ass@@ 1
loa@@ 1
after@@ 1
atical 1
tical 1
ae@@ 1
erous 1
cano@@ 1
lian 1
tum@@ 1
ro 1
capsi@@ 1
proper@@ 1
acciden@@ 1
mick@@ 1
ound 1
# 1
oud 1
expla@@ 1
recyc@@ 1
rew@@ 1
showca@@ 1
four@@ 1
exag@@ 1
chisel@@ 1
2x@@ 1
ctly 1
tti@@ 1
rapi@@ 1
xing 1
sel 1
ym@@ 1
heav@@ 1
ice@@ 1
plun@@ 1
ushed 1
fami@@ 1
narra@@ 1
cali@@ 1
grun@@ 1
part 1
flexi@@ 1
scram@@ 1
stron@@ 1
samp@@ 1
past@@ 1
fran@@ 1
chur@@ 1
particip@@ 1
sps 1
pleasan@@ 1
maneuver@@ 1
poo@@ 1
mex@@ 1
ican 1
stir@@ 1
sus 1
xiously 1
lowing 1
tast@@ 1
aband@@ 1
unny 1
eath 1
mas 1
tens 1
heal@@ 1
vis 1
vels 1
lee@@ 1
modi@@ 1
bei@@ 1
simult@@ 1
rious 1
sedly 1
sic 1
glee@@ 1
rhythm@@ 1
conne@@ 1
anti@@ 1
sep@@ 1
inted 1
brun@@ 1
tel@@ 1
enth@@ 1
mult@@ 1
strea@@ 1
elessly 1
needle@@ 1
nea@@ 1
dome@@ 1
thra@@ 1
contempla@@ 1
attat@@ 1
wre@@ 1
mely 1
chu 1
sic@@ 1
transf@@ 1
vege@@ 1
é 1
ei@@ 1
ena 1
eve 1
di 1
lau@@ 1
wai@@ 1
ener@@ 1
vacuu@@ 1
tow@@ 1
retrie@@ 1
table@@ 1
groom@@ 1
hung@@ 1
through@@ 1
scre@@ 1
qui@@ 1
wrest@@ 1
civ@@ 1
onary 1
confede@@ 1
classi@@ 1
cir@@ 1
scotch 1
hop@@ 1
sco@@ 1
troj@@ 1
sual 1
swee@@ 1
diss@@ 1
crosse 1
angular 1
wanted 1
atting 1
explo@@ 1
stap@@ 1
straigh@@ 1
ways 1
ounded 1
thens 1
secon@@ 1
mself 1
reo@@ 1
derly 1
atu@@ 1
icks 1
gli@@ 1
skat@@ 1
pronoun@@ 1
mc@@ 1
other@@ 1
proof 1
ev@@ 1
stain@@ 1
scribe 1
shar@@ 1
fing 1
submer@@ 1
commerci@@ 1
depic@@ 1
|@@ 1
put@@ 1
ush@@ 1
avo@@ 1
ices 1
uti@@ 1
enga@@ 1
loved 1
prop@@ 1
mur@@ 1
tick@@ 1
messa@@ 1
outh 1
cosm@@ 1
rup@@ 1
otic 1
motor@@ 1
ming@@ 1
phan@@ 1
spil@@ 1
bm@@ 1
purpo@@ 1
stin 1
atural 1
know@@ 1
gradu@@ 1
oppo@@ 1
tained 1
six@@ 1
inver@@ 1
smal@@ 1
ë@@ 1
etted 1
ceful 1
dem 1
quo@@ 1
transplan@@ 1
remod@@ 1
bad@@ 1
lean@@ 1
patri@@ 1
califor@@ 1
nic@@ 1
antic 1
orchestra@@ 1
stal 1
unexpe@@ 1
fically 1
sou@@ 1
figh@@ 1
stati@@ 1
contro@@ 1
cym@@ 1
archa@@ 1
uff@@ 1
è@@ 1
sym@@ 1
percus@@ 1
disa@@ 1
diver@@ 1
ppo@@ 1
satis@@ 1
casi@@ 1
ort@@ 1
peri@@ 1
simi@@ 1
rhyth@@ 1
mesm@@ 1
oran@@ 1
ye 1
nal 1
mari@@ 1
= 1
color@@ 1
rena@@ 1
elled 1
univer@@ 1
unin@@ 1
gym@@ 1
twink@@ 1
ught 1
cop@@ 1
logi@@ 1
hori@@ 1
pt 1
goof@@ 1
rhy@@ 1
[@@ 1
gas 1
reque@@ 1
aggre@@ 1
gerated 1
teen@@ 1
make@@ 1
oo 1
disapp@@ 1
unintelligi@@ 1
sati@@ 1
rupt 1
rol@@ 1
ones 1
spu@@ 1
rus@@ 1
oped 1
unic@@ 1
fortun@@ 1
rough@@ 1
rink@@ 1
intrigu@@ 1
devel@@ 1
fini@@ 1
stive 1
rect@@ 1
pop@@ 1
navig@@ 1
amon@@ 1
import@@ 1
read@@ 1
gue 1
ffing 1
happ@@ 1
clear@@ 1
eez@@ 1
alian 1
squi@@ 1
warded 1
indu@@ 1
fluff@@ 1
dism@@ 1
emb@@ 1
cov@@ 1
saf@@ 1
ient 1
oly 1
drib@@ 1
sig@@ 1
hard@@ 1
how@@ 1
incl@@ 1
congra@@ 1
skate@@ 1
partic@@ 1
pula@@ 1
quick@@ 1
dog@@ 1
hus@@ 1
yaw@@ 1
door 1
bably 1
hale 1
ffici@@ 1
itish 1
cee@@ 1
snork@@ 1
ef@@ 1
multicol@@ 1
adv@@ 1
spelun@@ 1
stor@@ 1
inform@@ 1
swir@@ 1
bbed 1
sues 1
gurg@@ 1
produ@@ 1
whil@@ 1
swal@@ 1
lowed 1
avoi@@ 1
colle@@ 1
throw@@ 1
ingui@@ 1
orn@@ 1
sex@@ 1
rd 1
exper@@ 1
wei@@ 1
mich@@ 1
bean 1
dfolded 1
viol@@ 1
iness 1
amer@@ 1
disab@@ 1
fede@@ 1
ra 1
testi@@ 1
fair@@ 1
stairs 1
road 1
ninj@@ 1
ood 1
practic 1
aer@@ 1
aerob@@ 1
atic 1
“ 1
” 1
mingly 1
fou@@ 1
titi@@ 1
collar@@ 1
cher 1
transp@@ 1
speci@@ 1
sky@@ 1
necess@@ 1
positi@@ 1
autom@@ 1
manufac@@ 1
compar@@ 1
secre@@ 1
cough@@ 1
progra@@ 1
vacu@@ 1
sele@@ 1
zoo@@ 1
crun@@ 1
worshi@@ 1
religi@@ 1
shampoo@@ 1
rever@@ 1
jet@@ 1
ext@@ 1
eval 1
rai@@ 1
tates 1
presen@@ 1
manipula@@ 1
stac@@ 1
accompani@@ 1
thick@@ 1
numb@@ 1
neath 1
dox 1
bie 1
