#version: 0.2
p ]</w>
[ p]</w>
n g</w>
m a
i ng</w>
ma n</w>
i s</w>
o n</w>
t h
p e
o u
a n
a r
l e</w>
i t
i n</w>
e s</w>
w o
pe r
an d</w>
s on</w>
per son</w>
th e</w>
o f</w>
e r</w>
l a
wo man</w>
s t
h o
b o
m e
o n
i r
i n
t o</w>
y ou
r e
you ng</w>
b a
t w
ar e</w>
c h
r a
tw o</w>
p le</w>
r o
g ir
r ou
t ing</w>
u s
bo y</w>
pe o
p la
peo ple</w>
i d
g rou
gir l</w>
grou p</w>
s o
a t</w>
a n</w>
w it
d o
wit h</w>
l l</w>
l o
e r
w a
i c
w h
d ing</w>
y ing</w>
s e
on e</w>
i l
t a
t e
t s</w>
d s</w>
s ho
me n</w>
k ing</w>
t o
e n</w>
s it
t le</w>
b y</w>
f o
l it
lit tle</w>
b e
l e
l i
d e
so me
k s</w>
s h
w n</w>
g e</w>
r i
a s</w>
c o
y s</w>
r u
st an
ho l
l s</w>
some one</w>
ch il
t i
h is</w>
g u
sit ting</w>
ba by</w>
i le</w>
wh ile</w>
pla ying</w>
i r</w>
u p</w>
w e
us ing</w>
e n
c k</w>
m e</w>
d i
th er</w>
p o
m o
p u
ho w</w>
w ing</w>
c a
w s</w>
ba ll</w>
st ra
m on
e d</w>
id e</w>
c e</w>
p s</w>
chil d</w>
e a
v e
th en</w>
ou t</w>
mon stra
de monstra
h er</w>
do wn</w>
v ing</w>
u r
gu y</w>
stan ding</w>
p a
hol ding</w>
g h
th e
er s</w>
c h</w>
f e
i t</w>
h a
s ide</w>
fo r
l y</w>
s k
us es</w>
e l
ou n
ar ing</w>
s ma
u m
r id
wa l
g e
sma ll</w>
t er</w>
n e
s s</w>
n s</w>
l ing</w>
d y</w>
u n
ou t
o ther</w>
we aring</w>
s e</w>
d re
ta l
s c
t es</w>
s s
re e</w>
c ou
f i
f a
lo o
d an
l ar
ra l</w>
so me</w>
lar ge</w>
p ing</w>
se ve
seve ral</w>
sho wing</w>
wo men</w>
k e</w>
t ting</w>
m s</w>
v es</w>
in to</w>
s t</w>
gir ls</w>
k i
f ro
p i
do ing</w>
th ro
j um
d d
wo r
a l</w>
fro m</w>
h an
re a
pla ys</w>
l er</w>
n o
g h</w>
ar d</w>
l es</w>
g a
ma le</w>
e x
v er</w>
c ro
sit s</w>
oun d</w>
k es</w>
u l
t r
a ge</w>
a t
o l
in g
sho wn</w>
ki d</w>
f r
th ree</w>
o m</w>
ar ound</w>
la dy</w>
id s</w>
b le</w>
rid ing</w>
v e</w>
s a
stan ds</w>
e t</w>
n ing</w>
an other</w>
k ids</w>
m ing</w>
h e</w>
o f
to dd
p ar
s w
c ing</w>
bo ys</w>
ro om</w>
h i
a p
todd ler</w>
fr on
i c</w>
hol ds</w>
fron t</w>
out side</w>
c u
the ir</w>
c k
c es</w>
demonstra tes</w>
t ra
a d
in e</w>
b u
per for
l ls</w>
ic e</w>
of f</w>
us h
chil dre
er e</w>
childre n</w>
fo o
th at</w>
' s</w>
be ing</w>
te a
c ar
ic ks</w>
s p
ti on</w>
s pe
n t</w>
co m
ch e
c on
tal king</w>
d er</w>
sho ws</w>
o ver</w>
v id
cou ple</w>
te d</w>
q u
re d</w>
han ds</w>
m us
t e</w>
ta ble</w>
demonstra ting</w>
p re
t ch
d ri
tr ying</w>
s no
ru ns</w>
h and</w>
ch a
t ball</w>
pi e
t ri
it e</w>
h ea
v er
sh ir
o l</w>
me r
wa ter</w>
do es</w>
c li
ba ck</w>
g o
g i
h as</w>
a b
in s</w>
g y
st ru
gh t</w>
wal king</w>
s i
b lo
l u
ra c
pla y
m p
ab out</w>
b la
li f
pla y</w>
g g
thro ws</w>
p e</w>
sw i
pie ce</w>
wal ks</w>
mus ic</w>
m b
wh ite</w>
o r</w>
el d</w>
t ur
jum ps</w>
wa s</w>
o r
o pe
rou gh</w>
c i
th rough</w>
la ying</w>
t ic
f loo
p ush
bla ck</w>
b i
lo ng</w>
s u
p ro
te en
ga me</w>
th ing</w>
se d</w>
l an
gy m</w>
floo r</w>
ex pla
spe a
dan cing</w>
cha ir</w>
g ra
b r
co o
do g</w>
sh e</w>
shir t</w>
ta kes</w>
e e
it s</w>
ru n
c lo
p ping</w>
bo t
g s</w>
ha ir</w>
pu ts</w>
pe r</w>
p rac
at te
to p</w>
r in
fo r</w>
v i
th ere</w>
rid es</w>
to r</w>
ma king</w>
n a
l ling</w>
ss es</w>
sh a
s h</w>
vid e
wo o
stru c
tal ks</w>
l ying</w>
le d</w>
atte mp
n d</w>
f ir
c e
the y</w>
se en</w>
ca r</w>
fe male</w>
n i
vide o</w>
ad ul
cro ss</w>
on s</w>
ma ch
swi m
ou r</w>
fi eld</w>
dan ce</w>
bo ard</w>
a g
in d</w>
ver y</w>
cli mb
s ur
s sed</w>
ic k</w>
st and</w>
run ning</w>
lo w</w>
t er
te n
s es</w>
p ho
wh o</w>
cro w
ba sk
g la
fo l
st age</w>
ap p
ing s</w>
some thing</w>
tri es</w>
sno w</w>
m il
mach ine</w>
ch es</w>
sh ing</w>
mer a</w>
ca mera</w>
pu tting</w>
to ge
toge ther</w>
t h</w>
la u
a l
sk i
in ing</w>
ho r
f fe
pa in
gu ys</w>
hea d</w>
in side</w>
me nt</w>
f li
a ted</w>
s l
it ch
c le
dre ssed</w>
crow d</w>
a cross</w>
wor k
prac tic
st re
ha ving</w>
pho n
mo ves</w>
c er</w>
wa tch
st a
f our</w>
wa y</w>
lu e</w>
g re
ol der</w>
b un
r ing</w>
st u
in di
ge tting</w>
sk a
bask e
perfor ming</w>
b lue</w>
wor king</w>
co r
c la
c le</w>
p icks</w>
us e</w>
st ar
grou nd</w>
ch ing</w>
b ar
in struc
po r
de d</w>
h el
b ing</w>
t ch</w>
f il
teen age</w>
thro wing</w>
st o
lau gh
ma r
hi gh</w>
for e</w>
be fore</w>
se ated</w>
ba se
pla ces</w>
f u
do or</w>
loo ks</w>
s it</w>
foo tball</w>
an s</w>
mo ving</w>
baske tball</w>
s ing</w>
ge ts</w>
ba ck
so c
lo w
f la
d le</w>
on to</w>
g ol
d ar
to r
gi ving</w>
foo d</w>
tea m</w>
ea ch</w>
ma kes</w>
k itch
kitch en</w>
ffe re
di ffere
b e</w>
swim ming</w>
le a
fa ce</w>
j u
ing ing</w>
de sc
differe nt</w>
i l</w>
tea ms</w>
base ball</w>
be h
l f</w>
e y
beh ind</w>
sno w
po ol</w>
x t</w>
t u
pa per</w>
k ne
vid u
ma n
indi vidu
bo at</w>
phon e</w>
ic king</w>
ic k
be a
loo king</w>
we i
s qu
c t</w>
jum ping</w>
soc cer</w>
ba l
f ri
fe w</w>
desc ri
lif ts</w>
dri ving</w>
b s</w>
ar s</w>
d o</w>
ea ting</w>
bi ke</w>
ar i
play er</w>
ne xt</w>
adul t</w>
perfor ms</w>
expla ins</w>
h its</w>
ar ds</w>
pe d</w>
ou s</w>
e y</w>
e le
t y</w>
bot tle</w>
ro pe</w>
a r</w>
to ol</w>
m er</w>
d rin
t le
spea king</w>
push es</w>
pa ir</w>
attemp ts</w>
p ou
m i
bun ch</w>
b rea
y cle</w>
us h</w>
ta king</w>
d ra
b and</w>
a d</w>
jum p</w>
s le
bo w
k ni
r t</w>
c ra
com pe
l ine</w>
wh en</w>
vi e
pu lls</w>
li es</w>
ea r</w>
c ks</w>
fir e</w>
p in
expla ining</w>
j e
v ari
wal k</w>
blo ws</w>
woo d</w>
w er</w>
t ru
hor se</w>
gh ts</w>
sh es</w>
la ys</w>
f e</w>
climb ing</w>
spea ks</w>
play ers</w>
watch ing</w>
practic ing</w>
w ard</w>
t ree</w>
st s</w>
ex er
r s</w>
wh ere</w>
push ing</w>
g ing</w>
exer ci
k icks</w>
it ting</w>
u m</w>
tur ns</w>
the m</w>
ss ing</w>
go ing</w>
cu tting</w>
a th
a c
pu t</w>
gla sses</w>
y el
g ar
kni fe</w>
an t</w>
vari ous</w>
sur f
pe s</w>
be d</w>
a u
stre et</w>
gre en</w>
bu il
x ing</w>
s mo
o b
w i
w ards</w>
ope ns</w>
gol f</w>
ma ke</w>
ath le
at e</w>
individu al</w>
h u
ge t</w>
d u
bo dy</w>
ap pe
ta l</w>
st ing</w>
ic h</w>
st e
s low
d en</w>
dar k</w>
w in
sp ra
ope n</w>
man y</w>
d e</w>
slow ly</w>
se t</w>
be n
w ra
i on</w>
ho o
h ou
c an</w>
ba r</w>
s er
ro ck</w>
f ing
an ing</w>
st ic</w>
wh at</w>
me at</w>
ol d</w>
br ush
tra ck</w>
re cor
d ru
hi m</w>
dan ces</w>
a ll</w>
or s</w>
se lf</w>
j o
b les</w>
me n
b ro
a long</w>
th is</w>
j a
sw ings</w>
di s
d er
ar ti
ti ons</w>
laugh ing</w>
ul ly</w>
tru ck</w>
ju gg
f ully</w>
ho ck
c tor</w>
me tal</w>
en d</w>
ba lls</w>
st ri
ma ss
hock ey</w>
d ir
blo wing</w>
an ge</w>
wh ich</w>
r ide</w>
h itting</w>
che f</w>
c ho
w re
st er</w>
sc re
li ke</w>
ic ycle</w>
gi ves</w>
be g
a ir</w>
gla ss</w>
en t</w>
lif ting</w>
ski ing</w>
hou se</w>
ele c
cu t</w>
t t
b er</w>
m ul
c rea
c at</w>
at ta
y ard</w>
t ro
pre p
f f
out h</w>
m outh</w>
m id
g lo
do ors</w>
b oun
ne ws</w>
climb s</w>
appe ars</w>
wa ll</w>
t ly</w>
n ar
go es</w>
to y</w>
par a
mo ther</w>
ic al</w>
fe et</w>
coo king</w>
ar m</w>
po in
g es</w>
el ing</w>
c oun
v a
fa mil
clo se</w>
wh ee
tch es</w>
star ts</w>
r ying</w>
h at</w>
cu ts</w>
adul ts</w>
d ou
b l
ir e</w>
c ur
ar ms</w>
wa tch</w>
n er</w>
mid dle</w>
g en
work er</w>
pu lling</w>
id es</w>
g n</w>
fe e
famil y</w>
ti me</w>
teen ag
s inging</w>
demonstra tion</w>
p an
wor ks</w>
p ped</w>
ob je
nar ra
er ing</w>
sho w</w>
d ge</w>
vie w</w>
hea v
g o</w>
fli ps</w>
te en</w>
sle e
ru b
ha ve</w>
arti st</w>
hol d</w>
ch ed</w>
a s
fo re
wa shing</w>
s por
an i
tur e</w>
sp ins</w>
en ce</w>
di sc
buil ding</w>
wor k</w>
st ick</w>
fi shing</w>
fa st</w>
cou ch</w>
bo o
w r
pla stic</w>
fi sh</w>
d a
c ir
attemp ting</w>
app lying</w>
ti ple</w>
t ou
bea ch</w>
yel low</w>
qu i
mul tiple</w>
gu it
app lies</w>
po le</w>
h ic
d ly</w>
co lo
ci al</w>
hi ll</w>
cle aning</w>
pe t</w>
gg ing</w>
ch an
a f
woo den</w>
tle ss</w>
sho o
shir tless</w>
s led</w>
l ly</w>
bo ar
be er</w>
ve hic
su it</w>
f in
b es</w>
descri bing</w>
pre par
m in
h eld</w>
ck et</w>
c an
y o
wre st
perfor m</w>
ne e
le t</w>
ar e
sho r
s mil
pin k</w>
p an</w>
k ee
c king</w>
wei ght</w>
ti e</w>
r y</w>
n is</w>
mo ve</w>
heav y</w>
fa lls</w>
bow l</w>
to ri
sa il
a ts</w>
ten nis</w>
s k</w>
ru n</w>
laugh s</w>
k er</w>
id ing</w>
elec tri
do gs</w>
bo x</w>
a ga
guit ar</w>
f t</w>
con c
bu t</w>
ba lan
un der</w>
t it
sk i</w>
prep aring</w>
m ic
electri c</w>
dri ves</w>
for m</w>
v o
practic es</w>
or ange</w>
k e
it ing</w>
h it</w>
d ur
fu ll</w>
e g
bal lo
vehic le</w>
tra ctor</w>
sa w</w>
ro lling</w>
obje ct</w>
br ush</w>
beg ins</w>
pe n
p ic
m oun
ha m
eg g</w>
di o</w>
ska ting</w>
sh ar
pou rs</w>
mer s</w>
k ed</w>
b icycle</w>
af ter</w>
un i
t y
ska te
ro lls</w>
re moves</w>
pain t</w>
li ving</w>
k icking</w>
ea ts</w>
cou rt</w>
so ng</w>
b an
we a
t ter</w>
sc ra
r an
p lan
mo tion</w>
le g</w>
descri bes</w>
ba g</w>
pla cing</w>
p p
in st</w>
dur ing</w>
athle te</w>
aga inst</w>
y a
work ers</w>
wh e
prepar es</w>
par k</w>
on al</w>
mic ro
foo t</w>
dou gh</w>
car ds</w>
v ice</w>
t ire</w>
sw inging</w>
st icks</w>
in ning</w>
for ward</w>
u b
tr y</w>
ope ning</w>
li ght</w>
l ou
bi g</w>
m p</w>
ir s</w>
gra ss</w>
en ds</w>
disc us
sho t</w>
ma les</w>
lo t</w>
l in
h ar
gy m
fir st</w>
d les</w>
cra w
to wards</w>
out door</w>
di ving</w>
a ls</w>
w ere</w>
ta ke</w>
ro l
glo ves</w>
watch es</w>
rea ding</w>
pain ting</w>
out doors</w>
n um
ic i
gym na
di es</w>
b ur
are a</w>
whee l</w>
t ers</w>
sh e
s ca
ri ght</w>
pie ces</w>
ne w
mass ag
m self</w>
si an</w>
mo m</w>
le gs</w>
la r</w>
tu tori
hi mself</w>
e ls</w>
be e</w>
atta ched</w>
tutori al</w>
se ts</w>
sc ho
s an
ro ad</w>
rea d</w>
li ghts</w>
in stru
han ging</w>
fol lo
fi gh
exerci se</w>
whe el
wei ghts</w>
v ed</w>
sa ys</w>
re por
gen tle
fin i
fa ther</w>
e en</w>
compe tit
c lu
c ed</w>
bu ll</w>
us ed</w>
s po
ra ce</w>
n ear</w>
ho le</w>
ca p</w>
c ard</w>
back ground</w>
we d</w>
t to
ss i
scho ol</w>
p ush</w>
o th
h e
ca ke</w>
b ir
a sian</w>
ub a</w>
u ps</w>
s la
rub bing</w>
li gh
it e
hel me
com es</w>
tw een</w>
sc uba</w>
li st
gra bs</w>
blo w</w>
ta tto
scre en</w>
s coo
a way</w>
wa x</w>
tea ching</w>
shor ts</w>
p icking</w>
me d</w>
m u
la p
in ter
d ro
te lls</w>
pla ce</w>
num ber</w>
instruc tions</w>
id e
be tween</w>
ti c</w>
stu dio</w>
sho e</w>
men ts</w>
k ar
ch i
ro w</w>
rea dy</w>
l on</w>
jugg ling</w>
co l
brush ing</w>
bot h</w>
a ting</w>
se tting</w>
k no
ick ly</w>
i s
con struc
bar be
al ly</w>
vo ice</w>
s low</w>
recor ding</w>
re pe
mo tor
la dies</w>
fol ding</w>
wa ter
qu ickly</w>
of f
kne eling</w>
b ble</w>
v ers</w>
thro w</w>
tch ing</w>
r e</w>
p les</w>
in f
ti ve</w>
sp inning</w>
pu ll</w>
pou ring</w>
pi pe</w>
o per
list en
ham mer</w>
g ear</w>
g as</w>
fing ers</w>
f f</w>
un der
t an
han d
g er</w>
e v
bl on
ballo on</w>
u p
sha ving</w>
inf ant</w>
de vice</w>
th es</w>
ta ge</w>
sc en
s na
pla te</w>
gentle man</w>
e mp
c ts</w>
w ine</w>
sl ic
pu n
mo b
fol ds</w>
ch u
au di
ad ju
z e</w>
stu de
st or
k n
it y</w>
fu l</w>
ty pe</w>
sl ide</w>
ha ir
dre ss</w>
d um
construc tion</w>
audi ence</w>
z z
ste ps</w>
ski er</w>
s wing</w>
ru bs</w>
ra i
play ed</w>
lap se</w>
il s</w>
i gn</w>
grou ps</w>
e dge</w>
drin king</w>
da y</w>
ap ple</w>
a bo
wor d</w>
the red</w>
spor ts</w>
sho ve
se n
se e
s ings</w>
rea ds</w>
m po
e gg
drin ks</w>
con ta
boo k</w>
ba thro
a te
wa ves</w>
tal k</w>
t ice</w>
surf ing</w>
sk is</w>
s in
ro a
prac tice</w>
motor c
l ers</w>
in door</w>
fore ign</w>
fee ding</w>
ey es</w>
egg s</w>
dra wing</w>
cou ples</w>
ca tches</w>
v ol
micro phone</w>
bow ling</w>
ben ch</w>
us t</w>
in er</w>
gg les</w>
fli p</w>
e fully</w>
dir t</w>
bathro om</w>
tatto o</w>
snow y</w>
sl ides</w>
se at</w>
s o</w>
s ide
po sit
o ce
oce an</w>
ga thered</w>
c tion</w>
be lly</w>
b ra
s and</w>
ma s</w>
lif t</w>
kar ate</w>
ic an</w>
ani ma
ve red</w>
v en</w>
swi ms</w>
st y
slee ping</w>
shar pe
pp y</w>
hel ps</w>
abo ve</w>
x es</w>
ur e</w>
stan ce</w>
pre ten
o d</w>
k a
g ro
fri s
c ers</w>
ad ver
wrest ling</w>
some body</w>
po l
l led</w>
clo thes</w>
che e
car efully</w>
brush es</w>
ba ge</w>
ta in</w>
st i
spra y</w>
sho p</w>
poin ts</w>
para chu
n y</w>
individu als</w>
ey e
ev ent</w>
dd er</w>
ca me
bo xing</w>
b us
z es</w>
yo u</w>
smil ing</w>
sa il</w>
s co
rol ler</w>
po wer</w>
me chan
m es</w>
it es</w>
ho t</w>
gu age</w>
e l</w>
co vered</w>
cla ss</w>
b ul
wra pping</w>
we l
ti al</w>
teenag er</w>
ri es</w>
pic ture</w>
lan guage</w>
la ke</w>
ho se</w>
ho me</w>
fri ends</w>
fing er</w>
drin k</w>
crea m</w>
compe ting</w>
vi si
tur ning</w>
s un
re mo
mar ching</w>
kne els</w>
helme t</w>
hel ping</w>
fil ming</w>
dri ll</w>
bo w</w>
adver ti
t ying</w>
st ring</w>
hea d
f lo
ey e</w>
dru m</w>
di um</w>
co stu
wa shes</w>
st r
smo king</w>
par t</w>
loo k</w>
ga tor</w>
el der
elder ly</w>
coo ki
com p
back wards</w>
va cu
tic i
repe ate
repeate dly</w>
li t</w>
gar bage</w>
f lu
c up</w>
bu tt
te ch
swim mers</w>
nee dle</w>
fris bee</w>
fi c</w>
dir e
car rying</w>
ba t</w>
tra mpo
re moving</w>
narra tes</w>
ma ke
le ans</w>
la dder</w>
k ick</w>
j ust</w>
en jo
competit ion</w>
trampo line</w>
star t</w>
sha kes</w>
s we
s pa
listen ing</w>
f ly</w>
f it</w>
ee p</w>
di gging</w>
cou r
ben ds</w>
barbe ll</w>
z ed</w>
wr iting</w>
te lling</w>
sha king</w>
sa us
s word</w>
phon es</w>
pen ci
penci l</w>
mob ile</w>
fir e
er y</w>
cur ling</w>
brea k</w>
ur ant</w>
to o
ti es</w>
qui d</w>
ne ss</w>
mer cial</w>
li quid</w>
fli pping</w>
de ck</w>
dan cers</w>
coo k</w>
c les</w>
blon de</w>
al li
tw ir
tw i
ten der</w>
ta bles</w>
ro pes</w>
re sta
per s
oth ers</w>
ne ck</w>
mar tial</w>
ma t</w>
lou d</w>
i es</w>
fi ve</w>
clu b</w>
cir cle</w>
c r
bro wn</w>
b ri
tch er</w>
t ar
swi m</w>
sail ing</w>
pi an
pian o</w>
per s</w>
p ick</w>
p h
make up</w>
ma sk</w>
le ar
l t</w>
com mercial</w>
co w
cle an</w>
che ering</w>
car ving</w>
bul l
bot to
b bles</w>
z er</w>
wheel chair</w>
vol le
tou ches</w>
t in
so l
ska tes</w>
sh u
resta urant</w>
ma l
f low
en ts</w>
dru ms</w>
costu me</w>
con tro
bot t
be at</w>
alli gator</w>
tor s</w>
teenag ers</w>
stude n
studen ts</w>
st ro
mus ici
m ming</w>
ka ya
for th</w>
clo th</w>
car pet</w>
botto m</w>
su b
side walk</w>
instruc tor</w>
instru ment</w>
hor ses</w>
ha lf</w>
ha d</w>
g ed</w>
emp ty</w>
di ver</w>
d ers</w>
c rac
boun ces</w>
boar ding</w>
be side</w>
bask et</w>
b b
win do
uni form</w>
tra f
traf fic</w>
rou nd</w>
pe n</w>
n ed</w>
la wn</w>
jugg les</w>
g rin
f l
bar tender</w>
su c
sna ke</w>
ri st
po ng</w>
motorc ycle</w>
ma ns</w>
fu n</w>
fa c
f lying</w>
er t</w>
dro ps</w>
de sk</w>
d y
cu lar</w>
craw ling</w>
ch ur
ce ll</w>
c tive</w>
c rying</w>
as ks</w>
ag ed</w>
wi th
par tici
la p</w>
h er
exerci ses</w>
cour se</w>
co a
che st</w>
che er</w>
ul a</w>
u s</w>
t ine</w>
si gn</w>
se ment</w>
rist mas</w>
po t</w>
pain ts</w>
ne w</w>
ma de</w>
le ft</w>
lau gh</w>
k ite</w>
gu e</w>
g ri
g l
conc ert</w>
cla ss
ch ristmas</w>
w n
w ind</w>
t v</w>
sin k</w>
sho rt</w>
sh ou
repor ter</w>
re te</w>
m b</w>
fr ying</w>
fla t</w>
fee ds</w>
balan cing</w>
we t</w>
th read</w>
stra i
ss y</w>
rou tine</w>
rin k</w>
ra cing</w>
pu lled</w>
pro per</w>
moun tain</w>
massag ing</w>
mass age</w>
ja cket</w>
gol f
cow boy</w>
conc rete</w>
co in</w>
chur ch</w>
ce ss
adverti sement</w>
t ter
stor e</w>
shoo ts</w>
sho es</w>
sh i
sc is
scis so
rou n
no se</w>
n o</w>
j et</w>
i f</w>
ge e</w>
foo tage</w>
d r
co w</w>
bott les</w>
wea ther</w>
ti gh
sl iding</w>
sk il
pla ced</w>
ni ght</w>
mechan ical</w>
la un
en ga
dri ver</w>
d room</w>
d ad</w>
coun ter</w>
ck ed</w>
c y
anima l</w>
z o
y ball</w>
volle yball</w>
to ward</w>
ti onal</w>
ti ght</w>
so f
sh ed</w>
ri ver</w>
pu p
pers ons</w>
f en
do zer</w>
demonstra te</w>
co ming</w>
cli ff</w>
car t</w>
car s</w>
bo b
be droom</w>
ar ts</w>
wa ve</w>
ti ed</w>
t re
t on
smil es</w>
shoo ting</w>
se l
qu e</w>
pu r
mus ical</w>
me lon</w>
ffe e</w>
e qui
e p</w>
wa ving</w>
ti on
she et</w>
scisso rs</w>
posit ion</w>
pan ts</w>
lo a
follo wed</w>
fil led</w>
fi ght</w>
dis plays</w>
cou ra
colo red</w>
co ffee</w>
woo ds</w>
with out</w>
tra pe
tor y</w>
sur roun
st ea
squ a
so rt</w>
si x</w>
se wing</w>
sc rea
rea ches</w>
p il
ma tch</w>
ma ch</w>
kne es</w>
in ser
in ha
hi gh
hel p</w>
fri end</w>
en coura
di vers</w>
clo thing</w>
bun gee</w>
ar t</w>
ap pro
z ing</w>
windo w</w>
u e</w>
t il
sto mach</w>
spra ys</w>
spo on</w>
spe cial</w>
smo ke</w>
si um</w>
sc ar
pro te
po ta
pi g</w>
no t</w>
m ir
le ad
lan e</w>
k et</w>
h ur
gymna sium</w>
col le
bull dozer</w>
bu cket</w>
bea u
a mer
trape ze</w>
te le
suc cess
squ ats</w>
skate board</w>
pro ce
po li
partici pa
p itch
i ma
her self</w>
f ru
e at</w>
discus sing</w>
cli mb</w>
class room</w>
c re
bu bble</w>
be e
ar ran
sk ate</w>
scen e</w>
pre sses</w>
pre sen
par ty</w>
p it
p han
off ice</w>
m ush
lo g</w>
k in</w>
hu ge</w>
gra ssy</w>
fini shes</w>
ex c
de co
deco ra
con te
che er
bal let</w>
ag es</w>
adju sts</w>
too ls</w>
to sses</w>
t on</w>
pre ssing</w>
pe tting</w>
oper ating</w>
o il</w>
mo wer</w>
kee per</w>
h ard</w>
e ts</w>
d ry</w>
comp le
com men
che wing</w>
c en
amer ican</w>
a li
wh i
water melon</w>
ve ge
tr icks</w>
to il
ti mes</w>
sto ve</w>
spra ying</w>
s lo
s il
pro du
perfor mer</w>
pe ts</w>
me a
le aning</w>
k ind</w>
k ers</w>
it i
instruc ting</w>
ick ed</w>
gar age</w>
fac tory</w>
ele phan
com pu
cli ps</w>
cle ar</w>
cla pping</w>
back yard</w>
appro a
yo g
wra ps</w>
we l</w>
vacu um</w>
un icycle</w>
tur es</w>
toil et</w>
tech ni
t un
st ed</w>
squ ee
s se</w>
s er</w>
ro cks</w>
rea lly</w>
p on
lear ning</w>
le n
fil ms</w>
fa ces</w>
do min
di ve</w>
ch er</w>
ce ment</w>
bus y</w>
boun cing</w>
blo wer</w>
attemp t</w>
an n
yog a</w>
under water</w>
tu b</w>
tan k</w>
ta pping</w>
surf er</w>
sun glasses</w>
sub stance</w>
sty le</w>
stri p</w>
ste p</w>
sha ves</w>
sh eep</w>
re move</w>
p ment</w>
n ch</w>
ma il</w>
lead ers</w>
lea f</w>
hair ed</w>
equi pment</w>
cho pping</w>
brea ks</w>
bo ards</w>
wa iting</w>
visi on</w>
teen s</w>
sti ll</w>
squ are</w>
shu ff
see ms</w>
se e</w>
sa fe
recor ds</w>
pro fe
n u
mir ro
m it
lea ves</w>
l d</w>
inter vie
il y</w>
h ee
golf er</w>
eye bro
cro sse</w>
compu ter</w>
came l</w>
c ting</w>
c el
butt on</w>
boar der</w>
ann oun
a tes</w>
you th</w>
you n
va ul
tele vision</w>
ta ps</w>
success fully</w>
stre tching</w>
stre tches</w>
spe ed</w>
sel ves</w>
scoo ter</w>
saus age</w>
safe ty</w>
ra mp</w>
on ly</w>
on ing</w>
na ils</w>
massag es</w>
lo ck</w>
la crosse</w>
l er
indi an</w>
i d</w>
hoo p</w>
ha ppy</w>
enjo ying</w>
discus ses</w>
chee se</w>
c rou
br an
be ans</w>
wr ites</w>
tu be</w>
the m
them selves</w>
ta pe</w>
ta ll</w>
star ting</w>
slic es</w>
ser ies</w>
se g
se con
s ly</w>
ro ll</w>
remo te</w>
pu m
preten ds</w>
p ans</w>
n ea
ite m</w>
i st</w>
fil ling</w>
figh ting</w>
craw ls</w>
co at</w>
cheer leaders</w>
che ers</w>
bur ning</w>
bir d</w>
vi ol
tra ining</w>
ter i
te n</w>
surroun ded</w>
st one</w>
sk y</w>
s ing
rid ge</w>
oun ds</w>
lo ws</w>
la d</w>
kne e</w>
kaya k</w>
gu m</w>
gre y</w>
go at</w>
fol d</w>
fe males</w>
f re
ex ten
dra ws</w>
bo r
be nt</w>
athle tic</w>
ad ds</w>
tra sh</w>
techni que</w>
sto ps</w>
st aring</w>
so a
snow mobile</w>
sho ts</w>
pur ple</w>
pun ching</w>
po st
pla t
parachu te</w>
out fit</w>
ne t</w>
n ap
mirro r</w>
l l
instru ments</w>
in ner</w>
in doors</w>
he ard</w>
gro o
fol ded</w>
fi gu
f un
exerci sing</w>
d ding</w>
cooki es</w>
cle ans</w>
ba tter</w>
wel ding</w>
we ll</w>
tw hee
todd lers</w>
th day</w>
stru ggles</w>
spe e
s y
roa sting</w>
re ce
qu e
prote ctive</w>
profe ssi
poin ting</w>
pan cake</w>
no i
mi xing</w>
li d</w>
gu n</w>
go ng</w>
for ms</w>
fla sh
fa ll</w>
ex a
cu te</w>
crea ting</w>
conta iner</w>
compe te</w>
car twhee
ya w
wa ys</w>
tic k
secon d</w>
sa me</w>
rece i
plat form</w>
pil low</w>
pa dd
new s
me mb
mar sh
li c</w>
head phones</w>
h ula</w>
gra ph
fil ls</w>
dri ve</w>
de ad</w>
dar t</w>
crac ks</w>
cr ick
cli p</w>
cle an
bo x
bir thday</w>
ta p</w>
t rea
swim mer</w>
sur face</w>
sto od</w>
st um
st ir
scra bble</w>
s nee
professi onal</w>
pota to</w>
p ile</w>
n e</w>
mi ll</w>
mea sur
me et</w>
k en</w>
hor se
flu te</w>
flow ers</w>
elec tr
dan cer</w>
crick et</w>
coo ks</w>
chi se
ca st</w>
c ted</w>
b lan
wor ds</w>
win ter</w>
vege tables</w>
twir ls</w>
tun e</w>
tr ick</w>
ton gue</w>
sk y
shove l</w>
shir ts</w>
s at</w>
pro per
preten ding</w>
po dium</w>
musici ans</w>
mo p</w>
lin es</w>
le ss</w>
in fla
in e
ic s</w>
han gs</w>
figh ters</w>
fi xing</w>
fa bri
fabri c</w>
dar ts</w>
cla ps</w>
cel l
ca tcher</w>
ca lf</w>
brea d</w>
be ard</w>
bar row</w>
au gh
at m</w>
as se
x e</w>
wra pped</w>
wi pes</w>
whi st
wa xing</w>
te e
sta dium</w>
squa tting</w>
sp rin
shou l
re fe
pro po
prep are</w>
pi zz
p ri
on ic</w>
ite ms</w>
instruc ts</w>
fa lling</w>
fa cing</w>
f it
er man</w>
di ves</w>
d augh
coun ting</w>
ch ick
can dles</w>
blan ket</w>
beau ti
b in
an g
a xe</w>
viol in</w>
un ti
unti l</w>
thro wn</w>
tea cher</w>
spe d</w>
si g
sa lon</w>
sa lad</w>
pizz a</w>
pitch er</w>
pe eling</w>
pa st</w>
p ple</w>
o ver
new sca
narra ting</w>
na il</w>
mi x
ma teri
lin ed</w>
lif ted</w>
lan ds</w>
l un
han dle</w>
gi ve</w>
fli es</w>
f ence</w>
elephan t</w>
dri bbles</w>
cro sses</w>
contro l</w>
che ss</w>
ch ar
br icks</w>
br ick</w>
bal d</w>
approa ches</w>
a tion</w>
yel ling</w>
tri mming</w>
sa u
s me
ro ta
ro d</w>
ra p
ra n</w>
proper ly</w>
pol o</w>
pa sses</w>
pa ss</w>
mon ey</w>
ligh ting</w>
li ed</w>
gri ll</w>
gar den</w>
ga th
f ra
electr onic</w>
daugh ter</w>
cro ssing</w>
cen ter</w>
car ries</w>
c y</w>
bi es</w>
balan ces</w>
athle tes</w>
zo o</w>
y er</w>
wei gh
tra ve
tra in</w>
tor ch</w>
th um
tee th</w>
t te</w>
sta tion</w>
sp reading</w>
soa p</w>
san d
sail boat</w>
rai ses</w>
po ker</w>
pa ck</w>
p y</w>
p icked</w>
mon tage</w>
marsh mal
mar bles</w>
lo ts</w>
j er
hand stand</w>
for ma
f ting</w>
de ep</w>
chick en</w>
ca tch</w>
bob sled</w>
bo ats</w>
blo ck</w>
ben ding</w>
beauti ful</w>
ba bies</w>
ar y</w>
adju sting</w>
a ssi
y ar
work out</w>
wea ving</w>
v en
tt ers</w>
tro du
to ssing</w>
to es</w>
ti le</w>
strai gh
smo kes</w>
sa ying</w>
s ounds</w>
rub ber</w>
re c
push ed</w>
pre ss</w>
o s</w>
li ps</w>
in trodu
ic a</w>
grin der</w>
gra b
ge ra
fru it</w>
fl our</w>
fe ed</w>
di sh</w>
de li
d on
cooki e</w>
coo ked</w>
com bing</w>
clo sed</w>
cir cular</w>
cha irs</w>
buil d</w>
ballo ons</w>
yel ls</w>
yar n</w>
win d
up side</w>
u ght</w>
tur n</w>
trea d
tr an
ti ss
th in</w>
ta il</w>
t ty</w>
stu ff
st icking</w>
slic ing</w>
scen es</w>
scar a</w>
re di
pun ches</w>
po ps</w>
par ts</w>
par a</w>
pain tball</w>
pa th</w>
news paper</w>
ma scara</w>
le y</w>
la wn
l ler</w>
kee ps</w>
k y</w>
ir on</w>
instruc tional</w>
ing redi
hu man</w>
hoo d</w>
ha ng</w>
gera tor</w>
flash light</w>
figu re</w>
dy e</w>
dri ve
dr il
coun try</w>
conte st</w>
con ver
coa ch</w>
clo se
c tions</w>
c ru
c ries</w>
balan ce</w>
ba g
asse mb
app lied</w>
app les</w>
al one</w>
zz le</w>
wra p</w>
tru m
tar get</w>
stir ring</w>
sit e</w>
s ides</w>
ro of</w>
pu mp
pin ball</w>
pho to
pa ck
or g
moun t</w>
materi al</w>
ligh ter</w>
l icks</w>
ir oning</w>
il ing</w>
har ness</w>
har mon
ha ll</w>
gg ling</w>
ga ther</w>
fit ness</w>
fen cing</w>
f id
di g</w>
conta ct</w>
car ri
ca ge</w>
be en</w>
bb ling</w>
b are</w>
app ly</w>
x o
w e</w>
tread mill</w>
th s</w>
su its</w>
su cking</w>
stri kes</w>
sol di
sharpe ning</w>
se par
sco tch</w>
re fri
refri gerator</w>
post al</w>
po p</w>
pin ea
para sailing</w>
pa ssing</w>
pa irs</w>
o ri
o p
o ms</w>
mu d</w>
mon o
lou dly</w>
laun dry</w>
l low</w>
in es</w>
ici an</w>
harmon ica</w>
ge st
f le
e mb
dru m
drive way</w>
dis play</w>
con tin
con ne
can o
ca l
ba gs</w>
b room</w>
ar ded</w>
a x</w>
a fr
youn ger</w>
w ire</w>
w hole</w>
ver ing</w>
v al</w>
ush i</w>
tt i</w>
trum pet</w>
ti me
tea ches</w>
st irs</w>
spor t</w>
slo pe</w>
sha ped</w>
s ushi</w>
refe ree</w>
ra w</w>
pu mp</w>
pre ss
p lo
mus cular</w>
ligh tly</w>
le ts</w>
kn itting</w>
k ey</w>
it ed</w>
ingredi ents</w>
in te
id er</w>
hu dd
go al</w>
gh e
gen tly</w>
gath ering</w>
fla me</w>
ex per
en g
d ic
bor n</w>
b le
appe ar</w>
ani sh</w>
wheel barrow</w>
we red</w>
we ars</w>
w ers</w>
un seen</w>
twi sts</w>
tou ching</w>
to wel</w>
stro ke</w>
stra pped</w>
sprin k
spe c
spa ghe
spaghe tti</w>
shar p</w>
seg way</w>
scre w</w>
sca l
sa xo
ro de
rode o</w>
qu ar
produ ct</w>
pol ice</w>
poin t</w>
plan e</w>
pic tures</w>
pe els</w>
p lu
ob ser
mush room</w>
m bo
m ba
lea ther</w>
lea ding</w>
ki ss</w>
k ick
k ey
ir d</w>
inser ts</w>
gol d</w>
fun ny</w>
follo wing</w>
figh ter</w>
cy mba
c ity</w>
boun ce</w>
boar ders</w>
bi kes</w>
ban gs</w>
ba th</w>
ba t
as king</w>
afr ican</w>
a mount</w>
wre nch</w>
visi ble</w>
uni forms</w>
time lapse</w>
sto p</w>
sp anish</w>
sof a</w>
snee zes</w>
sle dding</w>
shor e</w>
se a</w>
s ound</w>
rid er</w>
r ful</w>
po ly</w>
on es</w>
obje cts</w>
new born</w>
narra tor</w>
musici an</w>
mi xes</w>
ma g
lawn mower</w>
ki sses</w>
k il
in a</w>
i ons</w>
hu gging</w>
h un
gi ven</w>
follo ws</w>
f ur
f ea
f at</w>
eyebro ws</w>
e i
di ps</w>
colo rful</w>
cir cles</w>
cho ps</w>
che ws</w>
bu tcher</w>
bee keeper</w>
ban ging</w>
ba se</w>
b ite</w>
ad ding</w>
z or</w>
work shop</w>
wa r</w>
w ide</w>
vi l</w>
vacu um
te ns</w>
te ning</w>
t ment</w>
su p
star es</w>
sta ck</w>
spec ta
se ction</w>
re w</w>
ra zor</w>
pup pet</w>
proce ss</w>
pinea pple</w>
pi er
perfor man
performan ce</w>
off ic
offic er</w>
o y
mono poly</w>
mo r
mil k</w>
loa ding</w>
l in</w>
inha ler</w>
in du
il ity</w>
hu gs</w>
h y
gre at</w>
gra y</w>
glo ved</w>
fa r</w>
f ree</w>
en a</w>
do wn
dis playing</w>
dis played</w>
crow ded</w>
cor ner</w>
con du
com bs</w>
clean er</w>
ca p
bu bbles</w>
bl in
be lt</w>
bar ber</w>
bal ler
ar row</w>
wrest le</w>
tiss ue</w>
surf s</w>
surf ers</w>
stum es</w>
stude nt</w>
stri al</w>
strai ght</w>
str a</w>
slee p</w>
skil let</w>
ski ers</w>
shoo t</w>
se a
saxo phone</w>
saus ages</w>
recor ded</w>
re v
pup pets</w>
pu b
pub lic</w>
pon d</w>
par king</w>
p r
p our</w>
p it</w>
newsca ster</w>
mal let</w>
m y</w>
li st</w>
li p</w>
la te</w>
key board</w>
ine ss</w>
indu strial</w>
ho p
grab bing</w>
g r
fra me</w>
for k</w>
f its</w>
exc ited</w>
ea ster</w>
dri bbling</w>
d rying</w>
conver sa
co stumes</w>
chise l</w>
chi ps</w>
cha in</w>
cha in
bus iness</w>
blon d</w>
ba d
y ol
wi ll</w>
w ich</w>
w ar
ve lin</w>
u al</w>
tre es</w>
tra il</w>
to ma
ti p</w>
th rew</w>
th ings</w>
swe e
stor y</w>
st rea
strea m</w>
spea k</w>
sp read</w>
snow boarder</w>
shove ls</w>
shove ling</w>
separ ate</w>
scoo ps</w>
sau ce</w>
sand wich</w>
s cor
ro bo
pump kin</w>
pou red</w>
po w
pit ch</w>
perfor mers</w>
pe el</w>
participa ting</w>
par ents</w>
pain ted</w>
pa ti
pa d</w>
ou sly</w>
or che
o ven</w>
nap kin</w>
motorc y
mo st</w>
memb ers</w>
measur ing</w>
mar ker</w>
m ping</w>
m ou
lo ca
ll way</w>
kn ea
ja velin</w>
ir es</w>
infla table</w>
in clu
ima ge</w>
id ly</w>
ic e
hop scotch</w>
hoo k</w>
high chair</w>
ha llway</w>
go od</w>
gl iding</w>
gg ed</w>
fini shing</w>
fil med</w>
fi ll</w>
el se</w>
e ting</w>
di shes</w>
di a
de sign</w>
de n
crac king</w>
cla y</w>
c ran
butt ons</w>
bran ch</w>
be arded</w>
ba tting</w>
ba thing</w>
b right</w>
b ridge</w>
b it</w>
ar ena</w>
ac ting</w>
a i
a cro
z en</w>
ve st</w>
us pen
ur es</w>
te x
te a</w>
ta ken</w>
t ted</w>
sun ny</w>
soldi ers</w>
snow boarding</w>
snow board</w>
sla ps</w>
shoul der</w>
sho pping</w>
sha ve</w>
screa ming</w>
sco pe</w>
scal lo
sc ul
san ding</w>
s uspen
re lea
rap idly</w>
plan ts</w>
pi pes</w>
par ent</w>
orche stra</w>
oper ates</w>
listen s</w>
le dge</w>
kno cks</w>
kee ping</w>
k in
jum per</w>
jum ped</w>
instruc tion</w>
go ggles</w>
fore st</w>
flow er</w>
f ed</w>
cre w</w>
contin u
close up</w>
ck ets</w>
che cking</w>
ce le
car ves</w>
ca m</w>
c tion
br ings</w>
boo ts</w>
bo xes</w>
be nd</w>
atte n
ap e</w>
al ley</w>
wi ping</w>
ve ra
twir ling</w>
twi sting</w>
tter y</w>
tra y</w>
tori zed</w>
t um
t t</w>
sy n
sup por
stri ped</w>
squ ir
sp reads</w>
sof tball</w>
smo o
skate boarders</w>
si on</w>
rai sing</w>
pum ps</w>
pro je
press ure</w>
poli sh</w>
pit ches</w>
n ur
n '
n' t</w>
mo torized</w>
mil king</w>
m a</w>
la y</w>
la ser</w>
je ans</w>
intervie wed</w>
inte rac
i g
ha ts</w>
groo ming</w>
graph y</w>
gi ant</w>
f ts</w>
f s</w>
enga ged</w>
en s</w>
dou ble</w>
decora ting</w>
d dy</w>
cu be</w>
con tor
commen ta
colo r</w>
chain saw</w>
cell o</w>
cartwhee l</w>
came ls</w>
ca ught</w>
ca st
bla de</w>
bla ck
be ll</w>
baller ina</w>
an cho
ac tion</w>
a ward</w>
a sleep</w>
whee ls</w>
wa sh
ve ly</w>
u t</w>
tra iner</w>
to on</w>
tch ed</w>
sur f</w>
specta tors</w>
sp on
sp lit</w>
sp in</w>
some r
somer sa
soc ks</w>
sk ed</w>
sing le</w>
sil ver</w>
shuff ling</w>
sh ape</w>
scul p
run ner</w>
rid ers</w>
repor t</w>
re n
r ange</w>
po sing</w>
participa te</w>
o es</w>
noi se</w>
ni pu
na ked</w>
mo tor</w>
min ton</w>
micro scope</w>
ma nipu
ma il
m ma
m ly</w>
m ic</w>
kni ves</w>
inclu ding</w>
in sta
ic y
gymna st</w>
fla ming</w>
fa ke</w>
exa min
down hill</w>
de mo
d iti
d board</w>
co me</w>
cla p</w>
car dboard</w>
ca ve</w>
bu s</w>
bir ds</w>
beg inning</w>
beg in</w>
bea r</w>
bar e
ban d
bad minton</w>
announ cer</w>
ancho r</w>
a ct</w>
you r</w>
woo ded</w>
whee led</w>
wa sh</w>
wa ist</w>
vari e
varie ty</w>
tin y</w>
tigh t
tight rope</w>
ti ps</w>
th ick</w>
t ula</w>
t in</w>
st ics</w>
squee zes</w>
spor ting</w>
spe ci
somersa ul
ski i
sk in</w>
sit ing</w>
sin o</w>
sho w
sharpe ns</w>
sha llow</w>
se nt</w>
rou s</w>
remo ved</w>
recei ves</w>
poli shing</w>
po se</w>
po kes</w>
pa l
p rin
p pers</w>
p in</w>
oy ster</w>
o prac
mo de
me ssing</w>
m ps</w>
l and</w>
it i</w>
ir oprac
inter view</w>
in ten
ic es</w>
ic ally</w>
hur dles</w>
gra pes</w>
gra ff
graff iti</w>
f an
enga ge</w>
encoura ges</w>
e tte</w>
dum ps</w>
dra wn</w>
domin oes</w>
di gs</w>
di e</w>
d one</w>
d ge
crou ches</w>
co ver</w>
ci gar
ch iroprac
ca tching</w>
ca sino</w>
bro ther</w>
brea king</w>
box ers</w>
b ly</w>
at ure</w>
al ter
we ar</w>
wal ked</w>
wa its</w>
wa it
w il
vie ws</w>
un ks</w>
ty pes</w>
tro mbo
th reading</w>
th ou
te xt</w>
tar y</w>
ta r</w>
suspen ded</w>
sur e</w>
su per
struc ture</w>
stra ting</w>
ste pping</w>
sta irs</w>
st un
st ir</w>
st er
st e</w>
so r
snow man</w>
smo oth
sl ice</w>
skil ls</w>
skate boarding</w>
ska ter</w>
sk e
sha pes</w>
scallo ps</w>
s um
s se
rol led</w>
ro ws</w>
ro oms</w>
pre sent</w>
p tion</w>
p ster</w>
p low</w>
n ers</w>
mush rooms</w>
mob il
mo re</w>
me eting</w>
manipu la
ma ne
m on</w>
lea ds</w>
l one</w>
l ining</w>
ja ck</w>
in ed</w>
id en
ic y</w>
hu g</w>
hand ling</w>
grin ding</w>
gr il
fro zen</w>
fi sh
examin es</w>
dum pster</w>
dre ssing</w>
do ck</w>
d es</w>
d a</w>
cro co
croco d
comple tes</w>
colo rs</w>
co vering</w>
ci vil</w>
chan ges</w>
carri er</w>
cano e</w>
bea ts</w>
arti sts</w>
alter na
yaw ns</w>
yaw ning</w>
y e
wa ters</w>
trombo ne</w>
tro wel</w>
th ird</w>
te e</w>
t balls</w>
surf board</w>
sty list</w>
stu ck</w>
stre tch</w>
spa tula</w>
so ft</w>
sno r
side ways</w>
sha ke</w>
san der</w>
sa lt</w>
s wal
rev ea
rea ching</w>
re en
ra pi
ra dio</w>
pi ge
org an</w>
or na
ope ned</w>
noi ses</w>
ne l</w>
mane u
ma ta
m ing
lo tion</w>
lo ad</w>
le ns</w>
le go</w>
l icking</w>
ja mas</w>
j eep</w>
is y</w>
introdu ces</w>
ima ges</w>
horse back</w>
han dles</w>
gymna stics</w>
gra p
gl ides</w>
gest ures</w>
flo ating</w>
fla g</w>
fire fighters</w>
fing er
ff s</w>
ex plo
en ter
dra gs</w>
domin o</w>
di stance</w>
d ining</w>
coun ts</w>
conversa tion</w>
co late</w>
clo ses</w>
cigar ette</w>
cho colate</w>
chan ging</w>
ca se</w>
ca bin
c er
bri e
blo cks</w>
be es</w>
bar re
ba king</w>
an ts</w>
an ce</w>
a ir
yol k</w>
x ed</w>
wind surfing</w>
weigh t
water ing</w>
wa ke</w>
wa it</w>
vacuum ing</w>
under nea
undernea th</w>
tri o</w>
tra diti
to ys</w>
til es</w>
tick ling</w>
te sting</w>
t run
stri ps</w>
stra w</w>
sto ol</w>
st ers</w>
squ at</w>
show ca
sharpe ner</w>
se cur
screa ms</w>
s y</w>
s so
rou sly</w>
roa st</w>
re li
pum ping</w>
pu zzle</w>
pu ppy</w>
propo ses</w>
pri e
po les</w>
parachu ting</w>
par ag
parag l
pack age</w>
or der</w>
no tes</w>
mo wing</w>
mo ve
mo on
mata do
marshmal low</w>
lun ges</w>
lu ge</w>
low er</w>
lif e</w>
la tion</w>
l ic
in front</w>
i m
helme ts</w>
gu ns</w>
gu ide</w>
glo ve</w>
g ran
fi st</w>
f ans</w>
eyebro w</w>
exten ds</w>
exten ded</w>
e ar
do ctor</w>
dire cting</w>
di pping</w>
de a
d it
d inner</w>
cro ss
cor k</w>
condu ctor</w>
con tra
com b</w>
colo ring</w>
cele bra
ce p
cartwhee ls</w>
car ve</w>
car toon</w>
cabin et</w>
ca lls</w>
baske tballs</w>
b icy
atta ching</w>
arran ges</w>
win ds</w>
wh il
whil st</w>
wal ker</w>
ve l</w>
traditi onal</w>
to p
to oth
tic ally</w>
ti st</w>
thum b</w>
th reads</w>
th o
tech n
ta tion</w>
ta ck
t i</w>
swe ep</w>
su cks</w>
stre tched</w>
sol o</w>
sle dge</w>
sky diving</w>
s wit
s par
s nea
s mit
smit h</w>
ru g</w>
rota tes</w>
re mon
r ings</w>
r hy
rhy th
proje ct</w>
po wered</w>
plan ting</w>
plan t</w>
pho to</w>
pa jamas</w>
out fits</w>
ou r
on loo
o wn</w>
nur se</w>
mor tar</w>
mo on</w>
mi x</w>
mer ing</w>
mechan ic</w>
mach in
lo gi
lif ter</w>
lea ps</w>
le tting</w>
kno t</w>
kil t</w>
it ary</w>
i gh
hol es</w>
hea ting</w>
hea ds</w>
har p</w>
gymna stic</w>
g th</w>
for med</w>
fini sh</w>
eye glasses</w>
eng ine</w>
emb ro
ei ther</w>
e la
e d
dril ling</w>
discus s</w>
crocod ile</w>
crea tes</w>
conne cted</w>
col d</w>
co py</w>
ck er</w>
ce remon
car pe
can dle</w>
c one</w>
c ee
bran ches</w>
bl ur
bea ting</w>
bare foot</w>
au ction</w>
ap r
ap pla
acro ba
ac ti
ac c
a do
you ths</w>
wrest lers</w>
wel der</w>
tri ms</w>
tri m
th ers</w>
techn ician</w>
ta ins</w>
t ires</w>
stro ng</w>
spe n
so da</w>
so ck</w>
snow mobil
sk ir
sing er</w>
shuff les</w>
se para
se ar
s wea
s pla
robo t</w>
ri st</w>
ri ps</w>
que tball</w>
prie st</w>
presen ts</w>
play fully</w>
plan k</w>
pe ns</w>
pa tter
pa d
p per</w>
ob sta
no isy</w>
ne ar
narra tion</w>
mil itary</w>
marshmal lows</w>
mail man</w>
li ve</w>
li graphy</w>
le tters</w>
laun ches</w>
kn el
kin i</w>
kick ball</w>
ja cks</w>
in vol
i gh</w>
horse shoe</w>
hea ded</w>
go o
go ats</w>
gi ft</w>
gentle men</w>
ga te</w>
forma tion</w>
fla sh</w>
fi ed</w>
fa cial</w>
en ters</w>
en ed</w>
dum b
drum mer</w>
dru mming</w>
dre sses</w>
dre ss
disc us</w>
de m</w>
cymba ls</w>
cra ck</w>
cor d</w>
con gre
con fe
co pi
climb er</w>
cho p</w>
che fs</w>
che cks</w>
cha sing</w>
cer tain</w>
car ry</w>
ca sting</w>
ca de</w>
bu tter</w>
bra ids</w>
box er</w>
boun cy</w>
bi kini</w>
band age</w>
b il
al most</w>
ac tors</w>
a top</w>
a qu
a part</w>
a m</w>
x y
wo mans</w>
whist ling</w>
u k
tou ch</w>
top less</w>
too k</w>
to ss</w>
to o</w>
ter back</w>
ten ts</w>
te ars</w>
tan dem</w>
t ts</w>
swea ter</w>
star ted</w>
spee ch</w>
sp its</w>
sp inner</w>
sma ller</w>
slic ed</w>
si ve</w>
si ster</w>
sh el
se es</w>
scra mb
s sen
s pi
ru bi
ro cking</w>
repor ting</w>
reli gi
re sts</w>
re sting</w>
quar terback</w>
qu ick</w>
prepar ed</w>
pp ily</w>
po ttery</w>
po king</w>
pi c</w>
pan el</w>
onloo kers</w>
on ce</w>
no o
ne igh
n ice</w>
mo l
mix ture</w>
memb er</w>
matado r</w>
machin ery</w>
ma ll</w>
lo ses</w>
lea sh</w>
lea gue</w>
knel t</w>
kee pers</w>
jo gging</w>
jer se
it al</w>
inha les</w>
in k</w>
hoo die</w>
ham mering</w>
gu iding</w>
gran d
gra b</w>
go ali
goali e</w>
fri ed</w>
fini shed</w>
fil m</w>
fe sti
fan cy</w>
exper i
enjo y</w>
encoura ging</w>
embro id
e ing</w>
dy ed</w>
dr yer</w>
dis c</w>
demonstra ted</w>
de ta
contro ller</w>
con si
com ments</w>
cle aring</w>
chiroprac tor</w>
chee red</w>
char ac
ceremon y</w>
cast le</w>
ca ster</w>
ca mp
ca lled</w>
bu ckets</w>
bra iding</w>
bo b</w>
blur ry</w>
be ca
back ward</w>
back pack</w>
ba cks</w>
au toma
au ction
at tire</w>
ar cade</w>
ap par
announ ces</w>
ang le</w>
ac cep
a sked</w>
z z</w>
z i
wh y</w>
wal ls</w>
ver y
up beat</w>
tick les</w>
tex ting</w>
teenag ed</w>
te ly</w>
tch et</w>
ta sting</w>
t rou
swee ping</w>
sw ir
stuff ed</w>
str ings</w>
sto mping</w>
ste ering</w>
ss ion</w>
squee zing</w>
squa sh</w>
slee ps</w>
sle ds</w>
sla ms</w>
si zed</w>
sh ining</w>
ser vice</w>
see m</w>
sc rubbing</w>
sc ent</w>
sail s</w>
s ni
ren ce</w>
religi ous</w>
re la
rai sed</w>
ra p</w>
r ice</w>
push ups</w>
propo sing</w>
pro vid
presen tation</w>
po pping</w>
pla tes</w>
pige ons</w>
padd ling</w>
padd le</w>
pa ssen
pa ges</w>
o w
nu me
na me</w>
mu ddy</w>
move ments</w>
moun ted</w>
mix ed</w>
mi sses</w>
me dic
m ple</w>
low ers</w>
li sh</w>
li p
le c
l li
kee p</w>
ke ys</w>
jo gs</w>
j ar</w>
ir ing</w>
insta lling</w>
in spe
hudd led</w>
ho ver</w>
ho ps</w>
ho p</w>
ha ppily</w>
gro wn</w>
fo il</w>
flu ff
fl icks</w>
f arm</w>
ey el
eyel iner</w>
exc ite
e very
e er</w>
e ars</w>
dri ven</w>
do ll</w>
dire cts</w>
demo strating</w>
d ying</w>
cu sto
cu ps</w>
cro ssed</w>
crea te</w>
cran e</w>
contra ption</w>
con ve
com pan
ck y</w>
cha ses</w>
cee ds</w>
c us
c hor
bow ls</w>
bo n
bo lt</w>
blin d
barbe cu
b y
at tra
apr on</w>
appla u
al so</w>
y ed</w>
weigh ted</w>
wash er</w>
wait er</w>
wa shed</w>
w ants</w>
vide o
vi go
vi e</w>
vera ge</w>
v ir
v an</w>
un loading</w>
um in
tu red</w>
tt on</w>
tri ed</w>
trave ls</w>
tr ic
ton gs</w>
ti ally</w>
thum bs</w>
te nt</w>
ta ping</w>
t a</w>
su v</w>
str ange</w>
ster n</w>
sp ir
some ones</w>
sma shing</w>
sl ide
slide show</w>
skir t</w>
ski pping</w>
skate boards</w>
si ppy</w>
si fting</w>
shoul ders</w>
she ll</w>
sharpe n</w>
se ctions</w>
scre ws</w>
scre wing</w>
scor es</w>
sa wing</w>
s wa
s lips</w>
s lightly</w>
roa sted</w>
ri pping</w>
rapi d</w>
rai se</w>
ra ck</w>
ra ces</w>
qu et</w>
pro gre
pre tty</w>
pi lation</w>
pe ice</w>
pe el
peel er</w>
passen ger</w>
par tially</w>
pan ning</w>
pa st
on g
nume rous</w>
noo dles</w>
nee dles</w>
mu ch</w>
min i
me ss
me al</w>
mar ket</w>
loo m</w>
loca l</w>
loa ds</w>
lo lli
lo go</w>
la ps</w>
la ces</w>
l a</w>
k ins</w>
k ened</w>
it ies</w>
instruc ted</w>
il er</w>
id ed</w>
i ve</w>
hor n</w>
han ded</w>
gg er</w>
g y</w>
fre nch</w>
fluff y</w>
fish erman</w>
fire men</w>
fi x</w>
f ridge</w>
en tly</w>
dra gging</w>
do or
di mly</w>
de c
d in
cur ly</w>
cra shes</w>
cra cked</w>
com pilation</w>
co tton</w>
cli st</w>
cell phone</w>
ca sts</w>
c ri
bun ny</w>
bro ad
brie fly</w>
brea thing</w>
brea st</w>
beca use</w>
bag pipe</w>
ba th
auction eer</w>
attra ctive</w>
at ers</w>
arran ging</w>
ar gu
air plane</w>
ad e</w>
acti v
a mo
a e
zo o
y or</w>
xy lo
xylo phone</w>
whist le</w>
w ns</w>
vigo rously</w>
vehic les</w>
vaul ting</w>
vaul t</w>
v ated</w>
ush es</w>
uni formed</w>
un k</w>
tri m</w>
to ld</w>
to a
thro wer</w>
tea ch</w>
te red</w>
te m
te ll</w>
te aring</w>
swe at
su d
sud den
sudden ly</w>
stun t</w>
stru ggling</w>
straigh tening</w>
stra tes</w>
stea m</w>
st ee
stee l</w>
st ab
sprink les</w>
sp it</w>
somersaul t</w>
snowmobil es</w>
snow boards</w>
sna ps</w>
smoo th</w>
skii er</w>
skate boarder</w>
sk aters</w>
sha ved</w>
sha mpo
sh ines</w>
ser ves</w>
se as
sculp ture</w>
sco t</w>
s ks</w>
ru b</w>
rou ght</w>
ri bb
ribb on</w>
repe lling</w>
prac ti
por ch</w>
poin ted</w>
po st</w>
p re</w>
p li
pli ers</w>
ow ner</w>
org ani
on gs</w>
ol y
nu t</w>
mo vie</w>
min i</w>
medic ine</w>
me made</w>
ma scot</w>
lip stick</w>
li on</w>
len gth</w>
le scent</w>
le gged</w>
lan es</w>
lan ding</w>
lan d
la id</w>
l ure</w>
l ts</w>
knea ds</w>
k o
k ites</w>
k icked</w>
it ion</w>
ir ons</w>
ir ed</w>
inter section</w>
in iti
in et</w>
il lu
ho pping</w>
ho memade</w>
han ding</w>
hair y</w>
h um
gu ides</w>
gro c
groc ery</w>
gre ets</w>
gl ider</w>
gi e</w>
fu r</w>
fr y</w>
fi er</w>
festi val</w>
ex ha
ex e
er i
eng lish</w>
en ding</w>
elephan ts</w>
e ffe
dum ping</w>
dril ls</w>
dra ma
do l
do dge</w>
dire ctions</w>
dire c
dir ty</w>
dia per</w>
deli vers</w>
de sig
de ad
dar kened</w>
cymba l</w>
cor di
confe rence</w>
con tents</w>
competit ors</w>
competit or</w>
colle ge</w>
co p</w>
cli sts</w>
che ck</w>
cha l
ch in</w>
ch ange</w>
camp fire</w>
cal ligraphy</w>
ca using</w>
c ycle</w>
c ling</w>
c are</w>
c ans</w>
bur ps</w>
bur ns</w>
bur ger</w>
buil ds</w>
bu tter
brea k
bi ll</w>
be st</w>
be low</w>
be lls</w>
bath tub</w>
bar s</w>
ban k</w>
bag pipes</w>
ba cking</w>
b ers</w>
au dit
ate ly</w>
amo ng</w>
ae ro
ado lescent</w>
ac tment</w>
a cou
a ble</w>
x i
wr ite</w>
windo ws</w>
wea ves</w>
we ath
wa xed</w>
vide os</w>
us i
un folds</w>
uk u
uku le
ub by</w>
tw ice</w>
tra iler</w>
tor ches</w>
tigh tening</w>
tici an</w>
tic u
tic al</w>
thou gh</w>
th usi
th od</w>
th an</w>
te l</w>
tatto os</w>
ta g</w>
syn ch
swit ches</w>
su ch</w>
stu ff</w>
stru ms</w>
sto pped</w>
st itch
st ion</w>
sp lit
sor ting</w>
so ci
sme lls</w>
sle dge
sledge hammer</w>
sla b</w>
ski ll</w>
si ze</w>
sho wer</w>
she ars</w>
ser t</w>
separa ting</w>
se ven</w>
screa m</w>
scra pes</w>
scoo ping</w>
scar f</w>
sc i
rota ting</w>
recei ving</w>
re ver
re pair</w>
re e
rac quetball</w>
ra te</w>
r on
que stion</w>
pun ch</w>
pow der</w>
posit ions</w>
pol ice
police man</w>
po tter</w>
po ssi
po ses</w>
po sed</w>
pin ches</w>
pier ced</w>
pi e</w>
ph y
pe an
pati o</w>
pa ci
paci fier</w>
p ick
ori en
orien tal</w>
on ed</w>
no te</w>
n on</w>
mini ature</w>
mil ks</w>
mi d</w>
me thod</w>
me lo
melo dy</w>
mb ling</w>
mar ble</w>
man ual</w>
mag ic</w>
ma tching</w>
ma rac
loa ded</w>
lo wing</w>
lo r</w>
lar inet</w>
la be
la b</w>
kick er</w>
ki ssing</w>
ka h</w>
k le</w>
k it</w>
jerse y</w>
j ig
jig saw</w>
it ure</w>
it ten</w>
intervie wing</w>
inser ting</w>
in tric
i mit
hoo ping</w>
ho st</w>
helme ted</w>
head stand</w>
ham mers</w>
hair dress
go t</w>
gg le</w>
ga r</w>
for ming</w>
flo ats</w>
fli pped</w>
fire fighter</w>
finger nails</w>
fin ds</w>
fid get</w>
fi xes</w>
expla in</w>
ex ca
en thusi
en ter</w>
emp lo
dro p</w>
dri es</w>
dra wer</w>
direc tly</w>
di spen
di d</w>
desc ends</w>
de sert</w>
de als</w>
d led</w>
cre di
cra ft</w>
conve yor</w>
continu es</w>
conte stan
con y</w>
commenta tor</w>
cli ppers</w>
cla m</w>
chi p</w>
che sted</w>
ch ubby</w>
car pen
c o</w>
c larinet</w>
butter fly</w>
bro ken</w>
bo ws</w>
bi b</w>
be verage</w>
barre l</w>
barbecu e</w>
bar n</w>
bal cony</w>
b um
b ou
b ling</w>
b ites</w>
audit ori
atta ches</w>
arran ged</w>
ar rows</w>
al ready</w>
ad just</w>
acou stic</w>
ya ch
wi pe</w>
wi ggles</w>
weath erman</w>
we stern</w>
wa ding</w>
w are
volle y</w>
vo ca
vege table</w>
vaul ter</w>
v y</w>
ukule le</w>
u ts</w>
tw in</w>
tur ned</w>
tur ing</w>
tri e
tre at</w>
tooth brush</w>
to e</w>
tit le</w>
tigh tens</w>
ticu lar</w>
tic s</w>
te nd</w>
ta ble
t tle</w>
synch ron
sur pri
sum mer</w>
su ck</w>
stum p</w>
stuff ing</w>
stra p</w>
stra dd
stitch ing</w>
st ones</w>
st it
squ at
squat ted</w>
spo t</w>
spa ce</w>
sp an
soci ali
so m
snor k
sni ffs</w>
smooth s</w>
sla m</w>
ski ps</w>
ski es</w>
shou ts</w>
shi ft</w>
sel fi
see ing</w>
secur ity</w>
scre w
sc rubs</w>
sa y</w>
sa ws</w>
sa i
run ners</w>
rol ler
ro cky</w>
ro be</w>
relea ses</w>
recor der</w>
rec tan
rea ch</w>
re trie
re fle
ra in</w>
qui e
quie tly</w>
pu tts</w>
pu tt</w>
progre ss</w>
pro ceeds</w>
pota toes</w>
posit e</w>
po lit
phy s
pean ut</w>
pe de
para sail</w>
par ticular</w>
par ade</w>
pal m</w>
padd les</w>
pa ts</w>
pa cks</w>
pa cking</w>
op posite</w>
oly m
olym pic</w>
obsta cles</w>
neigh bor
neighbor hood</w>
mi cha
micha el</w>
manipula ting</w>
mach ines</w>
ma rin
m pa
m ble</w>
loo se
logi st</w>
le tter</w>
la te
la ce</w>
kno b</w>
knea ding</w>
kaya king</w>
k a</w>
jugg le</w>
jo ins</w>
jo h
je t
inser t</w>
initi ally</w>
ing ed</w>
in t</w>
il ed</w>
i zed</w>
hudd le</w>
hoo kah</w>
hi p</w>
hea ted</w>
he art</w>
har ne
har d
ha l
h ere</w>
guit ari
gu tter</w>
gu lar</w>
groo mer</w>
gril ling</w>
gol den</w>
gi ggling</w>
g run
g lue</w>
fre sh</w>
fre e
forma l</w>
fo c
fla shing</w>
fea tures</w>
fac ility</w>
f ter</w>
f ar
exe cu
ex hi
en er
en clo
enclo sure</w>
emplo ye
el bow</w>
dou gh
dis k</w>
di sa
di ff
desc ending</w>
dea ler</w>
dan g
cra fting</w>
copi er</w>
contor tion
consi sting</w>
comple te</w>
compan y</w>
co ho
cla i
cir cu
cho ir</w>
chee k</w>
ch unks</w>
ch ers</w>
ch e</w>
can dy</w>
ca uses</w>
blind folded</w>
black smith</w>
bicy cles</w>
base balls</w>
bar king</w>
ba ker</w>
ba c
b rought</w>
b a</w>
auditori um</w>
atten ding</w>
ari um</w>
aqu arium</w>
anima ted</w>
an e
al umin
al coho
ac tor</w>
ac cordi
a xes</w>
a tor</w>
whist les</w>
we ird</w>
watch ed</w>
ware house</w>
wal k
walk way</w>
ven ue</w>
vaul ts</w>
va tor</w>
under way</w>
un successfully</w>
trun ks</w>
tri ps</w>
tri ple</w>
tran s
tra ined</w>
to wed</w>
the se</w>
ta ught</w>
su it
su ally</w>
straigh tens</w>
sta cking</w>
sta che</w>
squir ts</w>
spon ge</w>
spo ts</w>
spla shes</w>
sp ital</w>
som one</w>
sol ve</w>
snow ball</w>
smoo thing</w>
sma shes</w>
slee ve</w>
sle igh</w>
si p</w>
sho ves</w>
she ers</w>
sha ping</w>
selfi e</w>
screw driver</w>
scramb led</w>
scra tching</w>
scra tches</w>
san ta</w>
s man</w>
s m
sm ile</w>
rubi k</w>
ro ping</w>
ro o
reen actment</w>
re play</w>
re pa
repa iring</w>
re o
re eling</w>
ra ther</w>
ra iling</w>
ra cket</w>
qu in</w>
qu a
pu lar</w>
proce ssing</w>
pr o</w>
pon y</w>
po pular</w>
plo wing</w>
play ground</w>
pla id</w>
pitch ed</w>
pati ent</w>
partici pants</w>
paragl iding</w>
par ked</w>
pad lock</w>
pa tty</w>
pa tch</w>
pa pers</w>
p ounds</w>
p ins</w>
orna ment</w>
ong side</w>
obser ve</w>
o ls</w>
num bers</w>
nu ts</w>
no zzle</w>
near ly</w>
ne ck
nar row</w>
nap ping</w>
na med</w>
n iture</w>
n ic</w>
n er
mul ti</w>
mu g</w>
motorcy cles</w>
motor bike</w>
mode ls</w>
mo wers</w>
mma ble</w>
micro phones</w>
mb s</w>
mar kers</w>
manipula tes</w>
man u
ma th</w>
ma sse
ma ri
ma ker</w>
m un
m o</w>
m ining</w>
m i</w>
lolli pop</w>
lo m</w>
lo cks</w>
list en</w>
li qu
li me</w>
li e</w>
lear ns</w>
lear n</w>
le an</w>
lar ger</w>
land sca
la tin</w>
la mp</w>
l oun
kno wn</w>
kaya ks</w>
jet ski</w>
intric ate</w>
ici al</w>
i se</w>
i ght</w>
hoo ps</w>
hoo ks</w>
ho tel</w>
ho spital</w>
hi ps</w>
heav ily</w>
ha tchet</w>
h it
h ey</w>
gri p</w>
graph ed</w>
go s</w>
gg y</w>
gar de
ga mes</w>
g ongs</w>
fur niture</w>
fru stra
fri es</w>
fol low</w>
fle xi
fla t
fla mmable</w>
fla gs</w>
fir ing</w>
fid dles</w>
fen cers</w>
fa ils</w>
f us
exhi b
enthusi a
enjo ys</w>
en tire</w>
ed ges</w>
ea sy</w>
e mer
du g</w>
dro pping</w>
do w</w>
do dge
dodge ball</w>
deli very</w>
d unks</w>
d al</w>
cur ls</w>
crou ched</w>
cross walk</w>
cri b</w>
craw l</w>
cra fts</w>
costu med</w>
contestan ts</w>
congre ga
commen ting</w>
colle ction</w>
co lou
co ats</w>
class ical</w>
clai ms</w>
cho reo
cha mpa
ch ment</w>
ch at</w>
carpe ted</w>
came ra
ca ts</w>
ca kes</w>
c tors</w>
bun dled</w>
buil t</w>
brea thes</w>
br inging</w>
boo th</w>
bil ls</w>
bee f</w>
be an</w>
ban ds</w>
back seat</w>
ba d</w>
b ush</w>
b in</w>
atta chment</w>
assemb ling</w>
assemb les</w>
anima ls</w>
an sw
al ongside</w>
aga in</w>
adverti sing</w>
a is
zo oms</w>
youn g
yach t</w>
y ear</w>
win ks</w>
win dy</w>
wil dly</w>
wheel er</w>
weight lifter</w>
w rist</w>
w ires</w>
vacuum s</w>
va se</w>
us ual</w>
ur ger</w>
up set</w>
up right</w>
un wrapping</w>
u ten
u ng</w>
u ck
tur tle</w>
tou r
tour na
tourna ment</w>
to w</w>
tigh ten</w>
th r
thr u</w>
te book</w>
tal ly</w>
ta ste</w>
synchron ized</w>
sy ste
suit case</w>
su gar</w>
stea ls</w>
sta tion
sta cks</w>
sta ble</w>
st roller</w>
st ran
st ick
st al</w>
sso r</w>
squ ea
sprink ling</w>
spra yer</w>
spo ons</w>
speci ali
spea ker</w>
snow blower</w>
snow balls</w>
sna p</w>
sme lling</w>
sla lom</w>
si ps</w>
si mu
simu la
showca sing</w>
showca ses</w>
sho wed</w>
shi p</w>
she ering</w>
sh ly</w>
scor e</w>
scoo p</w>
sail boats</w>
s words</w>
s napping</w>
s ling</w>
s id
rou gh
roa sts</w>
ro logist</w>
rhyth m</w>
recor d</w>
re spon
re d
re ct</w>
ran do
qui et</w>
pu tter</w>
produ cts</w>
pro pped</w>
pro ble
prin ter</w>
pre tend</w>
practi sing</w>
por tion</w>
po sts</w>
pier cing</w>
perfor med</w>
pede stri
pe dal</w>
patter n</w>
par t
pain ter</w>
pain t
pa ce</w>
p y
p t</w>
p lun
over weight</w>
oun ding</w>
orna ments</w>
or ch
orch ard</w>
ope ner</w>
op posing</w>
on stage</w>
on ent</w>
no tebook</w>
no ds</w>
ne y</w>
ne quin</w>
n at
moon walks</w>
mode l</w>
mo ved</w>
mo pping</w>
mo di
modi fied</w>
measur es</w>
mea su
me te
me ssy</w>
me sses</w>
mb urger</w>
masse use</w>
mar ks</w>
man nequin</w>
ma p</w>
ma na
m n</w>
lo ck
lo ad
ligh ted</w>
lec ture</w>
lea st</w>
lea d</w>
le ver</w>
lap top</w>
la sso
l ley</w>
l ick</w>
kno ck</w>
kne el</w>
kn uck
k lift</w>
j ap
jap ane
japane se</w>
intervie ws</w>
interac ts</w>
ine se</w>
in formation</w>
ic ul
hoo ked</w>
high lights</w>
he sive</w>
he ight</w>
he at</w>
hairdress er</w>
hair cut</w>
ha p
ha mburger</w>
h us
h iding</w>
guitari st</w>
gu i
gra s
golf ing</w>
gi ggles</w>
gh t
ge ment</w>
g ne</w>
g n
fru its</w>
fore head</w>
for klift</w>
for ce</w>
flo ral</w>
flexi ble</w>
flash lights</w>
fire man</w>
fi shes</w>
fen ced</w>
experi ence</w>
exhib ition</w>
exha les</w>
excite dly</w>
enter ing</w>
employe e</w>
embroid ery</w>
ele vated</w>
dumb bell</w>
du ck</w>
dra w</w>
dough nut</w>
door way</w>
don key</w>
dire ction</w>
diff icul
de ter
dd ers</w>
d ling</w>
custo mer</w>
cu tter</w>
cro wn</w>
continu ously</w>
con ven
con gra
competit ive</w>
commen tary</w>
colle cts</w>
colle cting</w>
co ke</w>
co ins</w>
clo sing</w>
clo ser</w>
chise ling</w>
chi pping</w>
charac ters</w>
champa gne</w>
ch inese</w>
ca ll</w>
c lin
by e</w>
bra ces</w>
boo gie</w>
bob bing</w>
bee keepers</w>
beau tician</w>
base ment</w>
barbe lls</w>
assi sts</w>
assi st</w>
assemb ly</w>
argu ing</w>
ar my</w>
alumin um</w>
alcoho l</w>
ais le</w>
ai ms</w>
aero b
ad hesive</w>
ad d</w>
acroba tic</w>
ac ts</w>
a y</w>
a ma
zz y</w>
z ers</w>
y tail</w>
wrest ler</w>
wr itten</w>
wo ol</w>
wo k</w>
wind surfer</w>
we dding</w>
wa i
w ou
wou ld</w>
w hose</w>
w are</w>
vir tu
vera lls</w>
v as</w>
ush ing</w>
uni son</w>
under wear</w>
un wraps</w>
un usual</w>
un known</w>
tum bling</w>
trou pe</w>
trave lling</w>
tou ri
touri sts</w>
tou ched</w>
to wn</w>
tem per
tatto o
ta ils</w>
ta b
t tered</w>
t board</w>
swir ls</w>
sweat shirt</w>
swe et</w>
swal lows</w>
swal lowing</w>
sw ung</w>
surroun ding</w>
sur round</w>
super vi
super market</w>
su n</w>
sty ling</w>
stuff s</w>
str inged</w>
sto pping</w>
sto mp</w>
ste ers</w>
sta r</w>
st at
st al
squ ar
squar es</w>
spor t
spee ding</w>
spee d
speciali zed</w>
speci fic</w>
sp ring</w>
sociali zing</w>
so lu
solu tion</w>
so ap
soap y</w>
snea kers</w>
snea ker</w>
sme ll</w>
ski is</w>
sil ver
sil hou
si e</w>
sho re
shore line</w>
sha dow</w>
seg ment</w>
se tt
scra ping</w>
sci en
sca ling</w>
sca les</w>
sc an
san dy</w>
sai lor</w>
s a</w>
ru s</w>
ro bes</w>
rin ses</w>
rid ding</w>
ri z
ri ses</w>
ri er</w>
rever se</w>
revea l</w>
repor ts</w>
rectan gular</w>
rando m</w>
ra y</w>
ra bb
r es</w>
qu ite</w>
pu ff</w>
pu ck</w>
proce dur
proble m</w>
pro pe
pro mo
presen ting</w>
pre para
prepara tion</w>
por t</w>
pon ytail</w>
plu g</w>
pic nic</w>
photo s</w>
per fe
peo ples</w>
pe a
par tment</w>
par k
pa ssi
p le
over head</w>
or din
on ions</w>
on e
ol a</w>
obser ving</w>
o ke</w>
nee ds</w>
na tional</w>
na ce</w>
mu stache</w>
moun ts</w>
moun tains</w>
mou se</w>
me d
med ical</w>
me an</w>
massag ed</w>
maneu vers</w>
mag ician</w>
m ous</w>
lu g</w>
lit y</w>
le mon</w>
le gos</w>
la st</w>
ke ttle</w>
kar a
kara oke</w>
jo ke</w>
jo in</w>
jo b</w>
ja ck
invol ving</w>
inten se</w>
inspe cts</w>
iden ti
i ss
hur ls</w>
ho riz
ho ola</w>
hit ter</w>
hi king</w>
hea l
harne ssed</w>
gre ens</w>
go ers</w>
gest ure</w>
gen tle</w>
g le</w>
g erman</w>
fur ry</w>
fris bees</w>
fore cast</w>
fo am</w>
ff ing</w>
fee ls</w>
fe ll</w>
f ind</w>
f an</w>
explo ring</w>
expla ing</w>
exper tly</w>
execu tes</w>
exc er
exa mining</w>
equi pped</w>
encoura ged</w>
encoura ge</w>
ela stic</w>
ela bo
elabo rate</w>
ei ght</w>
e led</w>
dro pped</w>
drama tic</w>
don uts</w>
do cu
dd le</w>
dan ge
da sh</w>
d ice</w>
d ges</w>
cur ved</w>
crou ching</w>
cra sh</w>
cour t
coun t</w>
coo s</w>
contortion ist</w>
congrega tion</w>
congra tu
com pla
com mun
com ment</w>
com for
co vers</w>
co ating</w>
cli pping</w>
cla mp</w>
choreo graphed</w>
chee ks</w>
chan nel</w>
chal len
ch unk</w>
ce ss</w>
carpen ter</w>
carpe ting</w>
car ro
can vas</w>
can n
ca sually</w>
ca ps</w>
c ler
bu tt</w>
brush ed</w>
broad cast</w>
brea th</w>
br a</w>
bo r</w>
bea ds</w>
be ers</w>
be ani
beani e</w>
bat ons</w>
bat man</w>
baske ts</w>
back flip</w>
ba ss</w>
ba s
b re
automa tic</w>
atta ch</w>
ar ch
app lic
alterna ting</w>
ag ing</w>
adju st
ad es</w>
activ ity</w>
acro bat</w>
accep ting</w>
acc iden
ac cross</w>
a le</w>
1 9
zoo med</w>
zi p</w>
z y</w>
yol ks</w>
y stal</w>
y set</w>
y on</w>
with in</w>
win ding</w>
wil d</w>
wi ggling</w>
whe eling</w>
wh ite
weight lifting</w>
wa kes</w>
voca li
vie wers</w>
vi o
v ices</w>
up per</w>
uni que</w>
un lock</w>
un boxing</w>
um p
ump ire</w>
twir l</w>
tum bles</w>
trun k</w>
trim mer</w>
tri angle</w>
tre ss</w>
trave ling</w>
tran ce</w>
tra ins</w>
tra cing</w>
to wer</w>
to ssed</w>
til ts</w>
ti sh</w>
th igh</w>
th ea
th an
ten ding</w>
tea sing</w>
tan e
tal ked</w>
tack les</w>
table top</w>
tab let</w>
ta ining</w>
ta i</w>
t work</w>
t tish</w>
syste m</w>
syn c</w>
swim suit</w>
surpri sed</w>
suppor ting</w>
sub way</w>
sty les</w>
stru mming</w>
stro kes</w>
stri king</w>
straigh ten
stradd les</w>
sto ols</w>
sti ons</w>
sta cked</w>
st ically</w>
st ap
ssi ve</w>
split s</w>
spee ds</w>
spar ks</w>
span ic</w>
soldi er</w>
snor ke
sma r
smar t
sla pping</w>
sky divers</w>
sky diver</w>
sk in
sig ns</w>
si mul
simul tane
si mi
simi lar</w>
shuff le</w>
shou ld</w>
shi fts</w>
shi fting</w>
shampo o</w>
sh ine</w>
sh ee
sh ades</w>
sen ding</w>
see ming
seeming ly</w>
seas oning</w>
sear ches</w>
sea son</w>
se w</w>
se al</w>
scra p
scrap book</w>
scoo ts</w>
sco ttish</w>
sc u
sa id</w>
s ways</w>
s ons</w>
s li
run ches</w>
ro de</w>
ri bs</w>
remo val</w>
relea se</w>
rela xing</w>
re st</w>
re ss</w>
re es</w>
ra pping</w>
que stions</w>
quar ter</w>
qu es</w>
push up</w>
pump kins</w>
pu n</w>
provid ing</w>
provid es</w>
procedur e</w>
pro gra
pre gn
pregn ant</w>
pre form</w>
pow de
powde red</w>
possi bly</w>
posit i
por k</w>
poli shes</w>
po p
po or</w>
po e
pin ching</w>
pick up</w>
pi g
pi ani
piani st</w>
photo graph
pers onal</w>
per cus
pe tted</w>
pe da
past ry</w>
passi on
park our</w>
parachu tes</w>
pad ded</w>
pa ying</w>
p l
one sie</w>
o veralls</w>
o rologist</w>
o pp
near by</w>
nea tly</w>
ne tte</w>
ne on</w>
na vi
na vel</w>
na m</w>
n al</w>
motorcy clists</w>
moon walk</w>
mon it
mol ding</w>
mo ws</w>
mo ld</w>
mo der
moder n</w>
mix er</w>
mil ling</w>
mic s</w>
mete orologist</w>
me di
marac as</w>
ma in</w>
m ound</w>
low ering</w>
loun ge</w>
loo se</w>
loca tion</w>
load er</w>
lo wered</w>
lin er</w>
lea p</w>
le ve
la shes</w>
la ge</w>
la cing</w>
knuck les</w>
kno ts</w>
kn it</w>
kar t</w>
k it
ju red</w>
joh n</w>
jo y
jo king</w>
je wel
jack son</w>
ja zz</w>
j o</w>
j i
iti sh</w>
introdu cing</w>
interac ting</w>
instruc tors</w>
inha ling</w>
in y</w>
in jured</w>
in de
i ous</w>
i mp
i an</w>
hur dle</w>
hun ting</w>
hun dre
hundre ds</w>
hum ming
hou se
horiz on
ho e</w>
hi spanic</w>
hi c</w>
heav yset</w>
hard wood</w>
h i</w>
grun ts</w>
grin ds</w>
grap hic</w>
grab bed</w>
gh tly</w>
ge ars</w>
gar ment</w>
ga u
g on</w>
g ers</w>
fur nace</w>
frustra ted</w>
flo wing</w>
fla shes</w>
fla ge</w>
fir es</w>
fil ter</w>
fa st
fa l
f ying</w>
f lan
f icial</w>
ex posed</w>
ex claims</w>
enga ging</w>
enga ges</w>
en closed</w>
ele vator</w>
effe cts</w>
e m
e f</w>
dumb bells</w>
dum p</w>
don ut</w>
do wns</w>
di gger</w>
dea ling</w>
dar tboard</w>
cy lin
cy cling</w>
cru tches</w>
cru mbs</w>
cru ise</w>
crow ds</w>
credi t</w>
cr ystal</w>
cr ust</w>
cor rect</w>
contor ts</w>
conta ining</w>
congratu la
comple ted</w>
compe tes</w>
com bin
coa ching</w>
coa ches</w>
co ws</w>
co ordin
close ly</w>
cla d</w>
circu s</w>
che w</w>
cha tting</w>
cha se</w>
ch i</w>
ch er
celebra ting</w>
car ved</w>
can yon</w>
ca mp</w>
ca lling</w>
c in
c ils</w>
c a</w>
bur n</w>
bu zz
bu y</w>
bro thers</w>
bri ghtly</w>
br itish</w>
br ide</w>
boo ks</w>
bo t</w>
blo wn</w>
bi kers</w>
beau ty</w>
bea m</w>
bat tle</w>
ba ttery</w>
ba l</w>
b ru
b len
b er
au to
at v</w>
arti ficial</w>
arran gement</w>
approa ch</w>
appar ently</w>
ap p</w>
an kle</w>
an chor
alterna tes</w>
ai m</w>
ad mir
ac tress</w>
ac tions</w>
ab ility</w>
a wards</w>
a w
1 0</w>
z a</w>
y ers</w>
wrest les</w>
work men</w>
wor ld</w>
woo d
win k</w>
wi fe</w>
whee lie</w>
wh is
war ming</w>
war dly</w>
wa ste</w>
wa des</w>
wa ders</w>
w ho
virtu al</w>
viol in
violin ist</w>
video taping</w>
ve sts</w>
ve less</w>
va tion</w>
v s</w>
v ous</w>
v or
v ine</w>
v an
v al
uten si
utensi l</w>
un load</w>
u es</w>
twi sted</w>
twi st</w>
tw en
tu t
tut u</w>
tru cks</w>
trim med</w>
trave l</w>
tr ys</w>
tr e</w>
tor til
tor so</w>
toa sting</w>
to pp
to bac
tin gui
til ed</w>
tick led</w>
ti vely</w>
ti pped</w>
the rapi
therapi st</w>
th ed</w>
ter ing</w>
temper ature</w>
techni ques</w>
tech no</w>
tea chers</w>
te st</w>
tar gets</w>
ta un
t shirt</w>
t les</w>
sy mbo
sur ve
suppor ted</w>
suppor t</w>
su ng</w>
stun ts</w>
stro king</w>
stre n
stran ds</w>
stra ps</w>
str inging</w>
stit ch</w>
stea d
station ary</w>
stat ue</w>
sta tes</w>
sta ir</w>
sta ir
st ly</w>
st es</w>
st eep</w>
squir ms</w>
sprin ts</w>
spi ky</w>
spar k
sp itting</w>
sp in
sp id
spid erman</w>
sor ts</w>
somersaul ts</w>
so cket</w>
snork eling</w>
snee zing</w>
snee ze</w>
slo ws</w>
slee veless</w>
slee py</w>
sla pped</w>
sla p</w>
sla mming</w>
skil led</w>
skii ers</w>
ske tching</w>
simultane ously</w>
silver ware</w>
silhou e
sig ning</w>
sig na
si zes</w>
si bl
sibl ings</w>
shi eld</w>
shel f</w>
she aring</w>
sha ver</w>
sh ri
sh ion</w>
separ ated</w>
sen ds</w>
seg ways</w>
sear ching</w>
se qu
sequ ence</w>
se mi</w>
se als</w>
scoo ters</w>
scien tist</w>
sc ri
s ul
s pun</w>
s nat
s light</w>
s lid</w>
run es</w>
rub bed</w>
ru ning</w>
ru mma
robo tic</w>
ri f
revea ls</w>
relea sed</w>
refe rees</w>
re st
re ci
rap pe
rabb it</w>
ra mid</w>
ra m</w>
ra g</w>
ra ckets</w>
r it
py ramid</w>
progra m</w>
press ion</w>
pre ssed</w>
pow er
polit ician</w>
po se
plun ger</w>
pla za</w>
phys ical</w>
photograph s</w>
photo grap
perfe ct</w>
per on</w>
pen ny</w>
pen cils</w>
pe ning</w>
patter ned</w>
part ner</w>
parachu tist</w>
para sail
pack ages</w>
pa w</w>
pa ste</w>
pa ge</w>
pa cked</w>
p runing</w>
p runes</w>
p ounding</w>
p lows</w>
p lea
oy sters</w>
oper ator</w>
oper ation</w>
oper ate</w>
on ents</w>
off ers</w>
obsta cle</w>
o val</w>
o me
o lo
o c
no w</w>
ni ke</w>
ni ght
ner vous</w>
ne go
nego ti
nap kins</w>
na vy</w>
mus cle</w>
mp les</w>
mou flage</w>
monit or</w>
mon ster</w>
mon g
mong st</w>
mol ds</w>
mo tion
mo sh</w>
mit t</w>
mi mics</w>
measur e</w>
measu re
me l
mag ni
ma ts</w>
ma sks</w>
ma sked</w>
lock smith</w>
liqu or</w>
len ses</w>
lea ping</w>
lea f
le nt</w>
le en
leen e
leene x</w>
late x</w>
labe l</w>
la yer</w>
la sh</w>
ko i</w>
kno cked</w>
k wardly</w>
k leenex</w>
jum p
jer ks</w>
ja m</w>
j our
ir y</w>
introdu ce</w>
interac t</w>
insta ll</w>
inde x</w>
in ks</w>
in dic
indic ates</w>
imit ates</w>
illu strates</w>
il l
ig n
id ay</w>
ic ing</w>
i sts</w>
i sh</w>
humming bird</w>
hoo king</w>
hoo ded</w>
hol iday</w>
ho ver
ho t
high way</w>
hi ves</w>
head bu
har bor</w>
hap pening</w>
hal f
hair stylist</w>
ha m</w>
gu tters</w>
gu n
gril ls</w>
grand ma</w>
gra du
goo d
gir af
giraf fe</w>
gath ers</w>
garde ner</w>
g room</w>
g er
g ent</w>
g ang
fore caster</w>
foo ds</w>
flo ck</w>
flo at</w>
fla mes</w>
figu res</w>
fe llow</w>
fe eling</w>
fa shion</w>
fa mous</w>
fa ir</w>
f ound</w>
f oun
f ou
f low</w>
excite ment</w>
ex tingui
ev en</w>
ev en
enthusia stically</w>
ener ge
en trance</w>
en tra
emp tying</w>
emp ties</w>
emer ges</w>
emb race</w>
el der</w>
el bows</w>
e sca
e ra
e ly</w>
e k</w>
drum stick</w>
dri bble</w>
domin os</w>
do g
di vid
di pped</w>
di g
deta iled</w>
decora tions</w>
decora tes</w>
dec ides</w>
dead lifts</w>
de l
de er</w>
dd ling</w>
dang les</w>
da iry</w>
d run
d get</w>
cus hi
cur led</w>
cu t
cow boys</w>
cou gh
conversa ting</w>
contin ue</w>
conne ct</w>
conc entra
comp li
commun ic
co s
clu bs</w>
clo thed</w>
clin ton</w>
clean ed</w>
ck e
cin der</w>
cho pped</w>
childre ns</w>
chi ef</w>
charac ter</w>
chan ting</w>
celebra te</w>
carri ed</w>
cann ons</w>
can e</w>
cal cu
ca sing</w>
ca mouflage</w>
ca b
c ry</w>
bur ping</w>
bull fighter</w>
bu ff</w>
bru nette</w>
bra ve</w>
br and</w>
bon es</w>
bo ne</w>
bo lts</w>
blin ks</w>
black jack</w>
bla ding</w>
bl ind</w>
bin ding</w>
bicy clist</w>
be l
ban an
ba y</w>
ba ton</w>
ba shing</w>
ba n</w>
ba bly</w>
b its</w>
aw kwardly</w>
assi sted</w>
assi stance</w>
are as</w>
arch ery</w>
ar twork</w>
ar range</w>
ar m
applic ation</w>
answ ers</w>
ang ry</w>
ali g
air port</w>
ai ming</w>
af ter
aerob ics</w>
adverti ses</w>
ad vice</w>
ad dresses</w>
ad ded</w>
activ ities</w>
a tions</w>
a mongst</w>
a m
young ster</w>
ye ars</w>
y et</w>
x ican</w>
wre n
wr ings</w>
work ed</w>
wo n
wi g</w>
who m</w>
white board</w>
wh ale</w>
wel ds</w>
we t
wet suit</w>
we nt</w>
wa xes</w>
wa king</w>
wa gon</w>
w ri
w ls</w>
w l</w>
w ins</w>
w and</w>
vocali zes</w>
vo ices</w>
vo ice
voice over</w>
vir on
viron ment</w>
vio len
vie wing</w>
vie wer</w>
video ing</w>
vi a</w>
ver sit
versit y</w>
ver sion</w>
ver bal
verbal ly</w>
ve ter
ve lo
val ve</w>
v il
v at</w>
v ar
ush y</w>
ur ing</w>
un tying</w>
u til
u dder</w>
tw ins</w>
tw in
twin kle</w>
tu gs</w>
tu cks</w>
tu ce</w>
tter ing</w>
tro ph
troph y</w>
tro lley</w>
tre nch</w>
tra cks</w>
topp ings</w>
toma to</w>
tobac co</w>
to wing</w>
to ps</w>
to bo
tobo gg
tobogg an</w>
ti ll</w>
ti eing</w>
tho se</w>
the ma
th y</w>
th er
teri a</w>
ter rain</w>
ten ds</w>
tea mma
te dly</w>
te ddy</w>
tch up</w>
tal lic</w>
tack le</w>
ta ped</w>
t tuce</w>
t an</w>
swi shes</w>
swee ps</w>
swe ats</w>
swa ying</w>
surf boards</w>
suppor ts</w>
success ful</w>
sub mer
su per</w>
stru ggle</w>
stro be</w>
stri pe</w>
stren gth</w>
stre ss</w>
stre ets</w>
straighten er</w>
straigh ten</w>
sto mps</w>
sto ck</w>
stead ily</w>
stea k</w>
stea dy</w>
stea d</w>
sta y</w>
st ering</w>
ssi vely</w>
sse l</w>
ss o</w>
ss ly</w>
squee gee</w>
spo tting</w>
split ting</w>
spi kes</w>
speed boat</w>
sp ider</w>
sp ices</w>
sof tly</w>
so o
so il</w>
snorke l</w>
sna ck</w>
smart phone</w>
sma sh</w>
sl and</w>
skil l
sk ele
sit ups</w>
silhoue tted</w>
sid el
si mple</w>
shu ts</w>
shu t</w>
shu cking</w>
shou ting</w>
sho ving</w>
sho cked</w>
shee ts</w>
sh er</w>
sh aring</w>
sett ings</w>
ser ving</w>
ser ved</w>
ser ve</w>
secur e</w>
sea m
seam stress</w>
se x
se ni
seni or</w>
se ll</w>
se cu
se ction
scra per</w>
scen ery</w>
sca ttered</w>
sau te
san it
sanit ation</w>
san ds</w>
sa lts</w>
sa le</w>
s mi
s lip</w>
s ers</w>
ru ler</w>
rol lers</w>
ro wing</w>
ro se</w>
rin sing</w>
rin d</w>
ri age</w>
rev s</w>
retrie ves</w>
repor ters</w>
rec lining</w>
rea r</w>
rea dies</w>
re sort</w>
re l</w>
re f
re el</w>
re crea
re al</w>
ran k</w>
rai d</w>
rac quet</w>
rac ers</w>
ra tes</w>
ra tchet</w>
ra quetball</w>
ra pe
ra ke</w>
ra ge</w>
ra ft</w>
r us
pu tty</w>
produ cing</w>
pro bably</w>
prin ted</w>
pre teen</w>
pr one</w>
pp les</w>
post ure</w>
possi ble</w>
pol ka</w>
po logi
po cket</w>
plu cks</w>
plan ing</w>
pil lows</w>
pig tails</w>
pic s</w>
pi er</w>
phys ically</w>
photograp h</w>
photo graphy</w>
ph in</w>
pers on
percus sion</w>
per fo
pedestri ans</w>
peda ls</w>
pe eled</w>
pe ar
past a</w>
passion ately</w>
participa tes</w>
paragl ider</w>
par ro
pan cakes</w>
p lunges</w>
out line</w>
out field</w>
opp onent</w>
oper ated</w>
on ist</w>
on going</w>
obser ves</w>
o pin
o p</w>
o d
od d</w>
nur ses</w>
no thing</w>
no r
newsca sters</w>
newsca st</w>
new ly</w>
negoti ating</w>
neck lace</w>
ne tball</w>
ne ls</w>
navi ga
na mes</w>
n a</w>
mou th
motorcy clist</w>
mor ning</w>
mon key</w>
mo i
mi ssion</w>
mi ght</w>
men ting</w>
men tary</w>
me tallic</w>
materi als</w>
mari o</w>
marac a</w>
mar riage</w>
mar ches</w>
manu ally</w>
maneu ver</w>
make shift</w>
mail box</w>
ma tt</w>
ma tt
ma thema
ma tches</w>
ma ster</w>
ma ra
ma inten
mainten ance</w>
m ur
m ine</w>
m bed</w>
loose n</w>
loo p</w>
lo st</w>
lo gy</w>
lo gs</w>
lo b
lin ks</w>
lic ated</w>
lic ate</w>
li vely</w>
li kes</w>
li a</w>
lead er</w>
le vel</w>
le ttuce</w>
lawn mowers</w>
laun ch</w>
laugh ter</w>
lasso s</w>
l um
l man</w>
kno cking</w>
kil ts</w>
ke tchup</w>
k ite
k ing
ju ice</w>
joy fully</w>
ji g</w>
jewel ry</w>
jer ky</w>
jer k</w>
je an</w>
ja w</w>
j c
jc b</w>
j ab
invol ves</w>
inter i
interi or</w>
inten tly</w>
indi a</w>
in ts</w>
in stead</w>
in stal
in forma
in credi
incredi bly</w>
in c
in ary</w>
in al</w>
illu strating</w>
ic le</w>
i sland</w>
hur ling</w>
hu ng</w>
hou sing</w>
hor ns</w>
hol der</w>
high lighting</w>
hi ve</w>
hea ts</w>
hea r</w>
he sit
he dge</w>
he ar
hand led</w>
hand held</w>
half way</w>
ha wai
groo ms</w>
gre eting</w>
grand mother</w>
good bye</w>
go of
gla ss
gg re
gau ge</w>
gang nam</w>
ga mbling</w>
g low</w>
g il
g ical</w>
g ic</w>
g i</w>
fu zzy</w>
fr an
fo a
flan nel</w>
fire place</w>
fin al</w>
fi xed</w>
fi es</w>
fi elder</w>
ff le</w>
ff er</w>
fea turing</w>
fe teria</w>
far mer</w>
f itting</w>
f ine</w>
explo re</w>
exper t</w>
exerci ser</w>
exca vation</w>
exa mple</w>
eri e</w>
eri al</w>
enter tains</w>
enter taining</w>
ener gy</w>
en vironment</w>
en velo
embroid ers</w>
ele mentary</w>
ear ring</w>
e ve</w>
e qu
dy es</w>
du ty</w>
dri ed</w>
dou bles</w>
dol phin</w>
dol lar</w>
dog sled</w>
docu ment</w>
do t</w>
do r
do jo</w>
disc s</w>
disc o</w>
din ers</w>
differe n
dia pers</w>
di ed</w>
desig ns</w>
descri ption</w>
descri be</w>
den tist</w>
demo strates</w>
de vices</w>
de s
de br
debr is</w>
de ba
d ust</w>
d unk</w>
d id
cy clists</w>
cur lers</w>
cur l</w>
crow d
crou ch</w>
cro ch
croch et</w>
crea ted</w>
cran k</w>
cra te</w>
cra shing</w>
cra cker</w>
cou ld</w>
cor n</w>
cor e</w>
cor ds</w>
copi es</w>
coordin ated</w>
coo ler</w>
coo ker</w>
conven tion</w>
contro lling</w>
conta ins</w>
conne cting</w>
comple ting</w>
compla ining</w>
comp licated</w>
com man
colle ct</w>
col lar</w>
co ral</w>
clo ths</w>
cli ent</w>
cle ars</w>
cla mps</w>
chor ds</w>
chise ls</w>
cha ins</w>
ch ant</w>
ce iling</w>
carro ts</w>
carri age</w>
cap sized</w>
cano eing</w>
cal mly</w>
cab bage</w>
ca sh</w>
ca me</w>
ca ged</w>
ca feteria</w>
c ul
c runches</w>
c lou
bu zz</w>
broad casting</w>
brie f</w>
break dances</w>
bow ler</w>
boun ced</w>
bott led</w>
bob sledding</w>
bo ng</w>
bo iling</w>
bo bs</w>
blo wers</w>
bla zes</w>
bea ms</w>
be at
bb q</w>
barre ls</w>
ban dan
balan ced</w>
bal l
ba ts</w>
ba ng</w>
ba ked</w>
ba bbling</w>
b ushy</w>
b ushes</w>
b raid</w>
b our
b lu
b led</w>
b ility</w>
auto mobile</w>
atten tion</w>
atte mps</w>
at us</w>
assi sting</w>
assemb led</w>
asse mble</w>
ari an</w>
ar ed</w>
approa ching</w>
applau ded</w>
announ cing</w>
ang les</w>
an them</w>
al lows</w>
acroba ts</w>
accordi on</w>
acciden tally</w>
accep ts</w>
a the
a pologi
a head</w>
a ggre
a erial</w>
a b</w>
1 2</w>
´ s</w>
zoo ming</w>
z um
zum ba</w>
z ily</w>
youn ge
younge st</w>
you n</w>
you g</w>
y wood</w>
y walking</w>
y an
x e
wren ches</w>
wr inging</w>
win king</w>
whis pers</w>
wh ites</w>
wel comes</w>
we ls</w>
we b</w>
water slide</w>
water skiing</w>
water fall</w>
wash ers</w>
wal let</w>
wal ing</w>
w on</w>
w o</w>
w ings</w>
w arded</w>
w ant</w>
w an
vor ite</w>
violen tly</w>
vi siting</w>
vi sed</w>
ver tical</w>
ver bal</w>
ve ssel</w>
ve ment</w>
ve ls</w>
ve g
va ping</w>
us ps</w>
up ward</w>
up on</w>
uni versity</w>
un screwing</w>
un locks</w>
un ited</w>
un folding</w>
um n</w>
ty ping</w>
tw el
twel ve</w>
tw ee
twee zers</w>
tur ban</w>
tum ble</w>
tu xe
tu bs</w>
tro p
trop ical</w>
trim mers</w>
trea tment</w>
trans mission</w>
tran sit
tra sh
trash can</w>
tra p</w>
tortil la</w>
toma toes</w>
toa st</w>
to mi
tit i
tigh tly</w>
ti an</w>
thou sands</w>
thea ter</w>
than king</w>
th on</w>
th ink</w>
ter y</w>
ter n</w>
ten sion</w>
ten ders</w>
te t</w>
te mp
te lman</w>
te ch</w>
tattoo ing</w>
tattoo ed</w>
ta stes</w>
ta lent</w>
t tle
t read</w>
t our</w>
t ired</w>
symbo l</w>
swee per</w>
swa dd
swadd led</w>
surve il
surveil lan
surveillan ce</w>
supervi ses</w>
suc ceeds</w>
submer ged</w>
su ction</w>
su al</w>
stri py</w>
stri ke</w>
stradd ling</w>
stra iner</w>
stor ical</w>
sto mach
sto cking</w>
stir red</w>
stick y</w>
ster ically</w>
ste er</w>
stan t</w>
stan d
sta ting</w>
sta in
stain less</w>
sta ff</w>
st ry</w>
st in
st il
st ate</w>
st ages</w>
squir ting</w>
squee ze</w>
squea ling</w>
spra yed</w>
spon ge
spo tted</w>
spi ked</w>
spen ding</w>
spark ly</w>
spar ring</w>
soc co
socco r</w>
so le</w>
so l</w>
so cial</w>
snowmobil ers</w>
snow boarders</w>
snat ches</w>
smooth es</w>
smi ths</w>
sma rt</w>
slo wing</w>
slee ved</w>
sle n
slen der</w>
sky dive</w>
skin ny</w>
skill fully</w>
ski p</w>
skele ton</w>
ske wer</w>
sit u
sit ti
sil ently</w>
sil ent</w>
signa ls</w>
si zzle</w>
si ons</w>
shu ck</w>
shri mp</w>
sho t
shi ps</w>
shar k</w>
shar es</w>
shampo o
ser ious</w>
see ds</w>
secu red</w>
secon ds</w>
seas ons</w>
sear ch</w>
sea food</w>
se ws</w>
se ats</w>
sculp ting</w>
scramb les</w>
scra p</w>
scisso r</w>
scar ed</w>
scallo p</w>
sca f
sc rub</w>
sc ends</w>
sa mple</w>
sa m
sa la
sala ds</w>
sa l
sal sa</w>
sa ck</w>
s the
s son</w>
s pool</w>
s m</w>
s lan
s king</w>
s ar
s .</w>
rus sian</w>
rubi x</w>
ru st
ru p
ru les</w>
ru g
rug by</w>
rough ly</w>
rou d</w>
rota ted</w>
roller blading</w>
ro tiss
ro tary</w>
ro ds</w>
rid den</w>
ri ously</w>
rhyth mic</w>
revea ling</w>
repe ls</w>
reen actors</w>
recrea tional</w>
reci pe</w>
recei ver</w>
rec lined</w>
rec ites</w>
rea cher</w>
re views</w>
re turns</w>
re que
re ps</w>
re pairs</w>
re ma
re hear
re gar
regar ding</w>
re ga
re g
ra ted</w>
ra ps</w>
ra lly</w>
ra kes</w>
ra ble</w>
r ushing</w>
quar tet</w>
qua tions</w>
qua lity</w>
qu ets</w>
pur pose</w>
pur pose
pu lley</w>
pu l
pu ffs</w>
pu ddle</w>
pu b</w>
prote ct</w>
promo tional</w>
pro of</w>
pro mp
pro cess
process ion</w>
presen ter</w>
presen ted</w>
pre pping</w>
pre forming</w>
power ful</w>
positi oned</w>
por table</w>
pop corn</w>
polit ical</w>
po ts</w>
po pped</w>
po or
poor ly</w>
plu gs</w>
plu cking</w>
plan er</w>
pla ting</w>
pla stering</w>
pla ster</w>
pla n</w>
pla in</w>
pl ywood</w>
pitch ing</w>
pinea pples</w>
pin ned</w>
pin ch</w>
pil es</w>
pige on</w>
pic tured</w>
pi es</w>
pedestri an</w>
parasail ers</w>
par take</w>
pal ms</w>
pal let</w>
paint brush</w>
pa ws</w>
pa vement</w>
pa tting</w>
pa ired</w>
pa in</w>
pa ds</w>
pa cket</w>
pa ced</w>
p reaching</w>
p reacher</w>
p raise</w>
p licate</w>
p aring</w>
ou gh</w>
ori ga
origa mi</w>
organi zing</w>
organi st</w>
ome let</w>
off ici
o live</w>
o ling</w>
o dd
odd ly</w>
ni sh</w>
ni pple</w>
ni m</w>
neigh bour
neighbour hood</w>
neck tie</w>
narra ted</w>
na tive</w>
n ature</w>
n ate</w>
mul tic
move ment</w>
mo w</w>
mo tions</w>
mo stly</w>
mit ts</w>
mirro red</w>
mid st</w>
mi ssing</w>
mess age</w>
measure ments</w>
me xican</w>
me ter</w>
me ss</w>
me llow</w>
me dit
me ch
mech ani
matt ress</w>
mathema tical</w>
marin ated</w>
mar k</w>
mar ch</w>
maneu vering</w>
mana ging</w>
man e</w>
mal lets</w>
magni fying</w>
ma y
ma ran</w>
ma l</w>
ma d</w>
ma che
m x</w>
m um
m my</w>
m mer</w>
lun ge</w>
lu te</w>
lolli pops</w>
ll y
ll en</w>
ll a</w>
lit te</w>
lit e</w>
liqu ids</w>
lin k</w>
lif ing</w>
li zed</w>
li mb</w>
len se</w>
lea fs</w>
le sson</w>
le ss
landsca pers</w>
lan ded</w>
labe led</w>
la tor</w>
la thers</w>
la ter</w>
la sso</w>
la cross</w>
la ced</w>
l ty</w>
l o</w>
l ering</w>
kni f
knif es</w>
kn it
ki a</w>
ke e</w>
k screw</w>
k itten</w>
jump suit</w>
joh n
jerse ys</w>
ja ywalking</w>
j un
j an
jan it
ir a</w>
invol ved</w>
inter pre
inspe cting</w>
infla tes</w>
infla ted</w>
in for
in d
in as</w>
imit ating</w>
il i
ign ites</w>
identi fies</w>
id ent</w>
ice ps</w>
i sing</w>
i phone</w>
i b
hy sterically</w>
hover board</w>
hou ses</w>
horizon tal</w>
hor sing</w>
hol low</w>
hol lers</w>
hol lering</w>
ho wls</w>
ho vers</w>
ho of</w>
ho ney</w>
hi storical</w>
hee l</w>
heal th</w>
hea ding</w>
he aring</w>
hand ler</w>
h ides</w>
gymna sts</w>
gy ra
gy man</w>
gu l
gu ard</w>
groo med</w>
gril led</w>
gri ps</w>
gre et</w>
gradu ation</w>
goof ing</w>
golf ers</w>
glo wing</w>
gl ide</w>
gil r</w>
gi es</w>
gest uring</w>
gen telman</w>
garde ning</w>
gar b</w>
ga tors</w>
ga ming</w>
ga ge</w>
ga dget</w>
g our
fur ther</w>
fun ction</w>
fre shly</w>
fra mes</w>
foun da
founda tion</w>
fou rs</w>
fore ground</w>
fore arms</w>
for t</w>
for mer</w>
foo t
foc uses</w>
foc used</w>
flu ng</w>
flu id</w>
flu ff</w>
floo ded</w>
floo d</w>
flo wered</w>
flat tens</w>
fit ted</w>
fin ely</w>
fin ding</w>
fi sts</w>
fi ghts</w>
ff ed</w>
fea ther</w>
famil ies</w>
fa vorite</w>
fa shi
fa llen</w>
fa des</w>
fa ced</w>
fa ce
f ty</w>
f tly</w>
f ile</w>
eye lid</w>
eye lashes</w>
eye ball</w>
ey ed</w>
extingui sher</w>
exten sion</w>
experi en
ex pression</w>
ex pan
every where</w>
every one</w>
envelo pe</w>
energe tic</w>
en ough</w>
ea th</w>
e very</w>
e quations</w>
e f
dy eing</w>
du plicate</w>
drum sticks</w>
drum mers</w>
dri vers</w>
dri pping</w>
dre w</w>
dra ped</w>
dra ining</w>
dra in</w>
door knob</w>
don keys</w>
don al
do zers</w>
do s</w>
do ctors</w>
dispen ses</w>
disa sse
dire ctor</w>
dig ital</w>
difficul t</w>
dic ing</w>
di p</w>
di m</w>
deter gent</w>
deta ils</w>
descri bed</w>
deli vering</w>
decora tive</w>
decora tion</w>
decora ted</w>
decora te</w>
dec ided</w>
dead bolt</w>
de stro
de partment</w>
de nim</w>
de fla
de e
dange rously</w>
dange rous</w>
dang ling</w>
d ler</w>
d iner</w>
cy cles</w>
custo mers</w>
cu p
cu bes</w>
cross fit</w>
crea tion</w>
cre ek</w>
cra zy</w>
cr ushes</w>
court yard</w>
court room</w>
cough ing</w>
cos play</w>
cor ners</w>
cor kscrew</w>
contro ls</w>
contro lled</w>
continu ally</w>
conte m
conta cts</w>
construc ted</w>
congre ss</w>
condu cting</w>
comp ound</w>
comp onents</w>
comp onent</w>
commenta tors</w>
commenta ting</w>
commenta tes</w>
combin es</w>
com pa
com bed</w>
com b
colou red</w>
colle ctor</w>
colle cted</w>
col umn</w>
col lage</w>
col l
coa st</w>
coa ched</w>
co con
co ck</w>
co ck
co al</w>
clo ck</w>
climb ers</w>
cli pper</w>
cli mbed</w>
cler gyman</w>
clean ers</w>
cla w</w>
cho rus</w>
cher ry</w>
cheer leading</w>
char ging</w>
char ges</w>
chan ts</w>
chan nels</w>
challen ge</w>
cele br
cel ery</w>
ce ssive</w>
cast les</w>
car ts</w>
car e
cap tures</w>
cap ture</w>
camera s</w>
ca mo</w>
ca ligraphy</w>
ca ble</w>
c um
c licks</w>
c led</w>
c hoo
bun k</w>
bum ps</w>
bum p</w>
bull dozers</w>
bu ffing</w>
bro w
break dancing</w>
brea sts</w>
bra z
bra ided</w>
bott ling</w>
bon fire</w>
bob sle
bo red</w>
bo mb</w>
blind fold</w>
blin king</w>
bla sting</w>
bla des</w>
bil ly</w>
ber ries</w>
ben eath</w>
beat boxing</w>
be tter</w>
be ne
be ha
be comes</w>
bar rier</w>
ban quet</w>
baller inas</w>
bal lon</w>
bal ler</w>
bag pi
back stroke</w>
back side</w>
back flips</w>
back ed</w>
bac on</w>
ba tt
ba gging</w>
b mx</w>
b lea
b iting</w>
b ids</w>
atte nd</w>
atta ck</w>
athle tics</w>
as k</w>
argu es</w>
ar ray</w>
ar mo
ar ly</w>
ar gue</w>
aqu a
aqua tic</w>
applau ds</w>
appe aring</w>
appar el</w>
appar atus</w>
answ ering</w>
anima tion</w>
ang led</w>
an y
alterna tely</w>
alig ns</w>
al lowing</w>
al low</w>
ai med</w>
aggre ssively</w>
aero sol</w>
adver t</w>
admir es</w>
adjust ments</w>
adjust ment</w>
acroba tics</w>
acc ident</w>
acc ent</w>
ac tu
ac compan
ab se
a vo
a scends</w>
a mus
a id</w>
a dd
a a</w>
0 0</w>
zi p
zi g</w>
z one</w>
z ens</w>
young sters</w>
yo ke</w>
yan ks</w>
ya wn</w>
y i
x ima
xima tely</w>
wre sting</w>
work room</w>
wood worker</w>
win ning</w>
win ner</w>
wil li
wi se</w>
wi ches</w>
whi pping</w>
wh ines</w>
weigh s</w>
wei gh</w>
wea ve</w>
we ts</w>
we b
we ap
water proof</w>
war ning</w>
war mly</w>
wait ress</w>
wa de</w>
w ro
w oun
woun ded</w>
w iring</w>
w ired</w>
w ide
wide ly</w>
w arm</w>
visi bility</w>
vil lage</w>
vi sit
visit ors</w>
vi or</w>
vi king</w>
vi es</w>
veter in
veterin arian</w>
ver su
versu s</w>
ver i
veg gies</w>
ve t</w>
var ying</w>
va tes</w>
va lu
v in</w>
v in
v ac
util ity</w>
uten s
utens ils</w>
ur inal</w>
up wards</w>
up coming</w>
under hand</w>
un screws</w>
un rolls</w>
un ra
unra vels</w>
un identi
unidenti fied</w>
un hooks</w>
umin ated</w>
um bre
umbre lla</w>
ul k</w>
uk ele
ukele le</w>
u ti
u te</w>
u ral</w>
u l</w>
u dders</w>
u c
uc et</w>
u .
u. s.</w>
ty re</w>
ty e</w>
twen ty</w>
twen ties</w>
tuxe do</w>
tun nel</w>
tu bing</w>
tu bes</w>
tru cking</w>
trou sers</w>
trou ble</w>
tro l</w>
tri p</w>
tri ke</w>
tre me
treme ly</w>
transit ions</w>
trans f
tran sla
tra ys</w>
tra pi
tra it</w>
tra ctors</w>
tra ces</w>
tr y
tr o</w>
tr iceps</w>
tou rist</w>
tou ch
to ws</w>
to wels</w>
to dler</w>
tiss ues</w>
til y</w>
til er</w>
tic le</w>
ti ves</w>
ti pping</w>
ti mer</w>
ti ghts</w>
thou ght</w>
thea tre</w>
th ma</w>
th inks</w>
th en
tex ts</w>
ter top</w>
ter rier</w>
ten ces</w>
tem per</w>
tele vised</w>
tech no
techno logy</w>
teamma tes</w>
te sts</w>
tan ks</w>
tan ce</w>
tal ler</w>
tack ling</w>
tack led</w>
ta ut</w>
ta sks</w>
ta pe
tape stry</w>
ta maran</w>
ta c
tac tical</w>
t up</w>
t tes</w>
t ons</w>
t light</w>
t ide</w>
t id
tid ying</w>
t down</w>
t bike</w>
swit ched</w>
swir ling</w>
swir l</w>
swi ftly</w>
swe at</w>
swal low</w>
sw an</w>
surroun ds</w>
sur gical</w>
sun set</w>
sum o</w>
sum mer
sum mari
sub tit
su es</w>
su cker</w>
stu ri
stra tion</w>
stra te
stra pping</w>
str and</w>
stomach s</w>
sto rage</w>
stit ches</w>
stir ing</w>
stin ky</w>
stil ts</w>
stick er</w>
stea ks</w>
star ed</w>
stap ling</w>
stap ler</w>
stan ces</w>
stair case</w>
stab s</w>
stab ility</w>
sta tic</w>
sta mps</w>
sta mp</w>
sta ding</w>
st ur
st en
st are</w>
squea ls</w>
squ i
squ ad</w>
sprink led</w>
spra y
sport sman</w>
spo tter</w>
spo tlight</w>
spo oning</w>
spo kes</w>
spla shing</w>
spla sh</w>
spir it</w>
spir ator</w>
spir al</w>
spin ners</w>
spee ded</w>
specta cles</w>
spe lling</w>
spe ctive</w>
spa de</w>
sp icy</w>
soo thing</w>
somersaul ting</w>
sociali ze</w>
soa king</w>
so r</w>
so lid</w>
so les</w>
so ars</w>
snow plow</w>
sna cks</w>
sma cks</w>
slow motion</w>
sla ck</w>
sky dives</w>
skin ned</w>
skii ing</w>
ski mo</w>
ski mmer</w>
ski m</w>
ske wers</w>
ske tch</w>
skate park</w>
sk ins</w>
sing ers</w>
sin king</w>
simula ting</w>
simula ted</w>
sig nal</w>
sidel ines</w>
sid ent</w>
si mp
si fter</w>
si ft</w>
shi pping</w>
shi fter</w>
shel ls</w>
shel l
shell fish</w>
she p
shep ard</w>
shar pie</w>
sha ding</w>
sh out</w>
sh ment</w>
sh iny</w>
sh ined</w>
sex y</w>
ser ver</w>
separa tes</w>
sen tences</w>
sen ate</w>
section ing</w>
sea m</w>
se wer</w>
se tup</w>
se ssion</w>
se min
se l</w>
se gue</w>
se ed</w>
sculp tor</w>
scri bes</w>
scra tched</w>
scra pe</w>
scho ol
scen ari
scenari o</w>
scan tily</w>
scal p</w>
scaf folding</w>
sc ans</w>
sc an</w>
saute ed</w>
sar i</w>
sand wiches</w>
sam sung</w>
sai lo
sailo rs</w>
sa mples</w>
sa ble</w>
s way</w>
s ou
s iden
siden tial</w>
s ick</w>
s al</w>
run way</w>
rumma ges</w>
rotiss erie</w>
rota te</w>
roo t</w>
roller skating</w>
roller skate</w>
robo ts</w>
roa ming</w>
roa ds</w>
ro ped</w>
ro le</w>
ro ad
road way</w>
rin es</w>
rif les</w>
ri zed</w>
ri ver
ri pped</w>
ri ous</w>
ri m</w>
ri d</w>
ri c</w>
rhyth mic
rhythmic ally</w>
rever ses</w>
retrie ver</w>
retrie ve</w>
rest urant</w>
respon ds</w>
respon d</w>
repe ated</w>
remo de
rema ining</w>
rehear sing</w>
rega lia</w>
reg ards</w>
refle ctive</w>
reen act</w>
ree f</w>
red headed</w>
rectan gle</w>
rec tly</w>
rec liner</w>
rea cts</w>
re view</w>
re sul
re sted</w>
re spirator</w>
re sidential</w>
re se
re o</w>
re nt</w>
re marks</w>
re ly</w>
re gi
re els</w>
re cycling</w>
re commen
re cen
recen tly</w>
rappe lling</w>
rap per</w>
ran ch</w>
rac quets</w>
rac ele
rac efully</w>
rac ed</w>
ra tory</w>
ra in
ra il</w>
ra ging</w>
ra f
raf ters</w>
qu ing</w>
purpose ly</w>
pup pies</w>
pun k</w>
pu ffing</w>
prote cted</w>
promp ts</w>
promo tes</w>
progre ssion</w>
profe ssor</w>
produ ction</w>
produ ce</w>
proce ssor</w>
proce ssed</w>
prin ting</w>
pre sident</w>
pre school</w>
pre ps</w>
pre forms</w>
pre ci
pr ices</w>
pr ice</w>
pp ling</w>
pou l
poul try</w>
pou ch</w>
post man</w>
positi oning</w>
por trait</w>
pon toon</w>
poe ira</w>
po ster</w>
po sable</w>
po ck</w>
plu gged</w>
plea sed</w>
play pen</w>
plan ted</w>
plan ks</w>
plan ation</w>
pier ces</w>
pier c
pierc ings</w>
photo copier</w>
per spective</w>
per on
peron i</w>
per ing</w>
per i
peri od</w>
per ha
perha ps</w>
per ched</w>
pen sive</w>
pea ce
pe ws</w>
pe pper</w>
pe p</w>
pe p
pep peroni</w>
pe na
pena lty</w>
pe gs</w>
pe ers</w>
pe ering</w>
pe as</w>
pe ars</w>
pati ently</w>
parro t</w>
para sails</w>
par lor</w>
par ce
par al
pan tomi
pack aging</w>
pack aged</w>
pa ved</w>
pa tr
pa ssed</w>
p ying</w>
p th</w>
p ry</w>
p roud</w>
p rank</w>
p ra
p lou
plou gh</w>
p ine</w>
p hi
p h</w>
p at</w>
p a</w>
over taken</w>
over looking</w>
out stretched</w>
out fielder</w>
our th</w>
ou ter</w>
ou se</w>
ou d</w>
organi zed</w>
or nate</w>
or an
oran ges</w>
opin ion</w>
op ter</w>
on y</w>
on line</w>
olo red</w>
offici als</w>
off screen</w>
off icial</w>
of s</w>
oc cu
obser vers</w>
obser ved</w>
o tic</w>
o reo</w>
o o</w>
o ng</w>
o be
obe se</w>
nu de</w>
nor mal</w>
no dding</w>
night club</w>
ni val</w>
ni st</w>
news woman</w>
news man</w>
ne ver</w>
ne ts</w>
ne st</w>
ne ed</w>
ne cess
necess ary</w>
naviga ting</w>
nat ural</w>
na list</w>
mus t</w>
multic olored</w>
mu p
mp ling</w>
mouth piece</w>
moun ds</w>
motorcy le</w>
moon walking</w>
monstra tes</w>
mon d</w>
moi sturi
mobil es</w>
mo vers</w>
mo to
mo thers</w>
mo ps</w>
mo ped</w>
mo mmy</w>
mi m
mess aging</w>
mess ages</w>
men tions</w>
men tion
men tal</w>
mel ted</w>
medi ately</w>
mechani sm</w>
mechan ics</w>
measu red</w>
me ns</w>
me l</w>
me ats</w>
mb led</w>
mb er</w>
may be</w>
matado rs</w>
mass ive</w>
marsh mellow</w>
mara thon</w>
manu fac
mana ges</w>
man n</w>
man ic
manic u
mache te</w>
ma y</w>
ma son</w>
ma shing</w>
ma je
ma id</w>
