[p] 1218020
a 134576
is 31537
man 27816
in 14985
person 13000
the 12971
of 12732
and 12519
woman 11812
on 10742
young 8940
are 7964
two 7772
, 7618
to 7609
boy 6957
people 6562
girl 6292
group 5851
with 5456
an 4613
little 3704
at 3295
men 2986
someone 2943
his 2867
sitting 2770
baby 2755
while 2578
playing 2488
using 2437
as 2323
up 2283
how 2280
child 2022
then 1977
her 1916
down 1893
guy 1869
standing 1852
holding 1820
uses 1718
one 1686
small 1588
wearing 1433
some 1315
large 1304
several 1300
showing 1290
women 1285
into 1250
girls 1241
out 1224
doing 1223
from 1196
plays 1116
sits 1107
kid 1071
shown 1071
three 1063
around 1051
lady 1049
riding 1032
by 1026
stands 1017
another 1015
kids 1013
he 1006
ball 978
boys 969
toddler 949
it 945
holds 944
outside 935
their 933
front 925
demonstrates 918
off 883
children 865
that 857
's 856
being 855
talking 821
shows 813
couple 807
over 807
hands 790
room 776
demonstrating 766
trying 754
runs 749
table 743
hand 740
- 738
does 713
has 697
back 673
water 667
walking 665
male 661
about 642
throws 627
piece 616
music 610
walks 602
white 602
jumps 594
was 593
play 588
through 570
laying 568
black 561
game 555
gym 552
floor 551
dancing 545
dog 538
she 537
takes 533
shirt 520
hair 518
puts 517
for 501
there 499
rides 496
making 492
talks 478
top 470
they 462
car 461
female 460
video 458
chair 452
dance 445
field 441
running 434
seen 431
who 425
very 424
other 423
red 422
something 418
tries 417
snow 417
machine 415
stage 411
camera 410
putting 409
together 406
guys 394
inside 392
ice 390
stand 386
crowd 383
dressed 383
across 382
having 375
head 371
four 368
long 364
older 362
getting 357
performing 355
blue 355
working 354
picks 351
teenage 341
throwing 339
high 337
before 335
seated 333
places 331
looks 330
sit 329
football 329
basketball 328
use 327
onto 322
giving 321
gets 321
each 320
team 320
side 319
makes 319
kitchen 319
swimming 318
food 317
different 314
teams 312
baseball 311
behind 306
pool 301
jumping 295
looking 294
soccer 294
few 289
driving 287
eating 284
next 283
player 283
adult 282
do 282
lifts 281
explains 280
performs 280
board 279
hits 279
face 277
bottle 274
bike 271
tool 269
speaking 267
paper 267
pushes 267
attempts 267
bunch 266
taking 263
band 262
boat 259
lying 258
jump 258
pair 255
moving 252
when 251
pulls 251
explaining 249
rope 248
blows 246
horse 245
moves 242
climbing 241
lays 241
speaks 240
players 239
watching 238
practicing 238
tree 237
pushing 235
wood 234
fire 233
where 231
kicks 231
cutting 228
put 227
be 225
turns 224
knife 224
going 223
them 223
various 223
ground 222
street 220
green 220
opens 218
golf 218
make 216
individual 214
" 213
dark 209
open 208
many 208
slowly 207
bar 204
rock 203
what 201
can 201
meat 201
old 200
track 199
him 198
all 198
bed 195
along 195
this 194
dances 193
swings 192
laughing 191
truck 190
t 189
set 188
metal 187
blowing 186
hockey 186
hitting 185
ride 185
which 185
chef 185
air 184
like 184
gives 184
glass 183
or 183
cat 179
mouth 177
skiing 177
climbs 176
news 176
appears 176
goes 175
wall 175
lifting 175
feet 174
cooking 174
toy 174
close 172
cut 172
hat 171
adults 171
starts 171
house 171
cuts 171
mother 169
watch 168
middle 168
pulling 167
family 167
demonstration 166
singing 166
time 166
arms 165
worker 164
works 164
get 162
walk 161
line 161
have 160
artist 160
glasses 159
hold 159
flips 157
washing 157
building 156
arm 156
spins 156
teen 155
couch 155
fast 155
fishing 155
attempting 154
applying 154
plastic 154
beach 153
multiple 152
applies 152
yellow 152
pole 151
fish 151
cleaning 150
show 148
shirtless 148
work 148
wooden 148
beer 148
balls 147
describing 146
phone 145
perform 144
pink 143
pan 143
heavy 142
bowl 142
. 142
falls 142
run 140
held 140
laughs 140
dogs 140
tennis 140
but 139
its 139
guitar 139
preparing 138
under 138
drives 138
tie 138
electric 138
practices 136
stick 136
orange 136
hit 136
view 136
box 135
full 135
begins 134
vehicle 134
object 134
rolling 134
tractor 134
a@@ 133
egg 133
weight 133
pours 132
after 132
bicycle 132
removes 131
kicking 131
suit 131
living 131
end 131
paint 131
eats 131
court 131
song 130
describes 129
leg 129
bag 129
skating 129
during 128
rolls 128
body 128
placing 128
against 128
ski 128
athlete 128
prepares 127
go 127
hill 127
e@@ 127
workers 127
dough 127
cards 127
swinging 126
motion 126
forward 126
opening 125
big 125
park 124
grass 124
lot 123
shot 123
yard 123
first 123
towards 122
sticks 122
outdoor 122
gloves 121
were 121
outdoors 120
area 120
watches 120
painting 120
pieces 119
brush 119
wheel 119
mom 118
legs 118
himself 117
attached 117
take 117
door 117
hanging 116
tutorial 116
sets 116
road 116
exercise 116
says 115
father 115
weights 115
bull 115
background 114
re@@ 114
near 114
cap 114
card 114
push 113
asian 113
way 112
grabs 111
blow 111
scuba 111
away 110
used 110
school 110
picking 109
shorts 109
teaching 109
foot 109
wax 109
between 108
instructions 108
number 108
tells 108
race 108
screen 107
studio 107
sled 107
both 106
juggling 106
brushing 106
setting 105
recording 104
comes 104
ladies 104
diving 104
voice 104
slow 104
quickly 103
kneeling 103
place 103
ring 103
throw 102
gear 101
pouring 101
pull 101
fingers 101
gas 101
spinning 101
tire 100
balloon 100
device 99
lies 99
ping 99
infant 99
shaving 99
plate 98
gentleman 98
saw 98
lights 98
rubbing 97
folding 97
wine 97
audience 95
dress 95
type 95
construction 95
ready 94
edge 94
steps 94
drinking 94
groups 94
swing 94
apple 94
skier 94
sports 93
drinks 93
move 93
sings 93
eyes 92
un@@ 92
catches 92
foreign 92
talk 92
drawing 92
practice 92
indoor 92
ups 92
waves 92
feeding 92
eggs 92
skis 92
couples 92
slide 91
microphone 91
bench 91
bowling 91
in@@ 90
bathroom 90
dirt 90
shoe 90
gathered 89
belly 89
tattoo 89
slides 89
snowy 89
hammer 89
ocean 89
sand 88
try 88
y 88
karate 88
helps 87
ing 87
above 87
pipe 87
swims 87
sleeping 87
2 86
s 86
i 86
la@@ 85
wrestling 85
folds 85
somebody 85
carefully 85
clothes 85
brushes 85
de@@ 84
o@@ 84
event 84
points 84
individuals 84
right 84
spray 84
power 83
covered 83
rubs 83
hole 83
you 83
class 83
hot 83
smiling 83
language 82
light 82
cream 82
finger 82
picture 82
competing 82
home 82
friends 82
d 82
flip 82
drink 82
lake 82
ed 82
teenager 82
helping 81
helmet 81
filming 81
kneels 81
turning 81
drill 81
marching 81
eye 80
drum 80
string 80
backwards 79
look 79
sing 79
seat 79
es 79
elderly 79
smoking 79
washes 79
lift 79
males 78
ting 78
repeatedly 78
cup 78
garbage 78
carrying 77
swimmers 77
book 77
needle 77
frisbee 77
narrates 76
d@@ 76
g@@ 76
competition 76
removing 76
leans 76
ladder 76
kick 76
start 75
bends 75
shakes 75
listening 75
barbell 75
digging 75
ca@@ 75
trampoline 75
telling 74
s@@ 74
writing 74
shaking 74
hose 74
curling 74
break 74
pencil 74
roller 74
sword 74
ts 73
blonde 73
cook 73
wrapping 73
flipping 73
surfing 73
liquid 73
boxing 73
dancers 73
deck 73
ropes 72
five 72
others 72
co@@ 72
neck 72
circle 72
loud 72
brown 72
sail 72
mat 72
martial 72
cheering 71
makeup 71
pick 71
commercial 71
clean 71
mask 71
swim 71
carving 71
piano 71
costume 70
drums 70
alligator 70
touches 70
bow 70
wheelchair 70
restaurant 70
cake 70
skates 70
bottom 69
teenagers 69
students 69
club 69
forth 69
tying 69
cloth 69
carpet 69
bat 69
instructor 68
empty 68
so 68
sidewalk 68
instrument 68
half 68
beside 68
had 68
bounces 68
basket 68
horses 68
uniform 67
bartender 67
juggles 67
lawn 67
traffic 67
flying 66
desk 66
b@@ 66
asks 66
fun 66
drops 66
cell 66
ba@@ 66
motorcycle 66
played 66
crawling 66
crying 66
snake 66
pong 66
c@@ 65
cheer 65
p@@ 65
lap 65
bu@@ 65
o 65
lapse 65
course 65
exercises 65
chest 65
laugh 64
left 64
new 64
pen 64
just 64
concert 64
ties 64
christmas 64
paints 64
pot 64
kite 64
flat 63
short 63
reading 63
ted 63
tv 63
reporter 63
aged 63
frying 63
sink 63
wind 63
balancing 63
feeds 63
mountain 62
part 62
; 62
routine 62
proper 62
jacket 62
advertisement 62
massaging 62
ar@@ 62
pulled 62
wet 62
racing 62
concrete 62
thread 62
cowboy 62
coin 62
massage 62
rink 62
church 62
nose 61
if 61
k@@ 61
ers 61
footage 61
shoots 61
bottles 61
cow 61
store 61
diver 61
jet 61
shoes 61
counter 60
m@@ 60
animal 60
ly 60
placed 60
dad 60
night 60
mechanical 60
sliding 60
weather 60
cliff 59
ds 59
round 59
toward 59
ro@@ 59
persons 59
demonstrate 59
cars 59
bedroom 59
cart 59
tight 59
river 59
arts 59
volleyball 59
smiles 58
musical 58
t@@ 58
pa@@ 58
shooting 58
wave 58
tied 58
waving 57
an@@ 57
filled 57
displays 57
sheet 57
colored 57
ex@@ 57
followed 57
position 57
son 57
cross 57
fight 57
coffee 57
scissors 57
shop 56
l@@ 56
bungee 56
six 56
le@@ 56
knees 56
coming 56
help 56
woods 56
er 56
match 56
reaches 56
clothing 56
without 56
friend 56
sewing 56
ling 55
window 55
not 55
beat 55
no 55
special 55
en@@ 55
sprays 55
bucket 55
gymnasium 55
smoke 55
lit 55
spoon 55
stomach 55
lane 55
bulldozer 55
pig 55
climb 54
herself 54
squats 54
discussing 54
classroom 54
eat 54
bubble 54
skateboard 54
trapeze 54
grassy 53
scene 53
adjusts 53
l 53
party 53
huge 53
m 53
presses 53
finishes 53
office 53
log 53
ballet 53
hard 52
american 52
pressing 52
oil 52
tools 52
tosses 52
petting 52
operating 52
chewing 52
day 51
po@@ 51
performer 51
made 51
clapping 51
leaning 51
sort 51
clips 51
instructing 51
garage 51
spraying 51
reads 51
backyard 51
tricks 51
clear 51
kind 51
factory 51
li@@ 51
stove 51
ta@@ 51
times 51
watermelon 51
attempt 50
ma@@ 50
di@@ 50
mo@@ 50
faces 50
driver 50
rocks 50
busy 50
really 50
films 50
mans 50
bouncing 50
cement 50
learning 50
vacuum 50
toilet 50
n@@ 50
skate 50
unicycle 50
se@@ 49
sunglasses 49
equipment 49
tank 49
haired 49
step 49
remove 49
breaks 49
substance 49
divers 49
fly 49
yoga 49
strip 49
style 49
leaf 49
underwater 49
tapping 49
chopping 49
mail 49
shaves 49
sheep 49
be@@ 48
see 48
i@@ 48
teens 48
computer 48
leaves 48
records 48
square 48
bo@@ 48
waiting 48
seems 48
still 48
golfer 48
button 48
camel 48
safety 47
indian 47
only 47
discusses 47
stretching 47
stretches 47
taps 47
speed 47
television 47
massages 47
happy 47
sausage 47
enjoying 47
hoop 47
do@@ 47
youth 47
ramp 47
pants 47
cheese 47
beans 47
scooter 47
lacrosse 47
roll 46
starting 46
tall 46
pans 46
pretends 46
cheers 46
tape 46
fighting 46
u@@ 46
w@@ 46
themselves 46
item 46
series 46
burning 46
dive 46
coat 46
filling 46
tube 46
remote 46
writes 46
cheerleaders 46
slices 46
crawls 46
se 45
stone 45
females 45
grey 45
art 45
adds 45
training 45
athletic 45
ra@@ 45
knee 45
sky 45
surrounded 45
bent 45
k 45
gum 45
draws 45
kayak 45
goat 45
cookies 44
lo@@ 44
cleans 44
e 44
heard 44
outfit 44
technique 44
indoors 44
instruments 44
ho@@ 44
batter 44
staring 44
parachute 44
purple 44
exercising 44
snowmobile 44
stops 44
mirror 44
shots 44
net 44
trash 44
punching 44
protective 43
well 43
cute 43
mixing 43
si@@ 43
container 43
creating 43
pointing 43
roasting 43
pe@@ 43
compete 43
struggles 43
welding 43
toddlers 43
gun 43
pancake 43
gong 43
v@@ 42
platform 42
clip 42
n 42
le 42
us 42
headphones 42
same 42
dart 42
ses 42
ri@@ 42
wraps 42
second 42
birthday 42
fills 42
cracks 42
drive 42
dead 42
pillow 42
hula 42
stood 41
to@@ 41
professional 41
f@@ 41
ha@@ 41
cricket 41
pile 41
flute 41
flowers 41
sa@@ 41
meet 41
on@@ 41
cooks 41
dancer 41
surface 41
blower 41
surfer 41
tap 41
fold 41
potato 41
scrabble 41
swimmer 41
hangs 40
gra@@ 40
lines 40
podium 40
fixing 40
me@@ 40
pretending 40
beard 40
sat 40
winter 40
ter 40
st@@ 40
claps 40
ti@@ 40
bread 40
vegetables 40
trick 40
fabric 40
tongue 40
tune 40
bee 40
musicians 40
twirls 40
shirts 40
shovel 40
catcher 40
mop 40
bird 40
calf 40
darts 40
atm 40
facing 39
instructs 39
st 39
ga@@ 39
falling 39
stadium 39
axe 39
squatting 39
items 39
wrapped 39
fall 39
counting 39
wipes 39
candles 39
prepare 39
blanket 39
sailing 39
waxing 39
narrating 38
fence 38
teacher 38
y@@ 38
salad 38
handle 38
crosses 38
approaches 38
ding 38
violin 38
past 38
thrown 38
les 38
until 38
sped 38
flies 38
lands 38
give 38
lifted 38
nail 38
salon 38
control 38
bricks 38
sign 38
pitcher 38
bald 38
peeling 38
pizza 38
brick 38
elephant 38
dribbles 38
chess 38
passes 37
r@@ 37
money 37
garden 37
electronic 37
center 37
du@@ 37
carries 37
yelling 37
trimming 37
properly 37
ps 37
successfully 37
rod 37
grill 37
balances 37
athletes 37
daughter 37
polo 37
pass 37
crossing 37
train 36
raises 36
bending 36
adjusting 36
torch 36
tes 36
station 36
catch 36
zoo 36
b 36
beautiful 36
tub 36
spreading 36
montage 36
deep 36
teeth 36
te 36
age 36
block 36
chicken 36
lots 36
dives 36
soap 36
handstand 36
bobsled 36
picked 36
sailboat 36
babies 36
poker 36
marbles 36
chairs 35
con@@ 35
p 35
tile 35
da@@ 35
saying 35
car@@ 35
th@@ 35
build 35
cooked 35
cookie 35
dish 35
flour 35
tossing 35
fruit 35
circular 35
rubber 35
workout 35
sounds 35
press 35
nails 35
pushed 35
combing 35
feed 35
grinder 35
balloons 35
weaving 35
smokes 35
upside 34
scenes 34
alone 34
turn 34
thin 34
sed 34
al@@ 34
path 34
balance 34
contest 34
figure 34
instructional 34
applied 34
country 34
paintball 34
hang 34
yells 34
parts 34
lined 34
human 34
sh@@ 34
keeps 34
sticking 34
der 34
yarn 34
ons 34
punches 34
cries 34
3 34
newspaper 34
iron 34
slicing 34
dye 34
apples 34
coach 34
mascara 34
flashlight 34
para 34
harness 33
ls 33
/ 33
bare 33
il@@ 33
apply 33
sides 33
dig 33
site 33
been 33
target 33
er@@ 33
hall 33
g 33
h@@ 33
ad@@ 33
gather 33
wrap 33
fitness 33
material 33
ran 33
roof 33
folded 33
lighter 33
stirring 33
cage 33
fencing 33
ironing 33
pinball 33
contact 33
we 32
ces 32
suits 32
loudly 32
broom 32
tables 32
display 32
ster 32
driveway 32
cu@@ 32
passing 32
sucking 32
strikes 32
lighting 32
harmonica 32
sharpening 32
ax 32
mud 32
postal 32
laundry 32
bags 32
parasailing 32
refrigerator 32
treadmill 32
wire 31
words 31
appear 31
gathering 31
sport 31
gently 31
whole 31
ng 31
cks 31
younger 31
shaped 31
slope 31
raw 31
teaches 31
stirs 31
me 31
muscular 31
flame 31
pump 31
ingredients 31
goal 31
referee 31
knitting 31
sushi 31
trumpet 31
pictures 30
strapped 30
funny 30
bangs 30
asking 30
african 30
leather 30
spaghetti 30
tion 30
al 30
product 30
touching 30
towel 30
ea@@ 30
point 30
lock 30
pro@@ 30
ks 30
gold 30
wears 30
lid 30
inserts 30
ves 30
so@@ 30
city 30
bath 30
amount 30
sharp 30
bikes 30
twists 30
unseen 30
pops 30
bounce 30
rodeo 30
following 30
led 30
peels 30
police 30
segway 30
kiss 30
mushroom 30
wheelbarrow 30
base 29
narrator 29
objects 29
sound 29
we@@ 29
fa@@ 29
hand@@ 29
sofa 29
musician 29
uniforms 29
eyebrows 29
colorful 29
com@@ 29
shed 29
circles 29
dips 29
adding 29
given 29
mixes 29
jo@@ 29
fat 29
sea 29
beekeeper 29
spanish 29
follows 29
visible 29
rider 29
timelapse 29
chews 29
sneezes 29
stop 29
shore 29
kisses 29
chops 29
banging 29
newborn 29
wrench 29
butcher 29
hugging 29
bite 29
licks 29
lawnmower 29
displayed 28
pre@@ 28
performance 28
sts 28
ct 28
go@@ 28
pairs 28
ving 28
cur@@ 28
closed 28
belt 28
gray 28
row 28
free 28
tra@@ 28
arrow 28
wide 28
officer 28
displaying 28
workshop 28
ck@@ 28
crowded 28
ded 28
th 28
great 28
combs 28
far 28
gloved 28
barber 28
bubbles 28
process 28
cleaner 28
stares 28
stack 28
milk 28
corner 28
hugs 28
razor 28
pineapple 28
war 28
monopoly 28
puppet 28
inhaler 28
no@@ 27
ment 27
frame 27
fit 27
ear 27
ins 27
pit 27
pond 27
it@@ 27
business 27
newscaster 27
shoot 27
blond 27
wrestle 27
ler 27
lets 27
chain 27
tive 27
ch@@ 27
recorded 27
excited 27
drying 27
grabbing 27
straight 27
student 27
industrial 27
tissue 27
4 27
surfers 27
surfs 27
public 27
saxophone 27
boats 27
chips 27
pour 27
costumes 27
chisel 27
mallet 27
fork 27
skillet 27
sausages 27
te@@ 27
keyboard 27
parking 27
dribbling 27
easter 27
skiers 27
puppets 27
speak 26
bridge 26
gliding 26
filmed 26
painted 26
acting 26
ss 26
tly 26
highchair 26
tail 26
participating 26
hallway 26
fill 26
members 26
performers 26
tip 26
shovels 26
story 26
things 26
measuring 26
branch 26
ning 26
screw 26
bar@@ 26
re 26
id@@ 26
leading 26
pad 26
bright 26
snowboarder 26
oven 26
scoops 26
sauce 26
finishing 26
good 26
fully 26
ends 26
bathing 26
gu@@ 26
cra@@ 26
spread 26
image 26
stream 26
trees 26
trail 26
bearded 26
design 26
else 26
ms 26
for@@ 26
parents 26
separate 26
inflatable 26
napkin 26
bit 26
pitch 26
poured 26
arena 26
shoveling 26
marker 26
will 26
hook 26
threw 26
pumpkin 26
par@@ 26
clay 26
dy 26
cracking 26
dishes 26
peel 26
buttons 26
sandwich 26
batting 26
hopscotch 26
javelin 26
stroke 26
ledge 25
sunny 25
cast 25
bend 25
shopping 25
listens 25
keeping 25
screaming 25
ir@@ 25
instruction 25
crew 25
forest 25
ru@@ 25
flower 25
plants 25
ge@@ 25
ne@@ 25
sp@@ 25
rapidly 25
snowboard 25
cam 25
ce 25
parent 25
slaps 25
jumper 25
jumped 25
boxes 25
closeup 25
checking 25
operates 25
mobile 25
wo@@ 25
king 25
vest 25
tea 25
brings 25
alley 25
orchestra 25
shoulder 25
knocks 25
carves 25
goggles 25
shave 25
el@@ 25
boots 25
soldiers 25
fed 25
snowboarding 25
sanding 25
lay 24
striped 24
interviewed 24
award 24
j@@ 24
wiping 24
raising 24
engaged 24
r 24
decorating 24
jeans 24
twisting 24
tray 24
spreads 24
ve 24
ve@@ 24
read 24
pumps 24
double 24
ic@@ 24
motorized 24
hats 24
pressure 24
giant 24
n't 24
sledding 24
action 24
color 24
pitches 24
grooming 24
blade 24
cartwheel 24
chainsaw 24
cube 24
caught 24
softball 24
pets 24
twirling 24
polish 24
ballerina 24
asleep 24
laser 24
skateboarders 24
milking 24
cello 24
camels 24
sc@@ 23
self 23
come 23
beginning 23
' 23
keeper 23
fake 23
shape 23
noise 23
dra@@ 23
report 23
including 23
ver@@ 23
clap 23
bus 23
z@@ 23
begin 23
participate 23
cardboard 23
u 23
announcer 23
gymnast 23
ned 23
birds 23
trainer 23
split 23
silver 23
pi@@ 23
motor 23
riders 23
flaming 23
spin 23
mower 23
wheels 23
surf 23
bear 23
sta@@ 23
fe@@ 23
single 23
shuffling 23
spectators 23
knives 23
socks 23
naked 23
anchor 23
runner 23
cave 23
downhill 23
badminton 23
microscope 23
ings 22
encourages 22
su@@ 22
receives 22
rea@@ 22
thick 22
thing 22
shallow 22
engage 22
interview 22
tu@@ 22
cked 22
brother 22
sporting 22
skin 22
squeezes 22
variety 22
aring 22
digs 22
ci@@ 22
wooded 22
pokes 22
messing 22
ful 22
taken 22
c 22
removed 22
pop 22
done 22
w 22
bur@@ 22
crouches 22
tiny 22
cover 22
wash 22
graffiti 22
phones 22
zing 22
wa@@ 22
casino 22
wheeled 22
hurdles 22
catching 22
breaking 22
boarding 22
pin 22
your 22
dumps 22
pe 22
land 22
tips 22
drawn 22
lip 22
sharpens 22
oyster 22
waist 22
polishing 22
cor@@ 22
dominoes 22
boxers 22
tightrope 22
grapes 22
ll 21
suspended 21
artists 21
covering 21
per@@ 21
meeting 21
cha@@ 21
ke 21
text 21
structure 21
stairs 21
examines 21
lips 21
ad 21
dressing 21
waits 21
shapes 21
rolled 21
ic 21
ke@@ 21
types 21
skills 21
ab@@ 21
fla@@ 21
leads 21
stepping 21
present 21
lone 21
threading 21
handling 21
ery 21
more 21
colors 21
canoe 21
completes 21
dock 21
beats 21
carrier 21
changes 21
ck 21
ou@@ 21
slice 21
form 21
grinding 21
gs 21
walked 21
scallops 21
pet 21
hug 21
snowman 21
dumpster 21
stir 21
skater 21
frozen 21
civil 21
skateboarding 21
mushrooms 21
images 20
conversation 20
introduces 20
gestures 20
act 20
stuck 20
tee 20
radio 20
drags 20
waters 20
handles 20
cla@@ 20
ws 20
head@@ 20
mi@@ 20
lotion 20
trowel 20
soft 20
ging 20
ing@@ 20
x 20
at@@ 20
hi@@ 20
bi@@ 20
sideways 20
baking 20
chocolate 20
spatula 20
dry 20
glides 20
ys 20
pping 20
noises 20
ky 20
gymnastics 20
closes 20
pack 20
dining 20
floating 20
surfboard 20
salt 20
blocks 20
lego 20
fighters 20
horseback 20
third 20
counts 20
lens 20
distance 20
yawns 20
toes 20
jeep 20
changing 20
shake 20
licking 20
sander 20
dis@@ 20
firefighters 20
stretch 20
cigarette 20
flag 20
yawning 20
opened 20
trombone 20
domino 20
organ 20
extended 19
stool 19
doctor 19
tri@@ 19
extends 19
fans 19
min@@ 19
pumping 19
tions 19
notes 19
sh 19
arranges 19
underneath 19
attaching 19
infront 19
mic 19
dinner 19
ters 19
cartwheels 19
hood 19
dipping 19
order 19
word 19
package 19
parachuting 19
puppy 19
squat 19
x@@ 19
comb 19
ten 19
mowing 19
helmets 19
luge 19
trio 19
wait 19
strips 19
coloring 19
testing 19
cartoon 19
cabinet 19
toys 19
screams 19
straw 19
poles 19
life 19
windsurfing 19
carve 19
f 19
glove 19
calls 19
vi@@ 19
im@@ 19
vacuuming 19
watering 19
guide 19
guns 19
lower 19
fist 19
tickling 19
directing 19
puzzle 19
basketballs 19
eyebrow 19
pla@@ 19
wake 19
cork 19
roast 19
tiles 19
proposes 19
conductor 19
sharpener 19
marshmallow 19
yolk 19
whilst 18
bs 18
solo 18
eyeglasses 18
ju@@ 18
heating 18
beating 18
lers 18
crocodile 18
( 18
mu@@ 18
discuss 18
traditional 18
project 18
ally 18
siting 18
plant 18
mechanic 18
knot 18
connected 18
auction 18
rings 18
gi@@ 18
leaps 18
photo 18
mix 18
tch 18
nurse 18
pu@@ 18
drilling 18
ns 18
icy 18
skydiving 18
ge 18
tically 18
creates 18
let 18
ja@@ 18
heads 18
outfits 18
pose 18
gymnastic 18
engine 18
powered 18
wi@@ 18
sucks 18
rotates 18
ch 18
candle 18
sledge 18
winds 18
or@@ 18
own 18
brea@@ 18
either 18
water@@ 18
pajamas 18
holes 18
finish 18
man@@ 18
ver 18
plow 18
ped 18
barefoot 18
rug 18
cold 18
walker 18
branches 18
thumb 18
sweep 18
cone 18
threads 18
planting 18
ked 18
letting 18
kilt 18
mortar 18
moon 18
copy 18
harp 18
the@@ 17
cord 17
climber 17
facial 17
drummer 17
pens 17
drumming 17
na@@ 17
inter@@ 17
bikini 17
che@@ 17
checks 17
gentlemen 17
range 17
noisy 17
strong 17
playfully 17
almost 17
trims 17
ner 17
narration 17
certain 17
technician 17
apart 17
ker 17
goats 17
bandage 17
ze 17
low 17
ating 17
soda 17
chefs 17
sha@@ 17
wing 17
ming 17
ate 17
plank 17
singer 17
launches 17
rips 17
presents 17
ger 17
boards 17
bouncy 17
braids 17
chop 17
fl@@ 17
letters 17
fil@@ 17
carry 17
chasing 17
gate 17
men@@ 17
ches 17
key 17
enters 17
mar@@ 17
youths 17
shuffles 17
atop 17
tires 17
robot 17
boxer 17
marshmallows 17
butter 17
crack 17
tic 17
flash 17
wrestlers 17
views 17
mailman 17
cymbals 17
gift 17
military 17
lightly 17
sock 17
jacks 17
kickball 17
horseshoe 17
welder 17
discus 17
priest 17
ity 16
zes 16
smaller 16
attire 16
onlookers 16
film 16
rocking 16
too 16
bro@@ 16
rests 16
loses 16
panel 16
dyed 16
ceremony 16
blurry 16
cheered 16
reporting 16
can@@ 16
demonstrated 16
toss 16
buckets 16
back@@ 16
ac@@ 16
fo@@ 16
finished 16
lining 16
hoodie 16
clearing 16
encouraging 16
rs 16
flo@@ 16
quick 16
took 16
speech 16
comments 16
spe@@ 16
touch 16
womans 16
fancy 16
shes 16
fi@@ 16
ven@@ 16
called 16
h 16
backward 16
machinery 16
dryer 16
backpack 16
spits 16
bob 16
once 16
castle 16
cro@@ 16
knelt 16
grab 16
league 16
braiding 16
mixture 16
.@@ 16
sweater 16
asked 16
topless 16
hammering 16
matador 16
tears 16
prepared 16
nice 16
enjoy 16
reaching 16
disc 16
cted 16
sliced 16
fu@@ 16
pottery 16
spinner 16
resting 16
per 16
leash 16
sister 16
fried 16
started 16
controller 16
mall 16
chiropractor 16
guiding 16
announces 16
poking 16
sees 16
backs 16
whistling 16
arcade 16
col@@ 16
plane 16
quarterback 16
member 16
jogging 16
tandem 16
goalie 16
inhales 16
ils 15
keep 15
why 15
seem 15
plates 15
movements 15
presentation 15
ma 15
muddy 15
cap@@ 15
med 15
ering 15
crossed 15
section 15
ged 15
mixed 15
ears 15
crane 15
walls 15
cking 15
ments 15
steering 15
upbeat 15
pped 15
ance 15
farm 15
huddled 15
over@@ 15
kes 15
cho@@ 15
stretched 15
foil 15
cups 15
mounted 15
doll 15
stuffed 15
dle 15
hops 15
raised 15
create 15
driven 15
mon@@ 15
ical 15
teenaged 15
sweeping 15
sleds 15
paddling 15
pages 15
stomping 15
happily 15
bowls 15
en 15
also 15
lowers 15
demostrating 15
paddle 15
hover 15
slams 15
flicks 15
name 15
misses 15
jack 15
service 15
squeezing 15
hop 15
bell 15
grown 15
apron 15
installing 15
scrubbing 15
shining 15
dum@@ 15
rice 15
jar 15
rap 15
popping 15
hun@@ 15
dying 15
directs 15
tro@@ 15
sk@@ 15
tasting 15
sleeps 15
strings 15
pushups 15
pigeons 15
religious 15
jogs 15
chases 15
squash 15
contraption 15
tickles 15
proposing 15
eyeliner 15
texting 15
ion 14
ear@@ 14
fix 14
kno@@ 14
scores 14
passenger 14
dragging 14
posing 14
cts 14
numerous 14
ty 14
ars 14
cer 14
cellphone 14
slideshow 14
ent 14
sifting 14
tent 14
loading 14
load 14
loads 14
de 14
much 14
pretty 14
arranging 14
rapid 14
bra@@ 14
rid@@ 14
sto@@ 14
french 14
auctioneer 14
au@@ 14
ders 14
waiter 14
ous 14
ce@@ 14
travels 14
meal 14
tongs 14
fire@@ 14
rack 14
char@@ 14
peice 14
slips 14
ni@@ 14
washed 14
gro@@ 14
lunges 14
instructed 14
skipping 14
weighted 14
strange 14
local 14
sections 14
skirt 14
dimly 14
br@@ 14
slightly 14
headed 14
crashes 14
washer 14
less 14
stylist 14
tried 14
races 14
briefly 14
fluffy 14
ching 14
curly 14
breathing 14
needles 14
someones 14
sawing 14
logo 14
panning 14
suv 14
ched 14
laps 14
partially 14
ation 14
horn 14
handed 14
smashing 14
bagpipe 14
fisherman 14
wants 14
van 14
casts 14
because 14
ur@@ 14
ide 14
shell 14
shoulders 14
cing 14
firemen 14
nd 14
my 14
mer@@ 14
cracked 14
noodles 14
roasted 14
bunny 14
thumbs 14
hoo@@ 14
compilation 14
lea@@ 14
peeler 14
ry 14
unloading 14
sharpen 14
airplane 14
attractive 14
skateboards 14
laces 14
fridge 14
loom 14
cotton 14
ripping 14
sippy 14
breast 14
repelling 13
iling 13
cre@@ 13
actors 13
check 13
straightening 13
snaps 13
live 13
ily 13
chin 13
movie 13
mil@@ 13
fli@@ 13
bill 13
greets 13
lin@@ 13
care 13
wear 13
able 13
contents 13
length 13
porch 13
sti@@ 13
told 13
gri@@ 13
teach 13
cycle 13
homemade 13
conference 13
mon 13
tell 13
tru@@ 13
ar 13
college 13
mascot 13
5 13
somersault 13
snowboards 13
ction 13
sting 13
ages 13
post 13
lit@@ 13
stra@@ 13
ine 13
landing 13
para@@ 13
glider 13
owner 13
bathtub 13
ki@@ 13
adolescent 13
struggling 13
change 13
steel 13
tr@@ 13
vehicles 13
steam 13
tho@@ 13
diaper 13
below 13
handing 13
pointed 13
whistle 13
lu@@ 13
smooth 13
tw@@ 13
ining 13
cru@@ 13
pre 13
best 13
fry 13
ble 13
doors 13
drills 13
builds 13
legged 13
bars 13
burger 13
laid 13
stunt 13
tearing 13
burps 13
bagpipes 13
english 13
calligraphy 13
guides 13
lure 13
among 13
sculpture 13
festival 13
burns 13
pliers 13
bank 13
suddenly 13
thrower 13
intersection 13
ton 13
ral 13
mini 13
vigorously 13
2@@ 13
ges 13
sprinkles 13
causing 13
dirty 13
wed 13
ens 13
hur@@ 13
shaved 13
campfire 13
serves 13
directions 13
trim 13
darkened 13
xylophone 13
hopping 13
backing 13
dro@@ 13
spit 13
kneads 13
loo@@ 13
skaters 13
delivers 13
cop 13
lanes 13
dodge 13
uniformed 13
dumping 13
chu@@ 13
kicked 13
ribbon 13
competitors 13
medicine 13
cans 13
hairy 13
kites 13
grocery 13
fur 13
competitor 13
lion 13
irons 13
skateboarder 13
cymbal 13
vaulting 13
vault 13
lipstick 13
elephants 13
shines 13
skiier 13
snowmobiles 13
descends 12
powder 12
tin 12
coun@@ 12
seven 12
fixes 12
adjust 12
sho@@ 12
broken 12
poses 12
twice 12
directly 12
question 12
scarf 12
ant 12
ght 12
ans 12
bl@@ 12
drop 12
ss@@ 12
clam 12
va@@ 12
commentator 12
helmeted 12
scrapes 12
arrows 12
dly 12
non 12
he@@ 12
bou@@ 12
arranged 12
sorting 12
manual 12
tightening 12
repair 12
inserting 12
host 12
such 12
um 12
foo@@ 12
chubby 12
scooping 12
chip 12
fro@@ 12
als 12
tattoos 12
flipped 12
explain 12
barbecue 12
gar@@ 12
bul@@ 12
floats 12
dries 12
chi@@ 12
hu@@ 12
oriental 12
bees 12
tters 12
enter 12
butterfly 12
magic 12
pipes 12
skill 12
cen@@ 12
fighter 12
bla@@ 12
barrel 12
attaches 12
rotating 12
torches 12
though 12
miniature 12
unfolds 12
lab 12
bun@@ 12
punch 12
conveyor 12
switches 12
shower 12
separating 12
kit 12
chested 12
ink 12
method 12
already 12
drawer 12
jigsaw 12
trailer 12
barn 12
hammers 12
cr@@ 12
continues 12
acoustic 12
note 12
than 12
write 12
matching 12
stopped 12
sails 12
deals 12
did 12
casting 12
interviewing 12
size 12
lar@@ 12
craft 12
slab 12
sledgehammer 12
patio 12
potter 12
loaded 12
ser 12
windows 12
firefighter 12
& 12
ced 12
bing 12
headstand 12
videos 12
pacifier 12
6 12
bib 12
got 12
clippers 12
fingernails 12
shears 12
positions 12
finds 12
policeman 12
desert 12
beverage 12
strums 12
bites 12
kissing 12
el 12
scream 12
stuff 12
weaves 12
fidget 12
receiving 12
jersey 12
pierced 12
pinches 12
kicker 12
hooping 12
ap@@ 12
balcony 12
milks 12
smells 12
clarinet 12
melody 12
tag 12
marble 12
racquetball 12
waxed 12
initially 11
lling 11
proceeds 11
descending 11
sses 11
actor 11
quietly 11
forms 11
gging 11
auditorium 11
enclosure 11
space 11
aquarium 11
say 11
star@@ 11
ey 11
seeing 11
security 11
0 11
under@@ 11
goo@@ 11
zer 11
cheek 11
tur@@ 11
ele@@ 11
rough 11
spot 11
barking 11
heart 11
neighborhood 11
dresses 11
packs 11
here 11
screws 11
bolt 11
dies 11
reach 11
fid@@ 11
michael 11
attending 11
tting 11
stump 11
skies 11
tar@@ 11
baker 11
peanut 11
golden 11
particular 11
scrubs 11
company 11
summer 11
grilling 11
rocky 11
parasail 11
dr@@ 11
wh@@ 11
joins 11
complete 11
mping 11
manipulating 11
up@@ 11
fresh 11
title 11
bicycles 11
shouts 11
ates 11
ble@@ 11
ssed 11
heated 11
disk 11
wipe 11
twin 11
tea@@ 11
clo@@ 11
clu@@ 11
candy 11
wading 11
releases 11
glue 11
boo@@ 11
her@@ 11
insert 11
machines 11
gutter 11
you@@ 11
pats 11
robe 11
stance 11
dar@@ 11
toothbrush 11
crafting 11
progress 11
spa@@ 11
saws 11
strap 11
ture 11
tan@@ 11
consisting 11
letter 11
kayaking 11
paddles 11
squatted 11
smooths 11
hip 11
chunks 11
wiggles 11
volley 11
baseballs 11
animated 11
formal 11
parade 11
brought 11
turned 11
squ@@ 11
demonstra@@ 11
blindfolded 11
vegetable 11
out@@ 11
stones 11
olympic 11
suck 11
juggle 11
elbow 11
western 11
palm 11
fle@@ 11
tightens 11
opposite 11
int 11
toe 11
groomer 11
flashing 11
free@@ 11
features 11
facility 11
sniffs 11
causes 11
keys 11
slam 11
stuffing 11
treat 11
har@@ 11
stitching 11
huddle 11
skips 11
obstacles 11
packing 11
putts 11
putt 11
choir 11
runners 11
vaulter 11
ick@@ 11
giggling 11
kneading 11
potatoes 11
blacksmith 11
dealer 11
recorder 11
ukulele 11
weatherman 11
hookah 11
axes 11
larger 10
weird 10
ag@@ 10
patient 10
narrow 10
repairing 10
manipulates 10
gen@@ 10
ali@@ 10
den 10
gged 10
straightens 10
built 10
fiddles 10
papers 10
) 10
scra@@ 10
models 10
gre@@ 10
caster 10
dug 10
pper 10
these 10
tches 10
firing 10
animals 10
hospital 10
sure 10
hotel 10
assembles 10
assembling 10
screwdriver 10
stea@@ 10
lls 10
screwing 10
tin@@ 10
work@@ 10
listen 10
yed 10
sol@@ 10
observe 10
cker 10
triple 10
patch 10
ul@@ 10
chat 10
coo@@ 10
ste@@ 10
some@@ 10
ppers 10
trunks 10
fun@@ 10
named 10
raise 10
pro 10
squirts 10
multi 10
ggy 10
pers 10
costumed 10
hips 10
spots 10
breathes 10
heavily 10
pounds 10
taught 10
lean 10
grip 10
motorbike 10
alongside 10
learn 10
tured 10
nozzle 10
curls 10
attachment 10
learns 10
shaping 10
maker 10
somone 10
pony 10
fails 10
sleigh 10
ple 10
towed 10
processing 10
warehouse 10
trips 10
ther 10
bundled 10
pins 10
fus@@ 10
commenting 10
intricate 10
coats 10
dre@@ 10
trained 10
flammable 10
furniture 10
advertising 10
lan@@ 10
collection 10
kayaks 10
bin 10
plowing 10
je@@ 10
splashes 10
rather 10
walkway 10
popular 10
kers 10
math 10
solve 10
numbers 10
high@@ 10
ban@@ 10
playground 10
stacking 10
classical 10
smile 10
reeling 10
hey 10
railing 10
iting 10
pitched 10
underway 10
replay 10
venue 10
flags 10
flu@@ 10
nuts 10
follow 10
crouched 10
enjoys 10
play@@ 10
sized 10
beef 10
unsuccessfully 10
hatchet 10
scratching 10
edges 10
smoothing 10
easy 10
sponge 10
rin@@ 10
cats 10
markers 10
stic 10
scrambled 10
fries 10
watched 10
dropping 10
slo@@ 10
plaid 10
bills 10
carpeted 10
crawl 10
sca@@ 10
backseat 10
latin 10
whistles 10
smashes 10
fore@@ 10
lime 10
shoves 10
ated 10
la 10
ornament 10
delivery 10
parked 10
motorcycles 10
crosswalk 10
jetski 10
bringing 10
dodgeball 10
nearly 10
contestants 10
bean 10
lic 10
participants 10
sleeve 10
dunks 10
selfie 10
booth 10
bands 10
bad 10
bush 10
fencers 10
lamp 10
scratches 10
crib 10
vaults 10
reenactment 10
hoops 10
snow@@ 10
microphones 10
paragliding 10
games 10
crafts 10
padlock 10
santa 10
snowball 10
entire 10
mug 10
tran@@ 10
again 10
racket 10
gongs 10
patty 10
lollipop 10
rubik 10
barrow 10
sheers 10
sip 10
roping 10
ser@@ 9
tow 9
pt 9
onstage 9
ound 9
lecture 9
experience 9
op@@ 9
flexible 9
showed 9
continuously 9
heat 9
pretend 9
gator 9
fenced 9
interviews 9
speaker 9
ten@@ 9
opposing 9
tournament 9
year 9
ter@@ 9
am 9
ama@@ 9
products 9
model 9
nods 9
information 9
kneel 9
exhibition 9
height 9
aims 9
draw 9
arguing 9
most 9
doorway 9
competitive 9
floral 9
messes 9
vase 9
tted 9
add 9
pedal 9
tighten 9
wires 9
fits 9
inner 9
map 9
atten@@ 9
chinese 9
call 9
aisle 9
highlights 9
zooms 9
taste 9
scoop 9
ol@@ 9
braces 9
spoons 9
unwrapping 9
wrist 9
qu@@ 9
rub 9
alcohol 9
dan@@ 9
beekeepers 9
pes 9
assists 9
assist 9
measures 9
employee 9
gras@@ 9
wheeler 9
duck 9
sprayer 9
hairdresser 9
beautician 9
bb@@ 9
propped 9
interacts 9
overweight 9
coa@@ 9
us@@ 9
least 9
bobbing 9
boogie 9
boarder 9
notebook 9
quiet 9
cutter 9
stacks 9
assembly 9
opener 9
gn 9
rows 9
forehead 9
lead 9
practising 9
closer 9
lighted 9
han@@ 9
painter 9
mannequin 9
giggles 9
sma@@ 9
sy 9
commentary 9
snap 9
wn 9
atta@@ 9
angle 9
dling 9
hooked 9
upright 9
sips 9
basement 9
coke 9
record 9
guitarist 9
closing 9
entering 9
fishes 9
swords 9
dri@@ 9
sailboats 9
ship 9
ics 9
yacht 9
characters 9
elevated 9
messy 9
sling 9
ways 9
chiseling 9
chipping 9
ards 9
showcasing 9
steals 9
direction 9
lever 9
pin@@ 9
pattern 9
ved 9
aluminum 9
fireman 9
synchronized 9
japanese 9
acts 9
sla@@ 9
portion 9
ber 9
collects 9
collecting 9
stroller 9
lifter 9
barbells 9
weightlifter 9
mopping 9
et 9
tter 9
hel@@ 9
whi@@ 9
moved 9
performed 9
customer 9
coins 9
crown 9
exhales 9
ree@@ 9
thru 9
upset 9
tional 9
fruits 9
ornaments 9
pri@@ 9
hus@@ 9
pace 9
mn 9
lick 9
modified 9
army 9
rhythm 9
excitedly 9
hamburger 9
pie 9
doughnut 9
sugar 9
embroidery 9
dumbbell 9
turtle 9
snapping 9
force 9
laptop 9
fea@@ 9
suitcase 9
printer 9
sted 9
haircut 9
piercing 9
champagne 9
golfing 9
windy 9
putter 9
wildly 9
mill 9
stable 9
acrobatic 9
knock 9
showcases 9
score 9
roasts 9
adhesive 9
vacuums 9
sprinkling 9
posts 9
masseuse 9
moonwalks 9
smelling 9
slalom 9
orchard 9
hiding 9
donkey 9
snowblower 9
sheering 9
flashlights 9
winks 9
snowballs 9
forklift 9
scales 8
scaling 8
harnessed 8
prope@@ 8
activity 8
encouraged 8
peoples 8
hol@@ 8
problem 8
mustache 8
sun 8
intense 8
underwear 8
mounts 8
wrestler 8
surrounding 8
war@@ 8
mit@@ 8
mouse 8
ti 8
needs 8
den@@ 8
gg@@ 8
overhead 8
3@@ 8
fan 8
finger@@ 8
solution 8
reports 8
ward 8
rectangular 8
she@@ 8
picnic 8
cher 8
yo@@ 8
fri@@ 8
gesture 8
surround 8
comfor@@ 8
desig@@ 8
19@@ 8
bea@@ 8
job 8
plug 8
town 8
iss@@ 8
rela@@ 8
involving 8
presenting 8
ence 8
ities 8
il 8
star 8
would 8
ctor 8
accepting 8
furry 8
crouching 8
backflip 8
breath 8
oned 8
sandy 8
shoreline 8
squares 8
ff 8
forming 8
equipped 8
ol 8
is@@ 8
elastic 8
medical 8
brushed 8
photos 8
kin@@ 8
onions 8
socializing 8
elaborate 8
observing 8
parachu@@ 8
mountains 8
bas@@ 8
pan@@ 8
german 8
rinses 8
soapy 8
alternating 8
excer@@ 8
sweatshirt 8
clamp 8
eight 8
spo@@ 8
encourage 8
ob@@ 8
contortionist 8
magician 8
crash 8
steers 8
donuts 8
ridding 8
coating 8
unknown 8
styling 8
cheeks 8
tor@@ 8
attach 8
stopping 8
speeding 8
channel 8
fell 8
foam 8
covers 8
feels 8
caps 8
ids 8
py 8
ple@@ 8
spring 8
last 8
suc@@ 8
automa@@ 8
preparation 8
dges 8
troupe 8
comment 8
canvas 8
dramatic 8
carpenter 8
1 8
case 8
legos 8
unwraps 8
swirls 8
see@@ 8
count 8
whose 8
reverse 8
swi@@ 8
unusual 8
stringed 8
written 8
tch@@ 8
cal@@ 8
gentle 8
lt 8
expertly 8
travelling 8
ren@@ 8
maneuvers 8
comple@@ 8
windsurfer 8
sailor 8
gh@@ 8
deli@@ 8
tely 8
ponytail 8
accross 8
quite 8
dia@@ 8
frisbees 8
tourists 8
curved 8
mean 8
lug 8
sea@@ 8
ying 8
choreographed 8
coos 8
beers 8
z 8
kettle 8
explaing 8
touched 8
dd@@ 8
cess 8
executes 8
automatic 8
dropped 8
sneaker 8
lemon 8
sneakers 8
scraping 8
unison 8
run@@ 8
ined 8
hiking 8
beanie 8
reveal 8
emb@@ 8
join 8
shing 8
iti@@ 8
formation 8
massaged 8
joke 8
exploring 8
butt 8
bra 8
random 8
puck 8
nt 8
batman 8
clipping 8
specialized 8
inspects 8
wedding 8
goers 8
ies 8
baskets 8
national 8
chunk 8
find 8
mb@@ 8
dash 8
hurls 8
sme@@ 8
segment 8
mus@@ 8
stuffs 8
taping 8
sweet 8
examining 8
ider 8
rises 8
broadcast 8
casually 8
ard 8
greens 8
specific 8
wok 8
win@@ 8
swung 8
congregation 8
robes 8
tumbling 8
hitter 8
shadow 8
hoola 8
stre@@ 8
carpeting 8
ed@@ 8
refle@@ 8
batons 8
karaoke 8
beads 8
supermarket 8
wool 8
copier 8
bass 8
dice 8
dispen@@ 8
forecast 8
puff 8
skiis 8
smell 8
acrobat 8
stomp 8
swallows 8
swallowing 8
lowering 7
cli@@ 7
ft 7
engages 7
lowered 7
stab@@ 7
grunts 7
ously 7
battle 7
lounge 7
should 7
zip 7
ggle 7
len@@ 7
signs 7
vil 7
gers 7
sit@@ 7
chil@@ 7
mou@@ 7
wiggling 7
enclosed 7
teasing 7
straddles 7
crowds 7
within 7
fal@@ 7
ankle 7
wild 7
nearby 7
questions 7
british 7
talked 7
tor 7
actress 7
cy@@ 7
congratula@@ 7
fin@@ 7
vo@@ 7
awards 7
every@@ 7
hundreds 7
introducing 7
effects 7
ush 7
splits 7
beauty 7
hoe 7
exca@@ 7
dump 7
inte@@ 7
wor@@ 7
sman 7
aim 7
possibly 7
fts 7
stu@@ 7
hunting 7
heavyset 7
subway 7
brothers 7
milling 7
engaging 7
arrangement 7
7 7
exa@@ 7
graphic 7
containing 7
mbling 7
ph@@ 7
dge 7
ari@@ 7
cle@@ 7
ctions 7
ries 7
calling 7
em@@ 7
preform 7
swimsuit 7
tooth@@ 7
scu@@ 7
late 7
injured 7
seemingly 7
marin@@ 7
gla@@ 7
ian 7
abo@@ 7
joking 7
ribs 7
blen@@ 7
que 7
pork 7
mixer 7
tending 7
ability 7
parachutes 7
skydiver 7
tossed 7
closely 7
personal 7
skydivers 7
shampoo 7
wards 7
alternates 7
pushup 7
downs 7
apparently 7
sways 7
rapping 7
vely 7
keepers 7
filter 7
loose 7
disa@@ 7
cting 7
buzz@@ 7
system 7
twirl 7
are@@ 7
weightlifting 7
1@@ 7
buy 7
correct 7
contorts 7
supporting 7
strokes 7
atv 7
donut 7
rode 7
sand@@ 7
tex@@ 7
grinds 7
chew 7
chatting 7
cylin@@ 7
furnace 7
blo@@ 7
molding 7
battery 7
said 7
celebrating 7
kart 7
dy@@ 7
actions 7
fast@@ 7
books 7
trains 7
jum@@ 7
blown 7
tumbles 7
leap 7
release 7
surprised 7
crumbs 7
bat@@ 7
seasoning 7
provides 7
lad 7
instructors 7
kne@@ 7
wakes 7
shifts 7
mold 7
brightly 7
tackles 7
circus 7
10 7
tic@@ 7
loader 7
ski@@ 7
mound 7
digger 7
pen@@ 7
canyon 7
gears 7
pianist 7
san@@ 7
scottish 7
bus@@ 7
black@@ 7
hispanic 7
grap@@ 7
neatly 7
fish@@ 7
tial 7
floo@@ 7
cir@@ 7
approach 7
shuffle 7
tower 7
stacked 7
paying 7
dealing 7
knots 7
beam 7
carved 7
pumpkins 7
tracing 7
traveling 7
kit@@ 7
umpire 7
mes 7
coaching 7
roo@@ 7
hi 7
shifting 7
knob 7
speeds 7
rac@@ 7
conver@@ 7
imp@@ 7
hooks 7
providing 7
trunk 7
por@@ 7
des 7
completed 7
0@@ 7
rou@@ 7
overalls 7
our 7
exposed 7
mp@@ 7
procedure 7
polishes 7
unique 7
neon 7
gger 7
padded 7
trimmer 7
similar 7
styles 7
tilts 7
clad 7
crystal 7
shades 7
tte 7
rest 7
camp 7
knit 7
fires 7
burn 7
zz@@ 7
tabletop 7
bal@@ 7
crust 7
flowing 7
sno@@ 7
sync 7
ents 7
upper 7
relaxing 7
zoomed 7
knuckles 7
bot 7
interacting 7
onesie 7
pickup 7
season 7
sons 7
crea@@ 7
house@@ 7
ness 7
melon 7
triangle 7
nu@@ 7
bride 7
anchor@@ 7
viewers 7
cruise 7
chi 7
chase 7
motorcyclists 7
bikers 7
main 7
elevator 7
flashes 7
shi@@ 7
co 7
searches 7
boun@@ 7
rub@@ 7
john 7
wheeling 7
leve@@ 7
soldier 7
crutches 7
striking 7
tun@@ 7
app 7
ppy 7
ba 7
ko@@ 7
powdered 7
pastry 7
ca 7
dumbbells 7
grabbed 7
parkour 7
hardwood 7
scoots 7
artificial 7
sli@@ 7
fen@@ 7
cows 7
spea@@ 7
winding 7
modern 7
explo@@ 7
conc@@ 7
thro@@ 7
shine 7
location 7
quarter 7
competes 7
garment 7
poor 7
hurdle 7
pregnant 7
sending 7
tablet 7
coaches 7
seal 7
mows 7
sparks 7
wind@@ 7
sew 7
lacing 7
unlock 7
frustrated 7
jazz 7
pinching 7
slapping 7
moonwalk 7
jackson 7
stools 7
thigh 7
removal 7
petted 7
credit 7
exclaims 7
strumming 7
dartboard 7
maracas 7
navel 7
meteorologist 7
scrapbook 7
yolks 7
tai 7
inhaling 7
unboxing 7
ite 6
mid 6
sion 6
stan@@ 6
effe@@ 6
assisted 6
packed 6
imitates 6
mimics 6
semi 6
wrestles 6
peron 6
sleeveless 6
addresses 6
answers 6
teachers 6
marks 6
fra@@ 6
off@@ 6
advice 6
politician 6
wel@@ 6
fashion 6
states 6
applau@@ 6
videotaping 6
advertises 6
napkins 6
measure 6
bits 6
found 6
esca@@ 6
bows 6
skilled 6
hooded 6
masks 6
archery 6
tipped 6
camouflage 6
tutu 6
motion@@ 6
drun@@ 6
arm@@ 6
amongst 6
elbows 6
vine 6
pruning 6
prunes 6
arrange 6
gathers 6
by@@ 6
ish 6
techno 6
twisted 6
oval 6
install 6
construc@@ 6
plu@@ 6
connect 6
ram 6
famous 6
mp 6
monitor 6
world 6
entrance 6
ions 6
fr@@ 6
happening 6
dairy 6
ically 6
proje@@ 6
flat@@ 6
ig@@ 6
lec@@ 6
interact 6
vel 6
cushi@@ 6
operate 6
grandma 6
sco@@ 6
del@@ 6
even@@ 6
band@@ 6
therapist 6
tre@@ 6
am@@ 6
grills 6
tering 6
red@@ 6
foods 6
flames 6
barbe@@ 6
liquor 6
travel 6
highway 6
areas 6
brave 6
slows 6
bel@@ 6
nervous 6
muscle 6
ided 6
physical 6
hum@@ 6
spitting 6
fellow 6
repe@@ 6
ths 6
bee@@ 6
clothed 6
hives 6
flow 6
torso 6
brunette 6
aerobics 6
celebra@@ 6
cane 6
gr@@ 6
supported 6
assistance 6
vice 6
photographs 6
bicyclist 6
slamming 6
locks 6
cut@@ 6
curled 6
hair@@ 6
str@@ 6
hairstylist 6
techniques 6
simultaneously 6
kil@@ 6
ll@@ 6
leaf@@ 6
pr@@ 6
chief 6
kleenex 6
lun@@ 6
shelf 6
xing 6
celebrate 6
signing 6
dders 6
slight 6
binding 6
bin@@ 6
conversating 6
label 6
dipped 6
activities 6
operation 6
spun 6
dic@@ 6
seals 6
laun@@ 6
airport 6
chopped 6
drumstick 6
trys 6
yers 6
communic@@ 6
sketching 6
detailed 6
der@@ 6
wit@@ 6
q 6
artwork 6
perfect 6
cke@@ 6
rubbed 6
buff 6
feeling 6
fan@@ 6
trucks 6
tles 6
pyramid 6
character 6
childrens 6
molds 6
deta@@ 6
continue 6
buil@@ 6
wife 6
bullfighter 6
bull@@ 6
taun@@ 6
angry 6
van@@ 6
cran@@ 6
pple 6
operator 6
plows 6
dangles 6
leaping 6
burping 6
compli@@ 6
ham 6
baton 6
mble 6
plaza 6
statue 6
violinist 6
calcu@@ 6
temperature 6
market 6
mul@@ 6
page 6
holiday 6
era@@ 6
sizes 6
squirms 6
cano@@ 6
sorts 6
chanting 6
float 6
vests 6
knocked 6
ue 6
shift 6
slid 6
clubs 6
straps 6
ddling 6
tal 6
somersaults 6
support 6
turing 6
ger@@ 6
excitement 6
emptying 6
waders 6
casing 6
warming 6
mitt 6
tshirt 6
stri@@ 6
ill@@ 6
ants 6
socket 6
reveals 6
bolts 6
released 6
loose@@ 6
test 6
illustrates 6
infla@@ 6
penny 6
ne 6
indicates 6
bone 6
enthusiastically 6
bay 6
carried 6
ghts 6
ists 6
jerks 6
gun@@ 6
deadlifts 6
gutters 6
rain 6
cleaned 6
after@@ 6
emp@@ 6
nike 6
rag 6
plunger 6
paw 6
now 6
program 6
colou@@ 6
decorates 6
contor@@ 6
bones 6
deer 6
wns 6
aiming 6
sau@@ 6
utensil 6
cowboys 6
chiroprac@@ 6
tickled 6
navy 6
embrace 6
cou@@ 6
pressed 6
index 6
stroking 6
ka 6
decides 6
siblings 6
eye@@ 6
vs 6
cry 6
brand 6
ick 6
targets 6
sends 6
divid@@ 6
strands 6
scientist 6
rabbit 6
tively 6
latex 6
ff@@ 6
mats 6
cling 6
partner 6
ming@@ 6
groom 6
of@@ 6
bells 6
rit@@ 6
decorations 6
lap@@ 6
packages 6
jour@@ 6
toasting 6
ffe@@ 6
id 6
jam 6
scooters 6
segways 6
compe@@ 6
dio 6
harbor 6
commen@@ 6
dribble 6
separated 6
layer 6
application 6
pencils 6
dir@@ 6
> 6
scotch 6
til@@ 6
pounding 6
stationary 6
zed 6
empties 6
die 6
icing 6
patterned 6
monster 6
as@@ 6
spiky 6
hot@@ 6
um@@ 6
even 6
lon 6
searching 6
stitch 6
figures 6
robotic 6
wheelie 6
awkwardly 6
hummingbird 6
flock 6
tou@@ 6
koi 6
far@@ 6
offers 6
masked 6
wheel@@ 6
pur@@ 6
added 6
virtual 6
5@@ 6
trimmed 6
ani@@ 6
shaver 6
fair 6
smooth@@ 6
headbu@@ 6
cannons 6
ations 6
obstacle 6
steep 6
'@@ 6
wades 6
emerges 6
paste 6
stair 6
camera@@ 6
clinton 6
sequence 6
skiiers 6
sneeze 6
oun@@ 6
workmen 6
cinder 6
tiled 6
lace 6
twi@@ 6
locksmith 6
sprints 6
twist 6
stringing 6
hooking 6
banan@@ 6
mosh 6
shield 6
stunts 6
unload 6
waste 6
forecaster 6
hy@@ 6
parachutist 6
slap 6
gardener 6
accordi@@ 6
rackets 6
blackjack 6
concentra@@ 6
dominos 6
bashing 6
referees 6
introduce 6
blinks 6
om 6
landsca@@ 6
lenses 6
lash 6
sleepy 6
silverware 6
shearing 6
oysters 6
slapped 6
sneezing 6
snorkeling 6
spiderman 6
blind 6
giraffe 6
wink 6
beams 5
rape@@ 5
clamps 5
complaining 5
stomps 5
rec@@ 5
chant 5
environment 5
discus@@ 5
new@@ 5
printed 5
horns 5
streets 5
ima@@ 5
inary 5
broadcasting 5
ures 5
shouting 5
jaw 5
late@@ 5
india 5
chal@@ 5
via 5
gi 5
applauded 5
ado@@ 5
cafeteria 5
stock 5
brief 5
silhouetted 5
appro@@ 5
shocked 5
ssly 5
excavation 5
soil 5
trench 5
outline 5
down@@ 5
reporters 5
photograph 5
wl 5
eve 5
cross@@ 5
taped 5
chers 5
deba@@ 5
nurses 5
twins 5
super@@ 5
energy 5
matches 5
earring 5
fron@@ 5
quet 5
pear@@ 5
bles 5
lob@@ 5
rist 5
rose 5
photography 5
tucks 5
ratchet 5
mine 5
loosen 5
ther@@ 5
housing 5
cooler 5
secure 5
informa@@ 5
matt 5
sen@@ 5
convention 5
resort 5
tal@@ 5
king@@ 5
sell 5
probably 5
tered 5
condu@@ 5
jewelry 5
na 5
baked 5
vocalizes 5
came 5
metallic 5
ici@@ 5
differen@@ 5
worked 5
description 5
dress@@ 5
op 5
tching 5
af@@ 5
ketchup 5
hawai@@ 5
tit@@ 5
spikes 5
bbq 5
highlighting 5
possible 5
tt@@ 5
served 5
serving 5
tender 5
tum@@ 5
diners 5
jugg@@ 5
spir@@ 5
aerial 5
rel 5
scraper 5
kite@@ 5
dried 5
caged 5
pil@@ 5
posed 5
drama@@ 5
hear 5
swishes 5
smo@@ 5
farmer 5
hive 5
prote@@ 5
tends 5
maintenance 5
bushy 5
iled 5
slee@@ 5
scar@@ 5
gy@@ 5
rates 5
spotting 5
exerciser 5
posture 5
des@@ 5
hea@@ 5
leader 5
ist 5
devices 5
duty 5
strength 5
final 5
scenery 5
youngster 5
controlling 5
shuts 5
ty@@ 5
equ@@ 5
client 5
straighten 5
allows 5
grooms 5
reclining 5
designs 5
blowers 5
glass@@ 5
created 5
roun@@ 5
ka@@ 5
tracks 5
rear 5
might 5
app@@ 5
cakes 5
those 5
difficul@@ 5
sle@@ 5
toboggan 5
bobsledding 5
launch 5
racers 5
makeshift 5
expert 5
bob@@ 5
wetsuit 5
crashing 5
ind 5
lost 5
prin@@ 5
producing 5
bre@@ 5
bottled 5
vat 5
describe 5
rinsing 5
assisting 5
super 5
joyfully 5
teddy 5
bounced 5
whe@@ 5
bowler 5
braid 5
tugs 5
apologi@@ 5
demostrates 5
bandan@@ 5
strobe 5
breakdances 5
formed 5
splitting 5
dojo 5
won@@ 5
bare@@ 5
pier 5
menting 5
copies 5
hal@@ 5
bats 5
vy 5
wig 5
dentist 5
too@@ 5
wers 5
ets 5
assemble 5
level 5
collect 5
ately 5
assembled 5
attention 5
wr@@ 5
sweeps 5
knocking 5
jcb 5
struc@@ 5
crate 5
plunges 5
perfo@@ 5
mers 5
mario 5
percussion 5
whiteboard 5
lation 5
ttering 5
ske@@ 5
yet 5
example 5
steady 5
rowing 5
canoeing 5
sale 5
attemps 5
went 5
raft 5
jig 5
bled 5
coordinated 5
simple 5
whale 5
stor@@ 5
connecting 5
capsized 5
struggle 5
angles 5
ice@@ 5
tieing 5
fe 5
holder 5
swa@@ 5
ab 5
salts 5
pigtails 5
chisels 5
ual 5
viewer 5
tackle 5
real 5
shor@@ 5
sweats 5
reel 5
lively 5
stripe 5
wri@@ 5
doubles 5
jean 5
outfield 5
incredibly 5
discs 5
successful 5
ongoing 5
whom 5
anthem 5
kilts 5
sprink@@ 5
sl@@ 5
shly 5
automobile 5
illustrating 5
carriage 5
valve 5
gauge 5
announcing 5
crouch 5
cyclists 5
sweat@@ 5
flannel 5
logs 5
prone 5
tedly 5
ruler 5
fitting 5
steak 5
carrots 5
lettuce 5
cabbage 5
fine 5
tomato 5
blu@@ 5
disc@@ 5
rake 5
core 5
jerk 5
ny 5
grou@@ 5
debris 5
rough@@ 5
voiceover 5
mer 5
fter 5
juice 5
fran@@ 5
bbles 5
bri@@ 5
fuzzy 5
squeegee 5
verbally 5
ven 5
ffer 5
ceiling 5
consi@@ 5
halfway 5
gle 5
foa@@ 5
tops 5
tain 5
onist 5
sharing 5
grandmother 5
mid@@ 5
acrobats 5
till 5
hung 5
pancakes 5
irs 5
boiling 5
12 5
heats 5
pasta 5
cul@@ 5
kni@@ 5
dollar 5
cash 5
gambling 5
interior 5
maneuver 5
ints 5
prac@@ 5
mur@@ 5
necklace 5
babbling 5
fol@@ 5
odd 5
wagon 5
towing 5
deter@@ 5
disco 5
curl 5
curlers 5
pics 5
ahead 5
straightener 5
peeled 5
accidentally 5
entertains 5
fir@@ 5
dot 5
rind 5
island 5
cracker 5
gic 5
years 5
stay 5
gangnam 5
could 5
readies 5
pick@@ 5
observes 5
practic@@ 5
voices 5
sters 5
master 5
os 5
mailbox 5
ina 5
spices 5
approaching 5
entertaining 5
newscasters 5
chains 5
retrieves 5
ffs 5
swim@@ 5
operated 5
tty 5
handled 5
8@@ 5
loca@@ 5
ney 5
featuring 5
wrings 5
cloths 5
newly 5
complicated 5
completing 5
laughter 5
preteen 5
ire 5
manually 5
involves 5
scattered 5
dunk 5
q@@ 5
pocket 5
dyes 5
videoing 5
shoving 5
ared 5
snack 5
toppings 5
likes 5
polka 5
icle 5
lly 5
lum@@ 5
nothing 5
participates 5
seamstress 5
embroiders 5
crochet 5
physically 5
crunches 5
balanced 5
person@@ 5
blazes 5
fireplace 5
speedboat 5
pedals 5
dor@@ 5
plucks 5
calmly 5
greeting 5
softly 5
tures 5
snorkel 5
mor@@ 5
opponent 5
swaying 5
icking 5
crank 5
cle 5
negotiating 5
syn@@ 5
materials 5
fixed 5
pea@@ 5
clou@@ 5
jerky 5
cooker 5
ridge 5
did@@ 5
sur@@ 5
bon@@ 5
wins 5
trophy 5
accepts 5
elementary 5
names 5
scre@@ 5
instead 5
ref@@ 5
viewing 5
wand 5
athe@@ 5
shut 5
wash@@ 5
soa@@ 5
thy 5
bobs 5
bang 5
loop 5
tts 5
diapers 5
marches 5
indi@@ 5
fied 5
hudd@@ 5
presen@@ 5
clears 5
racquet 5
sport@@ 5
hurling 5
glo@@ 5
pic 5
terrain 5
hesit@@ 5
waking 5
ball@@ 5
handheld 5
instal@@ 5
steadily 5
pedestrians 5
revs 5
trolley 5
bushes 5
glow 5
contains 5
version 5
settings 5
supports 5
passionately 5
cles 5
died 5
mowers 5
lawnmowers 5
v 5
putty 5
dust 5
smartphone 5
intently 5
welds 5
sheets 5
morning 5
propo@@ 5
marriage 5
goodbye 5
fre@@ 5
tan 5
ffle 5
udder 5
motorcyclist 5
speci@@ 5
coral 5
jab@@ 5
newscast 5
scan@@ 5
serve 5
paraglider 5
cords 5
inc@@ 5
sanitation 5
document 5
pillows 5
planing 5
buzz 5
accordion 5
senior 5
twinkle 5
chords 5
bong 5
yer 5
comman@@ 5
maraca 5
grand@@ 5
netball 5
paint@@ 5
raquetball 5
monkey 5
smash 5
barrels 5
links 5
untying 5
explore 5
snork@@ 5
shucking 5
situps 5
rollers 5
dogsled 5
inha@@ 5
tobacco 5
lassos 5
crowd@@ 5
surfboards 5
spider 5
collar 5
hedge 5
dolphin 5
slip 5
waxes 5
repels 4
abse@@ 4
positioned 4
ili@@ 4
washers 4
rushing 4
director 4
recites 4
ising 4
theater 4
bly 4
applauds 4
chants 4
mum@@ 4
bling 4
preforming 4
experien@@ 4
purpose 4
frames 4
fitted 4
pads 4
repairs 4
expression 4
lense 4
gesturing 4
ran@@ 4
drumsticks 4
dire@@ 4
ton@@ 4
coll@@ 4
ef@@ 4
fort 4
announ@@ 4
sprayed 4
straddling 4
missing 4
gators 4
answering 4
expan@@ 4
aid 4
rus 4
web 4
tired 4
jumpsuit 4
wer 4
trap 4
digital 4
ye@@ 4
procession 4
thousands 4
political 4
rally 4
biting 4
celebr@@ 4
message 4
rable 4
congress 4
former 4
united 4
animation 4
promotional 4
state 4
graduation 4
prepping 4
treatment 4
mess@@ 4
advert 4
comp@@ 4
vated 4
piles 4
measurements 4
tors 4
cameras 4
gy 4
arti@@ 4
compound 4
aimed 4
hollering 4
argue 4
mad 4
argues 4
ken 4
squealing 4
regarding 4
aggressively 4
stripy 4
exer@@ 4
involved 4
challen@@ 4
tightly 4
flow@@ 4
ssion 4
lized 4
inten@@ 4
everyone 4
organizing 4
6@@ 4
cable 4
described 4
link 4
foot@@ 4
component 4
disasse@@ 4
components 4
unscrewing 4
nal 4
circu@@ 4
plugs 4
russian 4
donal@@ 4
praise 4
banquet 4
greet 4
serious 4
think 4
scared 4
bids 4
fee@@ 4
rotary 4
function 4
arly 4
appearing 4
ham@@ 4
historical 4
tern 4
ction@@ 4
rules 4
won 4
limb 4
succeeds 4
aligns 4
ones 4
billy 4
ope@@ 4
mitts 4
pic@@ 4
staff 4
emer@@ 4
cy 4
doctors 4
partake 4
grilled 4
attend 4
rotated 4
tattooed 4
brow@@ 4
shrimp 4
skewer 4
span@@ 4
coal 4
cock@@ 4
tenders 4
liquids 4
ib@@ 4
ition 4
voca@@ 4
list 4
nish 4
actu@@ 4
ushes 4
squir@@ 4
dec@@ 4
skydive 4
braz@@ 4
rup@@ 4
rous 4
eyed 4
lathers 4
energetic 4
tubs 4
sup@@ 4
beatboxing 4
ep 4
titi@@ 4
rhythmic 4
social 4
thum@@ 4
sive 4
lity 4
honey 4
revealing 4
protect 4
lly@@ 4
imitating 4
sparkly 4
garb 4
photo@@ 4
reps 4
spotted 4
landed 4
foreground 4
continually 4
rods 4
apparatus 4
signals 4
crazy 4
houses 4
pedestrian 4
blasting 4
partment 4
temp@@ 4
adjustments 4
roughly 4
spending 4
vol@@ 4
freshly 4
faced 4
popped 4
angled 4
glowing 4
decorative 4
landscapers 4
leafs 4
packet 4
midst 4
combed 4
cup@@ 4
wo 4
flowered 4
mane 4
bobsle@@ 4
heading 4
tally 4
any@@ 4
envelope 4
corners 4
further 4
bottling 4
inflated 4
backflips 4
tumble 4
strike 4
beha@@ 4
bow@@ 4
cessive 4
tian 4
braided 4
sleeved 4
marinated 4
breasts 4
turban 4
lesson 4
pp@@ 4
seasons 4
recipe 4
fours 4
gyra@@ 4
breakdancing 4
goofing 4
break@@ 4
verbal 4
ine@@ 4
attack 4
puffs 4
ignites 4
exha@@ 4
paintbrush 4
tle 4
quality 4
care@@ 4
shares 4
carpen@@ 4
ray 4
inspecting 4
shel@@ 4
figu@@ 4
castles 4
shark 4
admires 4
cast@@ 4
constructed 4
foundation 4
beg@@ 4
warded 4
charges 4
coloured 4
mas 4
fights 4
dangerous 4
flung 4
commentators 4
pinned 4
compa@@ 4
jer@@ 4
bulldozers 4
wan@@ 4
dozer 4
gie 4
stages 4
returns 4
hovers 4
dangling 4
dles 4
bored 4
suspen@@ 4
column 4
finding 4
bum@@ 4
lator 4
mathematical 4
equations 4
later 4
mark 4
sub@@ 4
itting 4
wings 4
caligraphy 4
ary 4
fashi@@ 4
waterfall 4
fting 4
skeleton 4
sparring 4
cled 4
iny 4
pulley 4
cri@@ 4
vessel 4
glide 4
managing 4
sun@@ 4
allow 4
laced 4
ships 4
gour@@ 4
fallen 4
een 4
everywhere 4
interpre@@ 4
sions 4
symbol 4
rated 4
ile 4
pitching 4
neighbourhood 4
ta 4
sual 4
stant 4
tains 4
zen 4
barrier 4
drivers 4
ushing 4
sil@@ 4
seats 4
transmission 4
maneuvering 4
dangerously 4
inging 4
drain 4
adjustment 4
nel 4
draining 4
stating 4
blades 4
nut 4
pun@@ 4
portable 4
tread 4
kia 4
gage 4
cycling 4
gymnasts 4
cheerleading 4
seconds 4
focused 4
sculpting 4
claw 4
aa 4
plating 4
dicing 4
cum@@ 4
riously 4
celery 4
´s 4
finely 4
skillfully 4
gentelman 4
rakes 4
pinch 4
flood 4
creek 4
capture 4
sample 4
snatches 4
skinny 4
john@@ 4
movement 4
health 4
instru@@ 4
stand@@ 4
details 4
extension 4
suction 4
od 4
strainer 4
detergent 4
scrub 4
dee@@ 4
grun@@ 4
janit@@ 4
ori@@ 4
vie@@ 4
cleaners 4
squee@@ 4
conven@@ 4
sni@@ 4
fades 4
less@@ 4
climbed 4
horizontal 4
armo@@ 4
jun@@ 4
rust@@ 4
ascends 4
lo 4
face@@ 4
dding 4
upward 4
acrobatics 4
toast 4
popcorn 4
ong@@ 4
hollow 4
stirred 4
olive 4
slowing 4
cherry 4
tomatoes 4
scallop 4
sizzle 4
bacon 4
twelve 4
seafood 4
add@@ 4
cosplay 4
fty 4
00 4
slender 4
palms 4
backside 4
heal@@ 4
xes 4
alternately 4
poorly 4
reque@@ 4
pallet 4
supervi@@ 4
flooded 4
puddle 4
ridden 4
hysterically 4
becomes 4
mexican 4
salsa 4
native 4
competit@@ 4
acti@@ 4
paring 4
howls 4
clipper 4
kitten 4
tweezers 4
narrated 4
fluid 4
pineapples 4
baller 4
mostly 4
ballerinas 4
poe@@ 4
backed 4
lie 4
stocking 4
families 4
sy@@ 4
decorate 4
decoration 4
decorated 4
usps 4
post@@ 4
surveillance 4
delivering 4
collage 4
vered 4
search 4
crushes 4
tery 4
motions 4
guard 4
controls 4
coast 4
pictured 4
horsing 4
avo@@ 4
mpo@@ 4
mirrored 4
wringing 4
infor@@ 4
plain 4
focuses 4
choo@@ 4
gul@@ 4
hor@@ 4
coughing 4
captures 4
da 4
surpri@@ 4
oling 4
berries 4
bumps 4
trashcan 4
upon 4
knit@@ 4
gadget 4
fists 4
labeled 4
paced 4
dyeing 4
iphone 4
diner 4
mess 4
dripping 4
tortilla 4
shar@@ 4
whispers 4
youn 4
challenge 4
ask 4
ddle 4
scrap 4
nee@@ 4
controlled 4
aerosol 4
lows 4
extinguisher 4
ir 4
gir@@ 4
mattress 4
snowboarders 4
cycles 4
department 4
bmx 4
cler@@ 4
sks 4
pigeon 4
courtyard 4
submerged 4
aquatic 4
tropical 4
allowing 4
hic@@ 4
clicks 4
inflates 4
grin@@ 4
omelet 4
supervises 4
plan 4
thered 4
feather 4
creation 4
cock 4
beneath 4
unfolding 4
favorite 4
flattens 4
origami 4
scrambles 4
comb@@ 4
silent 4
table@@ 4
trimmers 4
draped 4
tattooing 4
recei@@ 4
sin@@ 4
pul@@ 4
welcomes 4
presenter 4
cky 4
collected 4
slan@@ 4
better 4
contem@@ 4
sw@@ 4
golfers 4
commentating 4
preaching 4
preacher 4
enthusia@@ 4
chur@@ 4
cubes 4
corkscrew 4
want 4
silently 4
groomed 4
paws 4
hoof 4
athletics 4
squeeze 4
forearms 4
violently 4
visiting 4
zily 4
fluff 4
litte 4
batt@@ 4
reenactors 4
march 4
confe@@ 4
rate 4
practi@@ 4
coached 4
rollerblading 4
youg 4
ttle@@ 4
ffed 4
stainless 4
vertical 4
seeds 4
drew 4
difficult 4
hoverboard 4
drummers 4
jerseys 4
soccor 4
amus@@ 4
todd@@ 4
gilr 4
talent 4
blea@@ 4
pavement 4
lacross 4
rugby 4
commentates 4
spiked 4
climbers 4
meter 4
dip 4
kar@@ 4
smoothes 4
medi@@ 4
jaywalking 4
lite 4
accident 4
sack 4
dim 4
pub 4
kee 4
dos 4
presented 4
parasailers 4
paragl@@ 4
lifing 4
8 4
carts 4
reclined 4
zooming 4
icy@@ 4
sail@@ 4
peo@@ 4
butt@@ 4
hard@@ 4
bene@@ 4
ev@@ 4
wallet 4
eyeball 4
oddly 4
blindfold 4
collector 4
ors 4
squirting 4
hollers 4
cocon@@ 4
bonfire 4
deadbolt 4
unlocks 4
charging 4
smart 4
typing 4
customers 4
lunge 4
ballon 4
conducting 4
combines 4
smiths 4
horse@@ 4
array 4
desc@@ 4
wrenches 4
file 4
sticky 4
sponge@@ 4
university 4
tension 4
sole 4
ind@@ 4
tour 4
waling 4
sweeper 4
bump 4
mow 4
nature 4
destro@@ 4
enough 4
grips 4
wait@@ 4
every 4
secured 4
raps 4
doorknob 4
receiver 4
tech 4
recreational 4
sitti@@ 4
contra@@ 4
reviews 4
moun@@ 4
waterskiing 4
decided 4
ner@@ 4
patting 4
handler 4
situ@@ 4
hearing 4
mono@@ 4
youngest 4
thanking 4
bomb 4
plucking 4
tele@@ 4
nipple 4
planer 4
cel@@ 4
paired 4
gardening 4
plaster 4
plastering 4
bad@@ 4
bagpi@@ 4
gaming 4
dispenses 4
accompan@@ 4
quartet 4
electr@@ 4
pots 4
medit@@ 4
mallets 4
ddy 4
camo 4
duplicate 4
lute 4
organist 4
hides 4
blinking 4
bunk 4
rubix 4
buffing 4
clean@@ 4
salads 4
diti@@ 4
apparel 4
eyelid 4
contacts 4
liner 4
sa 4
eyelashes 4
denim 4
heel 4
identifies 4
defla@@ 4
donkeys 4
accent 4
clock 4
sci@@ 4
scissor 4
steer 4
powerful 4
bagging 4
plywood 4
whites 4
sews 4
shot@@ 4
sthe@@ 4
shuck 4
chorus 4
swaddled 4
sking 4
skip 4
vaping 4
mps 4
snowmobilers 4
crossfit 4
lasso@@ 4
lasso 4
tastes 4
lollipops 4
backstroke 4
courtroom 4
bye 4
knifes 4
necktie 4
magnifying 4
channels 4
shampoo@@ 4
clergyman 4
waterslide 4
pain 4
winking 4
spool 4
zumba 4
strapping 3
rappelling 3
fying 3
rappe@@ 3
harne@@ 3
sal 3
theatre 3
scri@@ 3
tdown 3
smacks 3
measured 3
tician 3
spectacles 3
recently 3
scribes 3
simula@@ 3
wai@@ 3
phi@@ 3
cers 3
rent 3
plugged 3
contro@@ 3
simulated 3
crocod@@ 3
alli@@ 3
semin@@ 3
plea@@ 3
poster 3
land@@ 3
ber@@ 3
intervie@@ 3
runway 3
-@@ 3
president 3
officials 3
appla@@ 3
perhaps 3
willi@@ 3
stare 3
moisturi@@ 3
rested 3
vates 3
sift 3
olo@@ 3
pth 3
video@@ 3
promotes 3
rain@@ 3
rehearsing 3
stared 3
stomachs 3
wresting 3
ssive 3
claims 3
wiring 3
stapler 3
spokes 3
mbled 3
tween 3
static 3
processor 3
u.s. 3
ues 3
regi@@ 3
professor 3
respond 3
sul@@ 3
leaders 3
enjo@@ 3
roaming 3
ttle 3
tuxedo 3
session 3
compu@@ 3
racele@@ 3
zip@@ 3
trays 3
conve@@ 3
swirling 3
samples 3
timer 3
spooning 3
ongs 3
festi@@ 3
mounds 3
veterinarian 3
vet 3
trea@@ 3
retriever 3
wounded 3
unrolls 3
ade 3
barbecu@@ 3
solid 3
proper@@ 3
varying 3
steaks 3
spirit 3
skewers 3
chick@@ 3
peas 3
ay 3
scantily 3
sentences 3
tails 3
web@@ 3
observers 3
inged 3
terrier 3
puppies 3
soaking 3
warning 3
vin@@ 3
thes 3
stinky 3
shepard 3
lar 3
paral@@ 3
rapper 3
nest 3
protected 3
shiny 3
zy 3
weigh 3
spotter 3
mann 3
monstra@@ 3
monstrates 3
spor@@ 3
strand 3
online 3
vies 3
stamp 3
stum@@ 3
soars 3
scaffolding 3
tubing 3
mol@@ 3
manages 3
rim 3
melted 3
slowmotion 3
mount 3
lled 3
towels 3
tissues 3
ols 3
inspe@@ 3
occu@@ 3
splashing 3
overtaken 3
tackled 3
horizon@@ 3
ened 3
perspective 3
printing 3
production 3
tubes 3
apr@@ 3
ratory 3
ong 3
valu@@ 3
mentions 3
marsh@@ 3
gar 3
night@@ 3
peers 3
portrait 3
patiently 3
experi@@ 3
mples 3
manicu@@ 3
sleep 3
prompts 3
trouble 3
offscreen 3
storage 3
workroom 3
remode@@ 3
respirator 3
rines 3
speeded 3
cket 3
rectangle 3
matadors 3
iding 3
plough 3
snowplow 3
maybe 3
demo@@ 3
vator 3
zone 3
utility 3
hap@@ 3
ght@@ 3
prank 3
isy 3
mber 3
tics 3
oud 3
ulk 3
sty@@ 3
secur@@ 3
navigating 3
ise 3
kaya@@ 3
ei@@ 3
rap@@ 3
poeira 3
tre 3
combin@@ 3
rafters 3
must 3
pontoon 3
tamaran 3
sailors 3
ssing 3
tipping 3
sinking 3
tidying 3
congre@@ 3
ttered 3
mal@@ 3
summer@@ 3
cep@@ 3
acciden@@ 3
chain@@ 3
sculp@@ 3
swan 3
zens 3
sculptor 3
skimo 3
pit@@ 3
utensils 3
soothing 3
mode@@ 3
vior 3
reels 3
thought 3
mond 3
outfielder 3
youn@@ 3
stru@@ 3
eled 3
underhand 3
swit@@ 3
mo 3
gular 3
uminated 3
tons 3
shifter 3
recycling 3
mechanics 3
stilts 3
mechanism 3
rely 3
recommen@@ 3
roadway 3
yanks 3
tyre 3
ssor 3
necessary 3
unscrews 3
tance 3
show@@ 3
need 3
pep 3
squad 3
cheer@@ 3
skir@@ 3
inclu@@ 3
stran@@ 3
pegs 3
wood@@ 3
mel 3
lf 3
ric 3
woodworker 3
meats 3
preci@@ 3
resturant 3
scrape 3
carro@@ 3
wise 3
sett@@ 3
camp@@ 3
yi@@ 3
docu@@ 3
shells 3
rumma@@ 3
patr@@ 3
stances 3
mommy 3
beh@@ 3
ners 3
wets 3
ctors 3
tights 3
mental 3
rized 3
retrieve 3
scans 3
skimmer 3
nets 3
repeated 3
posable 3
ster@@ 3
surgical 3
urinal 3
tens 3
tests 3
uti@@ 3
shading 3
rhythmically 3
spotlight 3
gym@@ 3
nist 3
preforms 3
exten@@ 3
maid 3
contortion@@ 3
ute 3
summari@@ 3
never 3
mbo@@ 3
rotisserie 3
transf@@ 3
sauteed 3
tee@@ 3
ingredi@@ 3
quing 3
trans@@ 3
umbrella 3
transla@@ 3
skinned 3
role 3
normal 3
gui@@ 3
$ 3
quar@@ 3
twenty 3
tary 3
dol@@ 3
execu@@ 3
strate@@ 3
whines 3
scoo@@ 3
maneu@@ 3
pering 3
positioning 3
purposely 3
foc@@ 3
tows 3
wade 3
raging 3
sumo 3
responds 3
reacts 3
sor@@ 3
inf@@ 3
lou@@ 3
unravels 3
machete 3
dril@@ 3
parrot 3
compla@@ 3
oranges 3
produce 3
subtit@@ 3
outer 3
spiral 3
inser@@ 3
skins 3
remaining 3
progression 3
stal@@ 3
ximately 3
weap@@ 3
waitress 3
singers 3
dead@@ 3
sel 3
newswoman 3
postman 3
key@@ 3
nalist 3
newsman 3
parce@@ 3
sketch 3
shipping 3
mashing 3
server 3
wal@@ 3
roads 3
official 3
signal 3
visibility 3
trol 3
skatepark 3
trip 3
splash 3
overlooking 3
bag@@ 3
lied 3
exerci@@ 3
rectly 3
ticle 3
ornate 3
simp@@ 3
els 3
shout 3
tremely 3
wre@@ 3
rious 3
ere 3
ul 3
cee@@ 3
regards 3
respon@@ 3
residential 3
ourth 3
stur@@ 3
reflective 3
samsung 3
rif@@ 3
obese 3
rummages 3
packaged 3
piercings 3
plan@@ 3
multicolored 3
chee@@ 3
veri@@ 3
sou@@ 3
lock@@ 3
snacks 3
pop@@ 3
stabs 3
squi@@ 3
? 3
mel@@ 3
mothers 3
thinks 3
thers 3
planation 3
pierces 3
taut 3
stitches 3
sewer 3
stability 3
ounding 3
proud 3
xy@@ 3
tanks 3
bil@@ 3
perched 3
sprin@@ 3
rail 3
clist 3
swallow 3
pra@@ 3
seed 3
ouse 3
visitors 3
beauti@@ 3
peace@@ 3
wired 3
ckets 3
eling 3
spinners 3
rotate 3
pying 3
pantomi@@ 3
moped 3
widely 3
conne@@ 3
reen@@ 3
vers 3
barre@@ 3
poin@@ 3
shined 3
todler 3
tion@@ 3
upwards 3
otic 3
veggies 3
stiring 3
bers 3
sectioning 3
hairdress@@ 3
parlor 3
clin@@ 3
viking 3
inks 3
winner 3
accep@@ 3
than@@ 3
exc@@ 3
river@@ 3
waterproof 3
natural 3
sifter 3
shu@@ 3
root 3
taller 3
technology 3
televised 3
pews 3
sung 3
poultry 3
massive 3
processed 3
unidentified 3
resul@@ 3
rid 3
bor@@ 3
ofs 3
sweat 3
transitions 3
punk 3
nodding 3
scenario 3
raced 3
sidelines 3
oc@@ 3
reenact 3
regalia 3
actment 3
simulating 3
rifles 3
period 3
organized 3
uni@@ 3
zig 3
sway 3
rollerskating 3
uts 3
ony 3
segue 3
teammates 3
passed 3
pensive 3
bal 3
trucking 3
warmly 3
unhooks 3
tents 3
skim 3
racefully 3
mention@@ 3
plun@@ 3
remarks 3
tening 3
staircase 3
stapling 3
seam 3
ious 3
tar 3
paved 3
warm 3
mediately 3
tasks 3
marathon 3
don@@ 3
ctive 3
bran@@ 3
tation 3
socialize 3
tball 3
nude 3
skiiing 3
parasails 3
trike 3
tractors 3
spade 3
mason 3
stair@@ 3
tiler 3
stration 3
try@@ 3
pat 3
traces 3
stamps 3
sticker 3
sharpie 3
swiftly 3
sunset 3
tunnel 3
dder 3
yoke 3
whipping 3
sandwiches 3
loa@@ 3
preps 3
vin 3
rese@@ 3
pepperoni 3
tertop 3
toa@@ 3
squeals 3
pine 3
anima@@ 3
speed@@ 3
py@@ 3
surrounds 3
rest@@ 3
sexy 3
messaging 3
reli@@ 3
soles 3
spin@@ 3
chor@@ 3
scalp 3
udders 3
ranch 3
moonwalking 3
pears 3
mops 3
motorcyle 3
tbike 3
observed 3
moto@@ 3
may 3
aerob@@ 3
then@@ 3
movers 3
tto@@ 3
push@@ 3
maje@@ 3
zz 3
tro 3
winning 3
admir@@ 3
sor 3
sk 3
vac@@ 3
ph 3
cer@@ 3
versus 3
remo@@ 3
pry 3
packaging 3
manufac@@ 3
upcoming 3
swirl 3
tide 3
tives 3
scen@@ 3
mag@@ 3
woo@@ 3
loun@@ 3
dou@@ 3
somersaulting 3
touch@@ 3
pota@@ 3
scratched 3
trousers 3
mbs 3
senate 3
blin@@ 3
photocopier 3
cher@@ 3
ppling 3
planks 3
planted 3
school@@ 3
preschool 3
robots 3
stern 3
sick 3
nival 3
oo 3
setup 3
stading 3
pock 3
amer@@ 3
ica 3
tactical 3
shment 3
pa 3
mens 3
zzy 3
peering 3
pl@@ 3
saxo@@ 3
spelling 3
racquets 3
mouthpiece 3
ukelele 3
review 3
tment 3
mim@@ 3
ale 3
gran@@ 3
sprinkled 3
pouch 3
pepper 3
nightclub 3
ttes 3
station@@ 3
prices 3
price 3
pum@@ 3
frustra@@ 3
pleased 3
adverti@@ 3
lashes 3
sari 3
outstretched 3
wro@@ 3
recliner 3
micro@@ 3
rollerskate 3
sues 3
scor@@ 3
separates 3
ripped 3
reverses 3
marshmellow 3
village 3
triceps 3
twenties 3
weight@@ 3
redheaded 3
bathro@@ 3
reef 3
fs 3
que@@ 3
playpen 3
weighs 3
chan@@ 3
switched 3
scan 3
penalty 3
sig@@ 3
sportsman 3
eri@@ 3
shellfish 3
forma@@ 3
youngsters 3
lau@@ 3
pal@@ 3
skydives 3
opter 3
part@@ 3
slack 3
oreo 3
puffing 3
conte@@ 3
mobiles 3
sten@@ 3
spray@@ 3
roped 3
cow@@ 3
mpling 3
sucker 3
tackling 3
opinion 3
spicy 3
texts 3
messages 3
tapestry 3
temper 3
tye 3
trapi@@ 3
thma 3
mup@@ 3
tourist 3
ucet 3
weave 3
box@@ 3
yawn 3
mself 2
measure@@ 2
inning 2
ang@@ 2
zoo@@ 2
taining 2
cour@@ 2
medic@@ 2
lia 2
cial 2
ending 2
/@@ 2
val 2
posit@@ 2
ive 2
logist 2
logi@@ 2
arch@@ 2
gical 2
cus@@ 2
arran@@ 2
insta@@ 2
gos 2
initi@@ 2
opin@@ 2
gn@@ 2
auction@@ 2
enthusi@@ 2
jewel@@ 2
tel 2
alig@@ 2
vor@@ 2
aging 2
veter@@ 2
arian 2
gau@@ 2
professi@@ 2
athle@@ 2
prepar@@ 2
pitch@@ 2
hit@@ 2
manipu@@ 2
temper@@ 2
labe@@ 2
bor 2
imit@@ 2
tter@@ 2
percus@@ 2
lts 2
graphed 2
tend 2
ign 2
arded 2
ure 2
machin@@ 2
icycle 2
peda@@ 2
util@@ 2
ust 2
plat@@ 2
pose@@ 2
nap@@ 2
ickly 2
bir@@ 2
igh@@ 2
onloo@@ 2
stly 2
proce@@ 2
organi@@ 2
rew 2
fou@@ 2
mouth@@ 2
rank 2
afr@@ 2
jamas 2
intric@@ 2
res 2
sse@@ 2
ush@@ 2
trun@@ 2
load@@ 2
guitari@@ 2
dget 2
teri@@ 2
stics 2
lin 2
white@@ 2
jo 2
nic 2
ital 2
exe@@ 2
ya@@ 2
aqu@@ 2
mara@@ 2
audi@@ 2
zi@@ 2
stun@@ 2
scul@@ 2
separa@@ 2
mechan@@ 2
ann@@ 2
onic 2
ized 2
ggling 2
attemp@@ 2
fielder 2
foun@@ 2
tory 2
spark@@ 2
ign@@ 2
ired 2
expla@@ 2
vices 2
auto@@ 2
ban 2
verage 2
bicy@@ 2
mun@@ 2
xi@@ 2
tigh@@ 2
resta@@ 2
mming 2
vera@@ 2
oly@@ 2
power@@ 2
sement 2
bility 2
ome@@ 2
perfe@@ 2
atte@@ 2
mana@@ 2
mering 2
individu@@ 2
stes 2
ware 2
onal 2
jump@@ 2
custo@@ 2
cos@@ 2
wea@@ 2
wil@@ 2
knuck@@ 2
stache 2
revea@@ 2
navi@@ 2
top@@ 2
ely 2
runches 2
swee@@ 2
oms 2
aga@@ 2
dled 2
scal@@ 2
swe@@ 2
choreo@@ 2
coordin@@ 2
nam 2
ena 2
energe@@ 2
xed 2
snea@@ 2
mining 2
drive@@ 2
vari@@ 2
ligh@@ 2
ow@@ 2
ert 2
gent 2
ices 2
cann@@ 2
port 2
motor@@ 2
synchron@@ 2
instruc@@ 2
num@@ 2
sers 2
close@@ 2
toge@@ 2
anish 2
alcoho@@ 2
snor@@ 2
mous 2
ides 2
ane@@ 2
vid@@ 2
rhyth@@ 2
applic@@ 2
ator 2
dough@@ 2
laugh@@ 2
congrega@@ 2
ee@@ 2
bble 2
whis@@ 2
iden@@ 2
tem@@ 2
embro@@ 2
embroid@@ 2
kn@@ 2
iring 2
known 2
extingui@@ 2
: 2
nea@@ 2
icks 2
parro@@ 2
rist@@ 2
manu@@ 2
opp@@ 2
onents 2
ller 2
ela@@ 2
ket 2
rect 2
appe@@ 2
surve@@ 2
flan@@ 2
cele@@ 2
seg@@ 2
time@@ 2
saute@@ 2
blur@@ 2
ld 2
examin@@ 2
9@@ 2
refe@@ 2
rence 2
past@@ 2
mini@@ 2
noo@@ 2
acc@@ 2
shee@@ 2
dow 2
moi@@ 2
rev@@ 2
contestan@@ 2
gon 2
graphy 2
stat@@ 2
blading 2
introdu@@ 2
sna@@ 2
hover@@ 2
eing 2
vocali@@ 2
born 2
boar@@ 2
gradu@@ 2
thou@@ 2
beca@@ 2
gh 2
skate@@ 2
shoo@@ 2
scien@@ 2
fic 2
tcher 2
straighten@@ 2
erie 2
diff@@ 2
pie@@ 2
smil@@ 2
encoura@@ 2
gement 2
vio@@ 2
lent 2
shri@@ 2
passion@@ 2
boarders 2
parasail@@ 2
yach@@ 2
efully 2
rously 2
iture 2
section@@ 2
fini@@ 2
ut 2
alumin@@ 2
sse 2
ples 2
ska@@ 2
scope 2
smart@@ 2
cell@@ 2
spra@@ 2
iler 2
ji@@ 2
qua@@ 2
reci@@ 2
pack@@ 2
employe@@ 2
xo@@ 2
logy 2
soo@@ 2
mass@@ 2
massag@@ 2
rage 2
sex@@ 2
came@@ 2
yel@@ 2
low@@ 2
news@@ 2
success@@ 2
gerator 2
stick@@ 2
j 2
spec@@ 2
pede@@ 2
mma@@ 2
ide@@ 2
commun@@ 2
bage 2
rabb@@ 2
tched 2
interac@@ 2
sing@@ 2
pain@@ 2
cordi@@ 2
profe@@ 2
guit@@ 2
ssi@@ 2
crou@@ 2
pression 2
nis 2
joy@@ 2
symbo@@ 2
inal 2
teamma@@ 2
ree 2
tine 2
oth@@ 2
hock@@ 2
ey@@ 2
heav@@ 2
electri@@ 2
sidel@@ 2
dig@@ 2
mari@@ 2
lish 2
rubi@@ 2
pho@@ 2
botto@@ 2
trum@@ 2
ines 2
stra 2
dit@@ 2
icked 2
nor@@ 2
mete@@ 2
rologist 2
mob@@ 2
ility 2
squea@@ 2
mercial 2
strates 2
ggles 2
pon@@ 2
cough@@ 2
pig@@ 2
seas@@ 2
knea@@ 2
tric@@ 2
tread@@ 2
naviga@@ 2
var@@ 2
scramb@@ 2
blan@@ 2
patter@@ 2
signa@@ 2
vering 2
scent 2
virtu@@ 2
soc@@ 2
9 2
silhou@@ 2
ette 2
tula 2
domin@@ 2
stal 2
tortil@@ 2
mush@@ 2
ape 2
exper@@ 2
ate@@ 2
magni@@ 2
stit@@ 2
cigar@@ 2
snat@@ 2
snorke@@ 2
daugh@@ 2
squa@@ 2
fit@@ 2
sually 2
rought 2
vil@@ 2
with@@ 2
,@@ 2
aning 2
specta@@ 2
phan@@ 2
silver@@ 2
ek 2
tick@@ 2
lip@@ 2
trape@@ 2
alterna@@ 2
wra@@ 2
illu@@ 2
syste@@ 2
eg@@ 2
prie@@ 2
ceremon@@ 2
shampo@@ 2
yaw@@ 2
rehear@@ 1
audit@@ 1
ight 1
droom 1
uring 1
listen@@ 1
flage 1
watch@@ 1
passen@@ 1
argu@@ 1
neigh@@ 1
aggre@@ 1
quets 1
tutori@@ 1
transit@@ 1
tboard 1
nace 1
stering 1
fac@@ 1
eer 1
simultane@@ 1
wls 1
bath@@ 1
beat@@ 1
butter@@ 1
[ 1
thday 1
mal 1
mach@@ 1
sent 1
monit@@ 1
ung 1
brush@@ 1
nch 1
cabin@@ 1
vie 1
augh@@ 1
vation 1
sam@@ 1
itch@@ 1
mata@@ 1
colo@@ 1
tage 1
ssel 1
mathema@@ 1
graph@@ 1
qui@@ 1
charac@@ 1
good@@ 1
bru@@ 1
partici@@ 1
ira 1
padd@@ 1
maran 1
shuff@@ 1
safe@@ 1
jack@@ 1
roud 1
ques 1
secu@@ 1
guage 1
ician 1
clists 1
gera@@ 1
nume@@ 1
equi@@ 1
press@@ 1
adver@@ 1
toil@@ 1
sof@@ 1
spen@@ 1
idly 1
flexi@@ 1
produ@@ 1
hear@@ 1
obser@@ 1
dium 1
pati@@ 1
provid@@ 1
rol@@ 1
skele@@ 1
sie 1
inde@@ 1
xican 1
aw@@ 1
sum@@ 1
decora@@ 1
hee@@ 1
gang@@ 1
synch@@ 1
mach 1
door@@ 1
mail@@ 1
sar@@ 1
carri@@ 1
usual 1
shou@@ 1
lman 1
bies 1
fris@@ 1
coura@@ 1
ancho@@ 1
clai@@ 1
direc@@ 1
nar@@ 1
congra@@ 1
ron@@ 1
egg@@ 1
uk@@ 1
oes 1
vision 1
stomach@@ 1
dumb@@ 1
baske@@ 1
ppily 1
tti 1
! 1
tical 1
showca@@ 1
seve@@ 1
pers@@ 1
vised 1
bbling 1
rema@@ 1
ully 1
vels 1
crick@@ 1
humming@@ 1
pige@@ 1
attra@@ 1
rega@@ 1
lli@@ 1
fluff@@ 1
stir@@ 1
veg@@ 1
lty 1
che 1
’@@ 1
tatto@@ 1
pier@@ 1
mmy 1
ware@@ 1
golf@@ 1
gol@@ 1
ben@@ 1
wn@@ 1
lead@@ 1
som@@ 1
submer@@ 1
enter@@ 1
wrest@@ 1
pples 1
base@@ 1
pol@@ 1
roller@@ 1
sso 1
pean@@ 1
procedur@@ 1
roa@@ 1
reg@@ 1
famil@@ 1
crosse 1
stitch@@ 1
selves 1
young@@ 1
suit@@ 1
jet@@ 1
thon 1
ftly 1
kee@@ 1
exhib@@ 1
ssively 1
kin 1
mics 1
tuxe@@ 1
tballs 1
uba 1
gl@@ 1
obje@@ 1
bour@@ 1
hop@@ 1
ticu@@ 1
speciali@@ 1
cade 1
envelo@@ 1
sher 1
licate 1
asse@@ 1
mbed 1
lear@@ 1
proof 1
sian 1
rus@@ 1
may@@ 1
yor 1
smi@@ 1
smith 1
rier 1
neck@@ 1
toma@@ 1
ghe@@ 1
pizz@@ 1
|@@ 1
grab@@ 1
pow@@ 1
nur@@ 1
rees 1
phy@@ 1
masse@@ 1
relea@@ 1
prep@@ 1
rece@@ 1
yan@@ 1
dog@@ 1
techn@@ 1
motorcy@@ 1
stren@@ 1
violen@@ 1
cab@@ 1
side@@ 1
knel@@ 1
kah 1
proble@@ 1
soci@@ 1
twork 1
ttery 1
rying 1
purpose@@ 1
amo@@ 1
kened 1
ordin@@ 1
champa@@ 1
spla@@ 1
stically 1
matt@@ 1
park@@ 1
rever@@ 1
bac@@ 1
colle@@ 1
ycle 1
napping 1
selfi@@ 1
tab@@ 1
stead@@ 1
mea@@ 1
tiple 1
dem 1
versity 1
mission 1
scaf@@ 1
brie@@ 1
traditi@@ 1
congratu@@ 1
viol@@ 1
visi@@ 1
ef 1
harmon@@ 1
appar@@ 1
auditori@@ 1
din@@ 1
exhi@@ 1
mic@@ 1
acou@@ 1
mellow 1
skil@@ 1
fies 1
swir@@ 1
conversa@@ 1
pies 1
poly 1
trance 1
contin@@ 1
gil@@ 1
= 1
% 1
recrea@@ 1
ich 1
trombo@@ 1
ades 1
ukule@@ 1
spi@@ 1
ssen@@ 1
copi@@ 1
crow@@ 1
weath@@ 1
newsca@@ 1
7@@ 1
horiz@@ 1
whee@@ 1
kick@@ 1
passi@@ 1
strating 1
mple 1
assi@@ 1
orche@@ 1
stin@@ 1
gies 1
mechani@@ 1
trave@@ 1
craw@@ 1
slic@@ 1
rotiss@@ 1
stap@@ 1
yar@@ 1
oning 1
dang@@ 1
who@@ 1
stry 1
atus 1
iceps 1
vigo@@ 1
ption 1
aters 1
perfor@@ 1
quin 1
sands 1
pun 1
tobac@@ 1
oper@@ 1
cess@@ 1
sked 1
indu@@ 1
itary 1
silhoue@@ 1
wels 1
mb 1
poli@@ 1
iner 1
ais@@ 1
shove@@ 1
dea@@ 1
spar@@ 1
tist 1
lla 1
wered 1
swea@@ 1
half@@ 1
dal 1
identi@@ 1
one@@ 1
negoti@@ 1
alter@@ 1
nate 1
lom 1
plo@@ 1
bably 1
ffing 1
smoo@@ 1
corn 1
rete 1
pou@@ 1
multic@@ 1
mobil@@ 1
vir@@ 1
trampo@@ 1
somersa@@ 1
cils 1
val@@ 1
adul@@ 1
spee@@ 1
gue 1
vide@@ 1
cin@@ 1
surf@@ 1
skill@@ 1
offici@@ 1
4@@ 1
broad@@ 1
swal@@ 1
tici@@ 1
topp@@ 1
mpa@@ 1
dler 1
elder 1
orna@@ 1
drum@@ 1
rt 1
emplo@@ 1
polit@@ 1
ican 1
wren@@ 1
stil@@ 1
nette 1
mache@@ 1
rando@@ 1
mly 1
twir@@ 1
sly 1
goof@@ 1
photograph@@ 1
nels 1
sm 1
sso@@ 1
fore 1
fier 1
sid@@ 1
screw@@ 1
sky@@ 1
conta@@ 1
lic@@ 1
tomi@@ 1
lor 1
pup@@ 1
+ 1
progra@@ 1
mane@@ 1
promo@@ 1
ffee 1
photograp@@ 1
zo@@ 1
religi@@ 1
kins 1
approa@@ 1
ae@@ 1
trou@@ 1
veralls 1
toon 1
ub@@ 1
promp@@ 1
s. 1
inet 1
yog@@ 1
mmer 1
