[p] 1816710
a 11226
man 2163
is 1951
in 1204
the 934
woman 903
of 808
young 779
on 760
and 718
, 717
person 704
two 671
boy 560
are 540
girl 470
to 418
with 417
people 389
an 384
group 354
at 290
little 253
men 231
someone 227
sitting 226
one 193
standing 181
holding 173
as 166
while 165
his 162
baby 161
up 151
child 142
stands 138
small 136
then 135
wearing 133
playing 113
her 110
three 108
sits 105
male 105
holds 100
there 100
uses 96
outside 95
down 93
several 93
large 93
using 92
guy 91
from 88
some 87
women 85
- 79
another 78
has 76
girls 76
toddler 75
out 75
hands 74
boys 74
hand 72
front 72
into 70
's 69
table 67
ball 67
he 65
room 64
their 63
runs 63
walks 62
music 62
it 62
over 61
shown 61
off 59
by 59
how 59
plays 57
lady 56
back 55
female 54
takes 54
around 53
water 53
stand 52
who 51
children 51
jumps 50
kid 49
doing 49
black 48
game 48
that 47
trying 47
piece 47
riding 47
kids 46
couple 46
throws 46
places 45
picks 45
showing 44
puts 43
teenage 43
laying 43
white 42
floor 39
being 38
walking 38
gym 37
shirt 37
baseball 37
other 36
top 36
chair 36
shows 35
talking 35
seated 34
dressed 34
car 34
this 34
ice 32
sit 32
does 32
inside 32
something 32
older 31
for 31
talks 31
crowd 31
speaks 31
next 31
very 31
lying 31
s@@ 30
each 30
t 30
across 30
" 29
she 29
seen 29
red 29
field 29
play 29
rides 29
side 28
looks 28
dog 28
camera 28
video 28
es 27
pulls 27
four 27
or 27
bottle 27
long 27
about 27
head 27
teams 27
player 27
demonstrating 26
d@@ 26
behind 26
adult 25
basketball 25
onto 25
s 25
where 25
can 25
board 25
kitchen 25
football 25
e@@ 24
running 24
close 24
demonstrates 24
through 24
tries 24
hair 23
ts 23
many 23
snow 23
stage 22
ing 22
before 22
er 22
machine 22
pushes 22
t@@ 22
fire 22
p@@ 22
y 22
they 22
green 22
f@@ 21
bar 21
pan 21
blue 21
driving 21
e 21
kicks 21
soccer 21
ma@@ 20
looking 20
a@@ 20
paper 20
lifts 20
pool 20
first 20
putting 19
lays 19
re@@ 19
guys 19
. 19
street 19
be 19
band 19
walk 19
boat 19
players 19
hits 19
co@@ 18
truck 18
working 18
when 18
b@@ 18
moving 18
laughing 18
mother 18
end 18
in@@ 18
high 18
what 18
ps 18
performing 17
during 17
news 17
open 17
ar@@ 17
i@@ 17
un@@ 17
him 17
getting 17
worker 17
ks 17
making 17
eating 17
pours 17
hockey 17
picture 16
ground 16
together 16
ds 16
ding 16
dance 16
ed 16
ca@@ 16
face 16
turns 16
rock 16
golf 16
ride 16
speaking 15
o@@ 15
glasses 15
ring 15
ting 15
ch@@ 15
says 15
swings 15
card 15
kneels 15
ta@@ 15
appears 15
g@@ 15
ers 15
starts 15
food 15
which 15
knife 15
bunch 15
horse 15
removes 14
pair 14
bed 14
shorts 14
explains 14
pa@@ 14
various 14
outdoor 14
them 14
k 14
gentleman 14
wood 14
al 14
lies 14
blows 14
team 14
hold 14
artist 14
li@@ 14
y@@ 14
feet 14
family 14
throwing 14
cat 14
tree 14
use 14
different 14
singing 14
put 13
taking 13
teen 13
its 13
rolls 13
few 13
ba@@ 13
ping 13
an@@ 13
middle 13
cut 13
tool 13
slowly 13
plastic 13
gets 13
wine 13
w@@ 13
moves 13
hit 13
ad@@ 13
watching 13
c@@ 13
school 13
along 13
pe@@ 13
la@@ 13
asks 13
bike 13
falls 13
rope 12
set 12
arms 12
ss 12
di@@ 12
at@@ 12
metal 12
d 12
exercise 12
attempts 12
comes 12
legs 12
shirtless 12
to@@ 12
track 12
ski 12
steps 12
grass 12
u@@ 12
po@@ 12
both 12
m@@ 12
watch 12
snowy 12
voice 12
home 12
beer 12
wall 11
p 11
living 11
practicing 11
adults 11
area 11
st@@ 11
park 11
get 11
dough 11
having 11
giving 11
meat 11
full 11
bends 11
after 11
glass 11
hot 11
right 11
attempting 11
slides 11
bounces 11
bowl 11
chef 11
r@@ 11
stick 11
all 11
pole 11
but 11
spins 11
te@@ 11
par@@ 11
le@@ 11
lights 11
makes 11
apple 11
like 11
jump 11
l 11
l@@ 11
toy 11
tennis 11
go 10
going 10
se@@ 10
drives 10
old 10
points 10
de@@ 10
box 10
gives 10
groups 10
ne@@ 10
ling 10
place 10
cooking 10
h@@ 10
gymnasium 10
mo@@ 10
les 10
house 10
hat 10
athlete 10
hanging 10
liquid 10
al@@ 10
saw 10
air 10
swimming 10
m 10
ve 10
pitcher 10
have 10
yard 10
background 10
wheel 10
wooden 10
goes 10
begins 10
setting 10
eats 10
screen 10
males 10
ups 10
bicycle 10
ter 10
pushing 10
ac@@ 9
gloves 9
was 9
alligator 9
grabs 9
microphone 9
number 9
vehicle 9
it@@ 9
k@@ 9
outdoors 9
do 9
run 9
ons 9
light 9
en@@ 9
cleaning 9
so@@ 9
be@@ 9
b 9
dancing 9
n@@ 9
commercial 9
ready 9
pu@@ 9
empty 9
pieces 9
bag 9
towards 9
karate 9
clothes 9
beach 9
carrying 9
tra@@ 9
age 9
cards 9
ladies 9
asian 9
flips 9
leg 9
finger 9
sets 9
on@@ 9
cuts 9
plate 9
postal 9
ho@@ 9
court 9
che@@ 9
shot 9
me@@ 9
tells 9
pink 9
touches 9
phone 9
coin 9
skier 9
cliff 8
eye 8
no@@ 8
tri@@ 8
mi@@ 8
ex@@ 8
arm 8
opens 8
foreign 8
ra@@ 8
used 8
rolling 8
sa@@ 8
v@@ 8
tosses 8
competing 8
platform 8
jumping 8
lifting 8
barbell 8
blonde 8
led 8
blowing 8
gathered 8
heard 8
il@@ 8
cutting 8
placing 8
against 8
females 8
o 8
dark 8
big 8
workers 8
bull 8
move 8
day 8
g 8
forth 8
ker 8
deck 8
ches 8
throw 8
ste@@ 8
electric 8
ga@@ 8
left 8
ic@@ 8
under 8
orange 8
climbs 8
father 8
st 8
con@@ 8
frying 8
drops 8
n 8
sts 8
wa@@ 8
line 8
slide 8
road 8
ck 8
me 8
garbage 8
opening 8
away 8
laughs 8
yellow 8
cap 8
smoke 8
leans 8
shakes 8
sha@@ 8
ms 8
skiing 8
gs 8
pong 8
scene 7
so 7
listening 7
teens 7
show 7
mouth 7
ted 7
ls 7
dirt 7
made 7
site 7
kneeling 7
si@@ 7
others 7
el@@ 7
covered 7
pro@@ 7
motion 7
ri@@ 7
il 7
aged 7
filled 7
describes 7
edge 7
tall 7
he@@ 7
door 7
fast 7
push 7
gathering 7
class 7
blow 7
forward 7
unseen 7
drinks 7
party 7
bo@@ 7
bottles 7
fish 7
gear 7
arts 7
night 7
sp@@ 7
ti@@ 7
body 7
r 7
teenager 7
2 7
bedroom 7
competition 7
fishing 7
ats 7
near 7
watches 7
batter 7
dogs 7
sports 7
you 7
object 7
sc@@ 7
uniform 7
above 7
foot 7
between 7
coffee 7
fi@@ 7
somebody 7
friend 7
bare 7
fore@@ 7
drill 7
pping 7
restaurant 7
ly 7
king 7
ir@@ 7
ve@@ 7
fe@@ 7
time 7
i 7
race 7
knees 7
talk 7
cage 7
times 7
five 7
audience 7
balancing 7
hole 7
skis 7
wind 7
winter 7
4 7
ses 7
scuba 7
trapeze 7
start 6
loudly 6
crosses 6
indian 6
squats 6
podium 6
concert 6
for@@ 6
med 6
cha@@ 6
ery 6
pulling 6
indoor 6
gr@@ 6
describing 6
rac@@ 6
en 6
flip 6
oven 6
cookie 6
ins 6
colored 6
bartender 6
we@@ 6
view 6
instructor 6
make 6
ves 6
bench 6
ist 6
visible 6
ate 6
tv 6
cake 6
lit 6
sled 6
cho@@ 6
dances 6
do@@ 6
martial 6
ating 6
cup 6
fla@@ 6
ge@@ 6
act 6
daughter 6
su@@ 6
hangs 6
upside 6
per 6
garden 6
busy 6
ming 6
just 6
professional 6
multiple 6
driver 6
ering 6
man@@ 6
pull 6
routine 6
fingers 6
guitar 6
weightlifter 6
explaining 6
ladder 6
tion 6
clear 6
ter@@ 6
held 6
sprays 6
ty 6
shoe 6
ner 6
quickly 6
tied 6
eggs 6
chest 6
eyes 6
spoon 6
rink 6
half 6
scissors 6
mom 6
as@@ 6
button 6
sword 6
yells 6
f 6
spe@@ 6
ge 6
tractor 6
um@@ 6
preparing 6
waves 6
h 6
tt@@ 6
office 6
go@@ 6
dress 6
take 6
pancake 6
performs 6
ful 6
coat 6
golfer 6
church 6
washing 6
event 6
american 6
balls 6
sho@@ 6
hoo@@ 6
gun 6
swims 6
applying 6
pouring 6
folds 6
cow 6
flies 6
diving 6
musician 6
wrapping 6
helps 5
starting 5
climbing 5
performance 5
le 5
taps 5
pre@@ 5
loud 5
well 5
applies 5
com@@ 5
past 5
painting 5
digging 5
gu@@ 5
wrestling 5
ick 5
carefully 5
ad 5
sort 5
mon@@ 5
club 5
raw 5
ties 5
sped 5
sh@@ 5
ded 5
drink 5
catches 5
works 5
weight 5
training 5
handstand 5
pipe 5
woods 5
bathroom 5
burning 5
fly 5
cla@@ 5
underwater 5
wave 5
ocean 5
advertisement 5
string 5
bowls 5
couch 5
ch 5
squatting 5
pitch 5
construction 5
low 5
sma@@ 5
heavy 5
bright 5
played 5
hats 5
ching 5
boats 5
hard 5
jacket 5
sign 5
friends 5
stairs 5
youth 5
slow 5
frisbee 5
proce@@ 5
tire 5
ro@@ 5
way 5
instructions 5
wing 5
if 5
log 5
helping 5
shovel 5
bent 5
wet 5
device 5
cloth 5
sk@@ 5
workout 5
um 5
th@@ 5
filming 5
toward 5
ble 5
stove 5
egg 5
dish 5
rice 5
counting 5
stops 5
ll 5
neck 5
cross 5
clip 5
strapped 5
( 5
na@@ 5
key 5
ng 5
leaning 5
anchor 5
local 5
bite 5
elderly 5
pla@@ 5
placed 5
rubs 5
mask 5
jo@@ 5
clothing 5
paint 5
display 5
mu@@ 5
ster 5
id@@ 5
needle 5
exercises 5
balloon 5
yoga 5
store 5
up@@ 5
base 5
look 5
win@@ 5
practice 5
lea@@ 5
spinning 5
seat 5
sto@@ 5
horses 5
hitting 5
bat 5
skating 5
facing 5
sted 5
lo@@ 5
figure 5
pumps 5
et 5
sticks 5
lake 5
still 5
attached 5
ity 5
cell 5
hill 5
pizza 5
athletic 5
smokes 5
song 5
cricket 5
sings 5
kickball 5
monopoly 5
mans 5
scrabble 5
shoes 5
pig 5
religious 5
snowboarder 5
rodeo 5
sing 4
eyeglasses 4
asking 4
pretending 4
radio 4
station 4
cur@@ 4
nose 4
tail 4
question 4
mer 4
ated 4
flowers 4
qu@@ 4
ic 4
gn@@ 4
el 4
displays 4
chocolate 4
pictures 4
pic@@ 4
is@@ 4
parent 4
brown 4
tables 4
initially 4
br@@ 4
lands 4
parachute 4
double 4
strange 4
bouncing 4
ten@@ 4
costume 4
belly 4
weights 4
mechanic 4
str@@ 4
soft 4
only 4
recording 4
zed 4
title 4
smiles 4
bubble 4
much 4
grassy 4
wi@@ 4
pe 4
pac@@ 4
siting 4
birthday 4
whilst 4
pped 4
film 4
suit 4
book 4
ire 4
bowling 4
lane 4
container 4
uniforms 4
flour 4
second 4
classroom 4
cracks 4
tile 4
kick 4
brea@@ 4
drinking 4
car@@ 4
brush 4
bs 4
short 4
sand 4
hammer 4
fighting 4
sunny 4
coke 4
tie 4
pes 4
consisting 4
kers 4
cowboy 4
racing 4
wer 4
language 4
ning 4
hol@@ 4
fisherman 4
river 4
ban@@ 4
backyard 4
see 4
cars 4
shirts 4
pants 4
contest 4
reporter 4
hand@@ 4
shar@@ 4
split 4
net 4
ou@@ 4
son 4
tter 4
lift 4
aring 4
ying 4
new 4
crawls 4
waiting 4
tricks 4
enjoying 4
gloved 4
sat 4
scallops 4
bu@@ 4
backpack 4
ver 4
pile 4
ha@@ 4
ssing 4
er@@ 4
stomach 4
stretches 4
coming 4
ces 4
cra@@ 4
ft 4
enters 4
sta@@ 4
reading 4
saying 4
crying 4
ily 4
tly 4
pineapple 4
men@@ 4
perform 4
or@@ 4
service 4
smiling 4
package 4
ked 4
traffic 4
lot 4
jet 4
pose 4
ap@@ 4
laundry 4
dumping 4
swim 4
beside 4
ke 4
fight 4
wrestlers 4
teenagers 4
squ@@ 4
ck@@ 4
ati@@ 4
cream 4
blond 4
round 4
center 4
building 4
rises 4
picnic 4
van 4
ar 4
students 4
flying 4
dar@@ 4
kes 4
gate 4
approaches 4
shaving 4
award 4
photo 4
der 4
wn 4
african 4
tic@@ 4
hair@@ 4
cks 4
no 4
batt@@ 4
roa@@ 4
power 4
the@@ 4
se 4
give 4
lacrosse 4
ski@@ 4
wal@@ 4
carpet 4
surfer 4
animal 4
ther 4
boards 4
phones 4
cor@@ 4
roll 4
mar@@ 4
nu@@ 4
shoots 4
handles 4
ver@@ 4
instructional 4
dra@@ 4
kno@@ 4
shes 4
huge 4
; 4
hose 4
bald 4
chess 4
type 4
chested 4
instrument 4
tap 4
gas 4
ns 4
newspaper 4
elephant 4
marshmallow 4
sur@@ 4
calf 4
sticking 4
soap 4
tape 4
wax 4
strip 4
ged 3
kee@@ 3
bangs 3
op@@ 3
patient 3
pairs 3
announ@@ 3
straddles 3
wrestler 3
/ 3
tw@@ 3
speed 3
cro@@ 3
tre@@ 3
row 3
sid@@ 3
ent 3
ke@@ 3
too@@ 3
inter@@ 3
discussing 3
es@@ 3
ors 3
shooting 3
pokes 3
train 3
touching 3
business 3
ving 3
lin@@ 3
ary 3
cheer 3
ters 3
ele@@ 3
sandy 3
waits 3
series 3
sal@@ 3
bl@@ 3
same 3
raise 3
narrator 3
birds 3
skydiver 3
tes 3
ght 3
wide 3
bathtub 3
german 3
ropes 3
followed 3
exc@@ 3
ided 3
cheers 3
fellow 3
pers 3
removing 3
hi@@ 3
dancers 3
gar@@ 3
attire 3
exerciser 3
gymna@@ 3
help 3
haired 3
things 3
sidewalk 3
without 3
protective 3
dri@@ 3
narrates 3
teaching 3
straight 3
handle 3
fur@@ 3
teenaged 3
leaves 3
ket 3
candles 3
ni@@ 3
shed 3
films 3
sle@@ 3
gi@@ 3
kisses 3
shaking 3
done 3
run@@ 3
item 3
j@@ 3
waving 3
wooded 3
filling 3
comb 3
curly 3
brushing 3
cabinet 3
kaya@@ 3
fills 3
stadium 3
rs 3
fighters 3
operating 3
snow@@ 3
ders 3
attempt 3
dives 3
bungee 3
count 3
pi@@ 3
trick 3
individuals 3
th 3
writing 3
word 3
' 3
stra@@ 3
lure 3
sailboat 3
rapidly 3
ship 3
ment 3
carries 3
candle 3
shore 3
swe@@ 3
hood 3
pretends 3
catcher 3
out@@ 3
pitches 3
stan@@ 3
musical 3
hundreds 3
laugh 3
helmeted 3
tr@@ 3
scre@@ 3
either 3
play@@ 3
tapping 3
sl@@ 3
rests 3
ax 3
reaches 3
axe 3
rings 3
barefoot 3
picking 3
bucket 3
pat@@ 3
resting 3
shoulders 3
cle@@ 3
suc@@ 3
rubbing 3
jeans 3
ced 3
brought 3
closes 3
fuzzy 3
window 3
nd 3
tutorial 3
gre@@ 3
ence 3
x@@ 3
sum@@ 3
lid 3
pot 3
over@@ 3
cooked 3
fry 3
sea 3
sizzle 3
ation 3
circle 3
gentelman 3
not 3
stack 3
sh 3
itting 3
sno@@ 3
crack 3
ure 3
kles 3
piano 3
infant 3
ides 3
mat 3
plants 3
crossing 3
index 3
6 3
uck 3
3 3
peeling 3
demonstration 3
id 3
poured 3
watermelon 3
ant 3
wo@@ 3
fully 3
bus 3
mail 3
ally 3
rec@@ 3
bi@@ 3
jar 3
loo@@ 3
pol@@ 3
motorcyc@@ 3
segway 3
outfit 3
stance 3
thrown 3
far 3
cold 3
individual 3
hea@@ 3
fitness 3
art 3
handing 3
pen 3
basketballs 3
hoop 3
coach 3
ments 3
crowded 3
salt 3
parking 3
themselves 3
helmets 3
trash 3
mirror 3
mascara 3
ater 3
highchair 3
scoops 3
partially 3
blanket 3
dips 3
cu@@ 3
prepared 3
basket 3
emb@@ 3
trac@@ 3
robo@@ 3
tic 3
sed 3
cellphone 3
whe@@ 3
leaps 3
cyc@@ 3
bmx 3
presen@@ 3
ars 3
flo@@ 3
ched 3
bread 3
cr@@ 3
tro@@ 3
feeding 3
fencing 3
words 3
pressing 3
sna@@ 3
garage 3
reen@@ 3
atta@@ 3
flipping 3
equipment 3
wrap 3
hook 3
bands 3
cheese 3
inserts 3
ining 3
tu@@ 3
putter 3
six 3
app@@ 3
chan@@ 3
rub 3
groo@@ 3
pick 3
himself 3
lines 3
reenactment 3
re 3
civil 3
war 3
skate 3
skates 3
gra@@ 3
beans 3
sco@@ 3
concrete 3
balances 3
spea@@ 3
lion 3
vo@@ 3
z@@ 3
infront 3
surrounded 3
announcer 3
forest 3
bathing 3
suits 3
iron 3
ven@@ 3
ven 3
motorcycle 3
runner 3
juggling 3
juggles 3
bat@@ 3
repeatedly 3
kicking 3
keeping 3
riders 3
country 3
ki@@ 3
bro@@ 3
howls 3
kite 3
flat 3
skateboard 3
pans 3
cement 3
sons 3
ved 3
flammable 3
material 3
work@@ 3
suitcase 3
skateboards 3
counter 3
xing 3
asked 3
pre 3
ce 3
action 3
tea@@ 3
dum@@ 3
my 3
rs@@ 3
milk 3
mop 3
roo@@ 3
dy 3
newscaster 3
story 3
ging 3
us 3
stretching 3
keeps 3
remove 3
ce@@ 3
sofa 3
quarterback 3
match 3
pets 3
drawn 3
apples 3
ous 3
flag 3
sunglasses 3
conductor 3
mallet 3
faces 3
dart 3
prepares 3
topless 3
let 3
said 3
stac@@ 3
marble 3
reads 3
wh@@ 3
ite@@ 3
polo 3
ph@@ 3
volleyball 3
sander 3
engage 3
balloons 3
finishes 3
pretty 3
weather 3
fun 3
wheelbarrow 3
younger 3
wheelchair 3
ct 3
models 3
camels 3
trainer 3
unicycle 3
mping 3
smo@@ 3
roller 3
couples 3
sleeping 3
ci@@ 3
step 3
persons 3
micro@@ 3
swinging 3
lifted 3
fo@@ 3
acrobat 3
tongue 3
grapes 3
rubber 3
swimmer 3
pickup 3
graffiti 3
texting 3
fabric 3
wears 3
coa@@ 3
atm 3
industrial 3
puppet 3
priest 3
images 2
complaining 2
objects 2
tor 2
doctor 2
tician 2
adju@@ 2
sting 2
cores 2
listens 2
acting 2
cers 2
lures 2
shallow 2
pond 2
jaw 2
ile 2
addresses 2
vi@@ 2
gree@@ 2
caster 2
product 2
dig 2
vie@@ 2
wed 2
mod@@ 2
ations 2
xed 2
cav@@ 2
walls 2
kneel 2
bend 2
downward 2
traditional 2
fra@@ 2
logist 2
taped 2
sen@@ 2
gers 2
argue 2
tightly 2
bows 2
fake 2
claims 2
repair 2
technician 2
ti 2
been 2
conference 2
computer 2
yed 2
rot@@ 2
uc@@ 2
tion@@ 2
list@@ 2
presentation 2
mic 2
baked 2
swir@@ 2
ip 2
mix 2
spo@@ 2
ory 2
bun@@ 2
pitch@@ 2
obser@@ 2
sky 2
divers 2
parachu@@ 2
eyed 2
bath 2
shepard 2
instruc@@ 2
exercising 2
sweatshirt 2
rob@@ 2
ics 2
mus@@ 2
successfully 2
performer 2
stic 2
leader 2
student 2
machin@@ 2
shop 2
peice 2
welding 2
block 2
fin@@ 2
apparently 2
dry 2
trees 2
kind 2
demonstr@@ 2
broom 2
ace 2
glowing 2
leaf 2
blower 2
stood 2
funny 2
lap 2
toilet 2
fails 2
stop 2
gg@@ 2
lled 2
crashing 2
spin 2
handling 2
connected 2
bowler 2
bowing 2
alley 2
bra@@ 2
chicken 2
tray 2
tou@@ 2
nament 2
pun@@ 2
studio 2
exhibition 2
bel@@ 2
breaking 2
properly 2
torch 2
cre@@ 2
adolescent 2
drop 2
are@@ 2
lego 2
fan@@ 2
canoe 2
fil@@ 2
v 2
soil 2
surface 2
ji@@ 2
matado@@ 2
towel 2
load@@ 2
load 2
lowers 2
suspen@@ 2
cord 2
jum@@ 2
mature 2
swi@@ 2
dyed 2
bur@@ 2
ght@@ 2
im@@ 2
bus@@ 2
teacher 2
grap@@ 2
gentle 2
secur@@ 2
lling 2
mat@@ 2
sail@@ 2
sinking 2
youth@@ 2
duo 2
thin 2
cartwheel 2
chain@@ 2
ws 2
trimming 2
mp@@ 2
kin 2
shoreline 2
au@@ 2
stri@@ 2
catch 2
pony 2
softball 2
roud 2
shifts 2
fix 2
pin 2
instruction 2
struggles 2
ange 2
alongside 2
desperately 2
cing 2
kne@@ 2
tell 2
you@@ 2
tires 2
sweat@@ 2
cheer@@ 2
acts 2
crou@@ 2
sel 2
kettle 2
employee 2
chopping 2
camp@@ 2
disc@@ 2
digs 2
fork 2
ones 2
clay 2
showed 2
really 2
ny 2
tails 2
af@@ 2
shining 2
spra@@ 2
spray 2
squeez@@ 2
ger 2
ades 2
w 2
our@@ 2
cli@@ 2
spen@@ 2
tal@@ 2
ented 2
draws 2
naked 2
oth@@ 2
style 2
splits 2
tor@@ 2
raises 2
zes 2
camp 2
commen@@ 2
irs 2
sausage 2
ali@@ 2
sausages 2
cook 2
stes 2
skin 2
labo@@ 2
vol@@ 2
always 2
thumbs 2
money 2
dre@@ 2
presses 2
thr@@ 2
stretch 2
toes 2
kn@@ 2
ach 2
noise 2
turn 2
prac@@ 2
tit@@ 2
massage 2
crawling 2
dec@@ 2
stares 2
carrier 2
water@@ 2
ys 2
season 2
releases 2
curling 2
stone 2
encourages 2
ol@@ 2
stylist 2
examines 2
fruit 2
ition 2
mon 2
hou@@ 2
exper@@ 2
flu@@ 2
ates 2
iling 2
triangle 2
slices 2
mats 2
backwards 2
hops 2
xes 2
youn@@ 2
newswoman 2
ss@@ 2
stic@@ 2
seems 2
us@@ 2
ited 2
shel@@ 2
infor@@ 2
changes 2
repor@@ 2
delivers 2
u 2
waiter 2
off@@ 2
hi 2
moti@@ 2
ction 2
ice@@ 2
c 2
see@@ 2
swimsuit 2
cking 2
ru@@ 2
dodgeball 2
opposite 2
dge 2
slows 2
hips 2
nice 2
dribbling 2
shoot 2
dribbles 2
ut 2
dan@@ 2
els 2
whi@@ 2
grip 2
arc 2
eding 2
asleep 2
slee@@ 2
stunt 2
ely 2
vest 2
segment 2
dye 2
gging 2
more 2
sn@@ 2
acks 2
doughnut 2
don@@ 2
ff@@ 2
din@@ 2
gh@@ 2
dly 2
purple 2
vely 2
medicine 2
own 2
huddle 2
firemen 2
showca@@ 2
bla@@ 2
extingui@@ 2
sher 2
doll 2
wipes 2
gir@@ 2
size 2
lawn 2
inflated 2
cycles 2
spee@@ 2
ramp 2
laugh@@ 2
list 2
rapid 2
helmet 2
nea@@ 2
cler@@ 2
scoots 2
most 2
alone 2
ten 2
teri@@ 2
rain 2
sea@@ 2
bir@@ 2
perched 2
landing 2
walkway 2
beauti@@ 2
goats 2
fen@@ 2
plaid 2
pump 2
ctor 2
mounts 2
ponytail 2
fiddles 2
barre@@ 2
tte 2
thing 2
project 2
strikes 2
skillet 2
gras@@ 2
tents 2
flipped 2
ped 2
portion 2
tric@@ 2
fold 2
folded 2
time@@ 2
work 2
stir@@ 2
stirs 2
oriental 2
dles 2
bar@@ 2
stump 2
ide 2
tweezers 2
ear@@ 2
tat@@ 2
tattoo 2
acce@@ 2
given 2
recei@@ 2
oper@@ 2
golfing 2
unkno@@ 2
course 2
shuff@@ 2
od 2
clo@@ 2
bottom 2
grinder 2
grinding 2
expla@@ 2
why 2
spon@@ 2
polish 2
of@@ 2
wired 2
brai@@ 2
sees 2
) 2
tub 2
smile 2
balance 2
padded 2
joking 2
hors@@ 2
meet 2
ler 2
blocks 2
indoors 2
soldi@@ 2
position 2
batting 2
itt@@ 2
uniformed 2
breath 2
aisle 2
cover 2
roasting 2
including 2
tch 2
ligh@@ 2
scooter 2
amn 2
cal@@ 2
christmas 2
ssed 2
mum 2
applau@@ 2
born 2
toys 2
beat 2
pop 2
sport 2
spor@@ 2
even 2
am 2
eskimo 2
ent@@ 2
emerges 2
ans 2
pl@@ 2
stre@@ 2
cher 2
vacuums 2
cameraman 2
dresser 2
smooth 2
irons 2
steam 2
javelin 2
vels 2
tank 2
displayed 2
hur@@ 2
tles 2
footage 2
backs 2
fol@@ 2
lowing 2
motor 2
crosswalk 2
ja@@ 2
dots 2
flaming 2
atop 2
leap 2
roof 2
socializing 2
lounge 2
method 2
upright 2
goal 2
kic@@ 2
post@@ 2
ek 2
lay 2
wheeled 2
ol 2
lawnmowers 2
drive 2
captured 2
our 2
ening 2
mor@@ 2
vel 2
invol@@ 2
lapse 2
gently 2
lighting 2
lighter 2
ab@@ 2
barbecue 2
competitor 2
ples 2
long@@ 2
womans 2
rt@@ 2
some@@ 2
tho@@ 2
scope 2
collection 2
als 2
luge 2
slideshow 2
washes 2
sandwich 2
spread 2
stream 2
folding 2
finishing 2
wait@@ 2
ingredients 2
bundled 2
ound 2
sushi 2
conta@@ 2
jazz 2
hospital 2
knelt 2
sses 2
mass@@ 2
aging 2
de 2
barber 2
scratches 2
guide 2
sor@@ 2
sque@@ 2
ze 2
por@@ 2
tun@@ 2
assi@@ 2
special 2
sweeper 2
removed 2
sound 2
plank 2
hus@@ 2
fe 2
procession 2
stair@@ 2
lawnmower 2
handled 2
mushroom 2
cast 2
reporting 2
ips 2
closed 2
secured 2
fridge 2
mb@@ 2
low@@ 2
charac@@ 2
almost 2
ken 2
parag@@ 2
peri@@ 2
extended 2
mattre@@ 2
progre@@ 2
jersey 2
preteen 2
peels 2
city 2
waste 2
empties 2
san@@ 2
automated 2
factory 2
colle@@ 2
cans 2
pet 2
bb@@ 2
text 2
grab@@ 2
beard 2
& 2
pictured 2
ite 2
thanking 2
bomb 2
copy 2
directions 2
lows 2
tablet 2
photograp@@ 2
knock 2
college 2
attaching 2
extends 2
wood@@ 2
head@@ 2
watering 2
dr@@ 2
serves 2
bear@@ 2
lic 2
instru@@ 2
guitarist 2
eling 2
tossing 2
casino 2
controller 2
buttons 2
mes 2
sman 2
cymbals 2
covering 2
dire@@ 2
horn 2
dominoes 2
pyramid 2
beginning 2
drum 2
guiding 2
turban 2
keyboard 2
laser 2
elec@@ 2
marbles 2
lined 2
single 2
gro@@ 2
n't 2
organ@@ 2
close@@ 2
paintball 2
poor 2
pinball 2
onal 2
0 2
shouts 2
tters 2
porch 2
introduce 2
learn 2
gged 2
ukulele 2
formal 2
vaul@@ 2
sink 2
moun@@ 2
bottled 2
ope@@ 2
sprinkles 2
japanese 2
self 2
military 2
station@@ 2
raised 2
punching 2
boxers 2
boxes 2
advertises 2
practices 2
ev@@ 2
ky 2
straightens 2
sock 2
pri@@ 2
super@@ 2
patch 2
camel 2
arena 2
elephants 2
mechanical 2
coral 2
path 2
violin 2
tears 2
reverse 2
pig@@ 2
sla@@ 2
calls 2
twi@@ 2
pie 2
deep 2
kneads 2
q@@ 2
views 2
scra@@ 2
tur@@ 2
ges 2
circular 2
paints 2
diver 2
tan@@ 2
sil@@ 2
yolk 2
ites 2
ff 2
mer@@ 2
thread 2
slaps 2
science 2
preschool 2
tight 2
du@@ 2
sharpening 2
pen@@ 2
razor 2
sheep 2
flash@@ 2
switched 2
flash 2
boots 2
mpo@@ 2
cked 2
per@@ 2
till 2
shoveling 2
oyster 2
... 2
slo@@ 2
among 2
skate@@ 2
bri@@ 2
skiiers 2
slalom 2
mounta@@ 2
gy@@ 2
charger 2
lu@@ 2
lamp 2
inhales 2
though 2
cigarette 2
2@@ 2
snowboard 2
len@@ 2
snowmobile 2
dad 2
somersault 2
congratulates 2
dumbbell 2
tial 2
staring 2
chas@@ 2
stomp 2
buckets 2
ju@@ 2
ices 2
te 2
pers@@ 2
bear 2
waters@@ 2
stroke 2
pal@@ 2
spot 2
wr@@ 2
drawing 2
can@@ 2
shuffling 2
sip 2
axes 2
puppy 2
tickle 2
bell 2
tight@@ 2
upwards 2
treat 2
shepherd 2
trapi@@ 2
stics 2
bran@@ 2
tying 2
desk 2
unload 2
bit 2
wrench 2
displaying 2
zoo 2
brings 2
sliding 2
gold 2
movie 2
sli@@ 2
waxing 2
winks 2
marker 2
yaw@@ 2
encoura@@ 1
ag@@ 1
scrib@@ 1
rent 1
mino@@ 1
vide@@ 1
fron@@ 1
ari@@ 1
enjo@@ 1
den 1
compu@@ 1
cooki@@ 1
mp 1
liqu@@ 1
recor@@ 1
idge 1
da@@ 1
erci@@ 1
cial 1
bee 1
cular 1
ben@@ 1
tori@@ 1
vehic@@ 1
rying 1
rid@@ 1
boo@@ 1
raz@@ 1
ian 1
bre@@ 1
bott@@ 1
ette 1
outf@@ 1
mable 1
afr@@ 1
ures 1
ld 1
scen@@ 1
ller 1
7 1
with@@ 1
alli@@ 1
fish@@ 1
contro@@ 1
ya@@ 1
base@@ 1
clu@@ 1
somersaul@@ 1
thering 1
glo@@ 1
lead@@ 1
5 1
restaur@@ 1
´@@ 1
ards 1
scrat@@ 1
dir@@ 1
too 1
ori@@ 1
hal@@ 1
try 1
mb 1
gym@@ 1
coo@@ 1
ul@@ 1
reve@@ 1
prepar@@ 1
ei@@ 1
$ 1
x 1
bbling 1
under@@ 1
ath 1
swee@@ 1
lers 1
ep 1
hun@@ 1
inser@@ 1
ils 1
lowed 1
dic@@ 1
stum@@ 1
deli@@ 1
vering 1
practic@@ 1
news@@ 1
wers 1
shi@@ 1
shing 1
lls 1
scoo@@ 1
dis@@ 1
char@@ 1
bble 1
> 1
jac@@ 1
ske@@ 1
less 1
back@@ 1
cat@@ 1
wra@@ 1
crac@@ 1
.@@ 1
stu@@ 1
bow@@ 1
thum@@ 1
ffe@@ 1
cti@@ 1
narr@@ 1
fire@@ 1
yc@@ 1
appro@@ 1
ima@@ 1
ye@@ 1
prep@@ 1
conne@@ 1
inning 1
smoo@@ 1
fli@@ 1
vice 1
mul@@ 1
colo@@ 1
sti@@ 1
gol@@ 1
lar 1
wat@@ 1
ser 1
brush@@ 1
thro@@ 1
vari@@ 1
competit@@ 1
ric 1
actment 1
intro@@ 1
duc@@ 1
oud 1
athle@@ 1
appe@@ 1
new@@ 1
aches 1
famil@@ 1
climb@@ 1
hic@@ 1
straighten@@ 1
ue 1
equi@@ 1
je@@ 1
pan@@ 1
cycle 1
rea@@ 1
camera@@ 1
dow 1
gentle@@ 1
ssi@@ 1
foo@@ 1
photo@@ 1
yel@@ 1
min@@ 1
wel 1
butt@@ 1
fini@@ 1
ry 1
shoul@@ 1
leep 1
fl@@ 1
ick@@ 1
perfor@@ 1
oe 1
sm@@ 1
top@@ 1
pin@@ 1
dle 1
employe@@ 1
surroun@@ 1
ages 1
mode@@ 1
mil@@ 1
case 1
mush@@ 1
fun@@ 1
soci@@ 1
uring 1
ancho@@ 1
wit@@ 1
ness 1
fts 1
ream 1
doors 1
scar@@ 1
ez@@ 1
j 1
fri@@ 1
ator 1
thered 1
loun@@ 1
acro@@ 1
pick@@ 1
fro@@ 1
ssion 1
bage 1
cts 1
mono@@ 1
cle 1
sel@@ 1
lle@@ 1
bing 1
: 1
rin@@ 1
seri@@ 1
plan@@ 1
trim@@ 1
alls 1
shu@@ 1
music@@ 1
sol@@ 1
kets 1
zo@@ 1
dies 1
multi@@ 1
lear@@ 1
ob@@ 1
tment 1
beg@@ 1
org@@ 1
1 1
introdu@@ 1
ir 1
% 1
malle@@ 1
1@@ 1
pian@@ 1
tball 1
viol@@ 1
eld 1
ents 1
toma@@ 1
barrow 1
cou@@ 1
pou@@ 1
childre@@ 1
enter 1
ways 1
cl@@ 1
indi@@ 1
sun@@ 1
skil@@ 1
marshma@@ 1
knea@@ 1
discus@@ 1
rat@@ 1
kni@@ 1
sharpe@@ 1
tal 1
mn 1
handl@@ 1
soc@@ 1
cer 1
read 1
boar@@ 1
seas@@ 1
down@@ 1
qui@@ 1
balan@@ 1
ssy 1
she@@ 1
thes 1
ka@@ 1
ur@@ 1
lifter 1
grin@@ 1
snowmob@@ 1
ough 1
ward 1
pad@@ 1
lan@@ 1
3@@ 1
0@@ 1
fa@@ 1
compe@@ 1
exerci@@ 1
mob@@ 1
fing 1
oun@@ 1
dl@@ 1
ust 1
secon@@ 1
conte@@ 1
ffi@@ 1
lap@@ 1
erman 1
ste 1
eng@@ 1
lish 1
poin@@ 1
ctive 1
dy@@ 1
hel@@ 1
z 1
ate@@ 1
zz 1
mir@@ 1
fore 1
8 1
ley 1
vers 1
wheel@@ 1
ere 1
demon@@ 1
pain@@ 1
ghten@@ 1
noi@@ 1
vy 1
pack@@ 1
medic@@ 1
inhal@@ 1
pup@@ 1
remo@@ 1
vacuum@@ 1
vacu@@ 1
lean@@ 1
tween 1
litt@@ 1
leas@@ 1
fu@@ 1
iti@@ 1
zing 1
motor@@ 1
tage 1
infla@@ 1
pum@@ 1
stret@@ 1
wea@@ 1
construc@@ 1
automa@@ 1
wel@@ 1
ggles 1
ddle 1
camer@@ 1
ub@@ 1
audi@@ 1
ann@@ 1
wrest@@ 1
gle 1
que@@ 1
forma@@ 1
