a 235377
. 104788
the 55915
and 53133
is 52548
in 42953
of 37225
to 36568
on 35804
man 35575
with 21565
person 17096
are 16866
while 16811
woman 16511
, 16184
his 12499
an 12482
people 12218
it 11012
young 10867
two 10075
her 9899
at 9736
as 9298
boy 9268
then 8856
playing 8734
girl 8536
[c] 7947
group 7534
how 7399
up 7338
down 6753
into 6249
using 6124
by 5397
another 5194
he 5004
around 4920
sitting 4899
their 4879
some 4850
out 4836
someone 4753
little 4748
from 4660
one 4645
music 4610
baby 4363
men 4331
ball 4146
large 4032
other 4005
that 3863
doing 3806
off 3783
water 3715
over 3635
plays 3594
them 3496
room 3440
back 3431
front 3415
small 3383
holding 3375
for 3308
's 3290
standing 3262
child 3168
talking 3111
table 3095
floor 3041
they 3017
hands 3002
him 2897
hair 2875
showing 2857
outside 2780
she 2778
hand 2768
being 2713
piece 2609
about 2565
uses 2557
dance 2532
game 2492
wearing 2491
dancing 2461
guy 2421
through 2368
shown 2323
machine 2305
together 2299
play 2299
camera 2281
field 2258
riding 2232
snow 2146
several 2102
women 2056
background 2035
gym 2028
each 1951
does 1901
- 1899
demonstrating 1890
girls 1868
something 1867
demonstrates 1828
head 1804
making 1794
trying 1771
stage 1746
inside 1708
paper 1672
kids 1640
board 1628
dog 1627
do 1615
car 1595
sits 1590
shows 1588
pool 1588
make 1584
walking 1567
crowd 1561
stands 1542
before 1535
three 1530
ground 1524
very 1510
chair 1507
wood 1505
face 1505
ice 1504
children 1501
kid 1490
has 1478
top 1468
lady 1466
side 1462
boys 1457
holds 1448
talks 1447
throws 1444
across 1440
different 1433
shirt 1425
wall 1410
onto 1404
runs 1353
rope 1327
jumps 1312
long 1305
food 1302
tree 1291
walks 1261
who 1255
watch 1233
watching 1231
fire 1228
getting 1221
others 1219
putting 1216
behind 1209
toddler 1201
jump 1199
was 1196
throwing 1193
air 1175
street 1167
use 1155
running 1140
performing 1133
swimming 1128
eating 1117
song 1113
jumping 1107
high 1103
couple 1103
puts 1103
put 1099
laying 1088
bottle 1088
looking 1086
video 1086
mouth 1085
kitchen 1083
having 1079
guitar 1057
tool 1044
falls 1042
moves 1029
knife 1028
metal 1006
bed 997
be 996
what 992
laughing 985
next 979
makes 976
open 976
there 968
house 966
takes 965
looks 962
basketball 962
gets 961
cut 961
boat 955
moving 948
feet 930
working 926
track 921
bike 914
tries 910
seen 909
tie 909
practicing 906
male 905
stand 892
horse 888
football 879
wooden 877
rides 860
instrument 859
all 855
along 850
soccer 849
can 848
pan 848
like 844
rock 839
explaining 830
hits 829
time 825
toy 823
cutting 818
" 813
giving 813
its 811
area 807
get 803
going 795
starts 795
building 794
when 794
golf 780
adult 776
watches 774
way 774
brush 770
glass 763
or 762
baseball 760
slowly 758
set 757
object 756
line 753
audience 745
away 741
leg 732
bar 728
singing 725
bowl 723
begins 722
balls 722
meat 721
show 719
hitting 717
dark 714
speaking 713
arms 709
legs 708
hill 706
but 705
female 702
exercise 701
tire 700
blowing 698
electric 688
turns 681
road 677
phone 677
explains 673
places 673
body 671
during 669
fast 667
where 664
laughs 664
picks 664
speaks 663
taking 662
fingers 662
court 660
t 657
fish 657
pieces 656
after 655
arm 652
beach 651
sit 650
work 646
walk 644
team 644
cards 642
performs 641
sand 641
blows 638
kicks 636
stick 635
re@@ 634
various 633
against 633
seated 631
driving 630
wheel 630
grass 627
bag 627
forth 626
band 626
box 625
climbing 623
outdoors 623
which 615
yard 613
plastic 611
dirt 610
balloon 610
paint 606
motion 606
routine 602
weights 602
pole 600
living 599
himself 597
few 596
park 593
fishing 589
under 586
have 584
perform 583
foot 583
clean 583
dressed 577
older 572
dances 571
beer 568
guys 564
ocean 564
pushing 562
hit 561
towards 560
throw 559
end 557
near 553
couch 552
weight 551
big 549
middle 546
flips 544
ride 543
truck 539
screen 536
lifts 535
go 533
player 531
piano 531
cooking 527
eye 526
gives 526
four 525
heavy 525
goes 523
door 523
lifting 522
pulls 522
pushes 521
blow 517
competition 516
hat 514
look 513
ed 512
eyes 511
skiing 511
tennis 510
pair 509
snowy 508
washing 506
both 505
lying 502
cleaning 502
attempts 502
outdoor 499
day 498
dough 497
glasses 496
microphone 495
place 493
es 493
type 493
move 490
hockey 490
wine 489
teams 487
studio 486
many 484
neck 482
mother 481
sticks 480
bicycle 480
players 479
laugh 474
indoor 473
event 470
properly 466
kicking 465
talk 463
cheer 462
applying 462
vehicle 462
ing 460
mat 460
cat 460
lake 460
quickly 459
shot 457
shoe 457
same 454
bunch 451
race 451
times 450
s 448
sink 448
lot 447
shoes 446
skating 444
right 442
between 440
attached 438
language 438
e@@ 438
plate 436
light 435
take 434
practice 434
apple 434
slow 433
device 432
run 432
pulling 431
multiple 431
opens 431
cloth 429
adults 428
instructions 425
bull 423
ts 422
forward 421
pipe 421
setting 420
full 420
waves 420
home 420
cup 420
in@@ 419
card 418
tricks 418
carpet 417
cuts 416
ups 415
basket 415
saw 413
attempting 412
book 412
hammer 412
egg 410
drums 409
covered 409
teenage 409
hole 409
ski 408
instruments 406
cake 406
fight 405
painting 404
cheering 403
flip 402
swing 402
push 401
musical 399
mountain 398
spinning 397
dogs 396
works 395
preparing 393
un@@ 393
slide 390
string 389
rolling 389
clothes 388
describing 385
appears 385
a@@ 382
swings 382
o@@ 380
ready 379
held 379
surface 379
spins 379
old 378
p@@ 377
not 377
sidewalk 376
river 376
sewing 375
c@@ 374
close 374
exercises 373
christmas 372
loud 371
start 370
lays 370
sled 368
nose 367
flute 367
demonstration 366
above 366
s@@ 366
recording 365
mirror 364
eggs 364
first 362
says 360
pull 360
diving 360
backwards 359
steps 358
swinging 358
describes 358
makeup 357
lawn 357
kick 356
placing 355
ring 354
finger 353
rink 353
gloves 352
bathroom 352
lights 350
drum 350
circle 349
hold 349
so 348
pencil 348
cheers 347
tools 346
needle 346
listening 346
g@@ 346
tv 346
ropes 345
smiling 345
opening 345
target 345
made 344
school 344
bow 344
sheet 344
clapping 343
help 342
beat 341
parachute 341
climbs 340
ers 340
were 340
friends 340
thread 340
er 340
brushing 340
hot 340
used 339
comes 338
eats 338
drink 336
news 336
cream 336
belly 336
gas 336
cap 334
eyebrows 334
sing 333
friend 333
goal 332
hanging 331
drinking 331
spray 331
trampoline 328
practices 327
y 327
hoop 327
folding 326
t@@ 326
iron 326
this 325
gear 324
d@@ 324
applies 324
leaves 323
pick 323
part 322
class 322
net 322
match 321
tractor 321
proper 319
try 318
bench 318
wax 318
picture 317
fun 316
massage 315
fence 314
again 314
night 314
drill 314
individual 313
club 313
prepares 311
played 311
la@@ 310
store 309
equipment 308
cart 308
cliff 307
fold 307
restaurant 307
ping 306
suit 306
you 306
juggling 306
watermelon 306
remove 305
concrete 305
animal 305
catches 305
left 304
half 304
wind 304
eat 304
pong 303
themselves 302
bottom 302
seat 302
w@@ 301
family 301
course 300
skis 300
process 299
picking 299
curling 299
frisbee 297
chest 296
dress 294
computer 294
bubble 294
mom 293
hose 292
smiles 291
wrestling 291
ting 290
item 287
climb 286
faces 286
pen 285
i@@ 284
television 284
ly 283
repeatedly 282
stone 282
bat 282
bucket 282
roller 282
sword 282
de@@ 281
kind 281
voice 281
feeding 281
shaving 281
edge 280
church 280
shaking 279
fall 278
apply 278
ladder 278
counter 277
style 277
lap 276
path 276
falling 276
tutorial 276
horses 276
tune 276
o 275
window 275
herself 275
wave 275
fabric 275
deck 275
ted 274
break 274
sort 274
sings 274
drops 273
new 272
drawing 272
pot 272
narrates 271
trees 270
art 270
drives 270
surfing 269
lift 269
pe@@ 268
bowling 268
weather 268
d 267
power 266
technique 265
teaching 264
foreign 263
clothing 263
else 263
beside 263
turning 262
concert 262
rolls 262
toilet 262
without 261
create 261
cook 261
b@@ 260
cow 260
k@@ 259
ramp 259
colored 259
woods 258
punching 258
view 257
slope 257
ar@@ 257
pulled 257
liquid 257
kite 257
e 256
just 256
items 256
empty 254
u@@ 254
special 253
swim 253
crying 252
m 251
smoke 250
sail 250
reading 248
well 248
i 248
wrapping 248
smoking 248
hard 247
mask 247
pouring 246
rubbing 245
boxing 245
le 244
tattoo 244
see 243
tying 243
filming 243
father 243
nails 243
country 243
toward 242
l 241
balloons 241
sound 240
demonstrate 240
writing 240
lands 240
removes 239
if 239
spoon 239
cross 238
po@@ 238
scooter 238
sleeping 238
carefully 237
stove 237
rocks 236
helmet 236
position 236
grabs 236
pit 236
mechanical 236
indoors 236
drinks 236
tells 235
ling 234
worker 234
sports 234
chef 234
m@@ 233
square 233
skates 233
really 232
competing 232
clear 232
racing 232
speed 231
filled 231
container 231
flat 230
di@@ 229
teeth 228
cement 228
color 228
r@@ 227
no 227
pours 227
desk 227
y@@ 227
material 227
blower 227
scissors 227
gum 226
trumpet 226
helping 225
li@@ 225
wash 225
ballet 225
skills 224
roll 224
gymnasium 224
block 224
backyard 224
button 224
traffic 224
shakes 222
bottles 222
motorcycle 222
vacuum 222
karate 222
lit 221
bedroom 221
barbell 221
sounds 221
stops 221
ma@@ 220
shop 220
shape 220
sets 220
artist 220
yarn 220
ti@@ 219
sign 219
brushes 219
led 218
tube 218
an@@ 217
placed 217
tap 217
driveway 217
scuba 217
mo@@ 216
teen 216
helps 215
points 215
design 215
wrap 215
grill 215
frying 215
v@@ 214
party 214
catch 214
shorts 214
rubs 214
workers 214
chess 214
below 213
flying 212
co@@ 212
ate 212
construction 211
arts 211
distance 210
bo@@ 210
shooting 210
garbage 210
skateboard 210
en@@ 209
fighting 209
k 209
n@@ 208
shirtless 208
pile 208
sky 208
l@@ 207
mud 207
lock 207
skate 207
waving 206
snake 206
lane 206
removing 205
pillow 205
sheep 205
g 204
flipping 204
turn 204
se@@ 203
until 203
your 203
money 203
also 203
do@@ 203
carving 203
round 202
more 202
trash 202
king 201
heard 200
tongue 200
garage 200
step 200
keyboard 200
sliding 199
goat 199
birthday 199
product 198
flowers 198
f@@ 198
sh@@ 197
er@@ 197
violin 197
busy 197
ac@@ 196
coffee 196
to@@ 195
ex@@ 195
things 195
cell 195
red 195
martial 195
performance 194
al@@ 194
ear 193
dad 193
orange 193
bread 193
swims 193
wet 192
broom 192
touches 192
asks 192
cars 192
oil 192
cube 192
towel 191
trick 191
harmonica 191
brick 190
st@@ 190
tile 190
pops 190
yoga 190
tall 189
enjoying 189
slides 189
gun 189
only 188
candles 188
fly 188
bubbles 188
; 187
telling 187
far 187
son 187
number 187
coming 186
attempt 186
costume 186
beard 186
drive 186
folds 186
athlete 186
ra@@ 185
prepare 185
p 184
n 184
waiting 184
electronic 184
sport 184
digging 184
workout 184
flame 184
tied 183
objects 183
done 183
chewing 183
knot 183
peel 183
stomach 183
ks 182
good 182
washes 182
saxophone 182
jet 182
unicycle 182
roof 181
lips 181
ri@@ 180
ro@@ 180
knees 180
wheelchair 180
parking 180
pizza 180
log 180
grassy 179
platform 179
funny 179
remote 179
short 178
loudly 178
stadium 178
ps 178
tub 178
vegetables 178
fruit 178
harp 178
blanket 177
noise 177
couples 177
elephant 177
stretching 176
ds 176
dish 176
huge 176
grinder 176
volleyball 176
marching 175
ties 175
sausage 175
noises 174
lo@@ 174
clap 173
fencing 173
tight 172
pictures 171
gathered 171
at@@ 171
se 171
words 171
jacket 171
leather 171
strip 171
carrying 171
razor 171
snowman 171
cave 171
ladies 170
ding 170
pressing 170
shovel 170
potato 170
bricks 170
discussing 168
kneeling 168
n't 168
trail 168
form 168
hula 168
treadmill 168
instructor 167
order 167
substance 167
les 167
alligator 167
organ 167
con@@ 166
hall 166
contest 166
pumpkin 166
pinball 166
al 165
balance 165
certain 165
puzzle 165
napkin 165
cheese 165
buttons 165
ironing 165
mascara 165
base 164
past 164
pop 164
leaf 164
burning 164
contact 164
parts 163
pond 163
skin 163
second 163
reaches 163
flower 163
colors 163
control 163
alone 162
center 162
ho@@ 162
exercising 162
camel 162
ses 161
h@@ 161
surrounded 161
on@@ 161
sandwich 161
rod 161
sea 161
st 160
bungee 160
forest 160
handle 160
shore 160
training 160
clay 160
city 159
tu@@ 159
followed 159
stretches 159
infant 159
plant 159
balancing 159
pineapple 159
bends 158
land 158
stop 158
milk 158
toys 158
knitting 158
le@@ 157
si@@ 157
ingredients 157
nail 157
begin 156
shopping 156
own 156
circles 156
petting 156
microscope 156
pre@@ 155
tapping 155
creating 155
shed 155
breaks 155
uniform 155
asian 155
juggles 155
coin 155
waxed 155
dancers 154
newspaper 154
feeds 154
students 153
saying 153
soap 153
deep 153
shots 153
meet 153
hook 153
mop 153
sunny 152
ch@@ 152
notes 152
pants 152
marker 152
classroom 151
cookies 151
garden 151
circular 151
bu@@ 151
learning 151
shave 151
atm 151
wire 150
bridge 150
zoo 150
heads 150
massaging 150
crawling 150
toes 150
as@@ 149
lies 149
bounces 149
press 149
el@@ 149
pass 149
tank 149
shoots 149
underwater 149
puppet 149
ating 148
tape 148
ab@@ 147
sp@@ 147
give 147
thrown 147
films 147
individuals 147
office 147
present 147
chopping 147
monopoly 147
train 146
commercial 146
still 146
great 146
presses 146
jacks 146
be@@ 145
low 145
colorful 145
axe 145
somebody 145
handstand 145
dye 145
scene 144
cleaner 144
me@@ 144
2 144
bouncing 144
squats 144
leans 144
dart 144
wrench 144
spraying 144
factory 144
paints 144
swimmers 144
polish 144
sailing 143
pro@@ 143
frame 143
tail 143
b 143
apples 143
persons 143
poker 143
pin 143
polo 143
dishes 143
gong 143
sharpener 143
onlookers 142
ons 142
been 142
spectators 142
chain 142
chips 142
pressure 142
hurdles 142
javelin 142
shoulders 141
knee 141
plants 141
gold 141
beans 141
cello 141
come 140
ated 140
shoulder 140
pad 140
counting 140
airplane 140
trapeze 140
pig 140
slices 140
accordion 140
flashlight 140
scrabble 140
landing 139
station 139
ter 139
pi@@ 139
refrigerator 139
carve 139
peeling 139
hallway 138
claps 138
had 138
slice 138
feed 138
safety 137
starting 137
ion 137
arena 137
te@@ 137
build 137
wheels 137
bath 137
skillet 137
calf 137
it@@ 136
series 136
hug 136
ic 136
ker 136
oven 136
public 135
mans 135
ler 135
happy 135
records 135
sharp 135
dock 135
skier 135
recorded 134
pointing 134
fork 134
ax 134
lay 133
movements 133
cage 133
shoot 133
blocks 133
catching 133
stroke 133
cleans 132
bags 132
welding 132
stream 131
straight 131
blonde 131
sides 131
yells 131
headphones 131
gu@@ 131
referee 131
dive 131
sneezes 131
darts 131
vi@@ 130
touching 130
spaghetti 130
salad 130
sc@@ 130
passing 130
mixing 130
weaving 130
boards 130
spin 130
bending 129
will 129
us 129
gentleman 129
wrapped 129
trimming 129
arrow 129
chicken 129
amount 129
coat 129
nearby 128
ms 128
structure 128
cu@@ 128
animals 128
elderly 128
car@@ 128
so@@ 128
lapse 128
adding 128
castle 128
parents 128
wool 128
ment 127
point 127
five 127
sunglasses 127
torch 127
ation 127
groups 127
salon 127
ls 126
keeps 126
pa@@ 126
' 126
hi@@ 126
bit 126
project 126
surf 126
xylophone 126
upside 125
passes 125
yelling 125
shirts 125
stretch 125
cups 125
protective 124
for@@ 124
ked 124
ca@@ 124
displays 124
branch 124
batter 124
copy 124
marbles 124
act 123
ru@@ 123
chairs 123
fix 123
ends 123
wheelbarrow 123
branches 123
eyebrow 123
sushi 123
filmed 122
narrator 122
podium 122
pretending 122
fla@@ 122
fi@@ 122
com@@ 122
ad@@ 122
cricket 122
site 122
roasting 122
pattern 122
filling 122
announcer 121
ent 121
bite 121
row 121
kneels 121
trim 121
successfully 121
parasailing 121
dryer 121
pushed 121
sharpening 121
bare 120
discusses 120
rubber 120
lined 120
screams 120
per@@ 120
tables 120
bird 120
ba@@ 120
sprays 120
bouncy 120
pet 120
follows 120
sculpture 120
crossing 120
males 119
following 119
thin 119
laundry 119
clips 119
sauce 119
compete 119
guns 119
war 119
badminton 119
conversation 118
dis@@ 118
outfit 118
massages 118
der 118
pump 118
reads 118
cooked 118
knocks 118
mail 118
ve 117
no@@ 117
fixing 117
tosses 117
beautiful 117
hop 117
alley 117
sharpen 117
grapes 117
su@@ 116
tip 116
pu@@ 116
boxes 116
tray 116
mower 116
easter 116
hopscotch 116
/ 115
screaming 115
ves 115
flour 115
harness 114
pans 114
j@@ 114
comments 114
craft 114
chisel 114
segway 114
lacrosse 114
narrating 113
speak 113
raises 113
ous 113
tion 113
aged 113
strings 113
punches 113
cowboy 113
bend 112
sa@@ 112
display 112
spread 112
crowded 112
ver@@ 112
paintball 112
frozen 112
chainsaw 112
inflatable 112
ings 111
th@@ 111
dry 111
soft 111
costumes 111
bulldozer 111
bagpipes 111
disc 111
hugging 111
pancake 111
encourages 110
action 110
ss 110
sticking 110
closed 110
stairs 110
ming 110
seems 110
corner 110
package 110
wipes 110
waxing 110
cries 110
kayak 110
yolk 110
keys 110
shaves 110
lines 109
min@@ 109
keep 109
clip 109
lip 109
birds 109
driver 109
instructing 109
bikes 109
gs 109
par@@ 109
tissue 109
bounce 109
peeler 109
laser 109
pping 108
adjusts 108
lets 108
younger 108
advertisement 108
cover 108
adds 108
ic@@ 108
coach 108
dead 108
snowmobile 108
flag 108
inhaler 108
figure 107
interviewed 107
muddy 107
desert 107
bee 107
hats 107
smooth 107
folded 107
bent 106
ins 106
ta@@ 106
cardboard 106
dig 106
pottery 106
wide 105
finish 105
holes 105
teenager 105
icy 105
diver 105
whistle 105
parent 104
windy 104
adjusting 104
techniques 104
fill 104
bright 104
key 104
bi@@ 104
cracks 104
clippers 104
discus 104
dribbling 104
whistling 104
lower 103
windows 103
unseen 103
tra@@ 103
instructs 103
change 103
facial 103
ful 103
wi@@ 103
sofa 103
continues 103
shaped 103
qu@@ 103
cartwheel 103
separate 103
kiss 103
oyster 103
spinner 103
vault 103
displayed 102
mi@@ 102
ws 102
american 102
participating 102
ch 102
shuffling 102
daughter 102
cigarette 102
finishes 102
bobsled 102
mallet 102
cord 101
bees 101
head@@ 101
spatula 101
tag 101
pose 101
ging 101
controller 101
graffiti 101
swords 101
tiles 101
pierced 101
staring 100
types 100
lens 100
combing 100
third 100
range 100
wooded 100
lighting 100
double 100
comb 100
caught 100
hugs 100
recorder 100
painted 99
than 99
spanish 99
pretends 99
belt 99
ne@@ 99
uniforms 99
ped 99
furniture 99
athletic 99
stirring 99
sailboat 99
dominoes 99
ded 98
waist 98
me 98
teenagers 98
too 98
stuck 98
lipstick 98
gr@@ 98
excited 98
whole 98
de 98
dives 98
licks 98
snowboarding 98
thumbs 98
lifted 97
professional 97
reporter 97
go@@ 97
letters 97
operating 97
underneath 97
let 97
draw 97
drying 97
leash 97
poles 97
tea 97
straw 97
fidget 97
acting 96
appear 96
thing 96
tee 96
winter 96
wrestle 96
tips 96
footage 96
games 96
kisses 96
mushrooms 96
leaning 95
sed 95
fake 95
nice 95
award 95
shake 95
cur@@ 95
upper 95
ing@@ 95
meal 95
bartender 95
cracking 95
racket 95
blade 95
misses 95
plane 95
gift 95
trombone 95
facing 94
taps 94
z@@ 94
spreading 94
lots 94
chop 94
counts 94
directions 93
unison 93
w 93
marshmallows 93
cold 93
mall 93
orchestra 93
calligraphy 93
lawnmower 93
sausages 93
tightrope 93
gently 92
smaller 92
breaking 92
thick 92
text 92
x 92
ge@@ 92
dinner 92
picked 92
tossing 92
doll 92
giant 92
cork 92
mobile 92
tires 92
fills 92
arcade 92
instruction 91
shallow 91
waters 91
r 91
age 91
applied 91
able 91
ve@@ 91
chip 91
boots 91
cone 91
dumpster 91
rapidly 90
dra@@ 90
ive 90
ving 90
cap@@ 90
vehicles 90
back@@ 90
over@@ 90
divers 90
shaved 90
batting 90
proceeds 89
members 89
given 89
workshop 89
ates 89
walls 89
twice 89
th 89
bus 89
te 89
stuff 89
snowboard 89
wraps 89
knuckles 89
washed 89
motor 89
smokes 89
fist 89
pitch 89
licking 89
eyeliner 89
ha@@ 88
mar@@ 88
ad 88
asking 88
cymbals 88
keeping 88
ky 88
inter@@ 88
poured 88
goats 88
baking 88
flies 88
wa@@ 88
lighter 88
socks 88
cheerleaders 88
much 87
human 87
crosses 87
asleep 87
hand@@ 87
stack 87
turned 87
babies 87
sew 87
coloring 87
boats 87
bass 87
removed 86
crack 86
steep 86
self 86
manner 86
fit 86
sts 86
ge 86
scores 86
grab 86
kes 86
report 86
gathering 86
fl@@ 86
lid 86
twirling 86
fancy 86
needles 86
gliding 85
hang 85
six 85
image 85
ter@@ 85
or@@ 85
crawls 85
ster 85
free 85
als 85
writes 85
rug 85
bathtub 85
dancer 85
fed 85
loom 85
tions 84
live 84
dining 84
du@@ 84
fo@@ 84
draws 84
ga@@ 84
gymnastics 84
finishing 84
rap 84
wake 84
lego 84
camels 84
teacher 83
indian 83
man@@ 83
approaches 83
conference 83
finished 83
females 83
complete 83
ur@@ 83
rings 83
chocolate 83
post 83
h 83
musicians 83
plow 83
mushroom 83
puppets 83
ys 82
the@@ 82
water@@ 82
gestures 82
ments 82
shapes 82
pins 82
fe@@ 82
phones 82
mu@@ 82
pumping 82
apart 82
pages 82
sanding 82
lure 82
eyelashes 82
kissing 82
maracas 82
black 81
ver 81
ining 81
we@@ 81
id@@ 81
write 81
ears 81
shoveling 81
men@@ 81
pipes 81
sta@@ 81
single 81
cooks 81
bandage 81
word 81
pets 81
drills 81
robot 81
knives 81
slicing 81
whilst 80
cast 80
check 80
screw 80
tri@@ 80
ine 80
highchair 80
sto@@ 80
ja@@ 80
sh 80
closes 80
ters 80
specific 80
gi@@ 80
read 80
haired 80
pack 80
beginning 79
almost 79
speech 79
photo 79
pens 79
ning 79
called 79
shell 79
ke 79
barrel 79
decorating 79
twisting 79
auction 79
cookie 79
downhill 79
math 79
basketballs 79
snowball 79
milking 79
ering 78
3 78
ways 78
ce@@ 78
ces 78
section 78
c 78
mp@@ 78
touch 78
che@@ 78
ci@@ 78
ced 78
.. 78
pain 78
vase 78
calls 78
crashes 78
breathing 78
twirls 78
ceiling 78
canvas 78
strips 78
watering 78
stir 78
stra@@ 77
direction 77
peels 77
farm 77
dan@@ 77
rs 77
cks 77
palm 77
spot 77
ry 77
fully 77
bank 77
leading 77
floating 77
candle 77
sledding 77
ukulele 77
sweep 77
ap@@ 76
ges 76
directing 76
zing 76
checking 76
striped 76
sat 76
struggles 76
everyone 76
stones 76
ched 76
size 76
tiny 76
ck 76
causing 76
industrial 76
hardwood 76
cabinet 76
solve 76
catcher 76
suspended 75
bs 75
jo@@ 75
adjust 75
suits 75
jeans 75
cute 75
ally 75
thumb 75
cking 75
squatting 75
us@@ 75
machinery 75
balances 75
kers 75
pour 75
fitness 75
gutters 75
strike 75
moon 75
we 74
ously 74
why 74
actions 74
pla@@ 74
brother 74
ned 74
add 74
ff@@ 74
gymnastic 74
roast 74
ying 74
grooming 74
backs 74
shine 74
skateboarding 74
surfs 74
weave 74
toothbrush 74
dropping 74
ll 73
horn 73
re 73
solo 73
grabbing 73
chin 73
business 73
once 73
displaying 73
butter 73
raising 73
drawn 73
ar 73
sped 73
glove 73
boarding 73
sledge 73
rodeo 73
polishing 73
dribbles 73
yawning 73
texting 72
fans 72
lotion 72
features 72
strikes 72
hip 72
service 72
rice 72
toddlers 72
bin 72
patio 72
x@@ 72
steel 72
chops 72
macarena 72
hoo@@ 71
he@@ 71
pped 71
stool 71
beats 71
dirty 71
demonstrated 71
threw 71
out@@ 71
pe 71
engine 71
fails 71
playground 71
fur 71
skipping 71
did 71
sweeping 71
casino 71
sucking 71
surfer 71
foam 71
punch 71
burger 71
mortar 71
racquetball 71
scenes 70
stood 70
space 70
ali@@ 70
including 70
raised 70
particular 70
buckets 70
taken 70
fa@@ 70
plank 70
vest 70
machines 70
popping 70
backpack 70
gutter 70
sander 70
dodge 70
shuffle 70
jack 70
laces 70
mountains 69
ul@@ 69
life 69
performer 69
sit@@ 69
ant 69
covering 69
repair 69
wear 69
mic 69
foundation 69
wiping 69
drop 69
chi@@ 69
ions 69
waits 69
fridge 69
cotton 69
because 69
lunges 69
twists 69
stomping 69
stringed 69
banging 69
softball 69
snowballs 69
ches 68
tor 68
rec@@ 68
ce 68
drumming 68
rhythm 68
teens 68
upright 68
cheek 68
sk@@ 68
facility 68
carries 68
ze 68
presents 68
bars 68
reach 68
motorized 68
raw 68
jumped 68
lanes 68
yawns 68
hoops 68
fingernails 68
sippy 68
hookah 68
papers 67
ser@@ 67
questions 67
opened 67
flashing 67
ely 67
toss 67
measuring 67
porch 67
bal@@ 67
releases 67
best 67
quick 67
job 67
sideways 67
letting 67
per 67
sha@@ 67
already 67
wheeled 67
play@@ 67
score 67
carrier 67
cymbal 67
suitcase 67
stitch 67
hangs 66
wing 66
plates 66
ars 66
green 66
outfits 66
story 66
gather 66
messing 66
rider 66
backward 66
stirs 66
mix 66
swi@@ 66
threading 66
stroller 66
obstacles 66
lollipop 66
civil 66
elephants 66
question 65
motions 65
continuously 65
case 65
streets 65
da@@ 65
trainer 65
.@@ 65
can@@ 65
shovels 65
find 65
tent 65
changing 65
floors 65
installing 65
inserts 65
somersault 65
brings 65
changes 65
snow@@ 65
suddenly 65
barber 65
chews 65
tic 65
potatoes 65
sledgehammer 65
ledge 64
strapped 64
steering 64
panel 64
smile 64
rest 64
variety 64
traditional 64
manual 64
someones 64
roasted 64
goggles 64
haircut 64
curl 64
knit 64
bear 64
horseback 64
grinding 64
toe 64
kickball 64
jogging 64
hurdle 64
karaoke 64
skateboards 64
pillows 64
bangs 63
say 63
pairs 63
teaches 63
ir@@ 63
fan 63
montage 63
contents 63
arranging 63
ke@@ 63
ou@@ 63
tasting 63
cartwheels 63
ni@@ 63
prepared 63
spreads 63
ten@@ 63
attention 63
ard 63
butterfly 63
operates 63
flags 63
surfboard 63
canoe 63
crawl 63
glides 62
walked 62
sun 62
flash 62
spots 62
ans 62
ged 62
carry 62
neighborhood 62
ink 62
numbers 62
washer 62
instead 62
cartoon 62
sponge 62
tw@@ 61
cla@@ 61
cheered 61
started 61
shing 61
poses 61
meeting 61
ered 61
ty 61
rub 61
homemade 61
install 61
student 61
explain 61
drilling 61
rack 61
bell 61
whi@@ 61
combs 61
snapping 61
scallops 61
swimmer 61
discuss 60
strange 60
zed 60
slaps 60
pan@@ 60
roo@@ 60
war@@ 60
viewers 60
instructional 60
ea@@ 60
encouraging 60
stri@@ 60
cra@@ 60
completes 60
sized 60
assembling 60
tighten 60
preparation 60
split 60
ran 60
record 60
paddle 60
fell 60
reaching 60
shar@@ 60
bills 60
axes 60
crib 60
liner 60
planting 60
horseshoe 60
rubik 60
tr@@ 59
dy 59
char@@ 59
ste@@ 59
enjoy 59
gre@@ 59
ones 59
poking 59
helmets 59
clearing 59
participate 59
stuffed 59
shift 59
mixes 59
cr@@ 59
butt 59
dri@@ 59
similar 59
tically 59
gears 59
cor@@ 59
walkway 59
rips 59
pajamas 59
luge 59
obstacle 59
guide 59
barn 59
carves 59
vegetable 59
pitcher 59
bush 59
pigeons 59
bun@@ 58
onstage 58
asked 58
ship 58
med 58
slightly 58
mon@@ 58
knocking 58
venue 58
athletes 58
tive 58
listen 58
cre@@ 58
correct 58
map 58
sheets 58
hamburger 58
owner 58
squat 58
cru@@ 58
stopping 58
pace 58
breast 58
headstand 58
dodgeball 58
para 58
clarinet 58
domino 58
connected 57
sand@@ 57
performers 57
problem 57
film 57
narrow 57
wears 57
visible 57
listens 57
chases 57
commentary 57
forehead 57
positions 57
har@@ 57
shi@@ 57
officer 57
police 57
barbecue 57
giggling 57
flo@@ 57
slo@@ 57
ics 57
et 57
rac@@ 57
cam 57
f 57
opposite 57
youth 57
basement 57
mb@@ 57
fry 57
chasing 57
piercing 57
marshmallow 57
watched 56
rocky 56
roping 56
spo@@ 56
length 56
pliers 56
straightening 56
last 56
gro@@ 56
company 56
candy 56
got 56
ats 56
bowls 56
packing 56
even 56
spits 56
skydiving 56
shower 56
bald 56
copier 56
braiding 56
bites 56
acoustic 56
campfire 56
tickling 56
squash 56
crane 55
tre@@ 55
should 55
hol@@ 55
ently 55
strokes 55
happening 55
ture 55
fid@@ 55
sporting 55
under@@ 55
ven@@ 55
care 55
jar 55
tur@@ 55
ders 55
among 55
patch 55
competitive 55
ski@@ 55
cal@@ 55
backflip 55
wo@@ 55
spit 55
na@@ 55
bel@@ 55
stepping 55
u 55
flaming 55
rotating 55
torches 55
my 55
sister 55
ornaments 55
beads 55
butcher 55
carrots 55
images 54
overhead 54
battle 54
um 54
wait 54
lar@@ 54
handling 54
handles 54
speaker 54
ki@@ 54
tly 54
receiving 54
lan@@ 54
4 54
noisy 54
trims 54
baskets 54
trac@@ 54
sal@@ 54
mer@@ 54
ching 54
recipe 54
womans 54
flames 54
alcohol 54
beverage 54
dries 54
creates 54
choreographed 54
resting 54
powered 54
dust 54
stitching 54
massaged 54
laps 54
hover 54
shuffles 54
putt 54
tickles 54
grocery 54
skiers 54
ban@@ 53
weird 53
cas@@ 53
inner 53
plu@@ 53
loses 53
message 53
cellphone 53
trowel 53
slapping 53
dresses 53
taste 53
fire@@ 53
weighted 53
shining 53
olympic 53
name 53
shears 53
dunks 53
patty 53
level 52
zes 52
encouraged 52
soda 52
cho@@ 52
rocking 52
rat@@ 52
high@@ 52
wh@@ 52
information 52
written 52
shes 52
dyed 52
designs 52
measure 52
ence 52
ther 52
assembly 52
il@@ 52
spe@@ 52
buildings 52
happily 52
elbow 52
sau@@ 52
edges 52
dle 52
clo@@ 52
shaping 52
panning 52
hair@@ 52
tan@@ 52
stares 52
mowing 52
vacuuming 52
page 52
opener 52
moonwalk 52
braids 52
selfie 52
rubix 52
gra@@ 51
ity 51
iting 51
interview 51
unique 51
ju@@ 51
heat 51
radio 51
laptop 51
pretend 51
test 51
sting 51
sla@@ 51
commenting 51
playfully 51
bolt 51
synchronized 51
giggles 51
rag 51
character 51
tackles 51
backing 51
tears 51
directs 51
balcony 51
goalie 51
forecast 51
ils 50
tower 50
powder 50
kno@@ 50
enters 50
ors 50
fashion 50
ations 50
star@@ 50
des 50
involving 50
logo 50
materials 50
skirt 50
doorway 50
engaged 50
her@@ 50
covers 50
arrangement 50
ery 50
upbeat 50
ribbon 50
ns 50
easy 50
rolled 50
bur@@ 50
lit@@ 50
learn 50
cutter 50
riders 50
debris 50
gate 50
characters 50
legos 50
melody 50
windsurfing 50
golfer 50
mug 50
ripping 50
reenactment 50
winks 50
tai 50
chi 50
instructed 49
strong 49
beam 49
ards 49
den@@ 49
creek 49
ff 49
extended 49
wants 49
goo@@ 49
though 49
snaps 49
dimly 49
sur@@ 49
star 49
celebrating 49
tournament 49
ward 49
dic@@ 49
targets 49
rim 49
dips 49
juggle 49
scrubbing 49
ph@@ 49
dumbbells 49
bas@@ 49
donut 49
paddling 49
lers 49
wn 49
sails 49
blackjack 49
coins 49
pushups 49
presentation 48
ance 48
either 48
auditorium 48
casting 48
closing 48
engage 48
loo@@ 48
microphones 48
ved 48
ceremony 48
pri@@ 48
areas 48
mixed 48
mini 48
tes 48
ob@@ 48
mon 48
lu@@ 48
wor@@ 48
french 48
festival 48
winds 48
bad 48
gar@@ 48
foil 48
fat 48
parasail 48
pumps 48
straighten 48
gloved 48
wind@@ 48
ble 48
notebook 48
note 48
dumps 48
trailer 48
anchor 48
sock 48
ballerina 48
wed 47
support 47
encouragement 47
larger 47
ite 47
ability 47
system 47
cy@@ 47
mer 47
angles 47
br@@ 47
english 47
photo@@ 47
up@@ 47
bb@@ 47
assemble 47
ten 47
aring 47
fresh 47
wrist 47
salt 47
melon 47
seconds 47
hur@@ 47
curls 47
sucks 47
glue 47
conveyor 47
doors 47
runner 47
flooring 47
mess 47
smoothing 47
cry 47
trimmer 47
soldiers 47
follow 46
rela@@ 46
medicine 46
examines 46
surrounding 46
pen@@ 46
program 46
ens 46
built 46
hou@@ 46
plan@@ 46
is@@ 46
pretty 46
messy 46
floral 46
wires 46
ghts 46
trans@@ 46
slips 46
closer 46
wand 46
necklace 46
correctly 46
bla@@ 46
pavement 46
sl@@ 46
whistles 46
intricate 46
fallen 46
knocked 46
hammering 46
logs 46
sharpens 46
beef 46
dollar 46
postal 46
motorcycles 46
scotch 46
skip 46
dunk 46
iling 45
movement 45
cen@@ 45
attire 45
receives 45
teach 45
environment 45
calm 45
broken 45
screws 45
screwdriver 45
gers 45
beating 45
str@@ 45
ction 45
throat 45
ca 45
van 45
crossed 45
containing 45
dying 45
ec@@ 45
daytime 45
finds 45
blond 45
stea@@ 45
hood 45
parachuting 45
attachment 45
ined 45
letter 45
smashing 45
rough 45
insert 45
vigorously 45
tearing 45
sip 45
pie 45
walker 45
sneakers 45
threads 45
cans 45
lowers 44
lining 44
ma 44
judges 44
sure 44
pressed 44
signs 44
observes 44
squeezes 44
cheeks 44
tro@@ 44
crew 44
arrows 44
chatting 44
yell 44
rotates 44
tting 44
squ@@ 44
procedure 44
peice 44
bathing 44
puppy 44
nozzle 44
win@@ 44
dropped 44
mattress 44
pitches 44
laid 44
jer@@ 44
bagpipe 44
pumpkins 44
baseballs 44
passed 44
tread 44
oysters 44
latin 44
kicked 44
backstroke 44
forms 43
arguing 43
ss@@ 43
posing 43
lenses 43
squeezing 43
wal@@ 43
told 43
dragging 43
sub@@ 43
pic@@ 43
yawn 43
sen@@ 43
sy@@ 43
dressing 43
im@@ 43
bar@@ 43
work@@ 43
commentator 43
sted 43
hospital 43
ger 43
zi@@ 43
coo@@ 43
jewelry 43
sters 43
perfect 43
some@@ 43
carpeted 43
sleds 43
surfers 43
strumming 43
hi 43
bye 43
popular 43
religious 43
ornament 43
dice 43
fle@@ 43
suck 43
strums 43
didgeridoo 43
wink 43
height 42
partner 42
col@@ 42
seem 42
ear@@ 42
! 42
passenger 42
ary 42
enclosed 42
fu@@ 42
found 42
vo@@ 42
raise 42
musician 42
wins 42
lightly 42
ele@@ 42
method 42
bl@@ 42
mound 42
barrow 42
archery 42
stacks 42
load 42
views 42
encourage 42
rapid 42
decorative 42
ies 42
attach 42
cycle 42
electrical 42
chat 42
artwork 42
lion 42
leads 42
handed 42
stump 42
ol@@ 42
stretched 42
hive 42
honey 42
scream 42
launches 42
timelapse 42
ssed 42
scrapbook 42
parade 42
sync 42
scrub 42
puck 42
bushes 42
stuffing 42
embroidery 42
skips 42
smells 42
leaps 41
guides 41
town 41
hu@@ 41
pt 41
comfor@@ 41
experience 41
ically 41
kit 41
african 41
mus@@ 41
atten@@ 41
viol@@ 41
chanting 41
tted 41
rubbed 41
incre@@ 41
collecting 41
dly 41
el 41
siting 41
cleaned 41
lively 41
ages 41
call 41
sweater 41
warehouse 41
decorations 41
skill 41
infront 41
tal@@ 41
ist 41
operate 41
sling 41
stay 41
photos 41
mounted 41
mouths 41
local 41
hips 41
lay@@ 41
magic 41
jeep 41
fs 41
ahead 41
snorkeling 41
packages 41
sees 41
mixture 41
sleep 41
jigsaw 41
burps 41
guitars 41
mopping 41
treat 41
darkened 41
ballroom 41
sses 40
enjoys 40
activity 40
hooping 40
gging 40
doctor 40
eyeglasses 40
moved 40
tightening 40
real 40
crocodile 40
enclosure 40
spir@@ 40
hotel 40
fin@@ 40
ton 40
formal 40
0 40
rea@@ 40
down@@ 40
pin@@ 40
liquor 40
arranges 40
clipping 40
brea@@ 40
tell 40
such 40
ids 40
onions 40
caps 40
lick 40
paragliding 40
statue 40
ure 40
muscles 40
spitting 40
hun@@ 40
ck@@ 40
crash 40
driven 40
disk 40
lea@@ 40
braid 40
markers 40
newborn 40
drawer 40
fireplace 40
smashes 40
burping 40
classical 40
bells 40
shines 40
yolks 40
sleeps 40
kites 40
any 39
actors 39
observe 39
off@@ 39
checks 39
groom 39
ske@@ 39
later 39
better 39
drumsticks 39
within 39
wild 39
scarf 39
chalk 39
cked 39
boo@@ 39
tran@@ 39
napkins 39
ush 39
barrels 39
loose 39
contraption 39
angle 39
engaging 39
muscular 39
ple 39
packs 39
en 39
vers 39
mill 39
pier 39
aisle 39
barefoot 39
trunk 39
triple 39
added 39
alongside 39
bra@@ 39
accompanied 39
beekeeper 39
steam 39
twirl 39
aerobics 39
guiding 39
removal 39
neatly 39
tic@@ 39
fried 39
successful 39
cats 39
burn 39
military 39
waxes 39
mowers 39
necktie 39
ft 38
dec@@ 38
atop 38
introduces 38
ents 38
quietly 38
coun@@ 38
umb@@ 38
fine 38
heating 38
bon@@ 38
gged 38
ase 38
shouting 38
straightens 38
snap 38
mit@@ 38
ases 38
masks 38
cer 38
il 38
bing 38
itself 38
handing 38
aling 38
describe 38
bicycles 38
adhesive 38
tin@@ 38
lead 38
dipping 38
del@@ 38
scrubs 38
terrain 38
sw@@ 38
curly 38
causes 38
glowing 38
dumbbell 38
acrobatic 38
reverse 38
blown 38
infla@@ 38
diaper 38
count 38
stacking 38
fries 38
completing 38
sea@@ 38
slams 38
sprin@@ 38
rain 38
core 38
puddle 38
huddle 38
irons 38
mosh 38
vaulting 38
glider 37
member 37
applaud 37
switches 37
ures 37
ingly 37
decorated 37
aquarium 37
white 37
af@@ 37
gh@@ 37
slam 37
reporting 37
products 37
continue 37
sifting 37
hoodie 37
scre@@ 37
dling 37
took 37
els 37
ari@@ 37
em@@ 37
breath 37
padded 37
separating 37
peanut 37
serving 37
spac@@ 37
brushed 37
jersey 37
lighted 37
die 37
reveal 37
sections 37
holder 37
stance 37
mats 37
sneezing 37
pony 37
carts 37
cloudy 37
pun@@ 37
printer 37
maneuvers 37
hammers 37
serves 37
reel 37
slab 37
casts 37
intersection 37
marble 37
loaded 37
wok 37
noodles 37
fore@@ 37
tablet 37
tickled 37
pur@@ 37
triangle 37
tandem 37
origami 37
kilt 37
orchard 37
ide 36
sky@@ 36
interviewing 36
chan@@ 36
patient 36
model 36
sco@@ 36
repairing 36
wildly 36
din@@ 36
directly 36
movie 36
bearded 36
forming 36
joins 36
digs 36
exploring 36
cones 36
voices 36
run@@ 36
pr@@ 36
mil@@ 36
late 36
ade 36
mixer 36
jumper 36
settings 36
multi 36
ggy 36
bands 36
singer 36
snowmobiles 36
zer 36
accidentally 36
wipe 36
inflated 36
parked 36
saws 36
mic@@ 36
shaver 36
carrot 36
partners 36
hoverboard 36
ries 35
pul@@ 35
climber 35
cli@@ 35
safely 35
hops 35
tat@@ 35
tters 35
scri@@ 35
sho@@ 35
sil@@ 35
fenced 35
ankle 35
highway 35
seeing 35
tively 35
handheld 35
sid@@ 35
3@@ 35
clam 35
pat@@ 35
ately 35
icing 35
pokes 35
heart 35
testing 35
inserting 35
fac@@ 35
1@@ 35
sugar 35
elaborate 35
ick 35
videos 35
dried 35
strength 35
customer 35
reaction 35
faster 35
raft 35
dy@@ 35
knock 35
bre@@ 35
cro@@ 35
builds 35
cows 35
strap 35
stopped 35
pedestrians 35
float 35
sliced 35
knob 35
fre@@ 35
nuts 35
join 35
potter 35
juice 35
cash 35
weaves 35
gifts 35
lute 35
enter 34
bringing 34
keeper 34
pointed 34
naked 34
bouquet 34
san@@ 34
're 34
convention 34
win 34
splits 34
pers 34
bat@@ 34
loads 34
cle@@ 34
bro@@ 34
finally 34
excitedly 34
pedal 34
foo@@ 34
ici@@ 34
5 34
snowboards 34
gymnast 34
mel@@ 34
scoops 34
oning 34
stylist 34
rate 34
thed 34
inging 34
hear 34
crouches 34
controls 34
chipping 34
client 34
lows 34
interacts 34
wading 34
excitement 34
scrambled 34
practising 34
legged 34
jazz 34
volley 34
bolts 34
trimmed 34
hunt 34
dealer 34
formation 33
stab@@ 33
applauds 33
chant 33
eventually 33
intense 33
interact 33
je@@ 33
cing 33
gri@@ 33
extends 33
clears 33
needs 33
os 33
adverti@@ 33
shampoo 33
soil 33
sorting 33
tches 33
hiding 33
slap 33
projec@@ 33
barking 33
briefly 33
struggling 33
pruning 33
crafts 33
pink 33
beat@@ 33
ased 33
attaching 33
der@@ 33
organi@@ 33
tru@@ 33
bin@@ 33
books 33
flipped 33
skies 33
paved 33
baked 33
sprinkles 33
squares 33
less 33
closeup 33
crystal 33
vel@@ 33
unknown 33
races 33
towed 33
styles 33
heated 33
maker 33
miniature 33
smelling 33
sle@@ 33
kart 33
stitches 33
salsa 33
every 33
tho@@ 33
booth 33
grown 33
animated 33
sawing 33
western 33
sweeps 33
plowing 33
tractors 33
dd@@ 33
simple 33
ed@@ 33
ual 33
frisbees 33
cracked 33
chu@@ 33
plaster 33
sli@@ 33
hysterically 33
motorcy@@ 33
ramps 33
reef 33
padlock 33
anvil 33
welder 33
proposing 33
dartboard 33
ocarina 33
fists 32
deli@@ 32
pads 32
fourth 32
sun@@ 32
drags 32
session 32
land@@ 32
applauding 32
attending 32
calling 32
lin@@ 32
examining 32
loading 32
newscaster 32
pper 32
bou@@ 32
explo@@ 32
blo@@ 32
thers 32
arrange 32
cushion 32
somewhere 32
coats 32
monitor 32
comment 32
swa@@ 32
bad@@ 32
cri@@ 32
sive 32
paddles 32
somersaults 32
snowboarder 32
floats 32
canyon 32
groomed 32
bee@@ 32
spi@@ 32
tex@@ 32
styling 32
carved 32
oun@@ 32
speeds 32
chords 32
champagne 32
seal 32
partially 32
crumbs 32
crust 32
ble@@ 32
ines 32
bull@@ 32
fighters 32
swallows 32
calculator 32
wedding 32
emb@@ 32
fishes 32
tackle 32
casing 32
loop 32
lettuce 32
offers 32
links 32
gambling 32
santa 32
brows 32
skater 32
kneading 32
proposes 32
waterfall 31
discussion 31
ag@@ 31
artists 31
1 31
experi@@ 31
tac@@ 31
possible 31
ware 31
weld 31
clamp 31
ev@@ 31
drummer 31
spoons 31
ple@@ 31
don@@ 31
swe@@ 31
force 31
grip 31
medical 31
ator 31
whiteboard 31
nu@@ 31
and@@ 31
dies 31
beauty 31
she@@ 31
fus@@ 31
landscape 31
wheel@@ 31
serve 31
most 31
stu@@ 31
involves 31
narration 31
picnic 31
bows 31
bul@@ 31
ical 31
messes 31
apron 31
cab@@ 31
rid@@ 31
techno 31
sandy 31
scraping 31
grilling 31
ushes 31
curved 31
kit@@ 31
sprayer 31
nor@@ 31
taught 31
stunt 31
mannequin 31
portion 31
laughter 31
sleigh 31
channel 31
rather 31
ise 31
swallowing 31
trucks 31
commentates 31
sculp@@ 31
hooked 31
slip 31
dealing 31
rugby 31
performed 31
blindfolded 31
whites 31
pancakes 31
layer 31
twist 31
pacifier 31
scooters 31
lashes 31
pastry 31
aid 30
descends 30
commentating 30
league 30
spec@@ 30
pes 30
advice 30
sel@@ 30
manipulates 30
rows 30
appe@@ 30
packed 30
underwear 30
joke 30
nearly 30
introdu@@ 30
stat@@ 30
wer 30
mouse 30
observing 30
sequence 30
que 30
sup@@ 30
hay 30
subway 30
closely 30
brass 30
arranged 30
kinds 30
brand 30
app 30
mp 30
scooping 30
10 30
demostrating 30
tongs 30
camp 30
circus 30
air@@ 30
dr@@ 30
blue 30
coaches 30
percussion 30
filter 30
warm 30
tumbling 30
tor@@ 30
um@@ 30
headed 30
kil@@ 30
shifts 30
our@@ 30
spun 30
advertising 30
shelf 30
bob 30
bean 30
eyelid 30
pocket 30
aluminum 30
replay 30
fashioned 30
likes 30
pickup 30
chunk 30
railing 30
could 30
tch 30
blades 30
hatchet 30
dumping 30
parkour 30
hairy 30
lawnmowers 30
conductor 30
slalom 30
taping 29
rest@@ 29
cameraman 29
delivering 29
expressions 29
mor@@ 29
att@@ 29
sketch 29
preforming 29
bly 29
eye@@ 29
fixes 29
adjustments 29
return 29
tional 29
gg@@ 29
sion 29
coordinated 29
ton@@ 29
amusement 29
tured 29
ach 29
customers 29
buff@@ 29
wr@@ 29
sum@@ 29
ley 29
black@@ 29
( 29
) 29
details 29
numerous 29
effects 29
cou@@ 29
dug 29
piles 29
sca@@ 29
rectangular 29
tried 29
location 29
scrapes 29
hunting 29
firing 29
sma@@ 29
stant 29
sharing 29
want 29
easily 29
cable 29
tit@@ 29
tain 29
rear 29
nut 29
iled 29
host 29
world 29
binding 29
came 29
toppings 29
winding 29
mly 29
summer 29
smo@@ 29
parachu@@ 29
locations 29
soapy 29
rapping 29
silver 29
oriental 29
returns 29
lifter 29
manipulating 29
final 29
thru 29
ffs 29
containers 29
zz@@ 29
competitors 29
leaving 29
aloud 29
viewer 29
emp@@ 29
pitched 29
lou@@ 29
lever 29
cheerleading 29
sneaker 29
squeegee 29
stunts 29
peeled 29
snack 29
ana 29
mailman 29
drooling 29
congregation 29
sheering 29
hoof 29
rackets 29
skateboarders 29
nipple 29
dominos 29
gongs 29
boxers 29
lasso 29
bowtie 29
repe@@ 28
fr@@ 28
reen@@ 28
acts 28
ran@@ 28
leave 28
op@@ 28
brought 28
shouts 28
those 28
appro@@ 28
announ@@ 28
rests 28
fer@@ 28
congratu@@ 28
cat@@ 28
proce@@ 28
applause 28
year 28
thigh 28
bits 28
located 28
afterwards 28
gesture 28
apartment 28
han@@ 28
announces 28
attaches 28
mechanic 28
connec@@ 28
technician 28
components 28
instal@@ 28
plug 28
entrance 28
bri@@ 28
auctioneer 28
sol@@ 28
zooms 28
market 28
foreground 28
simultaneously 28
scu@@ 28
frosting 28
worked 28
golden 28
guard 28
nurse 28
lic 28
tattoos 28
steak 28
boot 28
tter 28
tails 28
landed 28
hills 28
straps 28
perfectly 28
enter@@ 28
flicks 28
extremely 28
fel@@ 28
'@@ 28
specialized 28
donuts 28
clist 28
bor@@ 28
duck 28
inhales 28
unsuccessfully 28
diamond 28
au@@ 28
sneeze 28
bobbing 28
automatic 28
traveling 28
dispen@@ 28
ider 28
mps 28
patting 28
break@@ 28
wakes 28
care@@ 28
crafting 28
tures 28
suv 28
posts 28
wiggles 28
yo@@ 28
striking 28
jackson 28
hopping 28
blinks 28
berries 28
donkey 28
skiis 28
scale 27
release 27
exclaims 27
py 27
sno@@ 27
dramatic 27
inc@@ 27
tin 27
tion@@ 27
flexible 27
clu@@ 27
cool 27
effect 27
impro@@ 27
pencils 27
wiggling 27
mounts 27
gator 27
website 27
possibly 27
marks 27
bill 27
complex 27
preci@@ 27
acce@@ 27
cer@@ 27
ama@@ 27
bigger 27
gger 27
label@@ 27
need 27
eve 27
ply 27
surround 27
elbows 27
commen@@ 27
here 27
speci@@ 27
college 27
michael 27
oned 27
would 27
mascot 27
bracelet 27
tooth@@ 27
pre 27
bab@@ 27
tt@@ 27
beers 27
dim 27
lab 27
rhythmic 27
quite 27
va@@ 27
hedge 27
lace 27
tops 27
ths 27
heavily 27
relaxing 27
mold 27
carried 27
fighter 27
locks 27
flu@@ 27
combed 27
pinches 27
decides 27
kettle 27
hy@@ 27
artificial 27
tumbles 27
chunks 27
sidelines 27
turtle 27
pathway 27
matching 27
drain 27
maneuver 27
stable 27
creat@@ 27
pepper 27
lamp 27
focus 27
bunny 27
collar 27
wrestlers 27
stre@@ 27
unloading 27
skaters 27
gangnam 27
segways 27
opponent 27
puff 27
crochet 27
choir 27
grind 27
kicker 27
contacts 27
sheers 27
makeshift 26
prope@@ 26
sni@@ 26
bang 26
answering 26
ly@@ 26
benefits 26
compar@@ 26
crazy 26
simu@@ 26
effort 26
missing 26
shut 26
ack 26
cam@@ 26
cha@@ 26
ional 26
entering 26
opposing 26
caster 26
airport 26
bikini 26
searching 26
gentlemen 26
upset 26
ish 26
sti@@ 26
inten@@ 26
demo@@ 26
kets 26
unboxing 26
wheeler 26
cling 26
presenting 26
6 26
japanese 26
huddled 26
shoreline 26
cakes 26
portable 26
served 26
eyed 26
ger@@ 26
rinses 26
alternating 26
hum@@ 26
hives 26
gy@@ 26
are@@ 26
fil@@ 26
gle 26
progress 26
jungle 26
snowblower 26
towels 26
celebrate 26
signing 26
tle 26
lone 26
copies 26
processing 26
file 26
rinsing 26
boun@@ 26
ponytail 26
dre@@ 26
robe 26
butts 26
utensils 26
carpeting 26
creation 26
destro@@ 26
burp 26
equation 26
felt 26
kayaking 26
dummy 26
youths 26
seeds 26
burns 26
free@@ 26
utensil 26
mostly 26
firefighters 26
pasta 26
chiropractor 26
bib 26
crosswalk 26
aerobic 26
entire 26
popsicle 26
spinners 26
putter 26
batons 26
priest 26
lowering 25
activities 25
socializing 25
mid 25
ences 25
gles 25
produce 25
ial 25
sweatshirt 25
interviews 25
tist 25
jum@@ 25
clin@@ 25
waking 25
beneath 25
solution 25
ough 25
scratches 25
por@@ 25
ka@@ 25
tar@@ 25
sy 25
dge 25
sorts 25
eight 25
loosen 25
tors 25
national 25
deals 25
ben@@ 25
higher 25
limb 25
travels 25
elevated 25
supervi@@ 25
scoop 25
songs 25
bring 25
completely 25
nt 25
chec@@ 25
joking 25
coals 25
glide 25
pro 25
softly 25
tossed 25
basin 25
commands 25
downs 25
strands 25
keepers 25
revealing 25
super 25
garment 25
celebration 25
bra 25
motorbike 25
fen@@ 25
sty@@ 25
chew 25
molding 25
tracks 25
mane 25
went 25
splashes 25
gentle 25
tackled 25
paste 25
ther@@ 25
quiet 25
stru@@ 25
oc@@ 25
thrower 25
flowing 25
faucet 25
collection 25
castles 25
tains 25
finding 25
index 25
steady 25
choppy 25
eing 25
beanie 25
shifting 25
winking 25
polishes 25
fro@@ 25
roasts 25
co 25
delivers 25
dar@@ 25
blinking 25
iphone 25
crunches 25
stomp 25
slopes 25
touchdown 25
rub@@ 25
shearing 25
flashlights 25
lling 24
scraper 24
sn@@ 24
inserted 24
mark 24
mustache 24
assisted 24
ima@@ 24
class@@ 24
celebrates 24
zoo@@ 24
wrest@@ 24
shout 24
gras@@ 24
wings 24
digital 24
yed 24
greets 24
dro@@ 24
ire 24
cus@@ 24
receive 24
pats 24
0@@ 24
video@@ 24
taped 24
outline 24
ica 24
non 24
deer 24
swaying 24
tipped 24
advan@@ 24
quet 24
demon@@ 24
sor@@ 24
main@@ 24
screwing 24
manipulate 24
console 24
interior 24
lie 24
holiday 24
ig@@ 24
odd 24
highlights 24
residential 24
metallic 24
elastic 24
feeling 24
yel@@ 24
stationary 24
chefs 24
provides 24
parachutes 24
squir@@ 24
releasing 24
yet 24
ared 24
buzz@@ 24
shiny 24
spring 24
tubes 24
lon 24
blow@@ 24
jac@@ 24
clams 24
babbles 24
fun@@ 24
splashing 24
& 24
print 24
bottling 24
ukelele 24
neon 24
fluid 24
tiger 24
cabinets 24
ness 24
matador 24
tics 24
reeling 24
modified 24
decorate 24
socket 24
tomato 24
poke 24
burner 24
kneads 24
iti@@ 24
scramb@@ 24
dribble 24
bump 24
quarterback 24
jogs 24
smell 24
tobacco 24
soun@@ 23
clouds 23
supported 23
far@@ 23
mes 23
peoples 23
constantly 23
od 23
glo@@ 23
ruler 23
yer 23
pounding 23
ster@@ 23
uring 23
dragged 23
impo@@ 23
dles 23
interesting 23
tation 23
stin@@ 23
application 23
kle 23
narrat@@ 23
earth 23
scrape 23
ng 23
launch 23
nar@@ 23
chase 23
eling 23
difference 23
rose 23
greens 23
brake 23
tightens 23
complicated 23
graphic 23
resort 23
fair 23
chinese 23
buff 23
impress@@ 23
now 23
id 23
shrimp 23
twi@@ 23
travel 23
know 23
slamming 23
beatboxing 23
retrieve 23
protec@@ 23
upwards 23
buy 23
ankles 23
mag@@ 23
vice 23
turing 23
completed 23
upon 23
rode 23
sor 23
gan@@ 23
ballon 23
might 23
viewing 23
speeding 23
broadcast 23
approach 23
dders 23
vat 23
trains 23
fluffy 23
int 23
communic@@ 23
fingernail 23
scalp 23
topless 23
storage 23
carpen@@ 23
pyramid 23
kayaks 23
figures 23
ounds 23
banjo 23
knots 23
accompani@@ 23
engra@@ 23
trip 23
scoring 23
tshirt 23
smart 23
pinching 23
lug 23
gauge 23
key@@ 23
tomatoes 23
touched 23
crac@@ 23
lemon 23
runners 23
monkey 23
rin@@ 23
bacon 23
backseat 23
march 23
luggage 23
doughnut 23
vaults 23
eyelash 23
accordian 23
triceps 23
silverware 23
descending 22
mounta@@ 22
conditions 22
lesson 22
lounge 22
angry 22
lecture 22
measures 22
challenge 22
am 22
lates 22
cont@@ 22
drumstick 22
ddling 22
den 22
talked 22
ll@@ 22
nature 22
native 22
equations 22
staircase 22
ber@@ 22
participants 22
blin@@ 22
squeeze 22
trouble 22
cloths 22
gy 22
maintenance 22
kneel 22
strainer 22
stacked 22
tun@@ 22
devices 22
title 22
aiming 22
ong 22
rainbow 22
wig 22
tantrum 22
dges 22
lunch 22
won 22
providing 22
roses 22
brac@@ 22
tooth 22
assembled 22
ligh@@ 22
circuit 22
random 22
q 22
secure 22
learns 22
quality 22
waiter 22
bake 22
freezer 22
packaging 22
inj@@ 22
wife 22
tattooed 22
ign@@ 22
immediately 22
chute 22
personal 22
squirts 22
groomer 22
posed 22
ppy 22
producing 22
planks 22
assists 22
crate 22
spar@@ 22
pounds 22
mping 22
bleachers 22
ust 22
clists 22
avoid 22
furnace 22
fy 22
unfolds 22
article 22
our 22
snacks 22
bob@@ 22
tunnel 22
crashing 22
surfboards 22
alian 22
ily 22
fou@@ 22
syn@@ 22
disco 22
tiled 22
brightly 22
gel 22
hairs 22
flashes 22
retrieves 22
dit@@ 22
sandcastle 22
babbling 22
ples 22
pl@@ 22
unusual 22
solving 22
stic 22
closet 22
lantern 22
collects 22
mitt 22
boxer 22
automobile 22
robotic 22
scrap 22
shoelaces 22
ome@@ 22
straightener 22
clipper 22
rabbit 22
roller@@ 22
mailbox 22
joystick 22
soc@@ 22
newly 22
rail 22
unlock 22
smartphone 22
golf@@ 22
hoola 22
maraca 22
tango 22
climbers 21
scales 21
scaling 21
fron@@ 21
wash@@ 21
ites 21
tow 21
ral 21
sin@@ 21
new@@ 21
pic 21
ggle 21
said 21
enthusiastically 21
rollers 21
danger@@ 21
sprayed 21
knelt 21
polit@@ 21
indi@@ 21
ask 21
responds 21
vic@@ 21
reports 21
flight 21
cs 21
argument 21
medi@@ 21
applauded 21
sely 21
trophy 21
tricycle 21
states 21
security 21
promo@@ 21
blurry 21
plo@@ 21
amus@@ 21
morning 21
nods 21
cel@@ 21
zone 21
nodding 21
nur@@ 21
hurt 21
ken 21
passionately 21
vine 21
ray 21
foot@@ 21
tal 21
ute 21
includes 21
oranges 21
ices 21
timer 21
signals 21
freshly 21
flatten 21
am@@ 21
marin@@ 21
rot@@ 21
repetitions 21
continu@@ 21
ively 21
beehive 21
hedges 21
collect 21
routines 21
returning 21
assistance 21
dee@@ 21
ser 21
post@@ 21
acrobatics 21
contor@@ 21
designed 21
ulting 21
houses 21
shield 21
curled 21
results 21
hairdresser 21
twin 21
thank 21
trio 21
printing 21
sleeve 21
label 21
surprised 21
woven 21
paying 21
splitting 21
sparks 21
detail 21
switching 21
tastes 21
plywood 21
tles 21
2@@ 21
swirls 21
cran@@ 21
compilation 21
emer@@ 21
pon@@ 21
modern 21
ko@@ 21
outfield 21
ducks 21
spindle 21
condit@@ 21
ong@@ 21
join@@ 21
detergent 21
ually 21
plaid 21
masseuse 21
vs 21
tropical 21
planted 21
droo@@ 21
flock 21
flint 21
arrowhead 21
sucker 21
trimmers 21
putts 21
milks 21
seaweed 21
flutes 21
ree@@ 21
shuck 21
wicker 21
repelling 20
lowered 20
ee 20
rushing 20
state 20
curtain 20
problems 20
seven 20
smacks 20
curren@@ 20
tests 20
purpose 20
indic@@ 20
dot 20
wai@@ 20
version 20
ician 20
sman 20
rt@@ 20
5@@ 20
rules 20
stair 20
trap 20
ti 20
helped 20
strat@@ 20
wel@@ 20
named 20
squee@@ 20
spil@@ 20
treatment 20
tment 20
tary 20
hea@@ 20
dump 20
graph 20
shells 20
exhibition 20
wl 20
vests 20
cross@@ 20
perspective 20
gie 20
convers@@ 20
countertop 20
delight 20
identi@@ 20
nat@@ 20
brakes 20
adjusted 20
verbal 20
lation 20
ace 20
sphere 20
praises 20
fir@@ 20
interacting 20
gaming 20
reg@@ 20
tioning 20
showcasing 20
assist 20
camping 20
sandwiches 20
unwrapping 20
ured 20
bbq 20
skillfully 20
apparatus 20
bats 20
petted 20
grand@@ 20
but@@ 20
gh 20
barbells 20
ght 20
wise 20
rods 20
pedestrian 20
marked 20
ty@@ 20
achi@@ 20
appliance 20
joined 20
poin@@ 20
accross 20
bodies 20
love 20
crushing 20
flippers 20
torn 20
paintbrush 20
compli@@ 20
feels 20
seals 20
hurls 20
lamb 20
instructors 20
carnival 20
sec@@ 20
monster 20
pallet 20
sel 20
wit@@ 20
til@@ 20
locking 20
las 20
hor@@ 20
rever@@ 20
forklift 20
wrong 20
dum@@ 20
temperature 20
lettering 20
fountain 20
rowing 20
capsized 20
exec@@ 20
clubs 20
ants 20
motor@@ 20
pitching 20
jetski 20
horizontal 20
barrier 20
carriage 20
released 20
lime 20
verbally 20
pine 20
onion 20
overlooking 20
mma@@ 20
bunk 20
anime 20
slowing 20
marshmel@@ 20
bamboo 20
cy 20
wrenches 20
army 20
toenails 20
sending 20
delivery 20
golfing 20
lunge 20
pierces 20
cles 20
koi 20
goals 20
racquet 20
rip 20
skateboarder 20
welds 20
slapped 20
receiver 20
album 20
breaststroke 20
via 19
moment 19
hearing 19
temp@@ 19
menting 19
mmed 19
adjustment 19
flexibility 19
fra@@ 19
ades 19
swung 19
lated 19
patterns 19
mur@@ 19
jec@@ 19
gon 19
cut@@ 19
tired 19
ement 19
mike 19
thou@@ 19
tance 19
ny 19
see@@ 19
kn@@ 19
corners 19
excav@@ 19
skeleton 19
examine 19
slideshow 19
lum@@ 19
involved 19
these 19
ash 19
aims 19
cher 19
fri@@ 19
fts 19
aled 19
alter@@ 19
ue 19
converse 19
aggressively 19
judge 19
mach@@ 19
matches 19
tightly 19
giggle 19
bles 19
wee@@ 19
garden@@ 19
scratch 19
illustrat@@ 19
len 19
motherboard 19
construc@@ 19
cords 19
function 19
colum@@ 19
bids 19
who@@ 19
furry 19
bil@@ 19
smoo@@ 19
scoo@@ 19
seper@@ 19
injured 19
sions 19
example 19
chy 19
further 19
abo@@ 19
trunks 19
breathes 19
leap 19
obser@@ 19
tapes 19
spotted 19
tical 19
dutch 19
coached 19
ffing 19
imit@@ 19
rates 19
locked 19
ush@@ 19
mirro@@ 19
dumb 19
lean 19
res@@ 19
decoration 19
rises 19
slid 19
scenery 19
plain 19
mechanism 19
ceramic 19
parlor 19
bursts 19
spear 19
explained 19
disc@@ 19
tea@@ 19
ols 19
sung 19
wood@@ 19
wetsuit 19
handmade 19
newspapers 19
blank 19
unload 19
trips 19
excess 19
stirred 19
lor 19
rhythmically 19
flammable 19
mural 19
difficulty 19
fied 19
promp@@ 19
remo@@ 19
colou@@ 19
flattening 19
gling 19
scottish 19
lic@@ 19
alphabet 19
shor@@ 19
jackets 19
choreography 19
shadow 19
fisherman 19
rely 19
smooths 19
sculpting 19
ney 19
ta 19
steer 19
cylinder 19
coos 19
bark 19
nee@@ 19
celery 19
blu@@ 19
showcases 19
firemen 19
sniffs 19
firefighter 19
recital 19
boiling 19
cos@@ 19
weapons 19
la 19
rind 19
joy 19
ick@@ 19
gracefully 19
table@@ 19
hurling 19
inhaling 19
accident 19
dunking 19
jelly 19
competitor 19
mows 19
parasa@@ 19
tricep 19
asthma 19
protect 18
nothing 18
rappe@@ 18
descend 18
fying 18
zip 18
cape 18
hooks 18
powdered 18
rehear@@ 18
skit 18
palms 18
ound 18
argue 18
fitting 18
show@@ 18
bride 18
read@@ 18
printed 18
len@@ 18
coke 18
exa@@ 18
determine 18
feature 18
conducting 18
mou@@ 18
grab@@ 18
crowds 18
ddles 18
heal@@ 18
answers 18
sari 18
scared 18
happens 18
respon@@ 18
credit 18
famous 18
gies 18
models 18
stock 18
awards 18
died 18
stare 18
clean@@ 18
ey 18
abs 18
thoroughly 18
lar 18
gravel 18
known 18
becomes 18
sque@@ 18
energy 18
winning 18
focused 18
iring 18
gathers 18
pots 18
assembles 18
stal@@ 18
pedals 18
hard@@ 18
sat@@ 18
bal 18
island 18
bidding 18
crouching 18
consi@@ 18
executes 18
intently 18
band@@ 18
reflec@@ 18
paw 18
ham 18
ian 18
ribs 18
alcoholic 18
plaza 18
courtyard 18
slows 18
hus@@ 18
ach@@ 18
lun@@ 18
inspecting 18
adolescent 18
drawers 18
stencil 18
inspects 18
atv 18
ne 18
blasting 18
grooms 18
propped 18
goodbye 18
q@@ 18
resemb@@ 18
daddy 18
ached 18
xing 18
cher@@ 18
teammates 18
bystanders 18
seats 18
mount 18
sews 18
automated 18
teddy 18
bow@@ 18
laun@@ 18
supplies 18
interpre@@ 18
halloween 18
mothers 18
period 18
rinse 18
unwraps 18
taun@@ 18
v 18
theme 18
difficult 18
stand@@ 18
explanation 18
fon@@ 18
vessel 18
yacht 18
sai@@ 18
tilts 18
climbed 18
swan 18
nets 18
dou@@ 18
vertical 18
bases 18
featuring 18
tourists 18
with@@ 18
illustrating 18
tyre 18
enough 18
swallow 18
grout 18
handled 18
vacuums 18
plunger 18
dder 18
hiking 18
ion@@ 18
thier 18
aching 18
vy 18
transla@@ 18
shu@@ 18
policeman 18
chains 18
tty 18
zumba 18
gadget 18
ba 18
sticky 18
attractive 18
whis@@ 18
mates 18
woo@@ 18
feather 18
broccoli 18
navel 18
competes 18
marches 18
glow 18
mobiles 18
meteorologist 18
mandolin 18
enga@@ 17
positioned 17
actor 17
sab@@ 17
pec@@ 17
gesturing 17
tress 17
nervous 17
stomps 17
peers 17
feel 17
measured 17
bes 17
horns 17
vin@@ 17
safe 17
alle@@ 17
jaw 17
ang@@ 17
segment 17
compac@@ 17
hello 17
scra@@ 17
accepting 17
gran@@ 17
strobe 17
hon@@ 17
fic@@ 17
ast 17
olo@@ 17
excavation 17
levels 17
layers 17
scratching 17
shoo@@ 17
barriers 17
situation 17
mped 17
pas@@ 17
ner 17
19@@ 17
won@@ 17
ever 17
battery 17
component 17
barks 17
technology 17
twisted 17
oval 17
mo 17
zation 17
ming@@ 17
roa@@ 17
sale 17
patiently 17
lock@@ 17
goods 17
fer 17
moun@@ 17
aging 17
bandages 17
ounded 17
press@@ 17
hotdogs 17
gla@@ 17
foods 17
warming 17
contains 17
span@@ 17
tending 17
ka 17
midst 17
german 17
chers 17
sways 17
gener@@ 17
paced 17
honeycomb 17
duc@@ 17
spotter 17
weight@@ 17
lessons 17
acrobat 17
grinds 17
manic@@ 17
blew 17
ious 17
cylindrical 17
created 17
kleenex 17
bobsledding 17
after@@ 17
till 17
fairly 17
book@@ 17
fast@@ 17
produ@@ 17
braided 17
season 17
chopped 17
needed 17
crouched 17
suc@@ 17
painter 17
detailed 17
nec@@ 17
polished 17
bic@@ 17
fan@@ 17
scen@@ 17
lla 17
admir@@ 17
lumber 17
iding 17
uti@@ 17
leaping 17
sips 17
pianist 17
ppers 17
symbols 17
est 17
itting 17
capsizes 17
approaching 17
ren@@ 17
sparring 17
leg@@ 17
exposed 17
chiseling 17
jerseys 17
trolley 17
roadway 17
crown 17
cucumber 17
machete 17
stances 17
curb 17
snat@@ 17
compe@@ 17
gun@@ 17
vaccu@@ 17
fuzzy 17
ill@@ 17
storm 17
toast 17
flav@@ 17
door@@ 17
sweet 17
hal@@ 17
exhales 17
flooded 17
reacts 17
controlled 17
smash 17
scissor 17
shoves 17
fruits 17
goers 17
wheelie 17
bumps 17
cheese@@ 17
looked 17
coral 17
sleepy 17
pierce 17
vaulter 17
rattles 17
woodwind 17
seam 17
cinder 17
blacksmith 17
moonwalks 17
supermarket 17
medit@@ 17
handshake 17
ripped 17
vaping 17
crowd@@ 17
transaction 17
acc@@ 16
tab@@ 16
throughout 16
issues 16
tician 16
actually 16
ired 16
repairs 16
ori@@ 16
hin@@ 16
expression 16
mm@@ 16
mming 16
passengers 16
alligators 16
semi 16
shocked 16
sleev@@ 16
claws 16
wers 16
addresses 16
anima@@ 16
thy 16
ign 16
regarding 16
mini@@ 16
scien@@ 16
gates 16
cial 16
ssion 16
shel@@ 16
focuses 16
offici@@ 16
grad@@ 16
mess@@ 16
blend 16
calcula@@ 16
fter 16
physical 16
lating 16
aim 16
compound 16
fires 16
emo@@ 16
guided 16
uniformed 16
sus 16
milling 16
jud@@ 16
prun@@ 16
broke 16
sso@@ 16
nal 16
connect 16
banner 16
visual 16
winner 16
lery 16
summersa@@ 16
chubby 16
backflips 16
preform 16
swimsuit 16
baker 16
equi@@ 16
flatten@@ 16
20 16
decorates 16
smoothly 16
barbeque 16
spikes 16
solid 16
dded 16
functions 16
pork 16
fuel 16
paraglider 16
fives 16
energetic 16
soa@@ 16
pres@@ 16
flow 16
exotic 16
nicely 16
weightlifting 16
supports 16
spotting 16
half@@ 16
kick@@ 16
ee@@ 16
leng@@ 16
med@@ 16
natural 16
department 16
roads 16
young@@ 16
coating 16
powerful 16
spiral 16
ior 16
result 16
oon 16
burst 16
teenaged 16
batt@@ 16
conversing 16
coa@@ 16
bag@@ 16
bind 16
lids 16
tumble 16
padding 16
tackling 16
corn 16
bread@@ 16
spices 16
dip 16
py@@ 16
scary 16
extension 16
may 16
wilderness 16
pound 16
repeated 16
typing 16
decide 16
messages 16
zzy 16
avo@@ 16
sunset 16
smi@@ 16
reels 16
soo@@ 16
videoing 16
shotput 16
fireman 16
quarter 16
pened 16
bone 16
knifes 16
slicer 16
veg@@ 16
blindfold 16
explaing 16
cleanser 16
hurts 16
kles 16
scallop 16
events 16
complains 16
stroking 16
ummy 16
navigate 16
pra@@ 16
cop 16
marina 16
spla@@ 16
vac@@ 16
elevator 16
john 16
empties 16
treats 16
extinguisher 16
explore 16
thro@@ 16
beds 16
robes 16
corkscrew 16
cannon 16
document 16
snowing 16
lacing 16
stringing 16
rattle 16
buffing 16
skiier 16
lassos 16
prune 16
navigating 15
forested 15
bum@@ 15
clamps 15
harnessed 15
scaf@@ 15
ine@@ 15
grunts 15
fixed 15
cliffs 15
protection 15
alo@@ 15
gue 15
production 15
theater 15
audi@@ 15
extending 15
frames 15
drivers 15
showed 15
ginal 15
extra 15
stor@@ 15
childs 15
gen@@ 15
ized 15
imitates 15
tedly 15
gat@@ 15
shuts 15
eless 15
answer 15
online 15
que@@ 15
conver@@ 15
rus 15
miss 15
erase 15
issue 15
ending 15
rab@@ 15
embrace 15
united 15
link 15
brief 15
presen@@ 15
introducing 15
thighs 15
conce@@ 15
archaeological 15
history 15
search 15
organizing 15
sift 15
never 15
breasts 15
flow@@ 15
arrangements 15
pearls 15
stap@@ 15
6@@ 15
7 15
years 15
gn@@ 15
described 15
insides 15
fits 15
divid@@ 15
cooler 15
slot 15
hil@@ 15
ities 15
asi@@ 15
shops 15
mari@@ 15
probably 15
announcing 15
names 15
tter@@ 15
asing 15
apparently 15
loc@@ 15
ult 15
swirling 15
mples 15
loosen@@ 15
dessert 15
evenly 15
gauze 15
therapist 15
description 15
set@@ 15
hit@@ 15
shre@@ 15
scan@@ 15
garni@@ 15
ban 15
soon 15
tte 15
adven@@ 15
xi@@ 15
shampoo@@ 15
muscle 15
peri@@ 15
humming 15
instrumental 15
repeats 15
sounding 15
occu@@ 15
va 15
scar@@ 15
torso 15
strates 15
task 15
jig 15
eu@@ 15
village 15
stain 15
controlling 15
spen@@ 15
dresser 15
tension 15
services 15
collap@@ 15
bong 15
angled 15
inspec@@ 15
arti@@ 15
response 15
cup@@ 15
cupcake 15
atter 15
toboggan 15
racers 15
boogie 15
trampolines 15
whose 15
formed 15
fe 15
dojo 15
ung 15
trained 15
ina 15
gar 15
extingui@@ 15
acceler@@ 15
tel@@ 15
woodworking 15
ited 15
maneuvering 15
happened 15
belches 15
formula 15
illumin@@ 15
dding 15
caligraphy 15
jour@@ 15
talent 15
occur@@ 15
atte@@ 15
capoeira 15
squatted 15
era 15
spar 15
sailboats 15
struggle 15
sing@@ 15
nike 15
red@@ 15
austr@@ 15
snorkel 15
wri@@ 15
fielder 15
underway 15
amazing 15
discs 15
shment 15
sight 15
anthem 15
transmission 15
auto 15
penny 15
gymnasts 15
thinks 15
swiftly 15
ind 15
review 15
trous@@ 15
lap@@ 15
balanced 15
awkwardly 15
folk 15
hot@@ 15
week 15
chiroprac@@ 15
limbs 15
frustrated 15
rit@@ 15
paring 15
da 15
pirou@@ 15
freestyle 15
gue@@ 15
deadlift 15
selec@@ 15
coughing 15
heel 15
ber 15
iner 15
blankets 15
ball@@ 15
compan@@ 15
oxygen 15
corral 15
virtual 15
rifles 15
karts 15
knead 15
mitten 15
gues 15
udder 15
shear 15
slack 15
tickle 15
grape 15
tye 15
waterslide 15
spool 15
rapids 14
tethered 14
coaching 14
british 14
person@@ 14
ried 14
any@@ 14
mimics 14
joyfully 14
broad@@ 14
evening 14
teasing 14
thanking 14
york 14
educat@@ 14
ani@@ 14
stair@@ 14
yes 14
greeting 14
ists 14
sands 14
accepts 14
cafeteria 14
emergency 14
twork 14
ette 14
videotaping 14
posit@@ 14
skin@@ 14
content 14
circling 14
focusing 14
wrin@@ 14
blen@@ 14
remains 14
hoe 14
artifacts 14
measurements 14
wid@@ 14
grid 14
anti@@ 14
camouflage 14
hydrant 14
anno@@ 14
domin@@ 14
rooms 14
super@@ 14
success 14
proceed 14
quets 14
lobby 14
wre@@ 14
rai@@ 14
handlebars 14
joint 14
unscrewing 14
soldering 14
aside 14
jun@@ 14
matt 14
praise 14
arri@@ 14
community 14
opin@@ 14
serious 14
thanks 14
auc@@ 14
upcoming 14
tiv@@ 14
gal@@ 14
historical 14
conducts 14
manages 14
somersa@@ 14
vocali@@ 14
regular 14
grandma 14
8 14
dipped 14
vor@@ 14
cere@@ 14
seemingly 14
charcoal 14
grilled 14
brow@@ 14
daylight 14
abilities 14
ston 14
seasoning 14
ir 14
cocktail 14
rise 14
kie 14
wls 14
wards 14
ab 14
resistance 14
outs 14
lyrics 14
buzz 14
husband 14
rid 14
een 14
extrac@@ 14
mate 14
mor 14
costumed 14
nette 14
garb 14
zy 14
ethnic 14
jean 14
extreme 14
dumb@@ 14
ell 14
contortionist 14
leader 14
clock 14
duty 14
crank 14
continually 14
employee 14
umbles 14
utili@@ 14
avoiding 14
blasts 14
concentrat@@ 14
longer 14
volu@@ 14
gloss 14
popped 14
bubblegum 14
earphones 14
blowers 14
vol@@ 14
cordless 14
packet 14
dispo@@ 14
trys 14
hugged 14
berry 14
onlooker 14
heading 14
tide 14
conve@@ 14
chil@@ 14
operation 14
dispenser 14
unit 14
ket 14
giraff@@ 14
directed 14
bundled 14
operator 14
blender 14
may@@ 14
butting 14
pat 14
breakfast 14
night@@ 14
j 14
mical 14
spoon@@ 14
darkness 14
sketching 14
batman 14
illustration 14
artistic 14
choo@@ 14
mas 14
meter 14
drywall 14
constructing 14
instruc@@ 14
sizes 14
main 14
constructed 14
childrens 14
rectangle 14
top@@ 14
load@@ 14
dama@@ 14
everything 14
plows 14
succession 14
consisting 14
expertly 14
squirms 14
harbor 14
circ@@ 14
manu@@ 14
failing 14
sail@@ 14
reveals 14
icking 14
pouch 14
goal@@ 14
chisel@@ 14
snork@@ 14
outer 14
barely 14
inning 14
8@@ 14
fireworks 14
manually 14
mean 14
bead 14
sweat@@ 14
knitted 14
hoses 14
grain 14
separates 14
imple@@ 14
bug 14
kling 14
operated 14
dolph@@ 14
fran@@ 14
sable 14
explor@@ 14
fal@@ 14
kitty 14
clad 14
mid@@ 14
acrobats 14
alot 14
popcorn 14
rotisserie 14
tunes 14
tabletop 14
pregnant 14
wagon 14
push@@ 14
mexican 14
polka 14
pauses 14
feathers 14
latex 14
tour 14
watermel@@ 14
copying 14
audio 14
dead@@ 14
tem@@ 14
anchors 14
collage 14
romantic 14
lls 14
coast 14
separated 14
contestants 14
sticker 14
zoom 14
hog 14
cooing 14
born 14
multicolored 14
bounds 14
brow 14
girl@@ 14
hop@@ 14
stuffs 14
feeder 14
tortilla 14
patterned 14
noodle 14
mimic@@ 14
aero@@ 14
speedboat 14
snowboarders 14
humming@@ 14
plucks 14
bir@@ 14
mbs 14
tering 14
barb@@ 14
concentrating 14
oo 14
amer@@ 14
stainless 14
forwards 14
marathon 14
cannons 14
rollerskating 14
sprinkling 14
snor@@ 14
tball 14
croche@@ 14
smith 14
scope 14
dustpan 14
trum@@ 14
distracted 14
bagging 14
bomb 14
accordi@@ 14
twinkle 14
saxophones 14
exhi@@ 14
mallets 14
rubiks 14
saddle 14
leashes 14
magni@@ 14
lo 13
initially 13
bea@@ 13
scroll 13
assisting 13
rail@@ 13
secured 13
fami@@ 13
hundreds 13
spon@@ 13
drama@@ 13
seating 13
reas@@ 13
diag@@ 13
fitted 13
micro@@ 13
informa@@ 13
ric 13
direct 13
grand 13
coll@@ 13
enjo@@ 13
cers 13
compu@@ 13
interrup@@ 13
gest 13
handler 13
scap@@ 13
offic@@ 13
documents 13
chal@@ 13
ya@@ 13
mitten@@ 13
based 13
rally 13
runway 13
gave 13
congre@@ 13
cover@@ 13
presenter 13
spor@@ 13
prepping 13
moisturizer 13
effec@@ 13
expec@@ 13
prior 13
anything 13
cameras 13
helmeted 13
dep@@ 13
xed 13
outstretched 13
skilled 13
ild 13
curve 13
wat@@ 13
qui@@ 13
readies 13
bullseye 13
silently 13
laughed 13
val@@ 13
attacks 13
snea@@ 13
referees 13
grunting 13
spiderman 13
aning 13
surprise 13
buds 13
photography 13
replacing 13
mul@@ 13
ol 13
options 13
ratchet 13
unscrew 13
desk@@ 13
exper@@ 13
ram 13
memo@@ 13
ssor 13
stating 13
ative 13
pus 13
inv@@ 13
cattle 13
$ 13
dollars 13
rece@@ 13
tial 13
voiceover 13
z 13
succeeds 13
para@@ 13
mitts 13
kept 13
minutes 13
depic@@ 13
retrie@@ 13
handkerchief 13
ketchup 13
sends 13
backdrop 13
sexy 13
entertaining 13
liquids 13
patr@@ 13
sample 13
aerial 13
seas@@ 13
100 13
bulls 13
chain@@ 13
alternates 13
excercise 13
dur@@ 13
fli@@ 13
harmon@@ 13
repetit@@ 13
pull@@ 13
searches 13
ony 13
tered 13
insec@@ 13
bru@@ 13
mal 13
spotlight 13
exten@@ 13
distor@@ 13
pullups 13
upward 13
fab@@ 13
gur@@ 13
hillside 13
steers 13
blaster 13
underside 13
methods 13
currently 13
anister 13
mommy 13
professionally 13
allowing 13
try@@ 13
reclining 13
stic@@ 13
squea@@ 13
glass@@ 13
molten 13
property 13
leaf@@ 13
tissues 13
stays 13
react 13
grandmother 13
least 13
flops 13
planer 13
thread@@ 13
envelo@@ 13
medium 13
chor@@ 13
iness 13
grap@@ 13
wavy 13
hairstyle 13
soup 13
pper@@ 13
master 13
ceeding 13
flings 13
mouth@@ 13
dusk 13
chested 13
portrait 13
figur@@ 13
vari@@ 13
pal@@ 13
dist@@ 13
dolls 13
clipped 13
supervises 13
craf@@ 13
structures 13
helicop@@ 13
sam@@ 13
themed 13
aded 13
molds 13
skinny 13
sipping 13
guitari@@ 13
mathematical 13
graphi@@ 13
itation 13
beauti@@ 13
es@@ 13
canoeing 13
fting 13
rain@@ 13
deal@@ 13
201@@ 13
ji@@ 13
ssing 13
submerged 13
due 13
everywhere 13
ess@@ 13
som@@ 13
pail 13
wrapper 13
mal@@ 13
wheeling 13
hey 13
bait 13
eaten 13
gain 13
umpire 13
sme@@ 13
shifter 13
signal 13
asure 13
coordin@@ 13
mobi@@ 13
funnel 13
recy@@ 13
valve 13
dian 13
flan@@ 13
acho@@ 13
shavings 13
plating 13
alls 13
ature 13
deadlifts 13
rooftop 13
waste 13
mops 13
brooms 13
carto@@ 13
collected 13
pack@@ 13
mary 13
seafood 13
robo@@ 13
stro@@ 13
za@@ 13
twenty 13
cowboys 13
messaging 13
reli@@ 13
telephone 13
accent 13
onesie 13
slip@@ 13
folder 13
active 13
dor@@ 13
swee@@ 13
blouse 13
corridor 13
employees 13
toasting 13
bumping 13
footballs 13
ref 13
forearm 13
hidden 13
shoving 13
cosme@@ 13
ler@@ 13
doughnuts 13
participates 13
embroidering 13
tapestry 13
fencers 13
aly@@ 13
growing 13
lazer 13
headbanging 13
enactment 13
affec@@ 13
university 13
hudd@@ 13
saxaphone 13
skii@@ 13
differ@@ 13
uprights 13
placement 13
treadmills 13
horseshoes 13
pizzas 13
courtroom 13
prints 13
unic@@ 13
coughs 13
shucking 13
shoelace 13
vie@@ 12
mself 12
supporting 12
direc@@ 12
sal 12
ruptly 12
compla@@ 12
shades 12
purple 12
scape 12
wrestles 12
ide@@ 12
comp@@ 12
soci@@ 12
achers 12
ory 12
maybe 12
4@@ 12
political 12
ado@@ 12
every@@ 12
amon@@ 12
unto 12
sell 12
finger@@ 12
ssly 12
gical 12
dow@@ 12
lean@@ 12
vibrating 12
lost 12
ption 12
tutu 12
temper 12
dering 12
spanner 12
unti@@ 12
ght@@ 12
pu 12
loves 12
mers 12
ongoing 12
refer@@ 12
tuxe@@ 12
nine 12
photographs 12
vel 12
hioned 12
trays 12
staff 12
tally 12
tching 12
wound 12
gril@@ 12
peppers 12
varying 12
pinch 12
barten@@ 12
rising 12
menu 12
timed 12
pebb@@ 12
inged 12
base@@ 12
skydive 12
exce@@ 12
pies 12
pushup 12
pillar 12
enterta@@ 12
raps 12
outw@@ 12
props 12
reps 12
ormous 12
massive 12
beg@@ 12
stics 12
yan@@ 12
lish 12
manufac@@ 12
bicy@@ 12
dir@@ 12
ped@@ 12
momen@@ 12
ridding 12
beau@@ 12
melt 12
ners 12
somone 12
weed 12
overweight 12
praising 12
whether 12
send 12
bott@@ 12
tely 12
remaining 12
tled 12
you@@ 12
stove@@ 12
mes@@ 12
stuc@@ 12
waved 12
exhal@@ 12
offscreen 12
shelves 12
custo@@ 12
pac@@ 12
leveling 12
rt 12
suburban 12
van@@ 12
sibling 12
nd 12
vapor 12
mario 12
steadily 12
travelling 12
kaya@@ 12
mock 12
sinking 12
whale 12
aqu@@ 12
sad@@ 12
sudden 12
ry@@ 12
thr@@ 12
separ@@ 12
whisk@@ 12
zens 12
ann@@ 12
wol@@ 12
steals 12
switch 12
sof@@ 12
crou@@ 12
vil@@ 12
nel 12
? 12
uncooked 12
quarters 12
wedges 12
wea@@ 12
shellfish 12
rake 12
potters 12
of@@ 12
ow@@ 12
plun@@ 12
urinal 12
lette 12
leot@@ 12
sizzling 12
sidewalks 12
synchroni@@ 12
relaxes 12
wrists 12
necks 12
crun@@ 12
pain@@ 12
reque@@ 12
positi@@ 12
inde@@ 12
wait@@ 12
sad 12
ghter 12
parrot 12
squi@@ 12
tweezers 12
baller@@ 12
poe@@ 12
perfor@@ 12
simp@@ 12
sers 12
uk@@ 12
snoring 12
sack 12
magazine 12
mow 12
opponents 12
spin@@ 12
examin@@ 12
textile 12
tech 12
stric@@ 12
snakes 12
icks 12
sheer 12
plastering 12
whisk 12
moonwalking 12
newscast 12
weatherman 12
hat@@ 12
scanner 12
shuttlecock 12
tet 12
xbox 12
netball 12
tip@@ 12
mules 12
nap 12
testimony 12
receipt 12
harne@@ 11
forma@@ 11
kin@@ 11
cour@@ 11
cele@@ 11
wil@@ 11
adver@@ 11
discus@@ 11
rubb@@ 11
repor@@ 11
prac@@ 11
aw@@ 11
bed@@ 11
oes 11
tage 11
stem 11
desig@@ 11
gos 11
oth@@ 11
bus@@ 11
collec@@ 11
assi@@ 11
slee@@ 11
ults 11
athle@@ 11
mpo@@ 11
stret@@ 11
chick@@ 11
ay 11
cock@@ 11
jugg@@ 11
aches 11
ep 11
web@@ 11
situ@@ 11
effor@@ 11
plat@@ 11
skir@@ 11
hundre@@ 11
power@@ 11
trou@@ 11
oly@@ 11
spee@@ 11
boarder 11
automa@@ 11
eg@@ 11
swir@@ 11
paint@@ 11
cle 11
rout@@ 11
comple@@ 11
ridge 11
lity 11
spea@@ 11
symbo@@ 11
selfi@@ 11
secu@@ 11
ice@@ 11
tory 11
ought 11
uts 11
cheerlead@@ 11
mmy 11
camp@@ 11
acks 11
competit@@ 11
kled 11
conven@@ 11
gui@@ 11
sus@@ 11
testi@@ 11
shee@@ 11
camera@@ 11
eyel@@ 11
color@@ 11
flat@@ 11
hel@@ 11
seg@@ 11
ller 11
soldi@@ 11
prin@@ 11
sci@@ 11
acefully 11
ner@@ 11
cell@@ 11
lau@@ 11
fair@@ 11
acher 11
exhibit@@ 11
uni@@ 11
whe@@ 11
tromb@@ 11
nip@@ 11
logi@@ 10
dun@@ 10
clai@@ 10
sign@@ 10
cheer@@ 10
oring 10
ream 10
intere@@ 10
pear@@ 10
less@@ 10
port 10
9 10
doc@@ 10
barbe@@ 10
cano@@ 10
gl@@ 10
pup@@ 10
iden@@ 10
rap@@ 10
percus@@ 10
wei@@ 10
barre@@ 10
zen 10
feat@@ 10
tle@@ 10
ingredi@@ 10
batter@@ 10
lad 10
cause 10
embroid@@ 10
pil@@ 10
distrac@@ 10
ful@@ 10
quar@@ 10
ree 10
cases 10
calcu@@ 10
fish@@ 10
boar@@ 10
gular 10
auto@@ 10
part@@ 10
cham@@ 10
cuc@@ 10
´@@ 10
bage 10
ut 10
eels 10
cali@@ 10
past@@ 10
deter@@ 10
rol@@ 10
imp@@ 10
list 10
inf@@ 10
onal 10
bac@@ 10
practi@@ 10
dru@@ 10
teamma@@ 10
reci@@ 10
ddy 10
raz@@ 10
tattoo@@ 10
televi@@ 10
apers 10
orche@@ 10
tele@@ 10
rhy@@ 10
quetball 10
lash 10
lasso@@ 10
lolli@@ 10
ident 9
ires 9
aggre@@ 9
ality 9
drum@@ 9
val 9
recei@@ 9
uck@@ 9
archaeolo@@ 9
wels 9
arch@@ 9
shri@@ 9
neigh@@ 9
by@@ 9
gor@@ 9
sten@@ 9
ham@@ 9
happe@@ 9
scho@@ 9
pit@@ 9
vege@@ 9
bath@@ 9
thered 9
thum@@ 9
easi@@ 9
stan@@ 9
exerci@@ 9
ater 9
equ@@ 9
twir@@ 9
app@@ 9
gn 9
pyra@@ 9
suspen@@ 9
vely 9
phys@@ 9
multi@@ 9
navig@@ 9
dled 9
sher 9
ggling 9
youn@@ 9
newsca@@ 9
stick@@ 9
synchron@@ 9
ese 9
kni@@ 9
xes 9
grou@@ 9
spectat@@ 9
vering 9
thumb@@ 9
appar@@ 9
sa 9
awk@@ 9
pier@@ 9
doo 9
stir@@ 9
surpri@@ 9
rics 9
scal@@ 9
pine@@ 9
concer@@ 9
skate@@ 9
ld 9
refle@@ 9
pige@@ 9
frustrat@@ 9
stren@@ 9
smooth@@ 9
mmers 9
straighten@@ 9
sequ@@ 9
comm@@ 9
ided 9
tap@@ 9
xylo@@ 9
paragl@@ 8
mono@@ 8
vil 8
rying 8
conta@@ 8
00 8
irs 8
-@@ 8
hap@@ 8
ven 8
vement 8
mod@@ 8
docu@@ 8
dings 8
fiel@@ 8
argu@@ 8
contin@@ 8
challen@@ 8
handle@@ 8
circu@@ 8
ope@@ 8
proced@@ 8
sociali@@ 8
enthusi@@ 8
7@@ 8
inclu@@ 8
barbecu@@ 8
coal 8
desc@@ 8
butter@@ 8
stern 8
weigh@@ 8
metal@@ 8
spra@@ 8
dust@@ 8
resid@@ 8
fic 8
thin@@ 8
ened 8
sig@@ 8
fol@@ 8
rested 8
piec@@ 8
rando@@ 8
dau@@ 8
cast@@ 8
pou@@ 8
buil@@ 8
mata@@ 8
tee@@ 8
wly 8
zers 8
dozer 8
exc@@ 8
instrumen@@ 8
time@@ 8
stenci@@ 8
eel@@ 8
fris@@ 8
exclai@@ 8
cow@@ 8
raid 8
ggles 8
practic@@ 8
mmer 8
sou@@ 8
iss@@ 8
gym@@ 8
chur@@ 8
rist@@ 8
conduc@@ 8
altern@@ 8
9@@ 8
enthusia@@ 8
energe@@ 8
kar@@ 8
ere 8
conte@@ 8
lol@@ 8
pop@@ 8
stit@@ 8
tar 8
fig@@ 8
ounding 8
ever@@ 8
tric@@ 8
submer@@ 8
poc@@ 8
tten 8
hind 8
hover@@ 8
apy 8
ece 8
massag@@ 8
scor@@ 8
mush@@ 8
vibrat@@ 8
inet 8
buc@@ 8
trape@@ 8
rts 7
cred@@ 7
express@@ 7
medic@@ 7
ale 7
road@@ 7
ey@@ 7
joh@@ 7
20@@ 7
ai@@ 7
swor@@ 7
ath 7
tighten@@ 7
electron@@ 7
tel 7
inst@@ 7
outh 7
lead@@ 7
rock@@ 7
dress@@ 7
hambur@@ 7
temper@@ 7
frid@@ 7
bit@@ 7
apr@@ 7
ues 7
shampo@@ 7
excerci@@ 7
progre@@ 7
attemp@@ 7
swim@@ 7
accomp@@ 7
phan@@ 7
rif@@ 7
sna@@ 7
ot@@ 7
commentat@@ 7
mechan@@ 7
ga 7
happ@@ 7
chief 7
bare@@ 7
stry 7
afr@@ 7
level@@ 7
groo@@ 7
skil@@ 7
pir@@ 7
ghters 7
attrac@@ 7
low@@ 7
calli@@ 7
ei@@ 7
kne@@ 7
cartwh@@ 7
pad@@ 7
shuff@@ 7
ddle 7
surf@@ 7
crow@@ 7
shly 7
stal 7
mas@@ 7
lars 7
ety 7
urant 7
succe@@ 7
stum@@ 7
visi@@ 7
iners 7
individu@@ 7
tec@@ 7
dark@@ 7
conso@@ 7
gry 7
ett@@ 7
numb@@ 7
botto@@ 7
ron@@ 7
eps 7
xy 7
gol@@ 7
pean@@ 7
grin@@ 7
twee@@ 7
did@@ 7
ker@@ 7
scrat@@ 7
spective 7
ene@@ 7
jet@@ 7
butt@@ 7
dol@@ 7
anchor@@ 7
fee@@ 7
potat@@ 7
mani@@ 6
skill@@ 6
ight 6
toge@@ 6
secur@@ 6
intervie@@ 6
rema@@ 6
accep@@ 6
arded 6
kin 6
mat@@ 6
progra@@ 6
horizon@@ 6
op 6
simultane@@ 6
shot@@ 6
func@@ 6
tless 6
graphed 6
verage 6
activ@@ 6
spa@@ 6
elec@@ 6
smel@@ 6
ditional 6
oughly 6
swit@@ 6
monit@@ 6
mbling 6
toa@@ 6
sett@@ 6
wn@@ 6
cir@@ 6
too@@ 6
intric@@ 6
hammer@@ 6
cric@@ 6
gage 6
ets 6
charac@@ 6
teri@@ 6
note@@ 6
particip@@ 6
floo@@ 6
surr@@ 6
ital 6
holid@@ 6
resta@@ 6
oud 6
home@@ 6
cture 6
ttering 6
ough@@ 6
bility 6
horse@@ 6
stache 6
reve@@ 6
saf@@ 6
moisturi@@ 6
tast@@ 6
weap@@ 6
ef 6
dio 6
stle 6
> 6
nerv@@ 6
velo@@ 6
touch@@ 6
wra@@ 6
alumin@@ 6
pily 6
tou@@ 6
var@@ 6
bobb@@ 6
paja@@ 6
lon@@ 6
sic@@ 6
aff@@ 6
peo@@ 6
tents 6
bran@@ 6
sidel@@ 6
ribb@@ 6
rele@@ 6
pho@@ 6
iler 6
yach@@ 6
recor@@ 6
mattre@@ 6
poli@@ 6
side@@ 6
zz 6
pings 6
park@@ 6
fier 6
joy@@ 6
tric 6
ility 6
touri@@ 6
cigare@@ 6
plies 5
measure@@ 5
repa@@ 5
ounge 5
tual 5
crocodi@@ 5
gators 5
rights 5
bby 5
deta@@ 5
/@@ 5
chee@@ 5
bor 5
cree@@ 5
langu@@ 5
struc@@ 5
proper@@ 5
difficul@@ 5
grat@@ 5
ef@@ 5
,@@ 5
put@@ 5
profession@@ 5
ides 5
pati@@ 5
ongs 5
trance 5
celebrat@@ 5
cin@@ 5
artic@@ 5
fore 5
metho@@ 5
pli@@ 5
dor 5
ushing 5
colo@@ 5
elev@@ 5
stically 5
ano 5
allow 5
kee@@ 5
choreo@@ 5
mine 5
lanter@@ 5
pede@@ 5
edly 5
vir@@ 5
moi@@ 5
rotat@@ 5
usk 5
brat@@ 5
movi@@ 5
bubb@@ 5
tight@@ 5
snap@@ 5
tice 5
maneu@@ 5
mex@@ 5
demonstrat@@ 5
simi@@ 5
otic 5
twen@@ 5
sar@@ 5
speciali@@ 5
dump@@ 5
sity 5
rhyth@@ 5
ycle 5
cee@@ 5
applic@@ 5
uckles 5
hes 5
embro@@ 5
cock 5
fluff@@ 5
flin@@ 5
sk 5
’@@ 5
mir@@ 5
idding 5
thon 5
efully 5
todd@@ 5
straight@@ 5
graffit@@ 5
lip@@ 5
shovel@@ 5
nic@@ 5
loa@@ 5
gement 5
org@@ 5
volle@@ 5
fing@@ 5
station@@ 5
aper 5
wel 5
vap@@ 5
swal@@ 5
inhal@@ 5
tane@@ 4
gir@@ 4
listen@@ 4
facts 4
descri@@ 4
dily 4
modi@@ 4
lear@@ 4
jewel@@ 4
sever@@ 4
prepar@@ 4
ket@@ 4
paras@@ 4
ands 4
stun@@ 4
iture 4
bum 4
ier 4
pment 4
nap@@ 4
birth@@ 4
noi@@ 4
multicolo@@ 4
tating 4
marsh@@ 4
canv@@ 4
asy 4
assemb@@ 4
trun@@ 4
partic@@ 4
semb@@ 4
dget 4
squar@@ 4
white@@ 4
iny 4
counter@@ 4
bystan@@ 4
sm 4
kness 4
tballs 4
foun@@ 4
vings 4
laugh@@ 4
kic@@ 4
decorat@@ 4
pol@@ 4
sement 4
grun@@ 4
thes 4
hear@@ 4
zzle 4
eat@@ 4
provid@@ 4
ials 4
ssi@@ 4
objec@@ 4
hoc@@ 4
one@@ 4
gang@@ 4
ys@@ 4
gest@@ 4
vehi@@ 4
ino 4
selves 4
diff@@ 4
utes 4
dboard 4
grocer@@ 4
wic@@ 4
correc@@ 4
parro@@ 4
eld 4
num@@ 4
cav@@ 4
ais@@ 4
fur@@ 4
mersa@@ 4
invol@@ 4
actment 4
horiz@@ 4
electr@@ 4
oke 4
boarders 4
lif@@ 4
surroun@@ 4
fini@@ 4
mbo@@ 4
fit@@ 4
mol@@ 4
oper@@ 4
smart@@ 4
commer@@ 4
mass@@ 4
particu@@ 4
ttery 4
gerator 4
stac@@ 4
mech@@ 4
graph@@ 4
geridoo 4
comman@@ 4
mple 4
marac@@ 4
deco@@ 4
contra@@ 4
xy@@ 4
ula 4
adjust@@ 4
trol@@ 4
inju@@ 3
audit@@ 3
attach@@ 3
;@@ 3
answ@@ 3
vid@@ 3
ye 3
thre@@ 3
tween 3
techn@@ 3
commun@@ 3
dd 3
stering 3
profe@@ 3
mi 3
bene@@ 3
profess@@ 3
confer@@ 3
mills 3
appli@@ 3
&@@ 3
tumb@@ 3
strating 3
appla@@ 3
machin@@ 3
mannequ@@ 3
[ 3
encoura@@ 3
stly 3
meas@@ 3
trampo@@ 3
idly 3
é 3
wren@@ 3
thor@@ 3
del 3
dig@@ 3
alphab@@ 3
writ@@ 3
christ@@ 3
alli@@ 3
graphy 3
coff@@ 3
fas@@ 3
# 3
ax@@ 3
repeat@@ 3
four@@ 3
bol@@ 3
fec@@ 3
toma@@ 3
bot@@ 3
toi@@ 3
hig@@ 3
contortion@@ 3
kup 3
indu@@ 3
came@@ 3
strai@@ 3
stud@@ 3
fea@@ 3
nam 3
macar@@ 3
balcon@@ 3
mail@@ 3
+ 3
usual 3
gent 3
cann@@ 3
ancho@@ 3
runing 3
quest@@ 3
anish 3
jel@@ 3
baske@@ 3
mous 3
congreg@@ 3
them@@ 3
tially 3
suppor@@ 3
again@@ 3
atting 3
mance 3
resi@@ 3
erie 3
javel@@ 3
dless 3
suit@@ 3
deser@@ 3
ftly 3
walk@@ 3
vigor@@ 3
passion@@ 3
neck@@ 3
instru@@ 3
masse@@ 3
mechani@@ 3
aer@@ 3
kah 3
ie 3
environ@@ 3
ert 3
screa@@ 3
explan@@ 3
accor@@ 3
sion@@ 3
clar@@ 3
inets 3
nis 3
cym@@ 3
shado@@ 3
acou@@ 3
guit@@ 3
flash@@ 3
rubi@@ 3
sax@@ 3
stra 3
possi@@ 3
logy 3
ste 3
spot@@ 3
knea@@ 3
retri@@ 3
scent 3
aphone 3
slalo@@ 3
yaw@@ 3
wet@@ 3
tutori@@ 2
ordin@@ 2
sizz@@ 2
whist@@ 2
ttu@@ 2
honey@@ 2
dry@@ 2
perfec@@ 2
stants 2
ply@@ 2
ickly 2
festi@@ 2
cand@@ 2
ighs 2
success@@ 2
blon@@ 2
acrobat@@ 2
slic@@ 2
ssel 2
mathema@@ 2
numer@@ 2
good@@ 2
ira 2
diamon@@ 2
trat@@ 2
scul@@ 2
than@@ 2
eth@@ 2
ure@@ 2
knel@@ 2
meth@@ 2
split@@ 2
craw@@ 2
bling 2
yon 2
rotiss@@ 2
sear@@ 2
sie 2
ican 2
aga@@ 2
ola 2
dess@@ 2
toena@@ 2
synch@@ 2
coura@@ 2
adole@@ 2
close@@ 2
locat@@ 2
make@@ 2
excit@@ 2
vide@@ 2
twin@@ 2
zo@@ 2
: 2
ela@@ 2
sen 2
cular 2
verbal@@ 2
near@@ 2
camoufla@@ 2
ena 2
blan@@ 2
atly 2
tually 2
pow@@ 2
sso 2
prep@@ 2
aph@@ 2
penci@@ 2
teria 2
knit@@ 2
arn 2
convey@@ 2
camer@@ 2
eng@@ 2
urry 2
concre@@ 2
elabo@@ 2
screw@@ 2
sse 2
gau@@ 2
dough@@ 2
spat@@ 2
cylin@@ 2
powder@@ 2
ena@@ 2
rage 2
motori@@ 2
inal 2
concen@@ 2
ghtly 2
dem 2
employ@@ 2
refri@@ 2
peel@@ 2
versity 2
mb 2
shuttle@@ 2
minton 2
ill 2
apparat@@ 2
melo@@ 2
mara@@ 2
% 2
jack@@ 2
alph@@ 2
saxo@@ 2
​@@ 2
weather@@ 2
visu@@ 2
speed@@ 2
travel@@ 2
apar@@ 2
– 2
stuff@@ 2
scrap@@ 2
tech@@ 2
"@@ 2
whil@@ 2
memb@@ 2
ttle@@ 2
clou@@ 2
kel 2
cig@@ 2
cus 2
eer 2
] 2
emplo@@ 2
silver@@ 2
mache@@ 2
tobogg@@ 2
photograph@@ 2
aerob@@ 2
dge@@ 2
n'@@ 2
rting 1
techno@@ 1
agg@@ 1
stantly 1
arran@@ 1
gements 1
posite 1
tboard 1
initi@@ 1
ficial 1
ilities 1
@ 1
tioneer 1
solu@@ 1
sicle 1
parach@@ 1
igh@@ 1
oce@@ 1
moon@@ 1
handker@@ 1
applau@@ 1
â@@ 1
brush@@ 1
hall@@ 1
acciden@@ 1
pump@@ 1
day@@ 1
expla@@ 1
box@@ 1
stumes 1
cera@@ 1
zine 1
gymna@@ 1
ballo@@ 1
flexi@@ 1
sandwic@@ 1
skele@@ 1
hyster@@ 1
nequ@@ 1
lowing 1
mach 1
drive@@ 1
carri@@ 1
maga@@ 1
eting 1
depar@@ 1
dodge@@ 1
erci@@ 1
simul@@ 1
`@@ 1
uten@@ 1
enth@@ 1
choco@@ 1
pers@@ 1
\ 1
fau@@ 1
pony@@ 1
arrowh@@ 1
lage 1
ware@@ 1
ingre@@ 1
ener@@ 1
vacu@@ 1
gymn@@ 1
through@@ 1
techni@@ 1
quarter@@ 1
erman 1
crosse 1
blou@@ 1
regar@@ 1
secon@@ 1
derly 1
roman@@ 1
chet 1
adhe@@ 1
roof@@ 1
stain@@ 1
beani@@ 1
subur@@ 1
bubble@@ 1
|@@ 1
moder@@ 1
tish 1
extre@@ 1
apist 1
breast@@ 1
debr@@ 1
rup@@ 1
foc@@ 1
ange 1
ees 1
coho@@ 1
ghten@@ 1
champa@@ 1
ë@@ 1
asium 1
contro@@ 1
auditori@@ 1
idoo 1
archa@@ 1
fru@@ 1
cade 1
bals 1
è@@ 1
mbal 1
milit@@ 1
list@@ 1
poly 1
tourna@@ 1
barri@@ 1
= 1
umber 1
teo@@ 1
court@@ 1
tori@@ 1
yball 1
manipu@@ 1
vaul@@ 1
compon@@ 1
ential 1
ught 1
jap@@ 1
pular 1
mically 1
[@@ 1
skat@@ 1
lities 1
mascar@@ 1
paci@@ 1
za 1
spu@@ 1
masco@@ 1
ead 1
tread@@ 1
tobac@@ 1
treat@@ 1
gen 1
ssively 1
dribb@@ 1
pates 1
loween 1
corri@@ 1
sledge@@ 1
bably 1
itish 1
multic@@ 1
umin@@ 1
adul@@ 1
squat@@ 1
produc@@ 1
windo@@ 1
ells 1
graff@@ 1
japan@@ 1
dad@@ 1
shoela@@ 1
tra 1
bullse@@ 1
tu 1
tour@@ 1
“ 1
” 1
mingly 1
noo@@ 1
vapo@@ 1
cough@@ 1
pota@@ 1
arium 1
enclo@@ 1
yor@@ 1
religi@@ 1
kins 1
ous@@ 1
manipula@@ 1
bel 1
neath 1
hill@@ 1
