[p] 487520
a 202264
is 49606
and 45616
the 36308
man 34528
in 32191
to 28655
of 27805
on 26595
person 16383
with 15808
woman 15664
are 15628
, 15550
while 14745
people 10839
young 10732
two 9599
an 9544
boy 9021
as 8383
girl 8291
his 8207
then 7845
at 7331
group 7298
how 7197
playing 7166
her 5981
up 5716
using 5224
it 5184
down 5146
sitting 4628
little 4598
someone 4268
men 4189
into 4074
he 4057
baby 3964
another 3932
one 3883
some 3780
out 3722
by 3655
around 3532
that 3448
from 3320
doing 3095
their 3075
ball 3059
standing 3058
large 3017
holding 2989
child 2948
small 2795
showing 2760
front 2760
off 2727
plays 2616
uses 2507
over 2497
music 2455
they 2376
guy 2350
other 2348
back 2294
being 2291
water 2236
wearing 2229
she 2212
talking 2201
room 2163
's 2131
outside 2131
shown 2103
riding 2060
table 2033
dancing 2027
women 1974
hands 1960
hair 1939
for 1914
floor 1878
several 1871
hand 1848
dance 1846
demonstrating 1839
girls 1801
through 1789
demonstrates 1761
about 1751
play 1744
piece 1742
trying 1703
does 1629
game 1612
kids 1549
sits 1514
- 1513
shows 1508
together 1464
kid 1435
three 1430
them 1425
making 1424
machine 1421
boys 1419
stands 1409
children 1405
white 1403
snow 1398
lady 1370
walking 1365
something 1345
holds 1344
has 1328
gym 1310
field 1305
before 1302
throws 1284
stage 1264
runs 1252
dog 1246
head 1241
shirt 1240
jumps 1215
chair 1211
camera 1206
inside 1195
top 1187
each 1177
toddler 1172
putting 1157
black 1152
who 1123
car 1122
getting 1098
make 1090
red 1077
walks 1070
puts 1070
do 1067
was 1064
throwing 1055
very 1044
ice 1044
couple 1043
performing 1043
across 1035
board 1028
laying 1007
paper 1000
talks 998
running 998
side 997
use 991
him 988
different 988
food 981
long 970
onto 962
having 954
put 951
rope 927
jumping 907
pool 895
face 890
jump 882
high 880
male 878
takes 871
tries 866
looking 860
seen 854
swimming 847
blue 845
eating 842
video 840
what 839
working 836
crowd 832
there 830
gets 826
wood 823
rides 823
practicing 808
makes 799
tree 786
tool 783
moves 771
fire 770
wall 762
cut 762
moving 755
ground 753
basketball 749
bottle 745
stand 743
next 743
be 736
watching 734
looks 734
explaining 731
kitchen 726
giving 716
song 715
when 712
behind 703
hits 699
knife 696
boat 696
street 693
bike 690
football 686
soccer 685
horse 685
going 681
air 666
cutting 665
all 657
bed 655
falls 653
female 651
guitar 650
along 644
open 643
where 641
places 637
others 633
get 628
can 626
track 616
picks 614
slowly 607
starts 607
performs 604
mouth 602
but 600
hitting 600
tie 600
metal 597
baseball 593
rock 590
taking 590
blowing 584
feet 583
adult 581
toy 577
begins 576
explains 570
which 570
laughing 568
turns 567
golf 567
speaking 566
like 565
green 563
" 559
set 558
seated 557
dressed 555
blows 553
sit 551
kicks 547
meat 545
team 545
line 541
guys 538
singing 536
driving 534
climbing 532
object 531
balls 527
older 525
pan 521
various 518
show 514
pushing 514
way 513
band 509
or 508
wooden 507
perform 505
glass 503
few 502
four 502
dances 498
lifts 497
house 495
bar 493
attempts 491
pushes 490
building 479
arms 479
player 478
pulls 477
leg 476
middle 473
have 472
hill 471
speaks 470
instrument 470
dark 469
walk 469
after 467
ride 467
its 464
work 463
flips 460
fish 459
exercise 455
skiing 455
re@@ 453
arm 451
teams 449
goes 448
tire 448
hat 445
lying 445
brush 444
gives 443
electric 442
pieces 440
stick 438
legs 437
time 437
paint 436
lifting 435
hit 434
applying 432
beer 432
cards 430
against 428
during 426
pole 426
phone 425
bowl 425
t 423
cleaning 421
weights 420
beach 420
glasses 419
cooking 418
bunch 417
players 415
himself 414
pair 414
clean 413
weight 413
box 411
under 411
throw 410
fingers 409
blow 408
teenage 405
couch 405
wheel 404
fast 403
routine 402
attempting 401
fishing 401
watch 399
plastic 399
outdoors 398
area 398
kicking 396
sand 396
balloon 396
heavy 394
dirt 394
many 393
washing 393
bag 391
go 389
body 389
court 385
forth 384
foot 384
pulling 375
dough 375
hockey 375
cuts 374
away 373
opens 373
yellow 371
tennis 367
cat 367
road 365
preparing 362
mother 361
properly 359
grass 358
lays 357
end 354
sticks 354
run 353
both 353
truck 353
take 352
orange 350
big 350
type 350
towards 349
yard 349
swings 349
skating 349
living 346
pink 346
place 345
appears 344
move 342
placing 340
attached 339
demonstration 339
push 339
painting 338
multiple 337
quickly 335
adults 334
old 334
rolling 332
bull 332
ocean 331
near 330
door 330
bicycle 328
spins 328
practice 326
works 326
describing 325
ready 324
held 323
park 323
vehicle 321
ed 319
race 319
wine 319
practices 316
egg 316
swinging 315
piano 314
eyes 313
es 313
shot 313
swing 312
ski 311
saw 310
climbs 309
clothes 307
instructions 306
full 306
applies 306
spinning 306
ups 305
describes 305
screen 304
hold 303
hole 303
tricks 303
diving 302
microphone 301
flip 301
card 301
laughs 300
talk 300
says 299
background 298
prepares 298
device 296
individual 295
close 295
opening 294
motion 293
snowy 292
sled 292
audience 291
gloves 291
pull 291
forward 290
apple 289
were 288
between 288
dogs 288
fight 286
used 285
setting 285
brushing 285
hanging 284
ing 283
s 282
eye 282
slide 281
cap 281
eats 281
recording 280
tractor 280
ts 279
waves 279
light 279
shoe 279
neck 278
makeup 278
hammer 277
watches 275
lot 275
pipe 275
eggs 275
look 273
studio 273
news 273
comes 272
try 271
e@@ 271
mat 271
exercises 271
folding 270
in@@ 270
outdoor 269
string 269
kick 269
this 267
juggling 267
lake 267
carpet 267
suit 266
drinking 265
s@@ 262
a@@ 261
spray 261
part 260
proper 260
you 259
wax 259
backwards 257
teaching 257
ers 257
ping 256
picking 256
ring 256
family 256
shoes 256
start 255
cake 255
drums 254
first 254
right 253
steps 253
book 253
picture 252
tutorial 252
so 251
plate 251
t@@ 250
un@@ 250
cloth 250
indoor 249
help 248
listening 248
gas 248
o@@ 247
competition 246
ropes 245
p@@ 245
remove 245
circle 245
mountain 244
. 244
drum 244
la@@ 244
cream 244
drawing 242
basket 242
musical 241
thread 241
trampoline 241
hot 241
tools 239
language 239
sidewalk 239
lawn 239
cup 239
skis 239
drill 238
gear 237
covered 236
de@@ 236
drives 236
r@@ 235
pouring 235
sing 235
event 235
slow 235
bench 234
horses 233
frisbee 233
feeding 232
mom 232
sink 232
cart 232
shaving 232
edge 231
rolls 231
dress 231
finger 231
lights 230
pick 230
belly 230
fold 230
chef 230
made 229
instruments 229
apply 229
not 228
needle 228
wrestling 228
cliff 227
fun 227
d@@ 226
catches 226
voice 226
tells 226
seat 225
leaves 225
rubbing 225
competing 225
bottom 223
pours 223
bow 223
sewing 223
sword 223
climb 222
beat 222
bowling 222
surfing 222
pencil 222
above 221
worker 221
bathroom 221
smiling 220
ladder 220
ting 219
nose 219
shaking 219
pulled 219
flute 219
drink 219
pong 219
g@@ 218
school 218
power 217
if 217
loud 216
massage 215
removes 214
teen 213
river 213
sings 213
demonstrate 213
wrapping 213
break 213
iron 213
carefully 212
ly 212
christmas 212
y 211
friends 211
club 210
home 210
er 209
writing 209
curling 208
clapping 207
artist 207
parachute 207
wind 207
bubble 207
grabs 206
ted 206
tattoo 206
friend 206
hose 206
lift 206
turning 205
view 205
concrete 204
sheet 204
cook 204
tune 204
reading 203
shirtless 203
racing 203
workers 202
rink 202
watermelon 202
item 200
liquid 200
deck 200
roller 200
played 199
times 199
mask 199
clothing 198
class 198
mirror 198
sets 198
surface 197
faces 197
pen 197
tv 197
repeatedly 197
helping 196
c@@ 196
cheering 196
half 195
kind 195
eat 195
weather 195
e 194
ma@@ 194
shorts 194
restaurant 194
sleeping 194
themselves 193
helmet 193
new 193
i 193
drinks 193
sail 193
scuba 193
se@@ 192
sort 191
chest 191
mechanical 191
ramp 191
wave 191
boxing 191
kite 191
brown 190
pot 190
see 189
match 189
shakes 188
just 188
father 187
placed 187
hoop 187
animal 186
drops 186
scooter 186
same 185
special 185
art 185
rubs 185
technique 185
removing 185
lap 184
cross 184
tying 183
o 182
equipment 182
lands 182
athlete 182
skates 182
herself 181
laugh 181
points 181
brushes 181
colored 181
style 181
; 180
telling 180
swim 180
punching 180
pe@@ 179
carving 179
sliding 178
k@@ 178
rocks 178
helps 177
co@@ 177
m@@ 177
eyebrows 177
stone 177
smoking 177
b@@ 176
bottles 176
smoke 175
falling 175
course 175
hard 174
w@@ 174
left 174
slides 174
blower 174
toilet 174
l 173
create 173
ballet 173
crying 173
ling 172
window 172
flipping 172
beside 172
asks 172
sports 172
swims 172
until 171
items 171
bat 171
target 170
couples 170
foreign 169
night 169
square 169
cow 169
snake 169
digging 168
shooting 168
vacuum 168
l@@ 167
barbell 167
fabric 167
lane 167
karate 167
slope 166
i@@ 166
costume 166
filming 166
folds 166
led 165
fighting 165
store 165
d 165
flying 164
al 164
marching 164
number 164
flat 163
desk 163
counter 163
ar@@ 163
wrap 163
y@@ 162
ladies 162
v@@ 161
smiles 161
tap 161
construction 161
skateboard 161
path 160
skills 160
net 160
skate 160
gathered 159
po@@ 159
touches 159
filled 159
motorcycle 159
gum 159
fence 158
roll 158
attempt 158
without 158
n@@ 158
mo@@ 158
toward 158
tube 158
bucket 158
television 157
ri@@ 157
wheelchair 157
garbage 157
kneeling 156
clear 156
washes 156
spoon 155
le 154
prepare 154
order 154
si@@ 154
cement 154
color 154
church 154
waiting 153
arts 153
traffic 153
cheer 151
ti@@ 151
son 151
balloons 151
carrying 151
ties 150
asian 150
martial 150
position 149
u@@ 149
jacket 149
followed 149
country 149
woods 149
wash 149
goat 149
empty 148
round 148
teeth 148
goal 148
sheep 148
unicycle 148
li@@ 147
tight 147
juggles 147
pillow 147
scissors 147
computer 146
else 146
really 146
frying 146
chewing 146
di@@ 145
alligator 145
pressing 145
jet 145
trash 145
coming 144
only 144
reaches 144
day 143
turn 143
learning 143
chess 143
narrates 142
fall 142
an@@ 142
material 142
substance 141
bends 141
drive 141
ks 141
wet 141
do@@ 141
enjoying 140
infant 140
knees 140
lies 140
individuals 140
lock 140
uniform 140
exercising 140
yarn 140
tied 139
discussing 139
les 139
dad 139
f@@ 139
crawling 139
nails 139
elephant 139
waving 138
g 138
st@@ 138
creating 138
ps 138
strip 138
yoga 138
feeds 138
shop 137
ho@@ 137
concert 137
lit 137
oil 137
coffee 137
stops 137
swimmers 137
button 137
se 136
al@@ 136
bounces 136
huge 136
cell 136
vegetables 136
dancers 136
tapping 135
flowers 135
also 135
backyard 135
sausage 135
balancing 135
paints 135
trumpet 135
purple 134
en@@ 134
stretching 134
short 134
beard 134
shoots 134
spraying 134
log 134
tall 133
m 133
bo@@ 133
catch 132
ex@@ 132
leans 132
skier 132
money 131
speed 131
cars 131
pile 131
process 131
step 131
sky 131
volleyball 131
sailing 130
2 130
fly 130
series 129
ating 129
to@@ 129
party 129
bu@@ 129
violin 129
design 129
candles 129
coin 129
no 128
lo@@ 128
parts 128
bedroom 128
harmonica 128
gun 128
mascara 128
treadmill 128
bouncing 127
busy 127
somebody 127
contact 127
fencing 127
pinball 127
be@@ 126
roof 126
blonde 126
far 126
surrounded 126
broom 126
massaging 126
sign 126
peel 126
sounds 126
hula 126
leaf 126
camel 126
sh@@ 125
words 125
le@@ 125
container 125
bread 125
remote 125
objects 124
elderly 124
gentleman 124
give 124
chopping 124
buttons 124
me@@ 123
stretches 123
skin 123
stomach 123
pig 123
saying 122
indoors 122
shots 122
birthday 122
at@@ 121
students 121
cookies 121
begin 121
things 121
groups 121
stove 121
pizza 121
bungee 120
king 120
pit 120
persons 120
dish 120
tongue 120
burning 120
bubbles 120
blanket 120
potato 120
peeling 120
grinder 120
instructor 119
platform 119
funny 119
h@@ 119
ac@@ 119
product 119
on@@ 119
squats 119
training 119
harp 119
pre@@ 118
tile 118
gymnasium 118
sport 118
control 118
block 118
presses 118
sound 117
ds 117
cleans 117
well 117
kneels 117
breaks 117
workout 117
shave 117
brick 116
ro@@ 116
mud 116
ingredients 116
tank 116
deep 116
trick 116
fruit 116
organ 116
pretending 115
us 115
knot 115
nail 115
underwater 115
carve 115
cube 115
knitting 115
wire 114
more 114
heard 114
had 114
pointing 114
trees 114
garage 114
sprays 114
p 113
as@@ 113
commercial 113
shape 113
great 113
k 113
compete 113
pants 113
saxophone 113
alone 112
still 112
males 112
driveway 112
milk 112
rod 112
beans 112
petting 112
form 112
welding 112
cheese 112
starting 111
five 111
balance 111
shovel 111
flame 111
dive 111
mop 111
sunglasses 110
center 110
towel 110
dart 110
trimming 110
adding 110
circles 110
batter 110
grill 110
coat 110
clay 110
pictures 109
so@@ 109
soap 109
ate 109
keyboard 109
mans 108
n't 108
press 108
aged 108
displays 108
weaving 108
handstand 108
pushed 108
napkin 108
slices 108
bricks 108
ironing 108
flashlight 108
puppet 108
scene 107
noises 107
performance 107
loudly 107
shopping 107
sticking 107
axe 107
filling 107
gong 107
tape 106
second 106
office 106
trapeze 106
darts 106
landing 105
grassy 105
train 105
classroom 105
bending 105
pass 105
build 105
teenager 105
bulldozer 105
feed 105
pumpkin 105
dye 105
javelin 105
ra@@ 104
bridge 104
n 104
st 104
outfit 104
circular 104
headphones 104
tosses 104
notes 104
shed 104
instructing 104
poker 104
factory 104
cave 104
refrigerator 104
atm 104
ear 103
electronic 103
tub 103
pressure 103
cowboy 103
newspaper 103
lay 102
cleaner 102
raises 102
past 102
torch 102
tail 102
seems 102
cheers 102
apples 102
colorful 102
ding 101
act 101
b 101
er@@ 101
shoot 101
ca@@ 101
wrench 101
pops 101
toys 101
waxed 101
podium 100
ons 100
leather 100
it@@ 100
contest 100
gold 100
roasting 100
pancake 100
marbles 100
vi@@ 99
handle 99
wrapped 99
massages 99
arrow 99
pi@@ 99
trail 99
sandwich 99
knee 99
lacrosse 99
protective 98
fixing 98
spaghetti 98
touching 98
passing 98
thrown 98
plant 98
reads 98
diver 98
ax 98
ses 97
con@@ 97
discusses 97
pond 97
participating 97
younger 97
stadium 97
films 97
mixing 97
clips 97
shirts 97
successfully 97
parasailing 97
amount 97
sc@@ 96
your 96
garden 96
spread 96
been 96
flower 96
bikes 96
wheels 96
ker 96
catching 96
counting 96
puzzle 96
snowmobile 96
punches 96
dishes 96
ab@@ 95
teenagers 95
pop 95
ation 95
ated 95
happy 95
cooked 95
daughter 95
chips 95
surf 95
hook 95
polo 95
snowman 95
sp@@ 94
ta@@ 94
lips 94
chicken 94
dives 94
kayak 94
razor 94
scrabble 94
upside 93
zoo 93
te@@ 93
ends 93
certain 93
done 93
chain 93
sea 93
sharp 93
crossing 93
polish 93
come 92
pans 92
base 92
mi@@ 92
thin 92
pretends 92
shoulder 92
shuffling 92
slice 92
bath 92
distance 92
mail 92
sharpening 92
pineapple 92
monopoly 92
leaning 91
narrator 91
bent 91
heads 91
dig 91
ves 91
referee 91
pad 91
knocks 91
toes 91
jacks 91
grapes 91
wheelbarrow 91
ms 90
keeps 90
chairs 90
cu@@ 90
taps 90
pro@@ 90
ter 90
pump 90
lined 90
adds 90
ba@@ 90
hurdles 90
shaves 90
reporter 89
ch@@ 89
noise 89
will 89
driver 89
laundry 89
branch 89
sauce 89
finishes 89
dead 89
skillet 89
fork 89
hopscotch 89
microscope 89
ment 88
staring 88
adjusts 88
adjusting 88
salad 88
figure 88
cricket 88
lapse 88
colors 88
operating 88
hall 88
bartender 88
spin 88
mower 88
wipes 88
chisel 88
hugging 88
lines 87
ates 87
bit 87
station 87
lets 87
ler 87
advertisement 87
sides 87
spreading 87
bags 87
pu@@ 87
cartwheel 87
par@@ 87
pin 87
costumes 87
waxing 87
cello 87
safety 86
clip 86
hi@@ 86
cage 86
ne@@ 86
footage 86
plants 86
trim 86
good 86
meet 86
cracks 86
present 86
snowboarding 86
war 86
narrating 85
passes 85
filmed 85
yelling 85
ion 85
ad@@ 85
hand@@ 85
uniforms 85
following 85
bobsled 85
folded 85
marker 85
proceeds 84
straight 84
rubber 84
american 84
shore 84
ve 84
combing 84
boards 84
stirring 84
dribbling 84
sushi 84
badminton 84
lifted 83
painted 83
unseen 83
fill 83
announcer 83
claps 83
land 83
gr@@ 83
parking 83
corner 83
bird 83
own 83
fills 83
cheerleaders 83
stroke 83
harness 82
su@@ 82
pa@@ 82
fix 82
' 82
per@@ 82
recorded 82
wi@@ 82
applied 82
records 82
writes 82
draws 82
for@@ 82
hop 82
city 82
ked 82
stretch 82
tossing 82
stop 82
hats 82
separate 82
cries 82
bagpipes 82
sailboat 82
calf 82
sharpener 82
yolk 82
go@@ 81
screams 81
fi@@ 81
gu@@ 81
grey 81
te 81
dancer 81
ss 80
frame 80
bend 80
lip 80
females 80
birds 80
wraps 80
crawls 80
graffiti 80
chainsaw 80
disc 80
accordion 80
segway 80
ls 79
facing 79
appear 79
six 79
we@@ 79
screaming 79
wrestle 79
tip 79
fe@@ 79
branches 79
shaped 79
ic@@ 79
blocks 79
eyebrow 79
caught 79
wool 79
gently 78
movements 78
instructs 78
clap 78
hug 78
interviewed 78
ge@@ 78
flour 78
cracking 78
alley 78
sculpture 78
oyster 78
structure 77
ings 77
gliding 77
yells 77
stuck 77
hallway 77
ming 77
th@@ 77
j@@ 77
car@@ 77
sa@@ 77
chip 77
haired 77
castle 77
drying 77
marshmallows 77
divers 77
sneezes 77
parents 77
bounce 77
discus 77
tightrope 77
stream 76
acting 76
dis@@ 76
asking 76
ic 76
ning 76
row 76
cover 76
r 76
cooks 76
bee 76
hang 75
image 75
ins 75
tables 75
whole 75
soft 75
forest 75
third 75
package 75
picked 75
chop 75
airplane 75
babies 75
lighter 75
easter 75
vault 75
whilst 74
fla@@ 74
sofa 74
ters 74
shoveling 74
point 74
holes 74
sta@@ 74
ur@@ 74
slicing 74
tiles 74
guns 74
no@@ 73
types 73
tion 73
poured 73
raising 73
ga@@ 73
athletic 73
cups 73
salon 73
pping 73
strings 73
dock 73
hugs 73
mushroom 73
lower 72
/ 72
indian 72
finish 72
sat 72
keeping 72
com@@ 72
crowded 72
lots 72
paintball 72
decorating 72
balances 72
bouncy 72
pose 72
musicians 72
follows 72
again 72
frozen 72
pet 72
shoulders 72
laser 72
inhaler 72
the@@ 71
lens 71
winter 71
dry 71
tips 71
site 71
draw 71
screw 71
oven 71
ve@@ 71
flies 71
smokes 71
causing 71
sharpen 71
fidget 71
we 70
speak 70
lipstick 70
fake 70
highchair 70
crosses 70
beautiful 70
display 70
twirling 70
washed 70
twirls 70
struggles 70
cor@@ 70
tea 70
smooth 70
kisses 70
boats 70
mallet 70
spinner 70
xylophone 70
whistling 70
trombone 70
rapidly 69
beginning 69
displayed 69
than 69
change 69
ws 69
professional 69
facial 69
letters 69
head@@ 69
shake 69
ver@@ 69
bright 69
continues 69
boxes 69
toddlers 69
double 69
shaved 69
comb 69
fed 69
breaking 69
sanding 69
knives 69
mushrooms 69
copy 69
camels 69
conversation 68
members 68
bare 68
check 68
wide 68
suits 68
much 68
tes 68
min@@ 68
gray 68
x 68
ke 68
ad 68
coach 68
icy 68
giant 68
dryer 68
tissue 68
orchestra 68
bite 68
catcher 68
sausages 68
dribbles 68
lawnmower 68
dumpster 68
suspended 67
onlookers 67
given 67
tee 67
excited 67
human 67
text 67
ging 67
gs 67
public 67
tray 67
counts 67
twists 67
lighting 67
stack 67
water@@ 67
blade 67
flag 67
dominoes 67
instruction 66
3 66
ver 66
sts 66
peels 66
checking 66
shallow 66
approaches 66
ster 66
ned 66
strikes 66
twisting 66
ar 66
bi@@ 66
ou@@ 66
parent 66
boarding 66
skateboarding 66
moon 66
licks 66
gift 66
milking 66
keep 65
action 65
performer 65
pped 65
mar@@ 65
sed 65
striped 65
jeans 65
award 65
write 65
gymnastics 65
ch 65
because 65
knuckles 65
finishing 65
mobile 65
cork 65
robot 65
batting 65
teacher 64
techniques 64
stood 64
pens 64
teens 64
animals 64
asleep 64
cardboard 64
cute 64
or@@ 64
displaying 64
me 64
pumping 64
pottery 64
squatting 64
key 64
leading 64
craft 64
motor 64
waist 64
downhill 64
sledding 64
coloring 64
chops 64
straw 64
banging 64
peeler 64
thick 63
able 63
ha@@ 63
gi@@ 63
tu@@ 63
age 63
stuff 63
ns 63
pour 63
floating 63
sew 63
calligraphy 63
polishing 63
kiss 63
tag 63
low 62
why 62
ded 62
bus 62
lotion 62
ful 62
goats 62
per 62
leash 62
plow 62
basketballs 62
fit 61
thing 61
report 61
belt 61
including 61
tra@@ 61
desert 61
inserts 61
snowboard 61
sh 61
boots 61
pages 61
inflatable 61
drills 61
sander 61
solve 61
pierced 61
hangs 60
below 60
cord 60
scenes 60
re 60
teaches 60
arena 60
wiping 60
measuring 60
fully 60
sk@@ 60
single 60
cookie 60
ching 60
brings 60
fancy 60
pack 60
pitch 60
keys 60
eyeliner 60
workshop 59
closed 59
gathering 59
free 59
montage 59
carries 59
barrel 59
complete 59
controller 59
removed 59
ous 59
turned 59
lid 59
vest 59
grabbing 59
plane 59
cold 59
stir 59
clippers 59
strapped 58
comments 58
sto@@ 58
rs 58
vehicles 58
butter 58
project 58
che@@ 58
fo@@ 58
ys 58
ched 58
jo@@ 58
ats 58
completes 58
arranging 58
gymnastic 58
meal 58
bandage 58
cigarette 58
pets 58
skipping 58
racket 58
wheeled 58
steep 58
pattern 58
sucking 58
surfer 58
threading 58
socks 58
str@@ 57
glides 57
ent 57
self 57
drumming 57
bangs 57
stool 57
adjust 57
cur@@ 57
brother 57
section 57
poking 57
drawn 57
chi@@ 57
he@@ 57
participate 57
apart 57
dinner 57
letting 57
spreads 57
cotton 57
word 57
roast 57
silver 57
der 57
bathtub 57
grooming 57
h 57
ky 57
rug 57
sweeping 57
licking 57
watering 57
cone 57
elephants 57
swimmer 57
ches 56
dra@@ 56
rec@@ 56
ces 56
ments 56
tions 56
athletes 56
cre@@ 56
spatula 56
range 56
best 56
bar@@ 56
motorized 56
chocolate 56
sha@@ 56
jumped 56
fitness 56
math 56
puppets 56
ledge 55
ll 55
gestures 55
directing 55
slaps 55
waters 55
twice 55
grab 55
ally 55
z@@ 55
gather 55
man@@ 55
furniture 55
waits 55
photo 55
drilling 55
ying 55
doll 55
lunges 55
operates 55
crashes 55
bank 55
surfs 55
lers 55
ering 54
windows 54
cast 54
speech 54
tri@@ 54
wear 54
ving 54
stairs 54
almost 54
rest 54
variety 54
underneath 54
back@@ 54
out@@ 54
fl@@ 54
spectators 54
installing 54
stirs 54
youth 54
cr@@ 54
poles 54
ran 54
whistle 54
strips 54
horseback 54
carves 54
yawning 54
mortar 54
recorder 54
maracas 54
solo 53
ge 53
shapes 53
ance 53
cymbals 53
beats 53
opened 53
muddy 53
ki@@ 53
th 53
c 53
als 53
instructional 53
story 53
walls 53
palm 53
taken 53
let 53
ce@@ 53
police 53
pe 53
um 53
student 53
rings 53
changes 53
bell 53
mixes 53
tiny 53
industrial 53
glove 53
lego 53
rodeo 53
swords 53
phones 53
kissing 53
jogging 53
asked 52
zing 52
inter@@ 52
called 52
outfits 52
ter@@ 52
foundation 52
machinery 52
cartwheels 52
baking 52
raw 52
sped 52
goggles 52
backs 52
closes 52
dodge 52
pitcher 52
roasted 52
skateboards 52
performers 51
dy 51
covering 51
pairs 51
ali@@ 51
fans 51
games 51
touch 51
shovels 51
changing 51
kes 51
wing 51
add 51
pr@@ 51
numbers 51
ke@@ 51
mix 51
w 51
explain 51
skydiving 51
fur 51
barber 51
loom 51
gutters 51
candle 51
sledge 51
surfboard 51
reaching 51
fist 51
crack 51
sweep 51
para 51
walked 50
encourages 50
wait 50
spanish 50
ja@@ 50
business 50
mic 50
life 50
ears 50
demonstrated 50
drop 50
id@@ 50
officer 50
threw 50
install 50
ze 50
calls 50
wears 50
ni@@ 50
ped 50
bees 50
mp@@ 50
thumb 50
bald 50
stomping 50
weave 50
bass 50
softball 50
golfer 50
headstand 50
scallops 50
civil 50
snowballs 50
spo@@ 49
smaller 49
ive 49
repair 49
toss 49
buckets 49
wooded 49
clearing 49
du@@ 49
4 49
presents 49
messing 49
rider 49
us@@ 49
hip 49
char@@ 49
ges 49
backward 49
split 49
shine 49
chews 49
popping 49
rips 49
laps 49
mall 49
grinding 49
arcade 49
axes 49
cymbal 49
domino 49
sunny 48
papers 48
directions 48
ways 48
ten@@ 48
finished 48
shell 48
features 48
nice 48
trims 48
u 48
lls 48
ck 48
squat 48
stepping 48
combs 48
steel 48
pipes 48
panning 48
wa@@ 48
sister 48
needles 48
toothbrush 48
canoe 48
stones 48
crawl 48
wake 48
marshmallow 48
lling 47
connected 47
tor 47
ser@@ 47
plates 47
either 47
conference 47
tly 47
hoo@@ 47
mu@@ 47
traditional 47
helmets 47
spot 47
upper 47
playfully 47
tr@@ 47
packing 47
squ@@ 47
over@@ 47
qu@@ 47
prepared 47
ard 47
creates 47
learn 47
shaping 47
backpack 47
dining 47
suddenly 47
cartoon 47
cabinet 47
shuffle 47
fridge 47
horseshoe 47
racquetball 47
images 46
ru@@ 46
ining 46
cheered 46
trainer 46
engage 46
ir@@ 46
ans 46
raised 46
fan 46
carry 46
porch 46
flo@@ 46
ing@@ 46
assembling 46
tighten 46
reach 46
engine 46
auction 46
sideways 46
kers 46
har@@ 46
mowing 46
casino 46
punch 46
lure 46
windsurfing 46
stroller 46
soldiers 46
fingernails 46
lanes 46
skiers 46
laces 46
snowball 46
encouraged 45
strange 45
ously 45
ce 45
casting 45
roo@@ 45
cap@@ 45
once 45
men@@ 45
engaged 45
dresses 45
dips 45
spits 45
parachuting 45
owner 45
bin 45
washer 45
stares 45
pajamas 45
bear 45
misses 45
tic 45
ink 45
carrier 45
hoops 45
texting 45
sledgehammer 45
tickling 45
toe 45
lollipop 45
zes 44
powder 44
onstage 44
war@@ 44
panel 44
upright 44
ty 44
rub 44
ski@@ 44
cks 44
slapping 44
quick 44
ry 44
sting 44
shing 44
alcohol 44
read 44
breathing 44
whi@@ 44
rap 44
choreographed 44
resting 44
x@@ 44
machines 44
powered 44
haircut 44
luge 44
dropping 44
similar 44
ukulele 44
butcher 44
rice 44
crib 44
hookah 44
rocking 43
steering 43
pretend 43
handles 43
ant 43
.@@ 43
sporting 43
tent 43
homemade 43
particular 43
farm 43
fa@@ 43
tasting 43
somersault 43
hood 43
ff 43
cam 43
preparation 43
correct 43
riders 43
flaming 43
vacuuming 43
paddle 43
braiding 43
dumps 43
chasing 43
jack 43
yawns 43
unison 43
bills 43
postal 43
liner 43
kickball 43
watched 42
instructed 42
horn 42
ide 42
discuss 42
extended 42
seem 42
zed 42
length 42
rhythm 42
poses 42
meeting 42
jar 42
stretched 42
stri@@ 42
cra@@ 42
everyone 42
ery 42
ine 42
bur@@ 42
hamburger 42
pumps 42
smashing 42
visible 42
sucks 42
rotating 42
torches 42
cking 42
backing 42
hover 42
tires 42
potatoes 42
flash 42
macarena 42
ripping 42
planting 42
pigeons 42
patty 42
tur@@ 41
live 41
film 41
ju@@ 41
wants 41
slightly 41
african 41
too 41
handling 41
ved 41
ci@@ 41
trowel 41
de 41
teach 41
rolled 41
fat 41
edges 41
releases 41
curls 41
direction 41
paddling 41
knit 41
enjoy 41
bowls 41
bites 41
hammering 41
piercing 41
record 41
beads 41
sharpens 41
carrots 41
guide 41
dying 41
eyelashes 41
goalie 41
obstacles 41
hurdle 41
lining 40
gra@@ 40
inner 40
straightening 40
listens 40
dragging 40
chin 40
sla@@ 40
musician 40
size 40
ions 40
fails 40
juggle 40
bathing 40
scrubbing 40
butterfly 40
gloved 40
wo@@ 40
insert 40
copier 40
did 40
braids 40
breast 40
ornaments 40
snapping 40
tears 40
shining 40
anchor 40
shuffles 40
baseballs 40
bas@@ 40
karaoke 40
crane 39
cla@@ 39
ship 39
started 39
weird 39
narrow 39
continuously 39
sure 39
knocking 39
though 39
spir@@ 39
written 39
celebrating 39
ture 39
under@@ 39
squeezes 39
specific 39
ations 39
contents 39
encouraging 39
skirt 39
blond 39
wires 39
bars 39
manual 39
shi@@ 39
spe@@ 39
receiving 39
tting 39
winds 39
sheets 39
womans 39
stra@@ 39
dries 39
beekeeper 39
plank 39
launches 39
hair@@ 39
surfers 39
glue 39
stitching 39
play@@ 39
pitches 39
shar@@ 39
acoustic 39
suck 39
stitch 39
squash 39
forecast 39
ils 38
ity 38
enters 38
should 38
receives 38
pan@@ 38
chases 38
questions 38
case 38
care 38
mixed 38
finds 38
patch 38
positions 38
arguing 38
competitive 38
muscular 38
examines 38
ste@@ 38
tal@@ 38
star 38
dipping 38
stuffed 38
lit@@ 38
ability 38
parasail 38
puppy 38
weighted 38
instead 38
foam 38
pla@@ 38
newborn 38
runner 38
burger 38
stringed 38
smile 38
sails 38
vegetable 38
walker 38
shears 38
ballerina 38
motorcycles 38
kicked 38
beverage 38
strums 38
skips 38
clarinet 38
rubik 38
sand@@ 37
roping 37
tre@@ 37
actors 37
question 37
cho@@ 37
screwdriver 37
lar@@ 37
ll@@ 37
pins 37
information 37
ghts 37
message 37
ss@@ 37
cellphone 37
crew 37
up@@ 37
arrows 37
dressing 37
load 37
run@@ 37
got 37
engaging 37
told 37
packs 37
sweater 37
lu@@ 37
tell 37
leads 37
leaps 37
rack 37
tically 37
pliers 37
canvas 37
gutter 37
salt 37
name 37
massaged 37
barn 37
ics 37
jeep 37
passed 37
dodgeball 37
pushups 37
pillows 37
battle 36
col@@ 36
motions 36
problem 36
presentation 36
tightening 36
snaps 36
beating 36
space 36
ical 36
dyed 36
containing 36
lightly 36
photo@@ 36
commentator 36
among 36
hoodie 36
siting 36
covers 36
arranges 36
assemble 36
attach 36
bolt 36
such 36
map 36
can@@ 36
someones 36
post 36
foil 36
paragliding 36
shower 36
pes 36
driven 36
dirty 36
timelapse 36
intricate 36
na@@ 36
snorkeling 36
easy 36
spit 36
tearing 36
gears 36
swi@@ 36
strumming 36
smoothing 36
tread 36
directs 36
selfie 36
stuffing 36
sippy 36
skip 36
balcony 36
ap@@ 35
lowers 35
attire 35
interview 35
posing 35
squeezing 35
streets 35
passenger 35
radio 35
crocodile 35
ator 35
bearded 35
last 35
sur@@ 35
ca 35
involving 35
tive 35
ars 35
da@@ 35
bl@@ 35
level 35
tro@@ 35
find 35
trac@@ 35
assembly 35
mon 35
iting 35
trans@@ 35
bun@@ 35
bad 35
peice 35
slips 35
mounted 35
closer 35
ceiling 35
donut 35
dri@@ 35
giggling 35
sleds 35
ger 35
en 35
moonwalk 35
character 35
wn 35
windy 35
gate 35
campfire 35
fried 35
coins 35
bush 35
melody 35
climber 34
forms 34
pt 34
off@@ 34
soda 34
checks 34
repairing 34
heat 34
actions 34
scores 34
loses 34
microphones 34
anc@@ 34
van 34
flashing 34
digs 34
facility 34
br@@ 34
baskets 34
job 34
coo@@ 34
ically 34
ders 34
hur@@ 34
jersey 34
wand 34
patio 34
already 34
causes 34
attachment 34
rac@@ 34
acrobatic 34
mon@@ 34
strokes 34
letter 34
diaper 34
stacking 34
mb@@ 34
happily 34
characters 34
note 34
slams 34
shift 34
sprin@@ 34
vigorously 34
sponge 34
thumbs 34
puck 34
tickles 34
weaves 34
cans 34
kites 34
putt 34
smells 34
winks 34
mountains 33
member 33
eyeglasses 33
unique 33
switches 33
med 33
sun 33
screws 33
naked 33
pen@@ 33
sen@@ 33
built 33
proce@@ 33
vo@@ 33
she@@ 33
cheek 33
sifting 33
pat@@ 33
pokes 33
cleaned 33
ther 33
attaching 33
upbeat 33
ribbon 33
service 33
french 33
listen 33
cal@@ 33
even 33
gymnast 33
scrubs 33
elbow 33
barbecue 33
onions 33
butt 33
jumper 33
wr@@ 33
hops 33
steam 33
straighten 33
tan@@ 33
designs 33
wipe 33
strike 33
mixture 33
fry 33
legos 33
tackles 33
ornament 33
bagpipe 33
barefoot 33
yolks 33
oysters 33
whistles 33
tandem 33
threads 33
huddle 33
kilt 33
sock 33
rubix 33
vaulting 33
py 32
ma 32
say 32
broken 32
heating 32
bringing 32
ele@@ 32
mer 32
rubbed 32
ven@@ 32
method 32
handing 32
measure 32
collecting 32
targets 32
pin@@ 32
clipping 32
rotates 32
adhesive 32
inserting 32
lead 32
backflip 32
scoops 32
peanut 32
recipe 32
synchronized 32
crouches 32
aring 32
clo@@ 32
rough 32
walkway 32
stopping 32
neatly 32
packages 32
forehead 32
hammers 32
laid 32
sea@@ 32
logs 32
smashes 32
mopping 32
rag 32
fore@@ 32
mug 32
military 32
scotch 32
sleeps 32
dunks 32
carts 32
backstroke 32
irons 32
tai 32
partner 31
beam 31
glider 31
introduces 31
artists 31
ite 31
moved 31
signs 31
kit 31
drags 31
closing 31
extends 31
mit@@ 31
forming 31
den@@ 31
ceremony 31
gre@@ 31
venue 31
reporting 31
mini 31
newscaster 31
exploring 31
shes 31
bal@@ 31
ged 31
contraption 31
bull@@ 31
ob@@ 31
noisy 31
strong 31
vase 31
took 31
infront 31
et 31
candy 31
wrist 31
bel@@ 31
closeup 31
twirl 31
singer 31
guiding 31
towed 31
nozzle 31
chipping 31
melon 31
disk 31
curl 31
knock 31
my 31
fries 31
break@@ 31
giggles 31
builds 31
logo 31
fighters 31
dropped 31
fu@@ 31
casts 31
flags 31
lan@@ 31
fle@@ 31
dollar 31
tickled 31
latin 31
sees 31
suitcase 31
skater 31
grocery 31
barrow 31
chi 31
hooping 30
bs 30
doctor 30
medicine 30
plu@@ 30
test 30
directly 30
speaker 30
masks 30
bing 30
areas 30
pers 30
wor@@ 30
dly 30
neighborhood 30
pretty 30
arrangement 30
apron 30
bicycles 30
testing 30
tin@@ 30
coats 30
fun@@ 30
snowboarder 30
some@@ 30
fire@@ 30
explo@@ 30
elaborate 30
accompanied 30
reveal 30
taught 30
magic 30
debris 30
infla@@ 30
mattress 30
maneuvers 30
handed 30
ages 30
practising 30
completing 30
markers 30
doors 30
sawing 30
pie 30
playground 30
atop 30
burn 30
noodles 30
reenactment 30
proposes 30
proposing 30
dice 30
cli@@ 29
dec@@ 29
overhead 29
interviewing 29
follow 29
experience 29
op@@ 29
keeper 29
goo@@ 29
drummer 29
wh@@ 29
laptop 29
ries 29
aquarium 29
scarf 29
swe@@ 29
work@@ 29
clears 29
archery 29
gro@@ 29
floral 29
describe 29
arrange 29
viewers 29
decorative 29
cycle 29
brea@@ 29
fresh 29
separating 29
1@@ 29
af@@ 29
demostrating 29
photos 29
ick 29
dle 29
glowing 29
spots 29
ined 29
races 29
snowmobiles 29
interacts 29
heated 29
au@@ 29
knocked 29
drawer 29
saws 29
sweeps 29
sliced 29
frisbees 29
free@@ 29
sync 29
beef 29
spi@@ 29
trimmer 29
scrambled 29
opposite 29
pacifier 29
hardwood 29
skateboarders 29
kneading 29
boxers 29
enjoys 28
rocky 28
ards 28
coun@@ 28
tac@@ 28
groom 28
kno@@ 28
sit@@ 28
ul@@ 28
straightens 28
nearby 28
star@@ 28
seeing 28
raise 28
attending 28
im@@ 28
sorting 28
commenting 28
scrapes 28
ately 28
bat@@ 28
company 28
doorway 28
call 28
rapid 28
foo@@ 28
vers 28
views 28
sal@@ 28
ari@@ 28
taste 28
snowboards 28
lly 28
procedure 28
caps 28
attention 28
bra@@ 28
flicks 28
curly 28
dimly 28
uc@@ 28
high@@ 28
dust 28
portion 28
bob 28
wading 28
fell 28
slo@@ 28
stitches 28
grown 28
bb@@ 28
legged 28
sized 28
page 28
religious 28
serves 28
classical 28
nuts 28
carrot 28
hatchet 28
loaded 28
olympic 28
sneakers 28
obstacle 28
cracked 28
twist 28
score 28
santa 28
hoverboard 28
snow@@ 28
welder 28
wink 28
iling 27
tower 27
creek 27
ents 27
gging 27
larger 27
acts 27
preforming 27
fine 27
pointed 27
within 27
dling 27
rests 27
needs 27
boo@@ 27
ici@@ 27
pri@@ 27
examining 27
mound 27
loads 27
hol@@ 27
decorations 27
commen@@ 27
signing 27
rim 27
stea@@ 27
ction 27
mer@@ 27
festival 27
triple 27
flipped 27
skies 27
excitedly 27
scooping 27
operate 27
stylist 27
hu@@ 27
multi 27
skill 27
cheeks 27
plan@@ 27
hips 27
aerobics 27
ser 27
um@@ 27
headed 27
removal 27
styles 27
advertising 27
fs 27
tried 27
notebook 27
printer 27
english 27
ten 27
animated 27
shifts 27
trailer 27
pl@@ 27
hooked 27
sip 27
paddles 27
guides 27
reel 27
blackjack 27
pumpkins 27
knob 27
marble 27
scrub 27
shines 27
ff@@ 27
pace 27
dunk 27
slam 27
plaster 27
mosh 27
ban@@ 26
stab@@ 26
quietly 26
patient 26
pads 26
sho@@ 26
manipulates 26
brought 26
je@@ 26
auditorium 26
enclosed 26
interact 26
ingly 26
crossed 26
sid@@ 26
formal 26
tournament 26
lin@@ 26
por@@ 26
dic@@ 26
id 26
involves 26
lled 26
icing 26
hiding 26
cat@@ 26
chatting 26
pruning 26
ple 26
attaches 26
technician 26
electrical 26
yed 26
il 26
mascot 26
zooms 26
jewelry 26
aisle 26
em@@ 26
stump 26
somersaults 26
her@@ 26
loose 26
sling 26
tattoos 26
steak 26
flames 26
win@@ 26
dr@@ 26
sections 26
briefly 26
dumbbells 26
ure 26
cutter 26
crash 26
alongside 26
fighter 26
later 26
decides 26
miniature 26
accidentally 26
ble 26
raft 26
kart 26
stacks 26
conveyor 26
opener 26
finally 26
mps 26
competitors 26
umb@@ 26
jigsaw 26
partially 26
plowing 26
burping 26
sub@@ 26
fishes 26
simple 26
stay 26
dealing 26
slab 26
ton 26
intersection 26
performed 26
tch 26
striking 26
treat 26
stunts 26
pancakes 26
wok 26
wrestlers 26
unloading 26
mess 26
pastry 26
dealer 26
throat 26
sses 25
aid 25
tters 25
tion@@ 25
ured 25
fixes 25
lenses 25
ary 25
gri@@ 25
ankle 25
wild 25
chalk 25
( 25
ffe@@ 25
ye@@ 25
emer@@ 25
napkins 25
splits 25
ec@@ 25
loading 25
ced 25
slap 25
manner 25
hospital 25
announces 25
pain 25
messes 25
floors 25
mechanic 25
pedal 25
swa@@ 25
auctioneer 25
cle@@ 25
huddled 25
slee@@ 25
chat 25
scoop 25
scu@@ 25
tho@@ 25
spac@@ 25
nurse 25
brushed 25
liquor 25
strength 25
inging 25
honey 25
struggling 25
fourth 25
dumbbell 25
stance 25
tumbling 25
reverse 25
angle 25
commentary 25
bla@@ 25
styling 25
maker 25
spun 25
speeds 25
f 25
lone 25
snap 25
traveling 25
tumbles 25
hi 25
booth 25
lively 25
swallowing 25
videos 25
matching 25
el@@ 25
kayaking 25
youths 25
el 25
volley 25
bolts 25
core 25
bells 25
cats 25
bunny 25
scooters 25
embroidery 25
mowers 25
dominos 25
priest 25
prope@@ 24
taping 24
league 24
rela@@ 24
ag@@ 24
intense 24
wiggling 24
surrounding 24
sweatshirt 24
pic@@ 24
loo@@ 24
found 24
nu@@ 24
fin@@ 24
et@@ 24
caster 24
0 24
dies 24
bikini 24
ush 24
zer 24
clam 24
most 24
gentlemen 24
encourage 24
hotel 24
crafts 24
components 24
presenting 24
host 24
fac@@ 24
bad@@ 24
fid@@ 24
pier 24
5 24
lder 24
travels 24
scraping 24
ade 24
grilling 24
serving 24
floats 24
statue 24
less 24
spitting 24
hive 24
tter 24
stor@@ 24
basement 24
ck@@ 24
manipulating 24
flu@@ 24
customer 24
inhales 24
ssed 24
unsuccessfully 24
pony 24
sleigh 24
pre 24
rather 24
seal 24
cro@@ 24
braid 24
dar@@ 24
oun@@ 24
collection 24
suv 24
flooring 24
tractors 24
count 24
hal@@ 24
maneuver 24
messy 24
safely 24
mic@@ 24
wiggles 24
parade 24
puddle 24
sli@@ 24
carried 24
sneaker 24
firefighters 24
western 24
hopping 24
kneads 24
dumping 24
skaters 24
mailman 24
mill 24
coral 24
lion 24
conductor 24
scrapbook 24
height 23
fr@@ 23
chan@@ 23
ware 23
ggle 23
tional 23
real 23
gator 23
shouting 23
numerous 23
calling 23
and@@ 23
3@@ 23
pressed 23
model 23
stu@@ 23
sma@@ 23
want 23
arranged 23
ner 23
screwing 23
system 23
plug 23
ative 23
cing 23
would 23
artwork 23
baked 23
sprinkles 23
squares 23
came 23
toppings 23
sugar 23
lighted 23
chefs 23
curved 23
thers 23
rinses 23
dried 23
sy 23
rapping 23
oriental 23
va@@ 23
joins 23
stunt 23
bor@@ 23
blown 23
fallen 23
kettle 23
fer@@ 23
tic@@ 23
que@@ 23
patting 23
tat@@ 23
ider 23
robe 23
topless 23
gh@@ 23
ness 23
crafting 23
sculp@@ 23
aluminum 23
strap 23
burps 23
guitars 23
swallows 23
slip 23
float 23
scream 23
emb@@ 23
railing 23
successful 23
pur@@ 23
hun@@ 23
runners 23
poke 23
layer 23
app 23
offers 23
bushes 23
hairy 23
sheering 23
donkey 23
vaults 23
jogs 23
kicker 23
batons 23
barrels 23
yawn 23
skiis 23
formation 22
descends 22
enter 22
repe@@ 22
activity 22
socializing 22
sky@@ 22
encouragement 22
scri@@ 22
bang 22
chant 22
eye@@ 22
clamp 22
len@@ 22
eventually 22
sion 22
shouts 22
drumsticks 22
ures 22
bon@@ 22
gged 22
underwear 22
mounts 22
enclosure 22
force 22
medical 22
ask 22
bill 22
chanting 22
kle 22
soil 22
rectangular 22
ld 22
voices 22
aling 22
dges 22
scre@@ 22
demo@@ 22
narration 22
benefits 22
nut 22
loosen 22
mo 22
organi@@ 22
learns 22
sharing 22
ren@@ 22
tle 22
perfect 22
decorated 22
band@@ 22
golden 22
guard 22
gers 22
tongs 22
ist 22
parachu@@ 22
straps 22
soapy 22
lab 22
slamming 22
bands 22
sy@@ 22
local 22
dum@@ 22
wildly 22
turing 22
controls 22
rode 22
sprayer 22
sl@@ 22
molding 22
snowblower 22
dd@@ 22
san@@ 22
sle@@ 22
salsa 22
sno@@ 22
chunks 22
eyelid 22
wakes 22
ies 22
fireplace 22
trucks 22
kayaks 22
leaving 22
modified 22
chunk 22
viewer 22
beanie 22
tshirt 22
boxer 22
lever 22
lug 22
cheerleading 22
squeegee 22
padded 22
cows 22
links 22
gambling 22
carpeted 22
roller@@ 22
delivers 22
pedestrians 22
segways 22
scramb@@ 22
dribble 22
berries 22
parkour 22
congregation 22
quarterback 22
lawnmowers 22
padlock 22
slalom 22
chords 22
dartboard 22
sheers 22
exclaims 21
rest@@ 21
tw@@ 21
movement 21
supported 21
fists 21
sketch 21
flexible 21
clu@@ 21
sco@@ 21
mustache 21
rows 21
those 21
pounding 21
gen@@ 21
highway 21
knelt 21
ial 21
program 21
news@@ 21
tively 21
ances 21
gg@@ 21
amus@@ 21
products 21
shampoo 21
1 21
outline 21
kneel 21
dug 21
ors 21
scratches 21
scrape 21
hunting 21
barking 21
ones 21
heart 21
surround 21
sti@@ 21
providing 21
nearly 21
demon@@ 21
ases 21
eds 21
gar@@ 21
kinds 21
beat@@ 21
unboxing 21
der@@ 21
tightens 21
acce@@ 21
assembled 21
cab@@ 21
town 21
observing 21
cri@@ 21
national 21
michael 21
happening 21
stant 21
binding 21
japanese 21
sters 21
breath 21
now 21
frosting 21
spoons 21
zz@@ 21
mixer 21
glide 21
pro 21
tist 21
squirts 21
sw@@ 21
returns 21
grip 21
die 21
final 21
terrain 21
duck 21
tex@@ 21
smelling 21
ber@@ 21
speeding 21
zi@@ 21
trio 21
splashes 21
wed 21
warehouse 21
yell 21
dre@@ 21
bean 21
details 21
turtle 21
matador 21
replay 21
mor@@ 21
reeling 21
tackle 21
burns 21
casing 21
collects 21
shifting 21
blades 21
join 21
shaver 21
kling 21
potter 21
juice 21
lamp 21
could 21
roasts 21
chiropractor 21
darkened 21
backseat 21
trimmed 21
co 21
dispen@@ 21
puff 21
woo@@ 21
paved 21
origami 21
pinches 21
stomp 21
repelling 20
release 20
commentating 20
activities 20
bum@@ 20
support 20
ct 20
far@@ 20
comfor@@ 20
tin 20
smacks 20
ske@@ 20
adjustments 20
inserted 20
wal@@ 20
ima@@ 20
din@@ 20
cha@@ 20
equations 20
interviews 20
black@@ 20
mouse 20
greets 20
advice 20
year 20
os 20
clean@@ 20
fus@@ 20
tan 20
lar 20
calcu@@ 20
bits 20
searching 20
eve 20
aiming 20
firing 20
passionately 20
ucking 20
brand 20
ish 20
manipulate 20
hou@@ 20
includes 20
entrance 20
college 20
adv@@ 20
buff 20
des 20
waiter 20
trunk 20
elevated 20
worked 20
late 20
summer 20
circus 20
ggy 20
strands 20
hear 20
revealing 20
sec@@ 20
crystal 20
correctly 20
ward 20
winding 20
donuts 20
motorbike 20
wheeler 20
iding 20
locks 20
handheld 20
carved 20
mel@@ 20
reaction 20
twin 20
mly 20
our 20
sted 20
relaxing 20
bobbing 20
& 20
books 20
tops 20
rinsing 20
spring 20
fil@@ 20
hurls 20
added 20
crumbs 20
ana 20
splitting 20
fluid 20
communic@@ 20
stic 20
flashes 20
compilation 20
stopped 20
entering 20
thrower 20
parked 20
yo@@ 20
rugby 20
blindfolded 20
lettuce 20
cry 20
polishes 20
plaid 20
jackson 20
necklace 20
ballroom 20
decorate 20
crosswalk 20
entire 20
crunches 20
koi 20
choir 20
hoof 20
carpeting 20
orchard 20
nipple 20
didgeridoo 20
gongs 20
shearing 20
lasso 20
scale 19
makeshift 19
cen@@ 19
sin@@ 19
seven 19
ear@@ 19
any 19
assisted 19
ton@@ 19
sun@@ 19
sprayed 19
gras@@ 19
duc@@ 19
movie 19
cy@@ 19
reports 19
) 19
opposing 19
shel@@ 19
see@@ 19
inte@@ 19
thr@@ 19
picnic 19
ai@@ 19
aims 19
swaying 19
subway 19
upset 19
elbows 19
inten@@ 19
greens 19
cable 19
rear 19
techno 19
need 19
tors 19
monitor 19
is@@ 19
world 19
ben@@ 19
elastic 19
marin@@ 19
tails 19
percussion 19
'@@ 19
crate 19
lace 19
warm 19
located 19
mping 19
thru 19
fen@@ 19
unknown 19
arti@@ 19
sneezing 19
went 19
ahead 19
artificial 19
gentle 19
dit@@ 19
bre@@ 19
trains 19
boun@@ 19
inflated 19
pats 19
sleep 19
kets 19
our@@ 19
creation 19
lla 19
hor@@ 19
forklift 19
finding 19
solving 19
wedding 19
int 19
icking 19
mats 19
seeds 19
pitched 19
diamond 19
nel 19
socket 19
beers 19
slowing 19
lick 19
cash 19
tablet 19
brass 19
blinks 19
march 19
jazz 19
hy@@ 19
aerobic 19
gifts 19
doughnut 19
loop 19
rail 19
ramps 19
grind 19
groomed 19
ocarina 19
winking 19
scales 18
scaling 18
lowering 18
descending 18
ft 18
cl@@ 18
att@@ 18
fron@@ 18
delivering 18
lesson 18
peoples 18
bly 18
mid 18
measures 18
ly@@ 18
weld 18
packed 18
announ@@ 18
mou@@ 18
uring 18
fenced 18
dragged 18
answering 18
're 18
fashion 18
mus@@ 18
marks 18
congratula@@ 18
jum@@ 18
participants 18
waking 18
blurry 18
rea@@ 18
incre@@ 18
compar@@ 18
continue 18
0@@ 18
piles 18
exhibition 18
rested 18
these 18
bows 18
deer 18
calm 18
easily 18
observe 18
bou@@ 18
random 18
interior 18
projec@@ 18
tioning 18
showcasing 18
oned 18
supervi@@ 18
metallic 18
nt 18
judges 18
joking 18
smo@@ 18
que 18
serve 18
breathes 18
alternating 18
lun@@ 18
downs 18
ared 18
filter 18
ea@@ 18
are@@ 18
bra 18
adolescent 18
holder 18
mold 18
mp 18
joke 18
tricycle 18
atv 18
wind@@ 18
pavement 18
gle 18
propped 18
progress 18
leaf@@ 18
lea@@ 18
unfolds 18
broadcast 18
launch 18
mane 18
dders 18
wetsuit 18
automatic 18
processing 18
vat 18
fluffy 18
crust 18
thigh 18
tering 18
flammable 18
ines 18
tures 18
bye 18
popular 18
whiteboard 18
tics 18
fisherman 18
garment 18
ual 18
wri@@ 18
bri@@ 18
mitt 18
native 18
boot 18
illustrating 18
rain 18
utensil 18
file 18
nor@@ 18
ght 18
pencils 18
hysterically 18
bib 18
expressions 18
rabbit 18
groomer 18
gracefully 18
sending 18
soc@@ 18
settings 18
cer 18
drooling 18
opponent 18
snack 18
hunt 18
robotic 18
competitor 18
hoola 18
unlo@@ 18
skateboarder 18
milks 18
pinching 18
tobacco 18
scraper 17
cape 17
ites 17
tow 17
mes 17
lecture 17
argue 17
ently 17
crazy 17
version 17
den 17
possibly 17
wer 17
atten@@ 17
ti 17
dro@@ 17
security 17
beauty 17
cloths 17
maintenance 17
slideshow 17
pper 17
wards 17
materials 17
cross@@ 17
tar@@ 17
tches 17
hea@@ 17
wig 17
gesture 17
closely 17
bouquet 17
assembles 17
19@@ 17
console 17
graphic 17
instal@@ 17
lation 17
ence 17
buildings 17
chinese 17
mers 17
crouching 17
highlights 17
scoo@@ 17
cakes 17
signals 17
aging 17
unwrapping 17
tit@@ 17
portable 17
warming 17
trunks 17
ribs 17
cked 17
customers 17
twi@@ 17
skillfully 17
travel 17
ban 17
squir@@ 17
seconds 17
tossed 17
perfectly 17
repetit@@ 17
mouths 17
wife 17
observes 17
buzz@@ 17
but@@ 17
spar@@ 17
assistance 17
ths 17
heavily 17
pounds 17
acrobatics 17
helped 17
rises 17
mannequin 17
tor@@ 17
simultaneously 17
viewing 17
shelf 17
approach 17
crushing 17
splashing 17
sews 17
bin@@ 17
quiet 17
print 17
sleeve 17
champagne 17
yer 17
tubes 17
every 17
seals 17
surprised 17
laun@@ 17
paying 17
sau@@ 17
ase 17
syn@@ 17
difficulty 17
scalp 17
retrieves 17
pocket 17
sandcastle 17
destro@@ 17
brightly 17
colou@@ 17
scottish 17
unusual 17
difficult 17
sequence 17
impress@@ 17
felt 17
pon@@ 17
deals 17
knots 17
smooths 17
ffer 17
chiseling 17
gan@@ 17
pitching 17
completed 17
cou@@ 17
tomato 17
tomatoes 17
handled 17
showcases 17
extremely 17
suc@@ 17
whites 17
firemen 17
hiking 17
firefighter 17
masseuse 17
index 17
6 17
shoves 17
focus 17
delivery 17
policeman 17
cameraman 17
jetski 17
newly 17
brows 17
sticky 17
crochet 17
stre@@ 17
spinners 17
reen@@ 17
hairs 17
waxes 17
golf@@ 17
putter 17
competes 17
attractive 17
vio@@ 17
vaulter 17
marches 17
accordian 17
lute 17
flashlights 17
inhaling 17
hedge 17
necktie 17
rappe@@ 16
fying 16
wash@@ 16
lounge 16
problems 16
cool 16
mmed 16
determine 16
enthusiastically 16
swung 16
produce 16
ack 16
talked 16
convention 16
am 16
cy 16
every@@ 16
lli@@ 16
squee@@ 16
adverti@@ 16
squeeze 16
nods 16
skeleton 16
dump 16
landsca@@ 16
preci@@ 16
vests 16
ka@@ 16
ng 16
non 16
fts 16
uniformed 16
said 16
aggressively 16
vine 16
rose 16
gathers 16
ray 16
won@@ 16
twisted 16
secure 16
comment 16
ach 16
interacting 16
market 16
executes 16
songs 16
bring 16
completely 16
bab@@ 16
contains 16
shrimp 16
cock@@ 16
tending 16
hills 16
releasing 16
slows 16
petted 16
midst 16
german 16
know 16
ppy 16
beatboxing 16
grand@@ 16
retrieve 16
inspecting 16
hay 16
lifter 16
muscles 16
post@@ 16
drawers 16
designed 16
scen@@ 16
title 16
specialized 16
hairdresser 16
combed 16
bul@@ 16
teenaged 16
might 16
ny 16
celebrate 16
angles 16
surfboards 16
copies 16
stacked 16
label 16
bottling 16
bow@@ 16
fou@@ 16
painter 16
fig@@ 16
detailed 16
inspects 16
remo@@ 16
unwraps 16
castles 16
figures 16
swirls 16
10 16
rever@@ 16
flattening 16
sips 16
equation 16
fashioned 16
jackets 16
tial 16
sorts 16
sai@@ 16
itself 16
drain 16
slid 16
clubs 16
excitement 16
ponytail 16
sculpting 16
utensils 16
motor@@ 16
jerseys 16
returning 16
featuring 16
smart 16
tourists 16
verbally 16
onion 16
explaing 16
touched 16
lemon 16
fre@@ 16
neon 16
babbles 16
fro@@ 16
sniffs 16
rin@@ 16
modern 16
camp 16
ed@@ 16
pasta 16
transla@@ 16
stroking 16
vs 16
army 16
straightener 16
peeled 16
oranges 16
gangnam 16
golfing 16
unload 16
hurling 16
bumps 16
popsicle 16
flock 16
fied 16
unlock 16
collec@@ 16
pun@@ 16
ballon 16
mobiles 16
smell 16
blacksmith 16
stringing 16
seaweed 16
moonwalks 16
meteorologist 16
rub@@ 16
maraca 16
slapped 16
reef 16
silverware 16
climbers 15
lowered 15
waterfall 15
rushing 15
powdered 15
actor 15
skit 15
deli@@ 15
environment 15
bride 15
showed 15
menting 15
celebrates 15
dles 15
fal@@ 15
wings 15
indi@@ 15
answers 15
pleas@@ 15
ational 15
rus 15
stair 15
trap 15
argument 15
polit@@ 15
models 15
ire 15
states 15
focuses 15
link 15
ette 15
ama@@ 15
corners 15
solution 15
landscape 15
tary 15
after@@ 15
tun@@ 15
devices 15
scratching 15
sup@@ 15
sman 15
ong 15
fri@@ 15
responds 15
convers@@ 15
focused 15
bles 15
identi@@ 15
pedals 15
foot@@ 15
cushion 15
battery 15
component 15
ligh@@ 15
fitting 15
lead@@ 15
sum@@ 15
fee@@ 15
ham@@ 15
furry 15
lec@@ 15
session 15
conducting 15
odd 15
chubby 15
limb 15
strat@@ 15
sandy 15
shoreline 15
swimsuit 15
lt 15
smoo@@ 15
sauc@@ 15
tattooed 15
tt@@ 15
dim 15
parachutes 15
leap 15
eyed 15
spotted 15
hus@@ 15
excerci@@ 15
posed 15
angry 15
ively 15
iled 15
coordinated 15
lay@@ 15
dee@@ 15
barbells 15
lean 15
strates 15
lessons 15
cer@@ 15
umbles 15
ne 15
upon 15
shu@@ 15
5@@ 15
lon 15
client 15
furnace 15
spear 15
tracks 15
towels 15
article 15
channel 15
printing 15
cru@@ 15
automated 15
trips 15
woven 15
dip 15
stirred 15
crouched 15
trained 15
butts 15
ign@@ 15
flowing 15
stry 15
care@@ 15
dramatic 15
impro@@ 15
2@@ 15
jer@@ 15
maneuvering 15
dang@@ 15
oc@@ 15
intently 15
typing 15
explanation 15
aloud 15
itting 15
alphabet 15
ise 15
spar 15
sailboats 15
yacht 15
pickup 15
exposed 15
trip 15
lie 15
vertical 15
uck 15
automobile 15
complicated 15
crown 15
knifes 15
quar@@ 15
sni@@ 15
laughter 15
plunger 15
tted 15
mostly 15
staircase 15
tilts 15
bacon 15
collar 15
wrenches 15
smash 15
deadlift 15
mailbox 15
cop 15
iti@@ 15
known 15
application 15
bump 15
droo@@ 15
tran@@ 15
blinking 15
putts 15
stable 15
coaches 15
rackets 15
vacuums 15
mows 15
accompani@@ 15
parasai@@ 15
rip 15
smartphone 15
sking 15
welds 15
eyelash 15
skiier 15
navigating 14
leave 14
umbling 14
adjustment 14
printed 14
flexibility 14
dot 14
coke 14
mark 14
simula@@ 14
effort 14
drumstick 14
patterns 14
jaw 14
ide@@ 14
shout 14
ants 14
introduc@@ 14
anima@@ 14
via 14
mike 14
digital 14
applauding 14
sely 14
applause 14
wins 14
receive 14
brief 14
died 14
pec@@ 14
presen@@ 14
ement 14
effects 14
trouble 14
bigger 14
focusing 14
mess@@ 14
blen@@ 14
moisturi@@ 14
thoroughly 14
examine 14
labe@@ 14
fter 14
sift 14
esca@@ 14
earth 14
location 14
ply 14
fires 14
cher 14
cones 14
aim 14
tipped 14
matches 14
tightly 14
sor@@ 14
named 14
graphy 14
here 14
lle@@ 14
better 14
circu@@ 14
connect 14
cords 14
respon@@ 14
reg@@ 14
bids 14
ming@@ 14
ices 14
probably 14
bracelet 14
apparently 14
lock@@ 14
preform 14
swirling 14
baker 14
del@@ 14
holiday 14
dipped 14
even@@ 14
20 14
decorates 14
feeling 14
inj@@ 14
ham 14
abo@@ 14
ids 14
tured 14
canyon 14
exce@@ 14
shampoo@@ 14
soa@@ 14
stin@@ 14
provides 14
tical 14
hum@@ 14
bee@@ 14
hives 14
situ@@ 14
planks 14
protect 14
dumb 14
assist 14
buy 14
vice 14
employee 14
coating 14
ty@@ 14
grinds 14
blow@@ 14
avoid 14
grooms 14
chew 14
joined 14
cylindrical 14
blo@@ 14
jac@@ 14
clams 14
accross 14
ick@@ 14
bobsledding 14
bag@@ 14
racers 14
boogie 14
tackled 14
peri@@ 14
bundled 14
whose 14
formed 14
sketching 14
gel 14
wit@@ 14
manic@@ 14
ble@@ 14
tles 14
pyramid 14
quite 14
cast@@ 14
acrobat 14
pac@@ 14
plows 14
leaping 14
pianist 14
consisting 14
calculator 14
sol@@ 14
decide 14
squatted 14
sparring 14
climbed 14
seper@@ 14
choppy 14
ought 14
dou@@ 14
barrier 14
carriage 14
fireman 14
gauge 14
enough 14
gymnasts 14
curtain 14
key@@ 14
camping 14
babbling 14
coached 14
gun@@ 14
detergent 14
bunk 14
anime 14
clad 14
boiling 14
door@@ 14
exhales 14
ree@@ 14
controlled 14
la 14
ller 14
lime 14
triangle 14
goers 14
thank 14
chase 14
empties 14
iphone 14
stuffs 14
broccoli 14
sucker 14
trimmers 14
thro@@ 14
glow 14
smi@@ 14
lacing 14
mil@@ 14
supermarket 14
receiver 14
twinkle 14
ukelele 14
flippers 14
contacts 14
snor@@ 14
tricep 14
tango 14
vaping 14
breaststroke 14
bowtie 14
initially 13
harnessed 13
scaf@@ 13
tethered 13
cliffs 13
gue 13
gesturing 13
hearing 13
stomps 13
zip 13
express@@ 13
purpose 13
actually 13
measure@@ 13
spec@@ 13
experi@@ 13
pic 13
feature 13
mming 13
wai@@ 13
joyfully 13
teri@@ 13
strad@@ 13
alligators 13
ater 13
teasing 13
shut 13
crowds 13
conver@@ 13
tress 13
segment 13
rules 13
famous 13
gates 13
compac@@ 13
greeting 13
website 13
thou@@ 13
applauded 13
stock 13
awards 13
appro@@ 13
treatment 13
abs 13
tment 13
excav@@ 13
hoe 13
graph 13
levels 13
gy 13
helmeted 13
ken 13
sque@@ 13
tantrum 13
super@@ 13
difference 13
roses 13
interesting 13
brakes 13
rid@@ 13
adjusted 13
len 13
unscrewing 13
els 13
oval 13
cooler 13
hooks 13
ace 13
asi@@ 13
stating 13
accepting 13
patiently 13
succe@@ 13
manages 13
fer 13
timer 13
freshly 13
therapist 13
description 13
am@@ 13
seemingly 13
ian 13
sends 13
dded 13
foods 13
barbe@@ 13
served 13
pork 13
scan@@ 13
ushes 13
air@@ 13
plaza 13
personal 13
wls 13
alternates 13
pil@@ 13
guided 13
physical 13
higher 13
instrumental 13
imit@@ 13
protec@@ 13
ush@@ 13
lly@@ 13
costumed 13
shiny 13
routines 13
assists 13
bal 13
ankles 13
marked 13
main@@ 13
tain 13
blasts 13
stain 13
blasting 13
controlling 13
ust 13
shield 13
dust@@ 13
curled 13
allowing 13
sty@@ 13
decoration 13
blowers 13
containers 13
mount 13
chief 13
batt@@ 13
ot@@ 13
sneeze 13
trys 13
xing 13
love 13
least 13
bind 13
paste 13
producing 13
pul@@ 13
chopped 13
lamb 13
interpre@@ 13
rhythmically 13
inst@@ 13
flings 13
carnival 13
kne@@ 13
chested 13
paintbrush 13
monster 13
sel 13
tiger 13
mothers 13
softly 13
promp@@ 13
faucet 13
storage 13
aded 13
lding 13
taun@@ 13
ounds 13
ough 13
happe@@ 13
illumin@@ 13
lettering 13
example 13
symbols 13
rowing 13
canoeing 13
expertly 13
down@@ 13
atte@@ 13
delight 13
capoeira 13
era 13
ddling 13
ice@@ 13
reveals 13
likes 13
rely 13
swan 13
ger@@ 13
ney 13
reels 13
lic 13
kit@@ 13
outfield 13
underway 13
cas@@ 13
drivers 13
speci@@ 13
condit@@ 13
coos 13
bone 13
pepper 13
celery 13
blu@@ 13
ough@@ 13
bug 13
dding 13
compe@@ 13
extension 13
vaccu@@ 13
sou@@ 13
ion@@ 13
vering 13
amazing 13
folk 13
dutch 13
aching 13
scallop 13
dol@@ 13
lars 13
faster 13
courtyard 13
thier 13
navigate 13
disco 13
partners 13
nature 13
pauses 13
handmade 13
fruits 13
review 13
tty 13
contestants 13
asp@@ 13
chu@@ 13
john 13
drum@@ 13
snacks 13
looked 13
sweet 13
accomp@@ 13
embroidering 13
extinguisher 13
cles 13
tropical 13
buzz 13
racquet 13
document 13
plywood 13
sprinkling 13
seam 13
cinder 13
sticker 13
flutes 13
monkey 13
buffing 13
shucking 13
leashes 13
crowd@@ 13
zumba 13
nothing 12
clamps 12
engages 12
positioned 12
centr@@ 12
british 12
palms 12
ound 12
discussion 12
experien@@ 12
shades 12
constantly 12
repairs 12
bes 12
effect 12
fra@@ 12
od 12
ev@@ 12
appe@@ 12
coll@@ 12
class@@ 12
missing 12
semi 12
wrestles 12
zoo@@ 12
wers 12
addresses 12
ign 12
any@@ 12
ley 12
scared 12
credit 12
twe@@ 12
ending 12
embrace 12
promo@@ 12
hundreds 12
tation 12
grad@@ 12
introducing 12
road@@ 12
prepping 12
ely 12
day@@ 12
ast 12
organizing 12
docu@@ 12
compound 12
never 12
perspective 12
taped 12
rainbow 12
arr@@ 12
readies 12
tutu 12
regarding 12
snea@@ 12
energy 12
won 12
mat@@ 12
mped 12
pas@@ 12
pear@@ 12
iring 12
stap@@ 12
prun@@ 12
fiddling 12
brake 12
connec@@ 12
ratchet 12
verbal 12
tests 12
hard@@ 12
fits 12
ssor 12
trum@@ 12
sphere 12
sat@@ 12
mari@@ 12
roa@@ 12
gal@@ 12
z 12
loc@@ 12
consi@@ 12
backflips 12
mples 12
depic@@ 12
braces 12
flatten 12
bandages 12
injured 12
chy 12
comb@@ 12
gla@@ 12
functions 12
possible 12
ades 12
coal 12
coals 12
xy 12
aerial 12
landed 12
tte 12
gl@@ 12
muscle 12
rhythmic 12
keepers 12
husband 12
occu@@ 12
rid 12
searches 12
collect 12
eight 12
gyr@@ 12
weightlifting 12
gh 12
supports 12
contortionist 12
beg@@ 12
summersaul@@ 12
hung 12
stencil 12
ank 12
duty 12
ural 12
continually 12
apparatus 12
bikers 12
ridding 12
blaster 12
underside 12
spen@@ 12
cut@@ 12
dresser 12
achi@@ 12
blew 12
sna@@ 12
reclining 12
q@@ 12
glass@@ 12
poin@@ 12
coaching 12
somone 12
ker@@ 12
packet 12
kleenex 12
lunch 12
send 12
heading 12
crashing 12
tered 12
quality 12
super 12
directed 12
you@@ 12
season 12
pat 12
lor 12
dojo 12
instructors 12
bare@@ 12
batman 12
detail 12
stal@@ 12
vy 12
mas 12
rinse 12
may 12
carpen@@ 12
metho@@ 12
constructing 12
ached 12
cran@@ 12
operator 12
uti@@ 12
gie 12
v 12
switching 12
repeated 12
temperature 12
qui@@ 12
travelling 12
occur@@ 12
dummy 12
approaching 12
shor@@ 12
shadow 12
capsized 12
struggle 12
lic@@ 12
red@@ 12
wheeling 12
tal 12
freezer 12
emptying 12
ko@@ 12
soo@@ 12
umpire 12
fielder 12
ta 12
manually 12
ducks 12
released 12
mean 12
cylinder 12
quarter 12
sung 12
sweat@@ 12
mural 12
lf 12
ass 12
plating 12
swiftly 12
separates 12
lou@@ 12
nets 12
deadlifts 12
ind 12
tiled 12
grout 12
polished 12
appliance 12
fuzzy 12
gger 12
acrobats 12
till 12
alot 12
tabletop 12
hotdogs 12
pregnant 12
complains 12
chiroprac@@ 12
messaging 12
ppers 12
awkwardly 12
inde@@ 12
pathway 12
push@@ 12
han@@ 12
polka 12
rind 12
ballerinas 12
resemb@@ 12
sack 12
dead@@ 12
collage 12
person@@ 12
toasting 12
reflec@@ 12
jam 12
marina 12
prin@@ 12
stationary 12
cooing 12
lunge 12
soun@@ 12
shoving 12
tortilla 12
ball@@ 12
frustrated 12
participates 12
kn@@ 12
aero@@ 12
snowboarders 12
plucks 12
fencers 12
goodbye 12
flint 12
feather 12
clouds 12
concentrating 12
excess 12
heel 12
headbanging 12
forwards 12
cannon 12
blading 12
rollerskating 12
burner 12
hudd@@ 12
motorcy@@ 12
skii@@ 12
sparks 12
posts 12
crocheting 12
placement 12
knead 12
moonwalking 12
hat@@ 12
weatherman 12
courtroom 12
planted 12
rattle 12
ripped 12
triceps 12
magni@@ 12
prune 12
spindle 12
descend 11
ine@@ 11
rapids 11
drama@@ 11
seating 11
issues 11
fitted 11
ried 11
return 11
ori@@ 11
informa@@ 11
glo@@ 11
horns 11
ruler 11
childs 11
rent 11
passengers 11
tedly 11
alle@@ 11
gest 11
grabbed 11
wrestler 11
gon 11
heal@@ 11
cam@@ 11
sar@@ 11
fiddles 11
des@@ 11
based 11
maybe 11
cara@@ 11
sands 11
scra@@ 11
applaud 11
celebr@@ 11
ists 11
strobe 11
united 11
verage 11
presenter 11
videotaping 11
dged 11
beneath 11
excavation 11
digger 11
20@@ 11
artifacts 11
strainer 11
wl 11
search 11
involved 11
leaned 11
prac@@ 11
shoo@@ 11
camouflage 11
domin@@ 11
mad 11
struc@@ 11
earring 11
proceed 11
quet 11
surpri@@ 11
quets 11
pots 11
gn@@ 11
scratch 11
replacing 11
joint 11
divid@@ 11
ram 11
appearing 11
don@@ 11
shops 11
bus@@ 11
bidding 11
dairy 11
names 11
assi@@ 11
conduc@@ 11
para@@ 11
vocali@@ 11
tooth@@ 11
grandma 11
retrie@@ 11
wound 11
spikes 11
abilities 11
ston 11
seasoning 11
liquids 11
ka 11
tooth 11
seas@@ 11
fives 11
xi@@ 11
basin 11
pies 11
nervous 11
bor 11
altern@@ 11
commands 11
fli@@ 11
resistance 11
humming 11
harmon@@ 11
sways 11
raps 11
sounding 11
rics 11
sive 11
beehive 11
scien@@ 11
beekeepers 11
attered 11
hedges 11
torso 11
breasts 11
garb 11
exten@@ 11
gy@@ 11
massive 11
pullups 11
resul@@ 11
sn@@ 11
med@@ 11
jig 11
department 11
dir@@ 11
roads 11
powerful 11
utili@@ 11
tension 11
beautician 11
ffs 11
ceramic 11
allows 11
further 11
ip@@ 11
angled 11
whether 11
coa@@ 11
toboggan 11
chute 11
winning 11
seats 11
dy@@ 11
boarder 11
produc@@ 11
feels 11
swit@@ 11
ani@@ 11
lids 11
ily 11
hesit@@ 11
teddy 11
sions 11
tugs 11
spices 11
pper@@ 11
spect@@ 11
broke 11
master 11
portrait 11
q 11
sket@@ 11
exa@@ 11
fingernail 11
bats 11
cabinets 11
craf@@ 11
ens 11
locking 11
molds 11
bui@@ 11
pound 11
dor 11
jun@@ 11
zers 11
secured 11
guitarist 11
steadily 11
mathematical 11
formula 11
jec@@ 11
yet 11
journ@@ 11
steady 11
sale 11
fting 11
vessel 11
kaya@@ 11
lent 11
circ@@ 11
whale 11
due 11
submerged 11
ples 11
sudden 11
nike 11
closet 11
pouch 11
chisels 11
cruise 11
hey 11
bait 11
commentates 11
discs 11
reve@@ 11
anthem 11
recy@@ 11
cling 11
loose@@ 11
il@@ 11
bead 11
mechanism 11
penny 11
swallow 11
zoomed 11
thinks 11
vings 11
indicates 11
dicing 11
blindfold 11
extending 11
operated 11
snatches 11
weightlifter 11
shoelaces 11
dder 11
horizontal 11
circling 11
mid@@ 11
popcorn 11
videoing 11
bamboo 11
corn 11
mary 11
cosplay 11
events 11
twenty 11
cowboys 11
hugged 11
relaxes 11
mur@@ 11
onesie 11
anno@@ 11
mexican 11
color@@ 11
parlor 11
paring 11
clipper 11
squi@@ 11
soldier 11
employees 11
locked 11
chains 11
elevator 11
joy@@ 11
separated 11
eag@@ 11
plain 11
lashes 11
ref 11
forearm 11
ica 11
gadget 11
dunking 11
dyes 11
sandwiches 11
noodle 11
scrap 11
pierces 11
oxygen 11
extingui@@ 11
accident 11
wheelie 11
bir@@ 11
ld@@ 11
snorkel 11
sked 11
wheel@@ 11
banner 11
omelet 11
table@@ 11
growing 11
virtual 11
pierce 11
blend 11
shotput 11
actment 11
hitter 11
rattles 11
bleachers 11
sheer 11
luggage 11
karts 11
plastering 11
anvil 11
mitten 11
beds 11
gues 11
touchdown 11
pal@@ 11
album 11
saddle 11
mules 11
explore 11
shuck 11
slack 11
snowmobi@@ 11
lassos 11
spiderman 11
protection 10
alo@@ 10
moment 10
rehearsing 10
tab@@ 10
applauds 10
reas@@ 10
meas@@ 10
frames 10
ginal 10
gles 10
mimics 10
enjo@@ 10
broad@@ 10
imitates 10
safe 10
shocked 10
thanking 10
york 10
spokes 10
offic@@ 10
tired 10
former 10
mini@@ 10
state@@ 10
ory 10
complex 10
issue 10
ssion 10
wel@@ 10
runway 10
audi@@ 10
cafeteria 10
congre@@ 10
mn 10
airport 10
advertises 10
morning 10
ey 10
thighs 10
finger@@ 10
concealer 10
bones 10
cel@@ 10
roped 10
olo@@ 10
remains 10
downward 10
gravel 10
layers 10
depth 10
video@@ 10
nodding 10
temper 10
val@@ 10
peers 10
milling 10
countertop 10
zily 10
green@@ 10
erly 10
less@@ 10
stration 10
illustrates 10
described 10
fixed 10
motherboard 10
connecting 10
slot 10
construct 10
ities 10
resort 10
banquet 10
island 10
opin@@ 10
fair 10
think 10
announcing 10
ig@@ 10
vel 10
schoo@@ 10
alig@@ 10
equipped 10
mitts 10
gauze 10
packaging 10
paw 10
garlic 10
bbq 10
set@@ 10
grilled 10
brow@@ 10
solid 10
peppers 10
foreground 10
highlighting 10
varying 10
span@@ 10
ir 10
ay 10
mple 10
jugg@@ 10
fuel 10
garni@@ 10
pebb@@ 10
rel 10
paraglider 10
skydive 10
adven@@ 10
enter@@ 10
energetic 10
poo@@ 10
vin@@ 10
ach@@ 10
pushup 10
iden@@ 10
rate 10
paced 10
clothed 10
flow 10
scar@@ 10
exotic 10
celebration 10
cane 10
wei@@ 10
jean 10
vel@@ 10
contorts 10
gap 10
nat@@ 10
rods 10
cyclists 10
ridden 10
steers 10
houses 10
village 10
pedestrian 10
currently 10
skin@@ 10
professionally 10
burst 10
earphones 10
lap@@ 10
molten 10
created 10
inspect 10
weed 10
mul@@ 10
dless 10
overweight 10
rakes 10
tissues 10
daddy 10
fir@@ 10
grandmother 10
cherry 10
bobsle@@ 10
bystanders 10
lost 10
book@@ 10
fasten@@ 10
envelo@@ 10
bottled 10
comp@@ 10
operation 10
ph@@ 10
tumble 10
trampolines 10
braided 10
eth@@ 10
butting 10
mentions 10
lad 10
cigar 10
puffs 10
exhaling 10
dangerous 10
spoon@@ 10
usk 10
py@@ 10
pallet 10
illustration 10
choo@@ 10
swir@@ 10
paint@@ 10
cle 10
bundle 10
chec@@ 10
carpenter 10
fan@@ 10
main 10
rectangle 10
loader 10
snowplow 10
backed 10
dangling 10
burp 10
nd 10
compli@@ 10
wrong 10
column 10
mario 10
hispanic 10
ffle 10
caligraphy 10
messages 10
squirms 10
choreo@@ 10
ji@@ 10
flops 10
mock 10
must 10
windsurfer 10
rising 10
fairly 10
tieing 10
wrapper 10
ab 10
zzy 10
engraving 10
zens 10
gener@@ 10
ann@@ 10
lantern 10
disc@@ 10
locations 10
eat@@ 10
scoring 10
steals 10
sme@@ 10
kilts 10
with@@ 10
bobs 10
trolley 10
tyre 10
punc@@ 10
conditions 10
crou@@ 10
dian 10
flan@@ 10
pine 10
nee@@ 10
plan 10
joints 10
herbs 10
gies 10
bers 10
overalls 10
ut 10
acks 10
machete 10
imple@@ 10
rumma@@ 10
creature 10
mmy 10
curb 10
skinny 10
fran@@ 10
plun@@ 10
outer 10
trousers 10
graphics 10
hel@@ 10
mag@@ 10
smoothly 10
balanced 10
fies 10
rotisserie 10
olive 10
tunes 10
stes 10
100 10
necks 10
accent 10
xed 10
wades 10
active 10
fami@@ 10
pra@@ 10
blouse 10
scissor 10
twee@@ 10
latex 10
tour 10
mellow 10
violently 10
overlooking 10
fea@@ 10
pir@@ 10
poe@@ 10
perfor@@ 10
chased 10
conte@@ 10
anchors 10
vac@@ 10
coast 10
cann@@ 10
footballs 10
dow@@ 10
lting 10
bic@@ 10
dash 10
inning 10
born 10
obe@@ 10
ber 10
conversing 10
cosme@@ 10
hop@@ 10
hog 10
feeder 10
wan@@ 10
blankets 10
patterned 10
rein@@ 10
hot@@ 10
lings 10
incline 10
casually 10
zoom 10
arrowhead 10
oo 10
trophy 10
lau@@ 10
lazer 10
ited 10
robes 10
dispenses 10
shee@@ 10
somersaul@@ 10
diapers 10
bombs 10
introduce 10
sport@@ 10
medi@@ 10
skii 10
judge 10
dog@@ 10
shuttlecock 10
bong 10
jingle 10
medit@@ 10
raquetball 10
donkeys 10
slopes 10
tickle 10
grape 10
transaction 10
receipt 10
waterslide 10
lo 9
repels 9
mounta@@ 9
grunts 9
state 9
direc@@ 9
reenacting 9
theater 9
abruptly 9
production 9
compla@@ 9
read@@ 9
extra 9
kin@@ 9
direct 9
compu@@ 9
dangerously 9
interrup@@ 9
rep@@ 9
lian 9
sleeveless 9
claws 9
politician 9
na 9
thy 9
achers 9
erase 9
flight 9
biting 9
ado@@ 9
clinton 9
silhou@@ 9
stare 9
effec@@ 9
content 9
prior 9
archaeological 9
mason 9
narrated 9
gical 9
zone 9
cameras 9
nurses 9
emo@@ 9
apartment 9
converse 9
brothers 9
attacks 9
arm@@ 9
win 9
gran@@ 9
wrest@@ 9
vic@@ 9
amon@@ 9
grun@@ 9
arrangements 9
buds 9
lobby 9
6@@ 9
7 9
dering 9
tucks 9
sso@@ 9
handlebars 9
unscrew 9
insides 9
exper@@ 9
transit@@ 9
hooking 9
know@@ 9
stat@@ 9
specif@@ 9
attend 9
praise 9
importance 9
ate@@ 9
hoping 9
inv@@ 9
serious 9
confe@@ 9
binder 9
whom 9
auc@@ 9
winner 9
flatte@@ 9
lery 9
photographs 9
historical 9
gui@@ 9
melted 9
mounds 9
clin@@ 9
ounded 9
athle@@ 9
stret@@ 9
checked 9
ketchup 9
grills 9
gave 9
rotated 9
peas 9
entertaining 9
alcoholic 9
inged 9
immediately 9
obser@@ 9
kite@@ 9
skydivers 9
thered 9
bathed 9
drys 9
chain@@ 9
tubs 9
shep@@ 9
whipping 9
moments 9
puffing 9
swishes 9
cial 9
pull@@ 9
honeycomb 9
extrac@@ 9
spotlight 9
upwards 9
enormous 9
hundred 9
exerci@@ 9
extreme 9
unable 9
supporting 9
swim@@ 9
upward 9
magician 9
vels 9
manufac@@ 9
crank 9
resulting 9
bicyclist 9
avo@@ 9
temp@@ 9
compressor 9
press@@ 9
anister 9
try@@ 9
bubblegum 9
bursts 9
incredi@@ 9
expla@@ 9
ape 9
wo 9
wered 9
cupcake 9
teammates 9
wood@@ 9
moment@@ 9
sca@@ 9
thread@@ 9
ther@@ 9
newspapers 9
medium 9
blank 9
antique 9
conve@@ 9
attac@@ 9
stages 9
pho@@ 9
ket 9
giraffe 9
gn 9
tled 9
bread@@ 9
blender 9
needed 9
supplies 9
night@@ 9
goofing 9
troupe 9
dan@@ 9
fe 9
eding 9
waved 9
scary 9
embroid@@ 9
pictured 9
licate 9
vari@@ 9
halloween 9
thed 9
meter 9
woodworking 9
spee@@ 9
sam@@ 9
constructed 9
childrens 9
eling 9
yan@@ 9
entertains 9
distr@@ 9
blood 9
flung 9
leveling 9
rt 9
crushes 9
lowed 9
sibling 9
flailing 9
banjo 9
phys@@ 9
symbol 9
ornate 9
cursive 9
grap@@ 9
capsizes 9
avoids 9
navig@@ 9
floo@@ 9
jit@@ 9
ital 9
cere@@ 9
execute 9
manue@@ 9
sinking 9
aqu@@ 9
failing 9
sail@@ 9
lapsed 9
cess@@ 9
sometimes 9
separately 9
vertically 9
admiring 9
expresses 9
hollow 9
stem 9
australian 9
snorkels 9
youn@@ 9
sof@@ 9
gular 9
fireworks 9
fountain 9
tains 9
baller 9
shifter 9
stand@@ 9
coordin@@ 9
kia 9
draining 9
dripping 9
show@@ 9
cycling 9
sidelines 9
knitted 9
ummy 9
clicking 9
hoses 9
sharpen@@ 9
claw 9
bodies 9
cucumber 9
wea@@ 9
shells 9
pinch 9
crab 9
rake 9
response 9
crac@@ 9
jerk 9
jerks 9
roof@@ 9
waste 9
skim 9
emptied 9
kled 9
steaming 9
sol 9
resid@@ 9
stars 9
hurts 9
ill@@ 9
padding 9
contor@@ 9
mirro@@ 9
let@@ 9
toast 9
marshmellows 9
kles 9
eff@@ 9
saute@@ 9
seafood 9
robots 9
sidewalks 9
fty 9
tely 9
captures 9
appar@@ 9
deni@@ 9
navy 9
bot 9
positioning 9
becomes 9
pier@@ 9
flooded 9
wagon 9
wheelers 9
reacts 9
chickens 9
singers 9
balo@@ 9
curlers 9
brooms 9
swee@@ 9
untying 9
rotate 9
sons 9
kitten 9
long@@ 9
ssing 9
cracker 9
wait@@ 9
gue@@ 9
clicks 9
vered 9
lon@@ 9
es@@ 9
dessert 9
romantic 9
signal 9
motorcyclists 9
crui@@ 9
num@@ 9
coughing 9
rugs 9
steer 9
snoring 9
trashcan 9
brow 9
multicolored 9
girl@@ 9
cheeseburger 9
wic@@ 9
iner 9
doughnuts 9
whis@@ 9
elly 9
spiky 9
challenge 9
ump 9
hide 9
ldering 9
speed@@ 9
cler@@ 9
mow 9
hummingbird 9
dolphin 9
ner@@ 9
ffing 9
shined 9
llas 9
flaps 9
continu@@ 9
goals 9
accepts 9
beige 9
chets 9
amer@@ 9
acher 9
mesmerized 9
smoothes 9
poor 9
rifles 9
thon 9
stainless 9
nels 9
mara@@ 9
saxaphone 9
tball 9
helicop@@ 9
ided 9
audio 9
umber 9
unboxes 9
bashing 9
reviews 9
bonfire 9
broad 9
horseshoes 9
rooms 9
udder 9
stools 9
distracted 9
gardening 9
mops 9
motorcyclist 9
lizer 9
newscast 9
tery 9
mb 9
ddled 9
scanner 9
planer 9
paired 9
racketball 9
referees 9
llo 9
mallets 9
mandolin 9
loser 9
hides 9
rubi@@ 9
navel 9
dino@@ 9
gloss 9
tip@@ 9
bagging 9
situps 9
testimony 9
tye 9
hydrant 9
spool 9
harne@@ 8
paragl@@ 8
acc@@ 8
indic@@ 8
twine 8
cers 8
taining 8
ucked 8
sign@@ 8
4@@ 8
twork 8
transpor@@ 8
adver@@ 8
unto 8
trough 8
barri@@ 8
vyset 8
teases 8
ue 8
twins 8
narr@@ 8
dge 8
technology 8
fic@@ 8
commun@@ 8
zation 8
tribu@@ 8
upcoming 8
$ 8
tuxedo 8
cushi@@ 8
zip@@ 8
8 8
inclu@@ 8
womens 8
barbecu@@ 8
turf 8
barten@@ 8
timed 8
thes 8
pup@@ 8
rap@@ 8
llow 8
emp@@ 8
tally 8
roll@@ 8
wise 8
volume 8
vices 8
unfolding 8
cup@@ 8
bob@@ 8
onloo@@ 8
wake@@ 8
wade 8
torn 8
feat@@ 8
bounc@@ 8
success@@ 8
automa@@ 8
nic 8
ung 8
marsh@@ 8
ull 8
years 8
toothpaste 8
rout@@ 8
tear 8
tices 8
ridge 8
dozer 8
top@@ 8
lish 8
chor@@ 8
suspen@@ 8
theme 8
ght@@ 8
violinist 8
stics 8
alian 8
fish@@ 8
rain@@ 8
sad@@ 8
custo@@ 8
egg@@ 8
ric 8
engra@@ 8
tracing 8
sher 8
ggling 8
apped 8
8@@ 8
zen 8
iness 8
cow@@ 8
transmission 8
valve 8
cheerlead@@ 8
slic@@ 8
veg@@ 8
wedge 8
competit@@ 8
practic@@ 8
voiceover 8
zine 8
urinal 8
ually 8
carto@@ 8
gym@@ 8
ome@@ 8
visual 8
cos@@ 8
ious 8
chur@@ 8
synchroni@@ 8
themed 8
whines 8
whist 8
danc@@ 8
stir@@ 8
toenails 8
scal@@ 8
rema@@ 8
ett@@ 8
bac@@ 8
concer@@ 8
spla@@ 8
eld@@ 8
youngsters 8
practi@@ 8
ints 8
pack@@ 8
reci@@ 8
onal 8
pige@@ 8
acefully 8
spin@@ 8
wars 8
refle@@ 8
tattoo@@ 8
poc@@ 8
televi@@ 8
exhibit@@ 8
weapons 8
za@@ 8
icks 8
woodwind 8
cell@@ 8
windsurfs 8
wallet 8
smith 8
tunnel 8
whisk 8
pizz@@ 8
tuba 8
university 8
massag@@ 8
mush@@ 8
garde@@ 8
tet 8
saxo@@ 8
xbox 8
sci@@ 8
telephone 8
texts 8
thma 8
ires 7
mono@@ 7
logi@@ 7
micro@@ 7
dun@@ 7
ang@@ 7
stair@@ 7
clai@@ 7
land@@ 7
recei@@ 7
-@@ 7
ale 7
ven 7
ream 7
repor@@ 7
wels 7
ash 7
argu@@ 7
neigh@@ 7
mach@@ 7
lin 7
challen@@ 7
flow@@ 7
pot@@ 7
wild@@ 7
gos 7
sociali@@ 7
soci@@ 7
sul@@ 7
refe@@ 7
saul@@ 7
plo@@ 7
oning 7
lders 7
ster@@ 7
aches 7
web@@ 7
thum@@ 7
progre@@ 7
phan@@ 7
clist 7
young@@ 7
ped@@ 7
eu@@ 7
power@@ 7
equ@@ 7
stic@@ 7
slow@@ 7
unk 7
whee@@ 7
sent 7
j 7
ina 7
cause 7
eg@@ 7
mata@@ 7
teas@@ 7
tee@@ 7
lity 7
vely 7
stenci@@ 7
oes 7
kick@@ 7
sa 7
shuff@@ 7
ddle 7
ee@@ 7
than@@ 7
base@@ 7
part@@ 7
who@@ 7
trad@@ 7
dent 7
kni@@ 7
´@@ 7
bage 7
grou@@ 7
iners 7
conven@@ 7
too@@ 7
deter@@ 7
cs 7
xes 7
camera@@ 7
flat@@ 7
seg@@ 7
da 7
energe@@ 7
skate@@ 7
arro@@ 7
instruc@@ 7
llows 7
tar 7
beauti@@ 7
ral 7
mbs 7
torti@@ 7
ounding 7
tric@@ 7
submer@@ 7
lently 7
hind 7
uni@@ 7
jet@@ 7
desc@@ 7
scope 7
spra@@ 7
forma@@ 7
concentr@@ 7
blin@@ 7
scor@@ 7
exhi@@ 7
buc@@ 7
cough@@ 7
unti@@ 7
shoela@@ 7
mself 6
rai@@ 6
ran@@ 6
ads 6
secur@@ 6
rying 6
medic@@ 6
import@@ 6
chal@@ 6
rob@@ 6
answ@@ 6
posit@@ 6
joh@@ 6
rench 6
lds 6
arch@@ 6
wat@@ 6
shri@@ 6
alter@@ 6
claims 6
dod@@ 6
doc@@ 6
dress@@ 6
frid@@ 6
spon@@ 6
apr@@ 6
pit@@ 6
ality 6
discus@@ 6
stern 6
activ@@ 6
fab@@ 6
rif@@ 6
spa@@ 6
barre@@ 6
plat@@ 6
ners 6
app@@ 6
thin@@ 6
tators 6
ional 6
oughly 6
sig@@ 6
9 6
toa@@ 6
sett@@ 6
rando@@ 6
construc@@ 6
daugh@@ 6
admir@@ 6
rubb@@ 6
tage 6
spea@@ 6
mode@@ 6
ei@@ 6
clou@@ 6
dled 6
ya@@ 6
secu@@ 6
mechan@@ 6
gat@@ 6
fris@@ 6
knee@@ 6
cheer@@ 6
shly 6
auto@@ 6
00 6
skir@@ 6
mun@@ 6
stan@@ 6
ong@@ 6
ggles 6
weigh@@ 6
vie@@ 6
past@@ 6
horse@@ 6
aw@@ 6
sus@@ 6
rist@@ 6
execu@@ 6
reli@@ 6
pain@@ 6
doo 6
gry 6
enthusia@@ 6
rab@@ 6
pine@@ 6
electr@@ 6
nur@@ 6
itch@@ 6
botto@@ 6
piec@@ 6
> 6
ere 6
anch 6
time@@ 6
ba 6
teamma@@ 6
crun@@ 6
tem@@ 6
oppon@@ 6
comple@@ 6
grin@@ 6
examin@@ 6
sizes 6
did@@ 6
rence 6
uts 6
scrat@@ 6
tiv@@ 6
todd@@ 6
straighten@@ 6
imp@@ 6
differen@@ 6
lip@@ 6
butt@@ 6
tread@@ 6
low@@ 6
bed@@ 6
poli@@ 6
side@@ 6
ucks 6
ddy 6
selfi@@ 6
potat@@ 6
pee@@ 6
cher@@ 6
instrumen@@ 6
twir@@ 6
lolli@@ 6
testi@@ 6
rehear@@ 5
tician 5
new@@ 5
vil 5
gir@@ 5
crocodi@@ 5
cour@@ 5
deta@@ 5
knuc@@ 5
ek 5
ption 5
thre@@ 5
aggre@@ 5
desig@@ 5
ghten@@ 5
proper@@ 5
profession@@ 5
hambur@@ 5
pitch@@ 5
shot@@ 5
cano@@ 5
gor@@ 5
moun@@ 5
shampo@@ 5
ep 5
percus@@ 5
tless 5
effor@@ 5
easi@@ 5
zy 5
weight@@ 5
contin@@ 5
tea@@ 5
bbing 5
ols 5
artic@@ 5
tle@@ 5
cir@@ 5
groo@@ 5
pyra@@ 5
intric@@ 5
inf@@ 5
pou@@ 5
attrac@@ 5
ful@@ 5
ushing 5
sten@@ 5
cases 5
dia@@ 5
cric@@ 5
multi@@ 5
vol@@ 5
calli@@ 5
boar@@ 5
pad@@ 5
allow 5
onic 5
attemp@@ 5
tory 5
ese 5
eing 5
urant 5
camp@@ 5
illu@@ 5
rts 5
iss@@ 5
est 5
ingredi@@ 5
curren@@ 5
rol@@ 5
maneu@@ 5
mpo@@ 5
twen@@ 5
kar@@ 5
speciali@@ 5
visi@@ 5
dio 5
synchron@@ 5
one@@ 5
eps 5
nerv@@ 5
grab@@ 5
wra@@ 5
exc@@ 5
pily 5
ope@@ 5
inc@@ 5
flin@@ 5
var@@ 5
stren@@ 5
’@@ 5
accep@@ 5
extr@@ 5
ula@@ 5
idding 5
ratt@@ 5
hover@@ 5
lator 5
tents 5
lif@@ 5
cont@@ 5
mas@@ 5
ree 5
progra@@ 5
may@@ 5
orchestr@@ 5
sole 5
paja@@ 5
org@@ 5
raz@@ 5
stick@@ 5
park@@ 5
simu@@ 5
stro@@ 5
fol@@ 5
accordi@@ 5
volle@@ 5
fing@@ 5
inet 5
tromb@@ 5
xylo@@ 5
fru@@ 5
touri@@ 5
lasso@@ 5
trape@@ 5
inhal@@ 5
ight 4
contro@@ 4
toge@@ 4
conta@@ 4
intervie@@ 4
val 4
ey@@ 4
archaeolo@@ 4
fie@@ 4
mani@@ 4
kin 4
ath 4
modi@@ 4
outh 4
lear@@ 4
colum@@ 4
list 4
rock@@ 4
pati@@ 4
prepar@@ 4
pple 4
func@@ 4
stun@@ 4
proced@@ 4
sil@@ 4
metal@@ 4
iture 4
cin@@ 4
birth@@ 4
horizon@@ 4
ga 4
noi@@ 4
7@@ 4
prote@@ 4
nec@@ 4
brac@@ 4
pli@@ 4
whe@@ 4
load@@ 4
semb@@ 4
stically 4
charac@@ 4
good@@ 4
note@@ 4
particip@@ 4
bloo@@ 4
summer@@ 4
oud 4
happ@@ 4
mobi@@ 4
pede@@ 4
gar 4
vir@@ 4
laugh@@ 4
cuc@@ 4
skill@@ 4
snat@@ 4
oly@@ 4
sement 4
ened 4
cali@@ 4
by@@ 4
hear@@ 4
zzle 4
stache 4
snap@@ 4
9@@ 4
demonstrat@@ 4
otic 4
weap@@ 4
stran@@ 4
bility 4
mma@@ 4
eng@@ 4
ioning 4
raid 4
crow@@ 4
ides 4
dark@@ 4
applic@@ 4
alumin@@ 4
congreg@@ 4
pop@@ 4
hes 4
embro@@ 4
alls 4
tou@@ 4
goof@@ 4
llets 4
sic@@ 4
fair@@ 4
ais@@ 4
fur@@ 4
som@@ 4
pean@@ 4
diff@@ 4
ene@@ 4
perspec@@ 4
bran@@ 4
fore 4
yach@@ 4
peo@@ 4
ading 4
zz 4
ie 4
rhy@@ 4
gerator 4
comman@@ 4
station@@ 4
ility 4
shove@@ 4
leas@@ 4
mellows 4
graffit@@ 4
swal@@ 4
cred@@ 3
gators 3
facts 3
/@@ 3
chee@@ 3
conce@@ 3
cus@@ 3
handle@@ 3
tween 3
techn@@ 3
difficul@@ 3
chr@@ 3
stering 3
profe@@ 3
profess@@ 3
tel 3
&@@ 3
op 3
simultane@@ 3
ongs 3
bit@@ 3
tual 3
butter@@ 3
strating 3
elec@@ 3
aters 3
nap@@ 3
hydr@@ 3
idly 3
wn@@ 3
vement 3
afr@@ 3
leve@@ 3
sel@@ 3
asy 3
rece@@ 3
colo@@ 3
partic@@ 3
fic 3
dig@@ 3
ano 3
iny 3
ol 3
plies 3
ues 3
holid@@ 3
cartwhe@@ 3
acciden@@ 3
lanter@@ 3
tballs 3
# 3
home@@ 3
,@@ 3
cham@@ 3
four@@ 3
stal 3
kic@@ 3
equi@@ 3
rized 3
toi@@ 3
moi@@ 3
contortion@@ 3
mering 3
individu@@ 3
counter@@ 3
stru@@ 3
ssi@@ 3
objec@@ 3
ancho@@ 3
movi@@ 3
drive@@ 3
port 3
child@@ 3
exec@@ 3
quest@@ 3
baske@@ 3
mous 3
awk@@ 3
simi@@ 3
rhyth@@ 3
touch@@ 3
dumb@@ 3
grocer@@ 3
? 3
bro@@ 3
lla@@ 3
inspec@@ 3
aff@@ 3
pow@@ 3
trous@@ 3
atting 3
spre@@ 3
hoc@@ 3
ets 3
jave@@ 3
horiz@@ 3
ftly 3
kee@@ 3
mics 3
tuxe@@ 3
passion@@ 3
boarders 3
rum@@ 3
rat@@ 3
efully 3
fini@@ 3
oper@@ 3
stit@@ 3
dily 3
sequ@@ 3
bear@@ 3
surr@@ 3
gement 3
masse@@ 3
mass@@ 3
commer@@ 3
aer@@ 3
kah 3
loun@@ 3
mattre@@ 3
tele@@ 3
yar@@ 3
sion@@ 3
mbo@@ 3
ef 3
clar@@ 3
nis 3
austr@@ 3
recor@@ 3
patt@@ 3
marac@@ 3
orche@@ 3
uku@@ 3
ula 3
adjust@@ 3
trol@@ 3
fit@@ 3
mech@@ 3
rot@@ 3
ribb@@ 3
snorke@@ 3
graph@@ 3
mine 3
yaw@@ 3
cigar@@ 3
wet@@ 3
surf@@ 3
fier 3
stac@@ 3
acted 2
audit@@ 2
attach@@ 2
listen@@ 2
violin@@ 2
uler 2
tutori@@ 2
bene@@ 2
enthusi@@ 2
jewel@@ 2
appli@@ 2
hit@@ 2
temper@@ 2
ket@@ 2
tumb@@ 2
graphed 2
spor@@ 2
machin@@ 2
chas@@ 2
ier 2
mannequ@@ 2
[ 2
trou@@ 2
ighs 2
stly 2
dents 2
monit@@ 2
trampo@@ 2
blon@@ 2
é 2
canv@@ 2
guitari@@ 2
mathema@@ 2
alphabe@@ 2
graphi@@ 2
ae@@ 2
fanc@@ 2
white@@ 2
topp@@ 2
bystan@@ 2
diamon@@ 2
scul@@ 2
fashi@@ 2
quick@@ 2
thor@@ 2
foun@@ 2
ax@@ 2
aler 2
guage 2
ician 2
bicy@@ 2
atedly 2
chise@@ 2
resta@@ 2
stum@@ 2
craw@@ 2
yon 2
hig@@ 2
gymna@@ 2
perfe@@ 2
kup 2
irs 2
provid@@ 2
tice 2
mex@@ 2
ican 2
aga@@ 2
toen@@ 2
ail 2
stead@@ 2
gang@@ 2
nam 2
+ 2
ow@@ 2
gent 2
balcon@@ 2
coura@@ 2
close@@ 2
anish 2
descri@@ 2
uk@@ 2
manu@@ 2
icul@@ 2
dboard 2
ycle 2
bby 2
dump@@ 2
twin@@ 2
ffy 2
pol@@ 2
: 2
humming@@ 2
ela@@ 2
cular 2
camoufla@@ 2
blan@@ 2
indu@@ 2
gest@@ 2
suppor@@ 2
ffee 2
prep@@ 2
apho@@ 2
multicolo@@ 2
ment@@ 2
resi@@ 2
erie 2
suit@@ 2
trance 2
sity 2
walk@@ 2
vigor@@ 2
plac@@ 2
teria 2
knit@@ 2
urry 2
villa@@ 2
elabor@@ 2
cav@@ 2
screw@@ 2
smart@@ 2
ety 2
bubb@@ 2
cheese@@ 2
iler 2
spat@@ 2
cylin@@ 2
lded 2
neck@@ 2
toma@@ 2
enga@@ 2
mechani@@ 2
velo@@ 2
rage 2
came@@ 2
vege@@ 2
paras@@ 2
versity 2
shuttleco@@ 2
tradit@@ 2
congrat@@ 2
inets 2
geridoo 2
shado@@ 2
melo@@ 2
mir@@ 2
;@@ 2
tric 2
sing@@ 2
% 2
contrap@@ 2
mens 2
xy@@ 2
lts 2
weather@@ 2
mete@@ 2
rologist 2
possi@@ 2
flash@@ 2
accor@@ 2
correc@@ 2
trave@@ 2
apar@@ 2
– 2
wel 2
ials 2
whil@@ 2
explan@@ 2
scent 2
particu@@ 2
ttle@@ 2
slalo@@ 2
alp@@ 2
ident 2
ef@@ 2
silver@@ 2
mache@@ 2
photograph@@ 2
sm 2
bracele@@ 2
giraff@@ 2
n'@@ 2
agg@@ 1
arran@@ 1
gements 1
posite 1
tboard 1
initi@@ 1
ficial 1
ilities 1
tioneer 1
chick@@ 1
parach@@ 1
bath@@ 1
sud@@ 1
honey@@ 1
perfec@@ 1
festi@@ 1
sled@@ 1
igh@@ 1
cand@@ 1
acrobat@@ 1
applau@@ 1
â@@ 1
brush@@ 1
wren@@ 1
ath@@ 1
ump@@ 1
ssel 1
ffere@@ 1
numer@@ 1
christ@@ 1
ira 1
sten 1
pump@@ 1
repa@@ 1
ired 1
box@@ 1
clists 1
stumes 1
build@@ 1
ourn@@ 1
lowe@@ 1
ballo@@ 1
flexi@@ 1
sandwic@@ 1
sear@@ 1
skele@@ 1
sie 1
hyster@@ 1
desser@@ 1
decor@@ 1
lowing 1
macar@@ 1
mach 1
mail@@ 1
carri@@ 1
usual 1
depar@@ 1
dodge@@ 1
adole@@ 1
ggage 1
erci@@ 1
bei@@ 1
congr@@ 1
ature 1
dau@@ 1
`@@ 1
reo@@ 1
enth@@ 1
! 1
them@@ 1
pers@@ 1
nea@@ 1
aquari@@ 1
alli@@ 1
\ 1
dred 1
panca@@ 1
dered 1
mi 1
instr@@ 1
sk 1
ware@@ 1
ingre@@ 1
ener@@ 1
vacu@@ 1
quarter@@ 1
volu@@ 1
rt@@ 1
sso 1
meth@@ 1
scot@@ 1
etly 1
hool 1
crosse 1
selves 1
strai@@ 1
blou@@ 1
regar@@ 1
dolph@@ 1
vehi@@ 1
chron@@ 1
oke 1
alco@@ 1
croche@@ 1
deser@@ 1
concre@@ 1
vid@@ 1
stain@@ 1
uke@@ 1
assemb@@ 1
differe@@ 1
yor 1
|@@ 1
put@@ 1
moder@@ 1
tish 1
fas@@ 1
phy@@ 1
breast@@ 1
debr@@ 1
tane@@ 1
foc@@ 1
inal 1
ange 1
bot@@ 1
champa@@ 1
pment 1
trap@@ 1
motori@@ 1
xe@@ 1
ë@@ 1
dem 1
dd 1
brie@@ 1
ares 1
auditori@@ 1
idoo 1
cade 1
mbals 1
è@@ 1
acou@@ 1
guit@@ 1
gau@@ 1
milit@@ 1
cei@@ 1
ino 1
invol@@ 1
poly 1
ketball 1
tourna@@ 1
= 1
sax@@ 1
saxapho@@ 1
abble 1
instru@@ 1
lele 1
yball 1
comment@@ 1
manipu@@ 1
vaul@@ 1
compon@@ 1
ught 1
lett@@ 1
jap@@ 1
pular 1
[@@ 1
ever@@ 1
niqu@@ 1
refri@@ 1
lities 1
spu@@ 1
rotiss@@ 1
robo@@ 1
masco@@ 1
gad@@ 1
ste 1
atus 1
tobac@@ 1
scrap@@ 1
port@@ 1
treat@@ 1
gen 1
logy 1
uce 1
ssively 1
"@@ 1
memb@@ 1
bott@@ 1
lebr@@ 1
dribb@@ 1
interi@@ 1
tique 1
again@@ 1
loween 1
tight@@ 1
bling 1
sledge@@ 1
bably 1
cus 1
dep@@ 1
multic@@ 1
eer 1
somer@@ 1
surroun@@ 1
tech@@ 1
adul@@ 1
beau@@ 1
mbling 1
sever@@ 1
vide@@ 1
windo@@ 1
popsic@@ 1
eld 1
elev@@ 1
] 1
mance 1
orn@@ 1
ioned 1
tially 1
emplo@@ 1
environ@@ 1
verbal@@ 1
tour@@ 1
tobogg@@ 1
zo@@ 1
“ 1
mingly 1
visu@@ 1
eping 1
llet 1
ply@@ 1
ifier 1
ghte@@ 1
pota@@ 1
ena 1
yor@@ 1
religi@@ 1
screa@@ 1
kins 1
encoura@@ 1
ous@@ 1
habe@@ 1
penci@@ 1
lows 1
tu 1
