#version: 0.2
v ]</w>
[ v]</w>
t h
a n
a n</w>
i s</w>
o n</w>
an d</w>
th e</w>
o u
e r</w>
m an</w>
a r
i n
l e</w>
i n</w>
t o</w>
e r
o f</w>
i t
h i
o n
b a
r o
w o
e n</w>
b o
ou n
it h</w>
w ith</w>
s t
e s</w>
a t</w>
in g</w>
p er
a c
r e
w hi
l l</w>
s on</w>
p e
per son</w>
i r
h o
whi le</w>
ar e</w>
wo man</w>
s i
a t
o m
p le</w>
e n
l o
g r
d o
th er</w>
h is</w>
t o
i t</w>
pe o
peo ple</w>
b e
s om
th e
a s</w>
on e</w>
i c
l a
i r</w>
f o
t w
y oun
youn g</w>
g ir
g e</w>
h er</w>
tw o</w>
e l
b y</w>
o ther</w>
bo y</w>
a m
oun d</w>
d s</w>
th en</w>
gir l</w>
c h
m a
u p</w>
t i
ou t</w>
h e</w>
ho w</w>
t a
w n</w>
gr ou
l e
ba ll</w>
grou p</w>
d e</w>
r i
l i
p o
e c
t s</w>
w h
l y</w>
d i
som e
do wn</w>
m u
a l</w>
ba c
er s</w>
m en</w>
e t</w>
si de</w>
a ir</w>
o r</w>
r u
in to</w>
e a
w a
p i
s e</w>
t le</w>
ou t
g u
c o
s e
u r
n o
f i
s s</w>
c hi
l s</w>
o v
an other</w>
g h
en t</w>
mu si
ar d</w>
l it
ar ound</w>
o m</w>
b u
the ir</w>
som e</w>
in e</w>
c a
f ro
some one</w>
lit tle</w>
chi l
fro m</w>
s k
t r
musi c</w>
s t</w>
w at
ro om</w>
c e</w>
s h
v er
o f
ba by</w>
d e
p a
b le</w>
g h</w>
l ar
o r
lar ge</w>
fo r
c h</w>
u n
g e
on g</w>
k e</w>
th at</w>
b l
a l
wat er</w>
f r
of f</w>
a ge</w>
h an
f lo
ov er</w>
gr ound</w>
n e
k i
the m</w>
bac k</w>
s ma
fr on
t e
fron t</w>
s no
sma ll</w>
fo r</w>
m e
o d</w>
pi ec
p e</w>
o l</w>
d y</w>
a b
ta ble</w>
chil d</w>
ic e</w>
am e</w>
' s</w>
f e
ac h
flo or</w>
k s</w>
o l
s ho
p ar
the y</w>
ou gh</w>
p la
v i
bac k
t er</w>
s c
m o
c ou
q u
ac h</w>
h ea
han ds</w>
re e</w>
hi m</w>
an ce</w>
h air</w>
gh t</w>
ac e</w>
l es</w>
s h</w>
d er</w>
ac k</w>
out side</w>
s he</w>
u m
c am
s s
h and</w>
u l
y s</w>
r a
g s</w>
r t</w>
c ar
c on
p er</w>
piec e</w>
be ing</w>
ab out</w>
p s</w>
g ame</w>
g y
c i
m ach
it e</w>
b i
ba l
st ru
th r
gu y</w>
bo ard</w>
i on</w>
thr ough</w>
cam er
el d</w>
th ing</w>
m ent</w>
s a
to ge
mach ine</w>
toge ther</w>
d r
camer a</w>
fi eld</w>
t t
ro w
t h</w>
d d
wa y</w>
ir e</w>
p h
c k</w>
p ro
s hi
w e
sno w</w>
e y
t ball</w>
se ver
sever al</w>
a d
on s</w>
p l
in stru
wo men</w>
er e</w>
back ground</w>
v e</w>
gy m</w>
n i
l er</w>
d ance</w>
e ach</w>
c om
wo r
hea d</w>
e d</w>
f f
gir ls</w>
some thing</w>
re a
lo w</w>
c e
in d</w>
wh ite</w>
pa per</w>
ti on</w>
f ace</w>
st age</w>
c le</w>
ch air</w>
i l
in g
e x
a r</w>
in side</w>
c lo
e e
s u
fo o
ac ro
t e</w>
w i
c row
ki ds</w>
m s</w>
a p
do g</w>
pla y
m e</w>
ph one</w>
ma le</w>
wo od</w>
po ol</w>
ca r</w>
p u
to p</w>
ver y</w>
re d</w>
for e</w>
be fore</w>
th ree</w>
v es</w>
crow d</w>
ba sk
di ff
in k</w>
dr en</w>
chil dren</w>
ic k</w>
v e
do or</w>
ki d</w>
shi rt</w>
bo ys</w>
ho r
diff er
la dy</w>
s el
en ts</w>
at ion</w>
or s</w>
s p
acro ss</w>
g la
st re
a g
u e</w>
differ ent</w>
wa ll</w>
a u
s o
bl ack</w>
m i
k e
on to</w>
ro pe</w>
bo t
lo w
o th
ch e
st r
c u
tr a
re en</w>
f u
ur e</w>
fo od</w>
gr a
l ong</w>
wo o
n a
t ree</w>
f ri
ar ds</w>
at e</w>
to dd
f ire</w>
f a
en ce</w>
wh o</w>
i l</w>
we i
e d
i c</w>
oth ers</w>
be h
sno w
beh ind</w>
m ar
ad ul
todd ler</w>
m on
g o
it ch
stre et</w>
er ci
ea r</w>
de o</w>
o b
f e</w>
out h</w>
w as</w>
co r
k ni
f ing
gu it
s ong</w>
v ing</w>
cou ple</w>
b e</w>
hi gh</w>
d ar
bask e
j ec
ic ks</w>
c er</w>
ta l</w>
l ine</w>
d u
s pe
bl ue</w>
bo w
b ar
m an
k itch
kitch en</w>
m outh</w>
vi deo</w>
bot tle</w>
d a
h ou
s es</w>
bo at</w>
d en</w>
x t</w>
g ol
guit ar</w>
d ing</w>
to ol</w>
v er</w>
f l
ar e
kni fe</w>
a ll</w>
it s</w>
w ards</w>
t en
sel f</w>
hou se</w>
me tal</w>
t ri
t u
l an
wh at</w>
ex erci
j um
gh ts</w>
m ov
so c
ne xt</w>
be d</w>
c la
k et</w>
th ere</w>
m at
m m
baske tball</w>
t y</w>
s wi
ag a
y cle</w>
ob jec
bi ke</w>
k er</w>
l ing</w>
fe et</w>
bal ls</w>
el ec
en d</w>
c li
tr ack</w>
p re
t ru
s po
ou r</w>
do ors</w>
ou s</w>
d ri
le a
u m</w>
st u
hor se</w>
n er</w>
w ard</w>
foo tball</w>
woo den</w>
to r
p en</w>
ba se
ti me</w>
d ru
b r
instru ment</w>
an c
wa l
pe t</w>
y ard</w>
bal lo
al ong</w>
soc cer</w>
c an</w>
w in
s ur
p ing</w>
an t</w>
p an</w>
w er</w>
s le
ro ck</w>
le t</w>
li ke</w>
to y</w>
a d</w>
b ru
ee l</w>
bo dy</w>
are a</w>
m ic
e g
st ic</w>
co o
ss es</w>
ar i
swi mm
it ion</w>
wh en</w>
hi ll</w>
gol f</w>
pa in
adul t</w>
au di
g reen</w>
u te</w>
r ac
t ire</w>
s low
instru c
ec k</w>
gla ss</w>
ti ons</w>
base ball</w>
w ing</w>
slow ly</w>
st a
objec t</w>
to r</w>
sk at
audi ence</w>
m ents</w>
bo o
a way</w>
t ing</w>
bru sh</w>
ho o
f la
le g</w>
st ick</w>
el e
jum p</w>
k ing</w>
ba r</w>
a f
da y</w>
me at</w>
co lo
an d
c ir
bow l</w>
dar k</w>
an i
mic ro
v ari
ar m</w>
wh ere</w>
bu n
ro w</w>
le gs</w>
bu t</w>
fe male</w>
ar ms</w>
t er
te en
p at
tri c</w>
ea m</w>
d ir
ro ad</w>
d ur
g n</w>
elec tric</w>
f t</w>
ic ycle</w>
al ly</w>
p es</w>
t ure</w>
g ar
dd le</w>
w s</w>
pe t
dur ing</w>
fa st</w>
gla sses</w>
t re
t ly</w>
qu i
cou rt</w>
fing ers</w>
piec es</w>
h ar
bl es</w>
tt ing</w>
af ter</w>
bo x</w>
l ou
be ach</w>
ke y</w>
t eam</w>
fi sh</w>
car ds</w>
t y
b and</w>
r out
f ac
an ge</w>
aga in
vari ous</w>
e v
d er
d anc
again st</w>
sh ing</w>
st er</w>
ba g</w>
st e
ey e
com pet
wh eel</w>
gra ss</w>
exerci se</w>
ic k
for th</w>
e el
ro l
con t
out doors</w>
in gs</w>
m er</w>
at or</w>
whi ch</w>
it e
foo t</w>
fo re
pla stic</w>
c oun
dir t</w>
ballo on</w>
ta in</w>
ri ght</w>
m self</w>
bu il
s si
n s</w>
mo tion</w>
h al
wei ghts</w>
rout ine</w>
f li
c er
hi mself</w>
fe w</w>
s and</w>
o pen</w>
li ving</w>
f ul
swimm ing</w>
par k</w>
un der</w>
r ts</w>
ful ly</w>
an s</w>
po le</w>
at s</w>
p ic
ol der</w>
m b
be l
in di
mu l
be er</w>
s o</w>
o ce
s k</w>
oce an</w>
gu ys</w>
wei ght</w>
st ri
h am
to wards</w>
mov es</w>
wal k</w>
v ice</w>
wh eel
ve hi
ta l
no t</w>
v y</w>
li ght</w>
n ear</w>
h a
cou ch</w>
el low</w>
m p
bi g</w>
sc reen</w>
c le
mi ddle</w>
l u
buil ding</w>
di o</w>
t ur
tru ck</w>
er i
c re
s qu
an o</w>
ca ke</w>
play er</w>
pi ano</w>
p air</w>
t at
ey e</w>
pe n
hea vy</w>
f our</w>
y ellow</w>
pl an
y o
wor k
s et</w>
la r</w>
m es</w>
sk i
g et</w>
compet ition</w>
am s</w>
sho e</w>
h at</w>
um b
sh e
ey es</w>
ten n
or e</w>
j u
m oun
c al</w>
tenn is</w>
snow y</w>
ho le</w>
g lo
bo th</w>
rea d</w>
han d
s li
ch es</w>
boo k</w>
out door</w>
bu b
ho c
d ough</w>
micro phone</w>
ti e</w>
m other</w>
fi shing</w>
p an
in er</w>
hoc key</w>
w ine</w>
ty pe</w>
te ams</w>
stu dio</w>
rea m</w>
h el
t ar
pro per
man y</w>
on es</w>
u p
n eck</w>
t ter</w>
ca l
b icycle</w>
play ers</w>
g er</w>
lo t</w>
z z
f f</w>
d ge</w>
t ic
in door</w>
pain t</w>
si de
ev ent</w>
indi vi
g es</w>
indivi du
sh es</w>
proper ly</w>
wat er
ham mer</w>
pi pe</w>
vehi cle</w>
c tion</w>
qu ick
m at</w>
u ps</w>
quick ly</w>
la ke</w>
c at</w>
sho es</w>
bu tt
eye b
p in
s ame</w>
e en</w>
b ro
te ch
or ange</w>
ch a
bun ch</w>
ti mes</w>
st ance</w>
un i
d re
c ur
c ks</w>
ba th
w re
rol ler</w>
b ir
row s</w>
rea dy</w>
pla y</w>
lan gu
p y</w>
vi e
gy m
tw een</w>
ne ed
g i
mul ti
langu age</w>
do es</w>
be tween</w>
lo ck</w>
i ls</w>
h u
s ink</w>
p ink</w>
pl ate</w>
gym na
ani ma
for m</w>
de vice</w>
ap ple</w>
multi ple</w>
a th
adul ts</w>
s low</w>
tr ac
instruc tions</w>
clo th</w>
play ing</w>
ic al</w>
bu ll</w>
for ward</w>
ho me</w>
fu ll</w>
c up</w>
m el
fu l</w>
tr icks</w>
sa u
p rac
car pet</w>
s ec
ri st
bask et</w>
sc u
sa w</w>
i ons</w>
c ard</w>
do gs</w>
clo th
teen age</w>
si gn</w>
sho t</w>
tal ks</w>
no i
eg g</w>
on d</w>
instru ments</w>
n y</w>
en ds</w>
bo w</w>
st ra
par t</w>
be e</w>
to o
sk il
g re
de d</w>
musi cal</w>
e l</w>
moun tain</w>
h as</w>
s co
wor k</w>
str ation</w>
ol d</w>
spe ci
d ly</w>
st and</w>
sle d</w>
pl ace</w>
pro ce
c k
ar t</w>
cloth es</w>
f ir
st icks</w>
s wor
dru ms</w>
b en
ma ke
de mon
par ach
j ac
a bo
str ing</w>
bo x
win do
am po
t le
ou l
m ir
sh a
in s</w>
sur face</w>
r ace</w>
ch rist
side walk</w>
si on</w>
ri ver</w>
pen ci
m as</w>
mir ro
christ mas</w>
lou d</w>
p les</w>
tech ni
techni qu
r ing</w>
no se</w>
fl ute</w>
el y</w>
abo ve</w>
sk i</w>
s how</w>
demon stration</w>
mirro r</w>
fir st</w>
eg gs</w>
v o
w ers</w>
w ea
co l
back wards</w>
re c
i ll</w>
er y</w>
make up</w>
la wn</w>
exerci ses</w>
sc ho
r e</w>
am i
for m
ath le
mel on</w>
glo ves</w>
fing er</w>
bu c
bath room</w>
c lu
st um
r ink</w>
po s
penci l</w>
tr ampo
t v</w>
low er</w>
c les</w>
too ls</w>
to ri
mo tor
st y
she et</w>
scho ol</w>
s mo
cou r
un der
tar get</w>
su it</w>
need le</w>
to o</w>
cir cle</w>
k ne
ir s</w>
ho t</w>
fri ends</w>
on al</w>
t an
fri s
se wing</w>
s un
c an
ne ws</w>
c ream</w>
k in</w>
g as</w>
dru m</w>
bel ly</w>
sh oul
eyeb rows</w>
ee p</w>
parach ute</w>
fri end</w>
ch an
ca p</w>
lo o
go al</w>
fi ght</w>
wa ves</w>
trampo line</w>
s y</w>
p ping</w>
ro pes</w>
li ghts</w>
be ll</w>
la d
hoo p</w>
th is</w>
ed ly</w>
t un
ss age</w>
se at</w>
g ear</w>
w ere</w>
n et</w>
cla ss</w>
um p
trac tor</w>
ar ti
sh ar
pro per</w>
h er
s of
pi l
k es</w>
clo se</w>
sp ra
pic ture</w>
fu n</w>
po r
ur ant</w>
ni ght</w>
l o</w>
it y</w>
f ami
e qui
aga in</w>
s or
re sta
individu al</w>
di um</w>
clu b</w>
c r
p ment</w>
fi c</w>
danc ing</w>
s lo
g en
c y
sli de</w>
sho p</w>
ben ch</w>
t ele
ne w
equi pment</w>
car t</w>
c ro
ac k
to m</w>
skat e
resta urant</w>
mat ch</w>
cli ff</w>
yo u</w>
water melon</w>
sel ves</w>
con cre
com pu
wi th
m in
k ar
ed ge</w>
concre te</w>
anima l</w>
the m
st ore</w>
ho se</w>
hal f</w>
p ong</w>
w ind</w>
them selves</w>
per s</w>
bot tom</w>
fami ly</w>
colo r
a ls</w>
vie w</w>
t ch</w>
cour se</w>
be at</w>
k ers</w>
e p</w>
b rea
r am
di ving</w>
co stum
ch ee
fris bee</w>
che st</w>
ta bles</w>
proce ss</w>
g g
d ers</w>
compu ter</w>
m om</w>
bub ble</w>
vi sion</w>
ch ing</w>
ph ones</w>
f ence</w>
re pe
na ils</w>
fli p</w>
s ing
ar s</w>
tr y</w>
ri c</w>
repe at
n ing</w>
ite m</w>
pu p
ba t</w>
s coo
f ab
z e</w>
v a
tele vision</w>
sor t</w>
ir on</w>
com m
ch ur
t es</w>
repeat edly</w>
e mp
du c
buc ket</w>
st one</w>
s wing</w>
i ss
vo ice</w>
swor d</w>
k ind</w>
chur ch</w>
gh ter</w>
tu tori
lad der</w>
ste ps</w>
st om
mat eri
ma l
tutori al</w>
pat h</w>
hor ses</w>
dri ll</w>
windo w</w>
her self</w>
fab ric</w>
d eck</w>
coun ter</w>
tun e</w>
sur f
la p</w>
e y</w>
i gn</w>
ul a</w>
st s</w>
po t</w>
ne w</w>
j o
e fully</w>
ti c</w>
sp in
pl at
me chan
tre es</w>
li qui
l en
b ri
sty le</w>
ma ssage</w>
con cer
wea ther</w>
spra y</w>
s er
di s
wre st
sa il</w>
lea ves</w>
fac es</w>
u se</w>
to i
po wer</w>
bro wn</w>
wa x</w>
th read</w>
techniqu e</w>
d es</w>
c and
tu b</w>
fore ign</w>
el se</w>
dre ss</w>
be side</w>
toi let</w>
po in
mo bi
it i
concer t</w>
with out</w>
pre s
c ycle</w>
con ta
co w</w>
n o</w>
clo thing</w>
ac t</w>
woo ds</w>
per form
of f
hea d
t on
slo pe</w>
liqui d</w>
ju st</w>
ite ms</w>
ram p</w>
k ite</w>
f er
c el
speci al</w>
f un
b ur
b lower</w>
st ro
n umb
el s</w>
st ov
br an
ar r
we ll</w>
sc en
p han
c ra
j a
fli ps</w>
cle an
ve ge
h ard</w>
re cor
h e
gu e</w>
emp ty</w>
sc iss
sc ar
s and
qu e
ma sk</w>
tat too</w>
su c
fa ther</w>
ele phan
coun try</w>
to ward</w>
w n
tru m
bo tt
ballo ons</w>
vi ol
v ol
new s
l l
gu m</w>
b a</w>
i f</w>
ss y</w>
s l
stov e</w>
scoo ter</w>
p ur
m et</w>
in es</w>
elec tr
car efully</w>
b b
t ers</w>
s na
pro duc
p it</w>
mechan ical</w>
hel met</w>
ve l</w>
s al
ou s
in doors</w>
d in
bow ling</w>
wor ker</w>
che f</w>
ti al</w>
spo rts</w>
p un
re ally</w>
n u
su b
spo on</w>
plan e</w>
ti ve</w>
te e
in ter
fl at</w>
coo ki
conta iner</w>
tee th</w>
k a
in der</w>
squ are</w>
sciss ors</w>
s ound</w>
ne ss</w>
materi al</w>
h ur
g o</w>
de sk</w>
at i
ar ts</w>
trum pet</w>
box ing</w>
be d
si um</w>
le ft</w>
ce ment</w>
bal let</w>
tra f
traf fic</w>
st le</w>
i ght</w>
gymna sium</w>
back yard</w>
st o
la p
k ey
butt on</w>
bo ards</w>
motor cycle</w>
en c
at ed</w>
y ar
suc ce
s er</w>
pos ition</w>
kar ate</w>
bott les</w>
bed room</w>
spe ed</w>
dr ink</w>
d om
ba ge</w>
arti st</w>
wrest ling</w>
v ac
smo ke</w>
skil ls</w>
n ap
yar n</w>
tu be</w>
skat ing</w>
bar bell</w>
te en</w>
ge ts</w>
dri ve
wa ve</w>
se tting</w>
scu ba</w>
f ru
drive way</w>
ic a</w>
b an
work ers</w>
stu d
sk y</w>
sk is</w>
sho rts</w>
sa x
ro cks</w>
par ty</w>
ge d</w>
che ss</w>
b lock</w>
tt ers</w>
en a</w>
con stru
c ho
bl an
be low</w>
vol le
spe c
ous ly</w>
g er
di es</w>
p ump
constru ction</w>
ac es</w>
tle ss</w>
gr ill</w>
gar bage</w>
di stance</w>
de sign</w>
d ra
zz le</w>
mo wer</w>
ar ena</w>
un ti
sa il
mu d</w>
cir cu
b oun
a x
w ic
sna ke</w>
t ice</w>
sh eep</w>
pi le</w>
n ch</w>
lan e</w>
hur d
shi r
shir tless</w>
n it
li c</w>
har mon
f fe
c her</w>
c at
z er</w>
y our</w>
unti l</w>
teen ag
pil low</w>
mon ey</w>
m ore</w>
colo red</w>
c en
bir th
al so</w>
ul t</w>
tra sh</w>
prac tice</w>
ma les</w>
ta il</w>
li g
ic s</w>
f re
tur es</w>
ton gue</w>
te mp
skate board</w>
key board</w>
gar age</w>
dom in
mobi le</w>
birth day</w>
sax o
produc t</w>
go at</w>
flo wers</w>
viol in</w>
o es</w>
h ap
bu sy</w>
we l</w>
ti le</w>
te d</w>
g a</w>
ffe e</w>
co ffee</w>
th ings</w>
pe ner</w>
mar tial</w>
ce ll</w>
y er</w>
perform ance</w>
bo ar
y e</w>
te st</w>
pi zz
or g
mi ll</w>
h y
da d</w>
com p
vac u
s ol
r ound</w>
o il</w>
ea d</w>
cu be</w>
car s</w>
b room</w>
a ir
to wel</w>
pi pes</w>
harmon ica</w>
electr on
yo ga</w>
vacu um</w>
ra z
p ple</w>
j e
g am
w et</w>
ru n
oun ds</w>
man s</w>
br ick</w>
an g
tr ick</w>
ta ll</w>
t on</w>
succe ss
s age</w>
pur ple</w>
on ly</w>
gu n</w>
fi re
bub bles</w>
numb er</w>
lit y</w>
f ar</w>
cand les</w>
z ed</w>
stro ke</w>
low s</w>
ic es</w>
ge e</w>
costum e</w>
be ard</w>
b read</w>
athle te</w>
st ac
sc re
re mo
at temp
ar row</w>
out f
electron ic</w>
p ho
gr ap
fla me</w>
al lig
a ble</w>
un icycle</w>
tre ad
stom ach</w>
se d</w>
saxo phone</w>
objec ts</w>
l ls</w>
sand wic
lo g</w>
li ps</w>
go od</w>
ex c
cur ling</w>
wheel chair</w>
ski ing</w>
ro of</w>
pizz a</w>
ha ir
f enc
dr y</w>
remo te</w>
plat form</w>
per s
mu sh
kne es</w>
k not</w>
gra ssy</w>
fun ny</w>
vege tables</w>
t ro
sta dium</w>
sho rt</w>
pu sh</w>
mov e
lou dly</w>
j et</w>
har p</w>
fru it</w>
colo r</w>
ac cor
y ball</w>
y a
spo rt</w>
s mi
par king</w>
elephan t</w>
cou ples</w>
blan ket</w>
accor di
volle yball</w>
ste p</w>
s y
noi se</w>
hu ge</w>
gr inder</w>
di sh</w>
work out</w>
v el
sau sage</w>
na il</w>
noi ses</w>
fac i
cle ar</w>
bo r
ra p</w>
mar sh
f ly</w>
pan ts</w>
hi gh
wa ys</w>
ti ght</w>
snow man</w>
r ab
pic tures</w>
p r
p ack
lea ther</w>
jum ping</w>
jac ket</w>
in f
a p</w>
wor ds</w>
v ers</w>
ta to</w>
ta ge</w>
sco pe</w>
raz or</w>
po tato</w>
n arr
n '
la dies</w>
ca ve</w>
br icks</w>
be au
ba g
ta p</w>
l ers</w>
tread mill</w>
tra il</w>
ssi on</w>
pin ea
n' t</w>
ing re
fla sh
f in
danc es</w>
sub stance</w>
s an
prac tic
org an</w>
lap se</w>
instruc tor</w>
ingre di
h ula</w>
cli mb
b le
allig ator</w>
se g
pump kin</w>
pin ball</w>
n am
h all</w>
con test</w>
scar a</w>
pre ss
or der</w>
nap kin</w>
ma scara</w>
chee se</w>
cer tain</w>
butt ons</w>
bar row</w>
t ec
skat es</w>
pu zzle</w>
ph y</w>
pa st</w>
o o</w>
ba se</w>
w el
u s</w>
sec ond</w>
p ond</w>
lea f</w>
flo wer</w>
ch ar
ur es</w>
stri p</w>
le y</w>
f ur
cen ter</w>
cam el</w>
al one</w>
ac tion</w>
se a</w>
sandwic h</w>
cont act</w>
cla ss
at h</w>
v en
sco tch</w>
s ounds</w>
s in
ro d</w>
po rt</w>
fore st</w>
cla y</w>
tw h
pinea pple</w>
ne ar
inf ant</w>
ic an</w>
gol d</w>
car twh
c ity</w>
to ys</w>
sk in</w>
par ts</w>
m ba
er ing</w>
bun gee</w>
si an</w>
ingredi ents</w>
sho re</w>
s eri
pun ching</w>
on loo
mon o
micro scope</w>
gh t
dr in
d en
cu t</w>
bu ll
uni form</w>
tt e</w>
tor y</w>
o wn</w>
ke ts</w>
i st</w>
gen tle
e e</w>
co in</w>
c ture</w>
x y
practic es</w>
news paper</w>
i d</w>
danc ers</w>
cy mba
cir cles</w>
ver s
t ou
stud ents</w>
so ap</w>
p pers</w>
ir d</w>
dri ver</w>
a sian</w>
sun ny</w>
sha pe</w>
de ep</w>
st or
sing ing</w>
sho ts</w>
ro om
no tes</w>
mar ker</w>
cooki es</w>
class room</w>
circu lar</w>
ca se</w>
b s</w>
at m</w>
an n
z oo</w>
re fer
gar den</w>
ca stle</w>
bri dge</w>
w ire</w>
under water</w>
tat ors</w>
tan k</w>
success fully</w>
s ite</w>
r y</w>
pup pet</w>
o p
marsh mal
to es</w>
pro tec
pro jec
po ly</w>
m il
i ma
fi l
erci al</w>
di rec
cont ro
tra pe
off ice</w>
o y
mono poly</w>
individu als</w>
in fl
ter n</w>
st ill</w>
ra pi
p it
gre at</w>
d o</w>
comm ercial</w>
b it</w>
ax e</w>
st an
some body</w>
si des</w>
sh ed</w>
se l</w>
re fri
mov e</w>
jac ks</w>
ja vel
hoo k</w>
d ou
d ec
color s</w>
color ful</w>
a m</w>
y ol
swimm ers</w>
hand stand</w>
fac tory</w>
en g
di scu
coo king</w>
clean er</w>
si l
shar pener</w>
scen e</w>
s n
po lo</w>
po ker</w>
pers ons</w>
gra phy</w>
gh tly</w>
ger ator</w>
dar t</w>
c y</w>
b ra
at ions</w>
ann oun
spec tators</w>
sk ate</w>
sc ul
press ure</w>
onloo kers</w>
javel in</w>
in et</w>
hor se
hea ds</w>
fr ame</w>
d dy</w>
wre nch</w>
shoul ders</w>
sho pping</w>
se ment</w>
s pa
pla ys</w>
par t
p in</w>
kne e</w>
ir es</w>
hurd les</w>
g ong</w>
cha in</w>
cel lo</w>
ca st</w>
be ans</w>
b lo
trape ze</w>
ta pe</w>
scul p
sc rab
scrab ble</w>
pi g</w>
pa d</w>
li f
la d</w>
flash light</w>
di shes</w>
chi ck
air plane</w>
accordi on</w>
st ation</w>
sho vel</w>
ru bi
refri gerator</w>
po p</w>
li sh</w>
k ick</w>
hal l
ge tting</w>
cu tting</w>
cro ss</w>
bal l
am oun
ti ss
t om
shoul der</w>
o ri
hall way</w>
fenc ing</w>
tur ns</w>
sa fe
safe ty</w>
che er
cal f</w>
tt i</w>
skil let</w>
seri es</w>
s we
pres ent</w>
at ing</w>
xy lo
win gs</w>
ski er</w>
shar p</w>
ru bb
pu b
pub lic</w>
ov en</w>
ka ya
hap py</w>
ba th</w>
mo p</w>
hel p</w>
exc it
co w
be es</w>
ba d
a x</w>
plan ts</w>
move ments</w>
d on
ca ge</w>
bl on
be e
for k</w>
chi ps</w>
be en</w>
ap ples</w>
ad ver
tra in</w>
stra ight</w>
refer ee</w>
pat i
la un
ic i
head phones</w>
gh e
blon de</w>
spa ghe
spaghe tti</w>
si g
sa lad</w>
ey el
ba gs</w>
wi ll</w>
st ream</w>
pl ant</w>
l d</w>
ir on
ha ve</w>
gentle man</w>
der ly</w>
dar ts</w>
chick en</w>
bur ger</w>
amoun t</w>
wo ol</w>
stru cture</w>
par ents</w>
near by</w>
ho p
el derly</w>
cr ic
anima ls</w>
wa shing</w>
tt ery</w>
tor ch</w>
sun glasses</w>
sal on</w>
que st
par a
me et</w>
li ft</w>
grou ps</w>
fi ve</w>
d ge
contro l</w>
con vers
beau ti
xylo phone</w>
wheel s</w>
v ely</w>
r hy
do ck</w>
ag es</w>
up side</w>
shi rts</w>
projec t</w>
ov er
ob stac
musi ci
mi x
l at
fi gh
sh i</w>
protec tive</w>
p on
le ad
bran ch</w>
wheel barrow</w>
um p</w>
su shi</w>
n ec
mar bles</w>
la wn
ic ally</w>
hand le</w>
for ms</w>
fi gu
eyeb row</w>
cu ps</w>
cha irs</w>
bran ches</w>
bar re
b la
po dium</w>
pat tern</w>
narr ator</w>
i gh
cric ket</w>
adver ti
pro fe
p ri
min ton</w>
dr yer</w>
d el
announ cer</w>
sculp ture</w>
rubb er</w>
pa l
me mb
k no
co at</w>
ca b
boun cy</w>
blo cks</w>
bir d</w>
b are</w>
wa r</w>
rhy th
p ack</w>
m or
le d</w>
laun dry</w>
gu ns</w>
e ver
do zer</w>
ci g
che er</w>
bad minton</w>
ba tter</w>
smi les</w>
s se</w>
pain ting</w>
j ack</w>
convers ation</w>
bu t
b low</w>
th in</w>
sle ep</w>
sau ce</w>
s ea
outf it</w>
infl at
grap es</w>
cheer lead
beauti ful</w>
al ley</w>
tra y</w>
s la
poin t</w>
pe el
pe d</w>
o d
n ers</w>
il ing</w>
ea ster</w>
d ye</w>
d an
cha in
am er
tor s</w>
s cal
profe ssi
p py</w>
ma il</w>
in a</w>
hop scotch</w>
fl our</w>
ever y
bo b
seg way</w>
ro bo
l acro
lacro sse</w>
do wn
s wings</w>
ro ll</w>
la shes</w>
l and</w>
cow boy</w>
t in
room s</w>
pain tball</w>
lan ds</w>
l in
inflat able</w>
gg les</w>
chain saw</w>
u k
spin ning</w>
sof t</w>
sec tion</w>
pan cake</w>
m y</w>
k ee
in hal
har ness</w>
dis c</w>
costum es</w>
comm en
climb ing</w>
bull dozer</w>
bag pipes</w>
z en</w>
sta irs</w>
mo st</w>
li p</w>
ke ys</w>
er sa
de ser
d board</w>
d au
cor ner</w>
v ed</w>
tiss ue</w>
str ings</w>
peel er</w>
li graphy</w>
k ed</w>
che ers</w>
bir ds</w>
bel ls</w>
a li
youn ger</w>
u t</w>
mar ac
la ser</w>
inhal er</w>
g ro
fla g</w>
dec or
d ead</w>
cig are
bal ance</w>
adverti sement</w>
vi l</w>
th row</w>
snow mobile</w>
po w
pl aces</w>
pack age</w>
p li
mu ddy</w>
l ler</w>
it es</w>
ho od</w>
h ats</w>
gra ff
deser t</w>
c ru
tro mb
pre ss</w>
po ttery</w>
me d
fi d
drin ks</w>
co ach</w>
char ac
car dboard</w>
bar ten
b ite</w>
wi de</w>
teenag er</w>
ri de</w>
re por
pe ts</w>
par tic
ic y</w>
ho p</w>
ho les</w>
graff it
ge st
di ver</w>
cra ft</w>
chi sel</w>
at ure</w>
yol k</w>
win dy</w>
un se
ti p</w>
techniqu es</w>
recor ding</w>
par ent</w>
la u
kaya k</w>
k nit
i m
discu s</w>
cli ppers</w>
c ri
bi kes</w>
ba t
b right</w>
b and
ar y</w>
windo ws</w>
unse en</w>
tur n</w>
sur f</w>
spin ner</w>
sp at
sof a</w>
p per</w>
oy ster</w>
it ions</w>
fing er
faci al</w>
cor rec
co py</w>
w il
li d</w>
ge ment</w>
dau ghter</w>
cigare tte</w>
bo ats</w>
amer ican</w>
tra in
to oth
ti les</w>
swor ds</w>
spat ula</w>
mal let</w>
li p
graffit i</w>
cor d</w>
cont roller</w>
ati ve</w>
a s
woo ded</w>
th ird</w>
sp ani
recor der</w>
r ange</w>
pho to
len s</w>
fro zen</w>
cartwh eel</w>
uni forms</w>
th umb
th an</w>
spani sh</w>
sail boat</w>
or che
orche str
nit ure</w>
fur niture</w>
e ts</w>
domin oes</w>
bel t</w>
athle tic</w>
wa ist</w>
w hole</w>
tr ic
teenag ers</w>
or nam
mil k</w>
do l
dis play</w>
box es</w>
under ne
underne ath</w>
um b</w>
ty pes</w>
te a</w>
stra w</w>
repor ter</w>
qu e</w>
professi onal</w>
po les</w>
m ou
lip stick</w>
le tters</w>
l ines</w>
knit ting</w>
dou ble</w>
crow ded</w>
win ter</w>
ti ght
thumb s</w>
t balls</w>
st ics</w>
s ure</w>
pi er</w>
per i
mush rooms</w>
lea sh</w>
gam es</w>
foo tage</w>
fid get</w>
e ars</w>
attemp ts</w>
up per</w>
tromb one</w>
poin ts</w>
n ice</w>
me al</w>
m p</w>
fa ke</w>
d ump
cli ps</w>
barten der</w>
ac her</w>
te e</w>
ta g</w>
t ires</w>
ou r
nu ck
k nuck
gre y</w>
e ss</w>
brea k</w>
a ward</w>
uni son</w>
tight rope</w>
st ing</w>
st er
sau sa
sausa ges</w>
orchestr a</w>
ma ll</w>
lo ts</w>
lawn mower</w>
l un
gi ft</w>
excit ed</w>
dra wing</w>
direc tions</w>
com b</w>
col d</w>
cal ligraphy</w>
ca de</w>
bl ack
th ick</w>
som ersa
sma ller</w>
sh al
ri er</w>
po l
marshmal lows</w>
l t</w>
har d
gi ant</w>
gen tly</w>
f oun
do ll</w>
din ner</w>
bla de</w>
at ely</w>
ar cade</w>
va ult</w>
train ing</w>
swi m</w>
sp on
shal low</w>
p ump</w>
man u
in st
g th</w>
f ts</w>
dump ster</w>
comp le
car ro
c one</w>
boo ts</w>
at t
vehi cles</w>
th s</w>
s her</w>
s ca
rapi dly</w>
rac ket</w>
instruc tion</w>
in ten
f it
di vers</w>
cle an</w>
work shop</w>
wal ls</w>
tw ice</w>
st i
moun ta
mo tor</w>
ma g
knuck les</w>
it al</w>
h un
eyel iner</w>
dd ing</w>
d umb
cont in
bu s</w>
soc ks</w>
sig ns</w>
r al</w>
pr in
nec k
memb ers</w>
li ghter</w>
l li
gol f
go ats</w>
cymba ls</w>
cheerlead ers</w>
bi es</w>
attemp t</w>
squ ats</w>
sh el
po lish</w>
mu ch</w>
le ss</w>
hu man</w>
figu re</w>
fi st</w>
ba ss</w>
ba bies</w>
a sleep</w>
st eep</w>
st al</w>
sil ver</w>
pa pers</w>
o s</w>
need les</w>
mi c</w>
mar ching</w>
man ner</w>
li ve</w>
f anc
fanc y</w>
cor k</w>
con fer
bob sled</w>
ba tting</w>
b er</w>
stu ff</w>
si x</w>
scre w</w>
ru g</w>
re port</w>
ima ge</w>
form ation</w>
dan cer</w>
bath tub</w>
te xt</w>
m it
le go</w>
k ins</w>
gymna stics</w>
com ments</w>
cli p</w>
cho col
cam els</w>
ti onal</w>
te acher</w>
st ers</w>
sl ices</w>
pup pets</w>
musici ans</w>
mush room</w>
ma de</w>
m ac
indi an</w>
fe males</w>
di ve</w>
confer ence</w>
chocol ate</w>
at ures</w>
a ged</w>
a er
y ing</w>
wor d</w>
whi l
si t</w>
s ing</w>
pit ch</w>
pa ges</w>
marac as</w>
f ree</w>
eye lashes</w>
do c
contin u
bar s</w>
at ten
a part</w>
th er
stre t
stor y</w>
snow board</w>
sing le</w>
sail ing</w>
robo t</w>
que tball</w>
lo om</w>
kni ves</w>
i red</w>
gra y</w>
for mer</w>
fo l
fl u
e ff
e f
whil st</w>
swe at
st at
speci fic</w>
sc ra
po st</w>
k y</w>
high chair</w>
ha ired</w>
en ly</w>
din ing</w>
cla pping</w>
bar be
b ent</w>
ta r</w>
t ment</w>
spe ec
speec h</w>
snow ball</w>
she ll</w>
mm er</w>
mat h</w>
l ure</w>
k icks</w>
iti ve</w>
in du
f le
down hill</w>
d ea
cooki e</w>
baske tballs</w>
barre l</w>
band age</w>
b ly</w>
al most</w>
va se</w>
v as</w>
tr an
shi on</w>
qu et</w>
pho to</w>
pe ns</w>
p ans</w>
ne l</w>
motor cy
mach in
le le</w>
j er
iron ing</w>
e ating</w>
ce iling</w>
can vas</w>
. .</w>
wat ches</w>
v al</w>
ul ts</w>
uk u
uku lele</w>
th row
su dd
sn ea
scal lo
re ction</w>
pro ble
pal m</w>
pa irs</w>
pa in</w>
lo lli
k ick
en tly</w>
di rection</w>
ban k</w>
w rap</w>
tin y</w>
stri ps</w>
stri al</w>
st ones</w>
s it
s cor
ru ns</w>
ro a
ra in</w>
pin s</w>
p ick</w>
j am
indu strial</w>
hard wood</w>
gu i
fin i
f arm</w>
every one</w>
en ac
cat cher</w>
cand le</w>
cab inet</w>
au ction</w>
th umb</w>
tar y</w>
su its</w>
st ack</w>
si ze</w>
rol ling</w>
pre par
p ac
mo on</w>
machin ery</w>
je ans</w>
gu tters</w>
gest ures</w>
fit ness</w>
cu te</w>
car to
can o
boar ding</w>
acro ba
ac tions</w>
wh y</w>
w r
w e</w>
tooth brush</w>
t en</w>
st ed</w>
pi c</w>
gymna stic</w>
en s</w>
e f</w>
ch al
bu sin
bro ther</w>
ac ti
su p
stri ped</w>
sol o</w>
sle dge</w>
pu sh
partic u
on ce</w>
kee per</w>
ic er</w>
hor n</w>
glo ve</w>
fa ll</w>
ed ges</w>
e ty</w>
e ds</w>
co ho
ca use</w>
busin ess</w>
au tom
todd lers</w>
st eel</w>
ser vice</w>
ro deo</w>
po tat
pati o</w>
mac arena</w>
lo tion</w>
hi p</w>
hel me
bu tter</w>
al coho
wel ding</w>
ti ps</w>
t ation</w>
surf er</w>
sto ol</w>
sin o</w>
shi ft</w>
rac quetball</w>
play ground</w>
p low</w>
ne igh
mor tar</w>
ka h</w>
in ged</w>
fu r</w>
fo am</w>
eng ine</w>
dir ty</w>
ch in</w>
ca sino</w>
b in</w>
ang le</w>
whi stle</w>
su it
stre tch</w>
spo r
san der</w>
ri des</w>
particu lar</w>
pa d
mach ines</w>
m ly</w>
iti onal</w>
i s
gu tter</w>
dru m
cr an
clean ing</w>
buc kets</w>
back pack</w>
b er
tt on</w>
tr ad
st ea
spe a
sof tball</w>
scen es</w>
plan k</w>
per former</w>
per f
pa ss
on g
mounta ins</w>
m b</w>
fri dge</w>
foun d
found ation</w>
f ans</w>
eff ec
e ar
d a</w>
co tton</w>
butt er
be cause</w>
an k
x i
wat ers</w>
ve st</w>
ti on
teen s</w>
str inged</w>
sp ace</w>
snow balls</w>
si ppy</w>
sh ee
rhyth m</w>
ra w</w>
pi ge
mo wers</w>
lan es</w>
hu g</w>
hoo ps</w>
hoo kah</w>
finger nails</w>
fil ms</w>
faci lity</w>
en clo
eel s</w>
e u
e k</w>
di e</w>
coo k</w>
co ver</w>
chee k</w>
b re
ver age</w>
up right</w>
suit case</w>
side ways</w>
s w
qu ick</w>
pres en
por ch</w>
o ke</w>
li fe</w>
figh ting</w>
do or
car rier</w>
cam p
be st</w>
b ic
al ready</w>
w ra
st roller</w>
sle dge
si ve</w>
sho o
perf ec
pen ing</w>
outf its</w>
obstac les</w>
mo tori
lolli pop</w>
l ace</w>
jo b</w>
ho l
h on
fe atures</w>
elephan ts</w>
e ting</w>
cymba l</w>
cu stom
ci vil</w>
cat ch</w>
back ward</w>
arr an
acti v
tra iner</w>
t ent</w>
sy n
sudd enly</w>
stre ets</w>
spo t</w>
sledge hammer</w>
sk s</w>
ri der</w>
potat oes</w>
pa jam
o w
motori zed</w>
mo tions</w>
k in
ho me
g y</w>
flo ors</w>
do dge</w>
continu ously</w>
bar ber</w>
vi si
vari ety</w>
tt y</w>
trad itional</w>
ti es</w>
si mi
quest ions</w>
pil lows</w>
pan el</w>
ol y
neigh bor
manu al</w>
le dge</w>
kick ball</w>
kar a
k ic
horse back</w>
hair cut</w>
go ggles</w>
ex peri
con v
cel l
bl ing</w>
be ar</w>
be a
ac ci
surf ing</w>
surf board</w>
st un
sel fi
se par
ro ck
quest ion</w>
po ssi
mon tage</w>
kara oke</w>
hi ve</w>
fla gs</w>
f an</w>
enac tment</w>
d ges</w>
cont ents</w>
col le
chi p</w>
cano e</w>
boar der</w>
at ic</w>
wa sher</w>
su n</w>
sto p</w>
st e</w>
spon ge</w>
somersa ult</w>
r ings</w>
oly m
o lo
neighbor hood</w>
m en
j i
inst ead</w>
hurd le</w>
e la
carto on</w>
c ul
c lou
butter fly</w>
boun ce</w>
atten tion</w>
wal k
vie wers</w>
to e</w>
t row
swimm er</w>
stud ent</w>
scallo ps</w>
r ice</w>
plat es</w>
numb ers</w>
me th
me d</w>
ma ke</w>
m om
lif ting</w>
l aces</w>
it ch</w>
home made</w>
go s</w>
g in
g ath
gath ering</w>
di a
d ings</w>
c lar
b ye</w>
w ar
v els</w>
un k</w>
tw i
stri ke</w>
str ange</w>
some ones</w>
sk ir
si zed</w>
sha ving</w>
run ning</w>
rubi k</w>
qu ar
prepar ation</w>
pe de
mon y</w>
instruc tional</w>
horse shoe</w>
g n
g le</w>
da y
cri b</w>
ch et</w>
cer e
c ue</w>
bu sh</w>
bru shes</w>
bi lls</w>
ball er
att ach
vege table</w>
tru n
stan ds</w>
simi lar</w>
s pi
pit cher</w>
pige ons</w>
pajam as</w>
obstac le</w>
l iner</w>
i gh</w>
i e</w>
helme ts</w>
e se</w>
do dge
d ro
bar n</w>
ac ou
a do
walk way</w>
ven ue</w>
ten si
ste m</w>
sol di
sli ghtly</w>
shee ts</w>
sh ap
sel y</w>
ru n</w>
r ack</w>
pos ite</w>
pi ly</w>
ow ner</w>
on stage</w>
on gs</w>
o pening</w>
m a</w>
lu ge</w>
lan d
ham burger</w>
gro cer
figh ters</w>
domin o</w>
dodge ball</w>
conv ey
clar inet</w>
cartwh eels</w>
ca ster</w>
brea st</w>
athle tes</w>
ab i
y outh</w>
visi ble</w>
tre ss</w>
ri st</w>
re ci
proble m</w>
pol ice</w>
perform ers</w>
op posite</w>
off icer</w>
mu sc
mo on
me eting</w>
mb s</w>
marshmal low</w>
ma p</w>
loo k</w>
head stand</w>
ge ars</w>
g or
fore head</w>
fe sti
correc t</w>
ca kes</w>
base ment</w>
ax es</w>
wat ch</w>
t work</w>
t i</w>
sl ice</w>
shi p</w>
rock y</w>
ri bb
pli ers</w>
pl ic
p ace</w>
n arrow</w>
m on</w>
len gth</w>
in t</w>
in k
ev en</w>
dri lls</w>
dre ss
do o</w>
co pier</w>
can dy</w>
camp fire</w>
bal d</w>
ar ch
acou stic</w>
te m
si ster</w>
shoul d</w>
s um
pu t</w>
po se</w>
pede stri
ornam ents</w>
m bo
li st</w>
j ar</w>
i ler</w>
e mb
cro ss
cou ra
compet itive</w>
commen tary</w>
carro ts</w>
ca m</w>
barbe cue</w>
au d
am ong</w>
a sh</w>
a fr
wo mans</w>
w ear</w>
ve ment</w>
tor ches</w>
te x
ta ils</w>
spea ker</w>
sp in</w>
ski ers</w>
sho wer</w>
shap es</w>
reci pe</w>
r at
pre ssi
p ul
over head</w>
noi sy</w>
no te
ma l</w>
ma il
li der</w>
jer se
ima ges</w>
grocer y</w>
f it</w>
e qu
e i
cran e</w>
bea ds</w>
be verage</w>
baske ts</w>
bal con
back flip</w>
ba king</w>
alcoho l</w>
wheel ed</w>
we ird</w>
w are</w>
trow el</w>
to p
th ers</w>
stret ches</w>
sp ir
sk e
re st</w>
pat ty</w>
olym pic</w>
la st</w>
i es</w>
gu lar</w>
go ali
fre e
fla mes</w>
en coura
du st</w>
com pan
cell phone</w>
b es</w>
au c
as se
ad ju
u tensi
tw ir
t ator</w>
t a</w>
su al</w>
ste ering</w>
st art</w>
squ ash</w>
so da</w>
selfi e</w>
s sed</w>
rubi x</w>
part ment</w>
pa ge</w>
o pener</w>
nu t</w>
n ame</w>
mobi les</w>
med ic
me lo
le tt
le g
ju gg
in tric
in formation</w>
ho ver</w>
hap pily</w>
de signs</w>
cla ssi
ch i</w>
car pe
buil dings</w>
bat tle</w>
asse mb
uni que</w>
tu ally</w>
th ro
str y</w>
sle e
ra dio</w>
play fully</w>
par a</w>
o bi
no od
me ssage</w>
lap top</w>
it ori
it or</w>
goali e</w>
g l
fore cast</w>
de br
d um
but cher</w>
brea thing</w>
bow s</w>
bo lt</w>
balcon y</w>
assemb ly</w>
z z</w>
woo d
tou r
tour nam
to wer</w>
throw ing</w>
ta i</w>
st les</w>
st itch
spor ting</w>
skir t</w>
sh u
separ ate</w>
ribb on</w>
ri ders</w>
re enactment</w>
ra g</w>
pow der</w>
nu ts</w>
mu g</w>
melo dy</w>
materi als</w>
lo go</w>
li gi
le gos</w>
in ner</w>
golf er</w>
er ed</w>
el bow</w>
ea sy</w>
e st</w>
drin king</w>
dri ving</w>
door way</w>
di d
debr is</w>
cu tter</w>
charac ters</w>
charac ter</w>
bic y
arran gement</w>
y r
tournam ent</w>
th ough</w>
t um
str ong</w>
st ar</w>
smo king</w>
sk y
s mar
ri m</w>
ri es</w>
re si
push ups</w>
pu ll</w>
on ds</w>
moon walk</w>
man eu
ing ly</w>
i se</w>
gr i
g ger</w>
dumb bells</w>
dre sses</w>
don ut</w>
di mly</w>
cre ek</w>
compan y</w>
co ins</w>
black jack</w>
be am</w>
aud itori
a qu
wal ks</w>
vi gor
v iron
up beat</w>
tra iler</w>
tar gets</w>
tal ly</w>
squ ee
so ck</w>
skate boards</w>
sc ri
r s</w>
presen tation</w>
po p
pat ch</w>
or ing</w>
note book</w>
n ur
min i</w>
micro phones</w>
lun ges</w>
lif ts</w>
land sca
jo y
inter view</w>
ici an</w>
g eri
fre nch</w>
fo il</w>
festi val</w>
f at</w>
en viron
ei ther</w>
ch am
cere mony</w>
c are</w>
baller ina</w>
ba d</w>
auditori um</w>
ati onal</w>
are as</w>
adju st
un ks</w>
ti me
te l</w>
sy stem</w>
soldi ers</w>
si mul
sec onds</w>
scre w
run ner</w>
ri ding</w>
o p</w>
no te</w>
lar ger</w>
la ps</w>
l ts</w>
je wel
i ds</w>
gr and
geri doo</w>
fre sh</w>
fle xi
ev en
eng lish</w>
encoura gement</w>
e m
dar k
convey or</w>
but t</w>
boar ders</w>
wor ks</w>
win d
w ires</w>
w and</w>
tran s
th o
sp it</w>
sal t</w>
pre tty</w>
po stal</w>
pa vement</w>
pa ss</w>
neck lace</w>
motorcy cles</w>
medic ine</w>
me ssy</w>
m ea
lan ding</w>
intric ate</w>
glo ved</w>
flo ral</w>
fi ghter</w>
fa shion</w>
dol lar</w>
correc tly</w>
clo ser</w>
cal cul
bee f</w>
b ou
b end</w>
at es</w>
ap par
wal ker</w>
w rist</w>
vigor ously</w>
v an</w>
thro at</w>
st itch</w>
snea kers</w>
screw driver</w>
s en
s a</w>
r ough</w>
pi e</w>
ni c</w>
move ment</w>
mar ket</w>
le tter</w>
flo oring</w>
f our
ex ten
environ ment</w>
day time</w>
cro co
croco di
comp on
c ans</w>
c a</w>
bl ond</w>
attach ment</w>
at tire</w>
ang les</w>
af ter
abi lity</w>
z i
wra pping</w>
tr ap
tic s</w>
squ at</w>
sp ins</w>
sho vels</w>
ro i
re n
re ligi
re ce
pup py</w>
pump kins</w>
pu lar</w>
proce d
proced ure</w>
pe ice</w>
pe an
parach u
par k
oy sters</w>
no zzle</w>
mat tress</w>
lo gs</w>
lat in</w>
ke t
jugg ling</w>
ju dges</w>
ho r</w>
fla m
emb roi
ele v
der y</w>
cre w</w>
cor al</w>
con ven
chee ks</w>
c o</w>
c hor
base balls</w>
bag pipe</w>
ar rows</w>
anc hor</w>
ac ks</w>
tri mmer</w>
t read</w>
surf ers</w>
sp ital</w>
si p</w>
rol ls</w>
religi ous</w>
rec tan
po pular</w>
pe tting</w>
ornam ent</w>
len ses</w>
jewel ry</w>
ho ver
ho spital</w>
gra m</w>
g ate</w>
ex tre
ex hi
en er
dr am
did geridoo</w>
di sc
commen tator</w>
bow ls</w>
bar e
a is
wa sh</w>
time lapse</w>
stum p</w>
shi on
scra p
rapi d</w>
pass en
passen ger</w>
part ner</w>
p ick
ou gh
musici an</w>
meth od</w>
li ghtly</w>
li gh
it ing</w>
i er</w>
hon ey</w>
he ight</w>
h um
h at
go o
gl ue</w>
f s</w>
en ed</w>
embroi dery</w>
electr ical</w>
diff ic
decor ative</w>
con trap
con d
bu shes</w>
br ac
back stroke</w>
at ly</w>
arch ery</w>
ar twork</w>
ad ing</w>
wor king</w>
w are
ware house</w>
to wn</w>
syn c</w>
sweat er</w>
stro kes</w>
ster n</w>
ski ll</w>
scrap book</w>
sa ils</w>
sa f
ro prac
pu ck</w>
pro gram</w>
pos itions</w>
photo s</w>
para de</w>
mou ths</w>
mix ture</w>
min i
mag ic</w>
lo cal</w>
li vely</w>
la y
k it</w>
ji g
jig saw</w>
in front</w>
hi ps</w>
h i</w>
guit ars</w>
gui de</w>
g a
decor ations</w>
dark ened</w>
d ent</w>
chi roprac
bor n</w>
ball room</w>
afr ican</w>
acci den
a head</w>
z y</w>
yol ks</w>
vie ws</w>
vi de
ver se</w>
va ul
um in
su ch</w>
stat ue</w>
sp r
shion ed</w>
se ated</w>
re s
re mov
qu or</w>
per cu
pa ddle</w>
new born</w>
musc les</w>
mi lit
me ss</w>
mar kers</w>
m ound</w>
lo c
li quor</w>
li on</w>
j eep</w>
i or</w>
ho tel</w>
fr y</w>
for mal</w>
fire place</w>
eye glasses</w>
experi ence</w>
enclo sure</w>
dri ve</w>
dra wer</w>
doc tor</w>
di sk</w>
crocodi le</w>
classi cal</w>
camer a
be gin
ap pla
activ ity</w>
a z
a ssi
with in</w>
wil d</w>
u es</w>
tt ings</w>
trun k</w>
tri ple</w>
ta b
success ful</w>
she ars</w>
se ts</w>
se qu
scu lar</w>
scar f</w>
remov al</w>
re al</w>
pres ents</w>
para sail</w>
pack ages</w>
p t</w>
op pon
ong side</w>
on ions</w>
ob ics</w>
neck tie</w>
ne atly</w>
nap kins</w>
n on</w>
mu scular</w>
mix ed</w>
milit ary</w>
lo r</w>
lat er</w>
k ites</w>
iti es</w>
ic e
he at</w>
e tly</w>
drum sticks</w>
contrap tion</w>
con gre
c ats</w>
bee keeper</w>
be tter</w>
be ats</w>
bare foot</w>
an y</w>
al ongside</w>
ais le</w>
aer obics</w>
ad he
y ou
we b
u si
tic ally</w>
ter rain</w>
su per
smo o
s ling</w>
ru b</w>
qui etly</w>
pu t
pu ddle</w>
po c
me di
ma sks</w>
le vel</w>
k en</w>
j o</w>
it self</w>
in de
ici al</w>
el et</w>
ea si
dumb bell</w>
dru mm
dre ssed</w>
dou gh
dia per</w>
d le</w>
d ice</w>
cur ly</w>
chal k</w>
bicy cles</w>
be ar
ba l</w>
at op</w>
ari um</w>
ap r
am u
adhe sive</w>
acroba tic</w>
wo k</w>
wea ving</w>
v ices</w>
u ts</w>
tri angle</w>
th usi
tan e
tab let</w>
su g
sno r
sla b</w>
produc ts</w>
prin ter</w>
pon y</w>
perfec t</w>
pean ut</w>
pad ded</w>
ori gam
origam i</w>
or ch
orch ard</w>
nood les</w>
mat s</w>
mar ble</w>
loo se</w>
ki lt</w>
jerse y</w>
inter section</w>
hoo die</w>
hol der</w>
g lider</w>
g au
fi er</w>
en thusi
ele br
ela bor
ef for
dro p</w>
clou dy</w>
clo sed</w>
car ts</w>
c elebr
barre ls</w>
bal anc
aqu arium</w>
ap y</w>
ac ts</w>
wil dly</w>
sup port</w>
sta ir
squ ar
smoo th</w>
sing er</w>
sho el
sha ver</w>
se ttings</w>
scor es</w>
pati ent</w>
part ners</w>
pa st
mul ti</w>
mov ie</w>
mo de
jum per</w>
hover board</w>
grap hi
g room
dri ves</w>
dress er</w>
direc tly</w>
con es</w>
ce ss</w>
carro t</w>
ca ps</w>
bear ded</w>
ban ds</w>
bac ks</w>
at er</w>
al umin
ach es</w>
acciden tally</w>
wh ite
tic al</w>
ti ally</w>
sug ar</w>
stre n
stren gth</w>
stan ding</w>
snow mobiles</w>
sli des</w>
saf ely</w>
re action</w>
ra ft</w>
pun ches</w>
po tter</w>
pedestri ans</w>
pe d
p ings</w>
ou d</w>
ne qu
mix er</w>
mat es</w>
m ple</w>
lau gh
l ute</w>
k o
in y</w>
high way</w>
he art</w>
hand h
handh eld</w>
gi fts</w>
g ers</w>
g ang
fini shed</w>
figu r
fa ster</w>
f ine</w>
ex pressi
elabor ate</w>
custom er</w>
co ws</w>
clo se
climb er</w>
cla m</w>
c rac
b y
b by</w>
ati on
ar ing</w>
ank le</w>
an ds</w>
a w
y on</w>
vie wer</w>
un kno
umb er</w>
tre at</w>
ta ble
t board</w>
sur pri
sty list</w>
st en
st eam</w>
ss ages</w>
ski es</w>
simul tane
sec tions</w>
re verse</w>
re pet
o per
na ked</w>
mode l</w>
man nequ
m ol
lau gh</w>
kno b</w>
kic king</w>
jum ps</w>
ju ice</w>
ja zz</w>
ite ment</w>
hy ster
gymna st</w>
gi ggles</w>
fo ld</w>
fini sh</w>
fin ally</w>
f ea
excit edly</w>
exc itement</w>
dea ler</w>
de m</w>
conven tion</w>
con duc
comple te</w>
colo ring</w>
cli ent</w>
ca sh</w>
bra ids</w>
bou quet</w>
bo lts</w>
b on
b low
ap pro
ach ers</w>
zz y</w>
y stal</w>
wr iting</w>
wel der</w>
we stern</w>
we ed</w>
vo ices</w>
unkno wn</w>
trac tors</w>
tr ou
tr ance</w>
tan dem</w>
tal k</w>
stra p</w>
st and
so il</w>
si mple</w>
si del
sh ampo
sal sa</w>
ru g
ro be</w>
re ef</w>
ram ps</w>
possi ble</w>
po ses</w>
po lit
pe el</w>
pe ar
pad lock</w>
p tion</w>
o car
ocar ina</w>
n er
mini ature</w>
ma ker</w>
leg ged</w>
la sh</w>
k art</w>
jac k
inten se</w>
hyster ically</w>
hoo ping</w>
ho t
gg y</w>
g ing</w>
fris bees</w>
even tually</w>
e very</w>
e fly</w>
del i
dar tboard</w>
d der</w>
cur ren
cr ystal</w>
cor e</w>
close up</w>
cham pa
bri efly</w>
boo th</w>
boo ks</w>
begin ning</w>
an vil</w>
an a</w>
yr ami
wei gh
we dding</w>
wa ke</w>
wa it
w ns</w>
squar es</w>
speci ali
some where</w>
snow boarder</w>
sle ds</w>
skat er</w>
se ssion</w>
san ta</w>
ri z
rece i
pro gre
pla ster</w>
par tially</w>
pac i
pa ds</w>
p yrami
om s</w>
news caster</w>
mo sh</w>
memb er</w>
lin ks</w>
ki ss</w>
j un
inter e
gn e</w>
gi e</w>
four th</w>
fil m</w>
fi sts</w>
e x</w>
e ment</w>
dea d
cu shion</w>
cru st</w>
cour t
champa gne</w>
car ving</w>
can yon</w>
calcul ator</w>
cal m</w>
bro ken</w>
bre ath</w>
ba s
b rows</w>
white board</w>
wh ites</w>
weigh ted</w>
water fall</w>
volle y</w>
um er
u tion</w>
u ce</w>
tru cks</w>
tou ch
tech no</w>
tech n
stun t</w>
sta ble</w>
spra yer</w>
sle igh</w>
scoo ters</w>
san dy</w>
sa ws</w>
s am
rug by</w>
rist s</w>
ra ther</w>
r an
por tion</w>
pl u
pic nic</w>
pi es</w>
pan cakes</w>
paci fier</w>
pa ved</w>
pa stry</w>
narr ation</w>
n umer
med ical</w>
mat ado
mannequ in</w>
lo m</w>
ll a</w>
lett uce</w>
lau ghter</w>
landsca pe</w>
lad es</w>
la ge</w>
it ors</w>
hun t</w>
ho li
hi t</w>
exhi b
e er</w>
dru mmer</w>
discu ssion</w>
di am
cur ved</w>
cru mbs</w>
cra fts</w>
congre g
cla ps</w>
chor ds</w>
chan nel</w>
ch u
beau ty</w>
arti sts</w>
apr on</w>
a id</w>
y ear</w>
water ing</w>
under wear</w>
ton gs</w>
to w
tat too
sub way</w>
stra igh
straigh ten
stac he</w>
ss ing</w>
smi le</w>
sla lom</w>
shel f</w>
sequ ence</w>
scor e</w>
s m
sm ith</w>
re play</w>
rac ing</w>
qu a
poc ket</w>
pick up</w>
percu ssion</w>
ped al</w>
park our</w>
pain t
no r
near ly</w>
na m</w>
mou se</w>
mon itor</w>
ma s
loo p</w>
lea gue</w>
lawn mowers</w>
kin ds</w>
k a</w>
ho riz
hat chet</w>
hair y</w>
ha y</w>
g on</w>
fa shioned</w>
eyel id</w>
ex am
emp lo
e ps</w>
cu ts</w>
cu p
cou ld</w>
cor n</w>
conta in
conduc tor</w>
clo sely</w>
circu s</w>
ch unk</w>
cam p</w>
c l
bu l
bra ss</w>
br and</w>
be an</w>
b lades</w>
b ites</w>
at ors</w>
alumin um</w>
ad vice</w>
ac efully</w>
1 0</w>
wor ld</w>
wei ght
top pings</w>
tion eer</w>
thr u</w>
sum mer</w>
su re
stun ts</w>
stu ck</w>
st ly</w>
st ation
ssi ve</w>
spo ons</w>
somersa ults</w>
so le</w>
so apy</w>
snea ker</w>
sn ack</w>
skate boarders</w>
shoo ting</w>
shampo o</w>
roa sted</w>
ri age</w>
rectan gular</w>
rea r</w>
rac kets</w>
r ate</w>
pi les</w>
ori en
orien tal</w>
numer ous</w>
mel y</w>
mail man</w>
m ps</w>
loc ation</w>
lo cat
locat ions</w>
lif ter</w>
le ver</w>
le ss
la be
k it
ho of</w>
gr y</w>
gam bling</w>
g ongs</w>
fin al</w>
fi sh
ff s</w>
f ter</w>
expressi ons</w>
enthusi a
emplo y
effec ts</w>
easi ly</w>
drumm ing</w>
domin os</w>
custom ers</w>
contain ers</w>
congreg ation</w>
compet itors</w>
cheerlead ing</w>
ch in
camera man</w>
ca ble</w>
box ers</w>
bow tie</w>
ben ef
ba thing</w>
amu sement</w>
al oud</w>
al ls</w>
adjust ments</w>
a st</w>
un successfully</w>
tho se</w>
th igh</w>
techn ician</w>
te am
t it
t an</w>
sy mbo
su v</w>
stea k</w>
st ar
squee gee</w>
speciali zed</w>
simultane ously</w>
sh ri
sh ly</w>
sc i
sc ent</w>
ra iling</w>
put t</w>
pun ch</w>
po sts</w>
perfec tly</w>
partic i
oul d</w>
o c
nur se</w>
ni pple</w>
mechan ic</w>
maneu vers</w>
ma sco
la yer</w>
jack son</w>
j ap
it ed</w>
i an</w>
ho ld</w>
hi lls</w>
hea vi
gu ard</w>
gri p</w>
gol den</w>
g her</w>
fore ground</w>
fla sh</w>
fil ter</w>
fe ed</w>
fa ir
extre mely</w>
en trance</w>
e es</w>
don uts</w>
don key</w>
doc um
do m</w>
diam ond</w>
di g
dd les</w>
compon ents</w>
co ats</w>
cli st</w>
ch ec
boo t</w>
ber ries</w>
b in
autom atic</w>
auc tioneer</w>
arti f
appla use</w>
ap plic
ap p</w>
after wards</w>
ac tors</w>
a partment</w>
a ff
wrest lers</w>
web site</w>
w ould</w>
vide os</w>
th way</w>
ter n
tem per
t ely</w>
st ick
st ically</w>
ssi on
spec tive</w>
skat ers</w>
sidel ines</w>
si cle</w>
s par
ro o
rhyth mic</w>
qu ite</w>
pu ff</w>
pre ci
possi bly</w>
pon y
po e
pe pper</w>
pa thway</w>
p re</w>
or din
oppon ent</w>
mic ha
micha el</w>
masco t</w>
laugh s</w>
la mp</w>
la b</w>
l a</w>
kic ker</w>
ket tle</w>
jap an
in ets</w>
heavi ly</w>
hand les</w>
h edge</w>
gest ure</w>
gang nam</w>
g ical</w>
fri es</w>
flexi ble</w>
ex per
er a
enclo sed</w>
el bows</w>
effec t</w>
dram atic</w>
de tails</w>
dd ers</w>
cont acts</w>
comple x</w>
colle ge</w>
col lar</w>
co s
cla mp</w>
cho ir</w>
ch unks</w>
ca sing</w>
c run
bun ny</w>
bu ff
brac elet</w>
bo b</w>
bi ll</w>
bi gger</w>
be ers</w>
b an</w>
artif icial</w>
ar tic
am az
ag ing</w>
ag gre
you ths</w>
y si
wheel er</w>
v ation</w>
utensi ls</w>
utensi l</w>
up set</w>
u ation</w>
tur tle</w>
tow els</w>
th rea
ta ste</w>
stra ps</w>
stac ks</w>
spr ink
spin ners</w>
snow blower</w>
smar t
sle dding</w>
skil l
sho re
shore line</w>
seg ways</w>
se eds</w>
s pla
ru bs</w>
ra in
pu tter</w>
progre ss</w>
pri est</w>
pre ssion</w>
por table</w>
pop sicle</w>
pony tail</w>
pl ac
ph ysi
penci ls</w>
past a</w>
p ra
p itch
on ally</w>
obi c</w>
mo stly</w>
make shift</w>
ma y
lea d</w>
le ts</w>
l one</w>
l ly</w>
kin i</w>
jun gle</w>
japan ese</w>
horiz on
hi ves</w>
gentle men</w>
fire fighters</w>
ff y</w>
ey ed</w>
equ ation</w>
en tire</w>
effor t</w>
dum my</w>
du ction</w>
di m</w>
cu c
cross walk</w>
cre ation</w>
cra zy</w>
chiroprac tor</w>
cen tr
carpe ting</w>
carpe ted</w>
bro ad
bi lity</w>
bi kini</w>
bi b</w>
benef its</w>
be ani
bat ons</w>
b its</w>
ani mat
anc es</w>
an y
al l
air port</w>
aer obic</w>
' re</w>
ya wn</w>
wh e
v al
u sual</w>
tri es</w>
touch down</w>
tom at
tom a
to ss</w>
to ps</w>
to bac
ti st</w>
throw er</w>
ter i
t ac
sweat shirt</w>
su per</w>
str ands</w>
stitch es</w>
sol ution</w>
sof tly</w>
snow boards</w>
slo pes</w>
sha ke</w>
scre ws</w>
s ongs</w>
re ading</w>
qui et</w>
quar ter
pr o</w>
ph a
par ag
p ons</w>
p icks</w>
oun ge</w>
n ational</w>
motor bike</w>
me ch
man e</w>
lu g</w>
li mb</w>
lea der</w>
kee pers</w>
inde x</w>
il lu
i phone</w>
ho st</w>
hi gher</w>
han g</w>
h es</w>
gg ing</w>
gg age</w>
gen tle</w>
gar ment</w>
flash lights</w>
fi shes</w>
f auc
fauc et</w>
e ver</w>
e ight</w>
e ath</w>
de ter
comple tely</w>
colle ction</w>
co ver
co ordin
co ck
co als</w>
cho ppy</w>
ca stles</w>
brea k
ben eath</w>
beani e</w>
bas in</w>
ar cha
activ ities</w>
z es</w>
y wood</w>
y et</w>
y ach
whi stles</w>
uk ele
ukele le</w>
tu bes</w>
trac ks</w>
toma to</w>
tobac co</w>
ti vely</w>
ti ger</w>
ter ns</w>
tal lic</w>
t in</w>
t ack
swi m
stitch ing</w>
sten ci
station ary</w>
stan tly</w>
st in
spe n
sp ring</w>
sp an
snor k
sli p</w>
ske tch</w>
sk in
sh iny</w>
scra per</w>
s sel</w>
s oun
s m</w>
ro ad
resi den
residen tial</w>
re o
quarter back</w>
pi er
pa ssion
p ly</w>
ough ly</w>
ol a</w>
od d</w>
ne on</w>
mu stache</w>
mi x</w>
mi d
me tallic</w>
matado r</w>
mas se
le s
jo ke</w>
inter ior</w>
holi day</w>
h ere</w>
g ent</w>
for mat
flu id</w>
fenc ed</w>
exten ded</w>
ener ge
ela stic</w>
e olo
du ck</w>
do wns</w>
dig ital</w>
diffic ul
de er</w>
cre d
coun ter
com for
cho reo
che fs</w>
ch ange</w>
celebr ation</w>
cab inets</w>
c lin
bur ner</w>
bu m</w>
br a</w>
be t</w>
aw k
archa eolo
ar i</w>
ap pli
al tern
vaul ting</w>
v en</w>
v at</w>
ur ry</w>
up wards</w>
up on</w>
tric eps</w>
tri mm
tor ti
top less</w>
tomat oes</w>
to en
t shirt</w>
stor age</w>
st ic
st arts</w>
st ant</w>
soc ket</w>
smar t</w>
sil ver
scal p</w>
s on
run ners</w>
ru ler</w>
ro ping</w>
re sort</w>
re pair</w>
rac es</w>
ra il</w>
pyrami d</w>
plic ated</w>
peo ples</w>
p per
no w</w>
ner v
n al</w>
n ace</w>
mon key</w>
mi ght</w>
mar i
m er
m ate</w>
lu ggage</w>
ligh ting</w>
le mon</w>
l y
jo y</w>
jo h
intere sting</w>
instru men
han ging</w>
gro wn</w>
gre ens</w>
graphi c</w>
fo cu
flu ffy</w>
finger nail</w>
fi le</w>
fi el
f air</w>
eye lash</w>
enc es</w>
dough nut</w>
differ ence</w>
cur ls</w>
coo ked</w>
con stantly</w>
con sole</w>
com plicated</w>
clou ds</w>
cla ms</w>
chin ese</w>
chal len
car pen
c s</w>
bl in
ban jo</w>
ball on</w>
back seat</w>
bac on</w>
autom obi
applic ation</w>
ank les</w>
ani st</w>
accordi an</w>
wi g</w>
wi fe</w>
we t
wait er</w>
vi l
un usual</w>
tun nel</w>
tru m</w>
trou ble</w>
tri p</w>
too th</w>
toen a
tit le</w>
threa ds</w>
tattoo s</w>
tan trum</w>
surf boards</w>
straighten er</w>
stra iner</w>
stair case</w>
st ir</w>
sn acks</w>
smart phone</w>
shoel aces</w>
sho t
sand castle</w>
s ph
s ons</w>
robo tic</w>
ro wh
ro ses</w>
ran dom</w>
rab bit</w>
qua lity</w>
pow er
plan ks</w>
pier c
pers onal</w>
partici pants</w>
p ples</w>
out line</w>
new ly</w>
n ature</w>
mo der
mit t</w>
medi ately</w>
mech ani
marac a</w>
mail box</w>
ma inten
mainten ance</w>
ma ble</w>
lun ch</w>
lo ck
lit ies</w>
les son</w>
kno ts</w>
joy stick</w>
je t
j el
it ation</w>
infl ated</w>
im mediately</w>
ho ola</w>
hand le
ha irs</w>
h ad</w>
groom er</w>
go od
gi st</w>
ge l</w>
gar den
fur nace</w>
free zer</w>
fr am
for ce</w>
figur es</w>
equ ations</w>
ed ing</w>
du st
drum stick</w>
do w</w>
disc o</w>
de vices</w>
d unk</w>
cr ate</w>
cond itions</w>
com man
co al</w>
cloth s</w>
clo set</w>
cli sts</w>
cli pper</w>
circu it</w>
c tions</w>
bri ghtly</w>
box er</w>
ble achers</w>
ba ked</w>
automobi le</w>
artic le</w>
ar rowh
appar at
an gry</w>
al pha
ad v
z one</w>
wre n
wic ker</w>
wa sh
w arm</w>
ver sion</w>
v ine</w>
ur ity</w>
tw in</w>
tro pic
tropic al</w>
tro phy</w>
trimm ers</w>
tri o</w>
tre at
tr icycle</w>
tou ch</w>
to w</w>
ti mer</w>
t ted</w>
suc ker</w>
ssi vely</w>
sp ac
slee ve</w>
silver ware</w>
shri mp</w>
sho ws</w>
sec urity</w>
sea weed</w>
se m
sc rub</w>
sa i
s pl
rout ines</w>
rol lers</w>
ri f
repet itions</w>
re st
rain bow</w>
ra y</w>
por t
pla id</w>
pl ywood</w>
pil ation</w>
passion ately</w>
out field</w>
or an
oran ges</w>
o tic</w>
ne d</w>
mor ning</w>
moder n</w>
masse use</w>
lo we
le cture</w>
k er
hou ses</w>
high lights</w>
hair dresser</w>
h edges</w>
gu ment</w>
gau ge</w>
fre shly</w>
fr ying</w>
foo t
flu tes</w>
fli ght</w>
fl int</w>
fish er
ff le</w>
ex ca
enthusia stically</w>
ear th</w>
di g</w>
deter gent</w>
de tail</w>
dan ger
con tor
comman ds</w>
com pilation</w>
com ing</w>
com bs</w>
climb ers</w>
challen ge</w>
ch ute</w>
brea st
bl urry</w>
bl u
bee hive</w>
balanc ing</w>
at ur
at ically</w>
assi stance</w>
arrowh ead</w>
ar gument</w>
an t
acroba tics</w>
a le</w>
a dd
0 0</w>
z ers</w>
x y</w>
wr ong</w>
wi se</w>
w l</w>
ver bal</w>
ver bal
verbal ly</w>
u c
u al</w>
twir ls</w>
tu al</w>
treat ment</w>
tra p</w>
tou ches</w>
toena ils</w>
ti sh</w>
th or
temper ature</w>
tan go</w>
ta sting</w>
t rol
st ate</w>
st air</w>
spo ts</w>
spin dle</w>
sph ere</w>
skill fully</w>
skate boarder</w>
sk ele
shel ls</w>
se ven</w>
sco t
sandwic hes</w>
ru les</w>
ro ds</w>
rhyth mic
res ults</w>
recei ver</w>
rac quet</w>
pur pose</w>
pu tting</w>
proble ms</w>
po st
pli es</w>
pl un
per spective</w>
pedestri an</w>
para sailing</w>
pal let</w>
paint brush</w>
pa ste</w>
pa ddles</w>
p ine</w>
on ion</w>
ni val</w>
n ic
mon ster</w>
mbo o</w>
maneu ver</w>
li me</w>
li an</w>
lea f
lar s</w>
labe l</w>
la mb</w>
l ounge</w>
l ac
k lift</w>
jo in
jet ski</w>
instruc tors</w>
im port
i m</w>
hu gs</w>
hu ddle</w>
horizon tal</w>
go als</w>
gam ing</w>
foun tain</w>
for klift</w>
fli ppers</w>
exhib ition</w>
ex p
ele ss</w>
e ful</w>
du cks</w>
do t</w>
deli very</w>
de scri
d unks</w>
cur tain</w>
crun ches</w>
counter top</w>
contro ls</w>
co pies</w>
co ol</w>
co ol
clu bs</w>
chi ef</w>
cer am
car riage</w>
car nival</w>
bun k</w>
breast stroke</w>
bo dies</w>
bb q</w>
bar rier</w>
bar bells</w>
ba mboo</w>
ar my</w>
appli ance</w>
apparat us</w>
ani me</w>
an ts</w>
al bum</w>
ado le
ad es</w>
ac tor</w>
ac cross</w>
2 0
z a</w>
wren ches</w>
wet suit</w>
wea pons</w>
wat ching</w>
w ho
vi a</w>
ve sts</w>
ve g
va ults</w>
v ir
twi sts</w>
trun ks</w>
ti led</w>
ti ghtly</w>
ther board</w>
the se</w>
th ma</w>
te o
spe eds</w>
spar ks</w>
skele ton</w>
shi eld</w>
se al</w>
scot tish</w>
scen ery</w>
sc rap</w>
ro se</w>
rhythmic ally</w>
rec ital</w>
re spon
re fle
re d
r ind</w>
plu g</w>
pla in</w>
pi st</w>
pat terns</w>
par lor</w>
o t
o ls</w>
news papers</w>
ne y</w>
n ative</w>
mul tic
mu ral</w>
mom ent</w>
mo therboard</w>
mi ke</w>
mi d</w>
mechani sm</w>
mea sure
me x
mat ches</w>
mach e
ma ssages</w>
m o</w>
lowe en</w>
lan tern</w>
l on
l inder</w>
ko i</w>
jel ly</w>
jac kets</w>
i led</w>
hon ey
hand made</w>
gr acefully</w>
fur ther</w>
fur ry</w>
fol ds</w>
flexi bility</w>
flam mable</w>
fisher man</w>
fire men</w>
fire fighter</w>
f ar
exam ple</w>
ex plan
ex cess</w>
elev ated</w>
du tch</w>
difficul ty</w>
di ves</w>
di d</w>
di an</w>
demon str
del ight</w>
decor ation</w>
da ls</w>
d umb</w>
d ad
cy linder</w>
cy lin
cu t
cri es</w>
cor ners</w>
cor ds</w>
con te
compet itor</w>
col um
choreo graphy</w>
che mic
ch y</w>
ceram ic</w>
cel ery</w>
broad cast</w>
bra ke</w>
bo r</w>
blan k</w>
ba si
ba ses</w>
at trac
as thma</w>
alpha bet</w>
aggre ssively</w>
adjust ment</w>
acci dent</w>
z umb
zumb a</w>
yach t</w>
ver tical</w>
ve ssel</w>
v ic
ty re</w>
tw en
tou rists</w>
tin gui
ti red</w>
thor oughly</w>
the me</w>
th ier</w>
teo ro
teoro lo
teorolo gist</w>
tech no
techno lo
team mates</w>
te ddy</w>
sw an</w>
sto ck</w>
stick y</w>
stenci l</w>
stand ers</w>
ss er
spl it</w>
spe ar</w>
sli de
slide show</w>
sl and</w>
sk it</w>
sho r
sha dow</w>
sh ine</w>
se ats</w>
sa le</w>
s ari</w>
ru b
ri ghts</w>
ri ers</w>
ri bs</w>
recor d</w>
pol ice
police man</w>
po ts</w>
plun ger</w>
pla za</w>
peri od</w>
pati ently</w>
parachu tes</w>
pal ms</w>
p um
p ou
p lea
p ir
ou se</w>
on e
no thing</w>
na vel</w>
multic olo
mo thers</w>
mo i
me teorologist</w>
man dol
mandol in</w>
ma king</w>
m ersa
m ers</w>
loo ks</w>
lo ad</w>
lo a
lett ering</w>
kaya ks</w>
inten tly</w>
i sland</w>
hea l
he ated</w>
hal loween</w>
grap h</w>
gra vel</w>
gr out</w>
good bye</w>
g ator</w>
g ad
flo o
fac ts</w>
f tly</w>
f en
f am
fam ous</w>
explan ation</w>
ex tingui
ener gy</w>
en ough</w>
dra wers</w>
do r</w>
dis plays</w>
diffic ult</w>
di spen
der ed</w>
dad dy</w>
crow ds</w>
cred it</w>
cra shes</w>
court yard</w>
coun ting</w>
coordin ated</w>
col i</w>
co ke</w>
cla p</w>
cha ins</w>
ch r
ch er
ca pe</w>
ca ll</w>
c coli</w>
by standers</w>
bro ccoli</w>
bri de</w>
bi ds</w>
attrac tive</w>
at v</w>
animat ed</w>
alcoho lic</w>
adole scent</w>
ac c
a wards</w>
z ation</w>
y es</w>
wood wind</w>
wheel ie</w>
vaul ter</w>
u ti
u ses</w>
trol ley</w>
tric ep</w>
trans action</w>
ti ll</w>
ther a
th an
tex ting</w>
technolo gy</w>
te ars</w>
tack le</w>
symbo ls</w>
swe et</w>
swe e
super market</w>
sup plies</w>
stor m</w>
sta in
spo tter</w>
slee py</w>
ski is</w>
sit uation</w>
sig na
signa ls</w>
seg ment</w>
sciss or</w>
sc rat
sc an
sa fe</w>
sa ble</w>
s ou
s eam</w>
s ab
road way</w>
roa st</w>
re ss</w>
re la
re l
re el</w>
r att
proce ssing</w>
prin t</w>
pre ten
pre sses</w>
pow dered</w>
pi anist</w>
pain ter</w>
pack aging</w>
pa w</w>
p y
ov al</w>
or y</w>
nerv ous</w>
ne ts</w>
n t</w>
n e</w>
mu n
mache te</w>
lun ge</w>
li ds</w>
less ons</w>
le en
leen ex</w>
lay ers</w>
la ss
l umber</w>
l on</w>
l ling</w>
k leenex</w>
jerse ys</w>
ja w</w>
ir a</w>
in iti
igh s</w>
i mp
hot dogs</w>
hor ns</w>
honey comb</w>
hel lo</w>
hand shake</w>
ha m</w>
gu n
gr an
goo ds</w>
go ers</w>
gi es</w>
ger man</w>
gad get</w>
g an
fu zzy</w>
fru its</w>
foo ds</w>
focu s</w>
fe ature</w>
fair ly</w>
f el
exca vation</w>
eri e</w>
el ing</w>
e th
dr ical</w>
de sser
de e
d less</w>
cylin drical</w>
cur b</w>
cro wn</w>
cro chet</w>
cra sh</w>
contor tion
compon ent</w>
com mun
co lou
co ck</w>
co aches</w>
ch ant</w>
can n
ca p
c inder</w>
c es</w>
boo k
bo gg
black smith</w>
bar riers</w>
ba ttery</w>
b one</w>
ar ch</w>
anc hor
acro bat</w>
1 9
zi p</w>
youn g
win ner</w>
wil der
wilder ness</w>
water mel
vi sual</w>
v ings</w>
v in
uni for
unifor med</w>
twir l</w>
tw ee
tt le
tra ins</w>
tr a</w>
to bogg
tic ian</w>
thr ough
through out</w>
th y</w>
th reading</w>
teri a</w>
teen aged</w>
t les</w>
t ea
swim suit</w>
surpri sed</w>
sun set</w>
su s</w>
su ally</w>
sty les</w>
stru c
stro be</w>
sto ps</w>
stea dy</w>
stan ts</w>
spir al</w>
sor ts</w>
so lid</w>
so ci
smo oth
smooth ly</w>
sla m</w>
sl icer</w>
ski ier</w>
shot put</w>
shi fts</w>
she ers</w>
sem i</w>
scar y</w>
scar ed</w>
scallo p</w>
roa ds</w>
ro tiss
ro bes</w>
res ult</w>
ratt les</w>
quar ter</w>
preten d</w>
power ful</w>
pow ered</w>
por k</w>
poin ted</w>
physi cal</w>
pass eng
passeng ers</w>
parag lider</w>
par ro
pain ts</w>
ou ts</w>
org ani
nic ely</w>
mo d
mar k</w>
mar ina</w>
ma y</w>
m ing
lo on</w>
li es</w>
len g
l yr
kni f
knif es</w>
kne ss</w>
k screw</w>
ju dge</w>
joh n</w>
iti on
ink le</w>
in j
in c
im pressi
hu s
hal f
gra ph
gr ad
golf ing</w>
ge ments</w>
g low</w>
g les</w>
g en</w>
fun ctions</w>
fun ction</w>
for mul
fol ded</w>
flam ing</w>
fla v
fire man</w>
fea ther</w>
fe eding</w>
fe e
f an
extingui sher</w>
exten sion</w>
ex pression</w>
ex otic</w>
ev ents</w>
energe tic</w>
em er
elev ator</w>
e ze</w>
e mo
di ly</w>
der ing</w>
de partment</w>
d fold</w>
cuc umber</w>
cor kscrew</w>
coo s</w>
comp ound</w>
comp ani
co p</w>
clean ser</w>
cle aring</w>
cla ws</w>
chu bby</w>
can non</w>
bu mp</w>
blin dfold</w>
be i
barbe que</w>
ban ner</w>
back flips</w>
ba ker</w>
ba bly</w>
atur al</w>
allig ators</w>
aer o
ac tually</w>
ab ru
2 0</w>
y or
y ears</w>
xy gen</w>
wood working</w>
win ds</w>
we ek</w>
water slide</w>
war dly</w>
wa gon</w>
w hose</w>
vir tual</w>
vil lage</w>
vers ity</w>
v s</w>
under way</w>
un ited</w>
u tes</w>
u dder</w>
tt es</w>
tran smi
transmi ssion</w>
trampo lines</w>
tr ous
tor so</w>
tobogg an</w>
ti de</w>
thera pist</w>
the mat
the ater</w>
th ighs</w>
ten sion</w>
te sti
tal ent</w>
ta sk</w>
t ches</w>
swi ftly</w>
sprink les</w>
spo t
spe ed
sp lit
sp ices</w>
son ing</w>
si zes</w>
si ons</w>
si ght</w>
shoo ts</w>
sho ps</w>
sh ment</w>
ser vices</w>
sci en
sail boats</w>
s lot</w>
ru s</w>
ro of
ro man
rif les</w>
respon se</w>
re view</w>
re g
rat tle</w>
rac ers</w>
protec tion</w>
pro duction</w>
pro bably</w>
poin ting</w>
poe ira</w>
pic s</w>
pen ny</w>
pear ls</w>
pe ers</w>
pa dding</w>
ou fla
on line</w>
o xygen</w>
o ds</w>
ni ke</w>
ne ver</w>
n atural</w>
musc le</w>
mu r
moi stu
mit ten</w>
mil ls</w>
me ssages</w>
ma themat
m old</w>
li mbs</w>
l ink</w>
l er
kar ts</w>
ji g</w>
j our
iti sh</w>
iss ues</w>
iss ue</w>
instrumen tal</w>
in sides</w>
hy dr
hi story</w>
ham mers</w>
gymna sts</w>
gu es</w>
gra pe</w>
gr il
gin al</w>
gau ze</w>
g li
free style</w>
fram es</w>
formul a</w>
fol k</w>
flo ck</w>
fiel der</w>
fi ves</w>
f ic
ex tra</w>
ev enly</w>
era se</w>
er a</w>
e ss
dri vers</w>
dra in</w>
dr y
do jo</w>
disc s</w>
desser t</w>
descri ption</w>
dead lift</w>
d ue</w>
cup cake</w>
cor ral</w>
cool er</w>
com e
cli ffs</w>
chil ds</w>
cam ping</w>
cam oufla
ca poeira</w>
ca ligraphy</w>
c ling</w>
c king</w>
bub ble
bri ef</w>
brea sts</w>
bra kes</w>
boo gie</w>
blan kets</w>
bl en
bei ge</w>
bar k</w>
ba ts</w>
b ong</w>
awk wardly</w>
au to</w>
au stra
arran gements</w>
archaeolo gical</w>
appar ently</w>
an them</w>
amaz ing</w>
al le
ad ven
ac ce
yor k</w>
wea ther
wal king</w>
ve lo
v a</w>
up coming</w>
un it</w>
u s
ty e</w>
tw inkle</w>
tre ats</w>
torti lla</w>
th ou
table top</w>
ta iled</w>
t u</w>
t el
sum mersa
succe ssion</w>
succe ss</w>
stu med</w>
stret ching</w>
stor ical</w>
stat es</w>
stain less</w>
st y</w>
st on</w>
squ ir
spra ys</w>
speed boat</w>
snow boarders</w>
sle ev
sla pping</w>
sl ack</w>
si e</w>
shu ttle
shoo t</w>
seri ous</w>
se em
seem ingly</w>
saxo phones</w>
sax a
sa ddle</w>
s man</w>
s ack</w>
rubi ks</w>
rotiss erie</w>
roman tic</w>
ri zer</w>
resi stance</w>
rectan gle</w>
re pairs</w>
re gular</w>
rapi ds</w>
r oun
r it
que ts</w>
pre gn
pregn ant</w>
pou ch</w>
pop corn</w>
pitch es</w>
pac ks</w>
pac ket</w>
out er</w>
oper ator</w>
oper ation</w>
onloo ker</w>
oc ca
o pin
nood le</w>
ni ght
ne tte</w>
multicolo red</w>
mov ing</w>
mod els</w>
mid st</w>
mex ican</w>
measure ments</w>
mat t</w>
mar ks</w>
mar ath
marath on</w>
manu ally</w>
mal lets</w>
ma ss
ma in</w>
m ellow</w>
lyr ics</w>
low ing</w>
lon ger</w>
lo cks</w>
lo bby</w>
lat ex</w>
kit ty</w>
ki e</w>
ke l</w>
joy fully</w>
jo int</w>
je an</w>
in al</w>
illu stration</w>
ici ous</w>
ic ed</w>
i al</w>
hydr ant</w>
hus band</w>
hum ming
ho ses</w>
ho e</w>
hi storical</w>
hi ll
har bor</w>
handle bars</w>
hand ker
h in
groom ing</w>
grand ma</w>
gra in</w>
gr id</w>
glo ss</w>
gg le</w>
gen cy</w>
gar b</w>
g ates</w>
fro sting</w>
fol ding</w>
fire works</w>
fee der</w>
fea thers</w>
fe teria</w>
extre me</w>
exper tly</w>
exp lo
every thing</w>
even ing</w>
eth nic</w>
er al</w>
employ ee</w>
emer gency</w>
ed uc
ear phones</w>
e s
dust pan</w>
du ty</w>
dry wall</w>
dre ns</w>
dol ph
dispen ser</w>
de tailed</w>
day light</w>
dar kness</w>
da ys</w>
cover ed</w>
cor ri
cor dless</w>
contortion ist</w>
continu ally</w>
conte stants</w>
cont ent</w>
commun ity</w>
col lage</w>
cock tail</w>
co stumed</w>
co ast</w>
clo ck</w>
cho p</w>
chil drens</w>
char coal</w>
ch at</w>
cann ons</w>
camoufla ge</w>
ca li
ca feteria</w>
bur ning</w>
bur gers</w>
bull se
bubble gum</w>
bu g</w>
break fast</w>
br itish</w>
bo mb</w>
blow ers</w>
blen der</w>
ber ry</w>
be ds</w>
be at
bat man</w>
bar ely</w>
ba y</w>
b row</w>
audi o</w>
arti stic</w>
arti facts</w>
ar m
appro aches</w>
anchor s</w>
an ti
acroba ts</w>
ach ing</w>
a side</w>
a lot</w>
a lig
a eri
a de</w>
a b</w>
z o
wra pper</w>
wa vy</w>
wa ste</w>
vo ice
voice over</w>
val ve</w>
vac cu
va po
v or
up ward</w>
up rights</w>
uni versity</w>
under side</w>
ump ire</w>
um e</w>
twen ty</w>
tun es</w>
tum bling</w>
tread mills</w>
tra it</w>
tiss ues</w>
than ks</w>
tele phone</w>
ta pe
tape stry</w>
ta ls</w>
t our</w>
sw ir
surpri se</w>
su bur
struc tures</w>
stri kes</w>
stom ping</w>
stic ker</w>
st ances</w>
spot light</w>
spo on
spla shes</w>
spi der
spider man</w>
sou p</w>
sol dering</w>
so on</w>
snow boarding</w>
snor kel</w>
skin ny</w>
skil led</w>
si len
silen tly</w>
shu ffle</w>
shoel ace</w>
shi fter</w>
sea son</w>
sea food</w>
se xy</w>
sc rubs</w>
saxa phone</w>
sai lor</w>
s wa
run way</w>
roof top</w>
refer ees</w>
recor ds</w>
rea se</w>
re f</w>
rat chet</w>
ra m</w>
ra il
r ally</w>
pul lu
pullu ps</w>
pul l
pu s</w>
proper ty</w>
professi onally</w>
prin ting</w>
pri or</w>
presen ter</w>
pres sed</w>
por trait</w>
pol ka</w>
po ps</w>
po li
plan er</w>
plac ement</w>
pizz as</w>
pierc ing</w>
photo graphy</w>
pers on
pat r
pa il</w>
op tions</w>
one sie</w>
on y</w>
n g</w>
mou th
mom my</w>
mol ten</w>
moistu rizer</w>
mit ts</w>
mit ten
min utes</w>
meth ods</w>
me dium</w>
mathemat ical</w>
mar y</w>
mag az
ma ster</w>
ll as</w>
liqui ds</w>
lea st</w>
le vels</w>
lass o</w>
la zer</w>
l ery</w>
ket ch
ketch up</w>
it ter</w>
initi ally</w>
in sec
in format
in cre
il d</w>
ic op
i ve</w>
i sh</w>
hun dre
hundre ds</w>
horse shoes</w>
hill side</w>
helme ted</w>
hel icop
handker chief</w>
hand ler</w>
han ded</w>
hair style</w>
h ey</w>
guit ari
grand mother</w>
gr un
gr and</w>
go ing</w>
gir l
gir aff
fun nel</w>
foo tballs</w>
floo ded</w>
fl ying</w>
ff er</w>
fenc ers</w>
f alls</w>
exc erci
every where</w>
en velo
employ ees</w>
du sk</w>
dri lling</w>
dress ing</w>
dough nuts</w>
dol lars</w>
docum ent</w>
do lls</w>
di spo
di ag
demonstr ating</w>
de sk
de p
curren tly</w>
cran k</w>
cow boys</w>
court room</w>
cos me
corri dor</w>
chee se
che ws</w>
cat tle</w>
camer as</w>
c ers</w>
bullse ye</w>
bu lls</w>
bu ds</w>
bro oms</w>
bob sle
bla ster</w>
bl ouse</w>
back drop</w>
any thing</w>
ang ers</w>
am y</w>
ag er</w>
aeri al</w>
acc ent</w>
ac tive</w>
ac ho
ab s</w>
a ss
20 1
1 00</w>
z ens</w>
x box</w>
whe ther</w>
wh ale</w>
weight lifting</w>
weather man</w>
we dges</w>
wa i
w rists</w>
w on
vide o
vapo r</w>
v an
ur inal</w>
un to</w>
un ic
un cooked</w>
twee zers</w>
tu x
tu tu</w>
tri m</w>
tra ys</w>
tex tile</w>
testi mony</w>
tem per</w>
tec h</w>
ta ps</w>
t et</w>
syn chr
sun g</w>
sudd en</w>
subur ban</w>
str ic
stov e
stea dily</w>
sta in</w>
sta ff</w>
ss or</w>
span ner</w>
som one</w>
sna kes</w>
side walks</w>
si mp
shuttle cock</w>
sho wing</w>
shel ves</w>
shel l
shell fish</w>
sha vings</w>
sh ades</w>
sec u
sea soning</w>
sea ls</w>
scrat ch</w>
scan ner</w>
sca le</w>
sca f
sa d</w>
s wal
s pool</w>
s or</w>
recei pt</w>
re turn</w>
re ps</w>
r in
quar ters</w>
push up</w>
polit ical</w>
po tters</w>
plan ting</w>
pil lar</w>
photo graph
pe ppers</w>
pe els</w>
parro t</w>
p u</w>
p tly</w>
p ounds</w>
over weight</w>
ou tw
or n
or m
orm ous</w>
oppon ents</w>
on going</w>
off screen</w>
news cast</w>
nec ks</w>
ne tball</w>
nam es</w>
na p</w>
n ine</w>
n ar
mu les</w>
mom en
mil king</w>
men u</w>
mea sur
me an</w>
may be</w>
mari o</w>
magaz ine</w>
mag ni
ma ssive</w>
le ot
ki sses</w>
ki d
ke tball</w>
j it
j ing
jing le</w>
ir ons</w>
in tro
in as</w>
impressi ve</w>
imp le
ic ing</w>
humming bird</w>
hot dog</w>
ho over</w>
her bs</w>
he ating</w>
he aring</w>
har ne
ha w
ha ving</w>
h itter</w>
h eel</w>
h ab
gu in
gu e
gre en
go of
go al
gla ss
g room</w>
fu el</w>
fore arm</w>
for wards</w>
for ks</w>
fi f
fi ed</w>
fa vor
f ellow</w>
ex ce
en ormous</w>
el eg
ear ring</w>
du et</w>
dri b
down ward</w>
don al
dolph in</w>
docum ents</w>
do r
dispo sable</w>
din o
din ers</w>
desk top</w>
dep th</w>
danger ous</w>
da sh</w>
d red</w>
d am
cy clists</w>
cur ves</w>
cur sive</w>
cr ying</w>
cond ition
com pe
com ment</w>
colum n</w>
chemic al</w>
cheese burger</w>
che sted</w>
ch ers</w>
carto ons</w>
can e</w>
ca sually</w>
c loud</w>
bon fire</w>
bi kers</w>
bee keepers</w>
be ad</w>
basi c</w>
band ages</w>
ban quet</w>
baller inas</w>
ba dly</w>
b road</w>
b ones</w>
b ers</w>
attach ed</w>
ani ster</w>
ang led</w>
am p
ac compani
abru ptly</w>
a wake</w>
zi ly</w>
y el
y ards</w>
wrest ler</w>
wr ink
wo ol
wo m
wind surfer</w>
wi d
weight lifter</w>
web cam</w>
w o</w>
vol ume</w>
viol ently</w>
vic tory</w>
vi se</w>
ver tically</w>
veg gies</w>
ur y</w>
un even</w>
un able</w>
tur f</w>
tum ble</w>
tu m</w>
tu bs</w>
tu ba</w>
trous ers</w>
trans parent</w>
tra vel</w>
tooth paste</w>
to ast</w>
tion ally</w>
ti p
the med</w>
ter ta
te dly</w>
te achers</w>
ta sks</w>
symbo l</w>
str ated</w>
stove top</w>
stor es</w>
stea ks</w>
ste er</w>
sta ke</w>
st ars</w>
spla sh</w>
spir ited</w>
spi ky</w>
span ic</w>
soun dly</w>
some what</w>
some times</w>
soldi er</w>
sna p</w>
sli ding</w>
sle y</w>
sit ups</w>
sit ting</w>
sing ers</w>
sil ent</w>
si bling</w>
shar k</w>
sha ker</w>
sh rubs</w>
separ ately</w>
selfi es</w>
se t
scre ens</w>
sc ream</w>
sau r</w>
sam sung</w>
s ne
robo ts</w>
rit ual</w>
ri ver
ri dge</w>
rec y
re ly</w>
re lea
rac ketball</w>
ra vine</w>
ra ils</w>
r y
qu een</w>
pur se</w>
prin ts</w>
preci se</w>
pra ise</w>
pr ice</w>
po or</w>
po or
poor ly</w>
play room</w>
plat ter</w>
plat forms</w>
pir ou
pirou e
photograph s</w>
photo copier</w>
pe dals</w>
pe as</w>
pe acefully</w>
pe ace</w>
patr ons</w>
pan ning</w>
pa per
orn ate</w>
ong st</w>
om elet</w>
olo gy</w>
off ici
ob ser
o e</w>
o dd
ni pples</w>
n els</w>
n d</w>
mu st</w>
mounta inside</w>
motorcy clist</w>
mo ck</w>
ma d</w>
m c
lou d
loud speaker</w>
lea shes</w>
l f</w>
kit ten</w>
ki lts</w>
ki a</w>
k ings</w>
k board</w>
k an
jum p
ju g</w>
join ts</w>
ir y</w>
intro duction</w>
indi a</w>
incre di
in ous</w>
import ance</w>
i ous</w>
i ly</w>
i de
hun ting</w>
hun dred</w>
hoo ded</w>
hi sto
hi spanic</w>
helicop ter</w>
head set</w>
hea ded</w>
harne sses</w>
hand ful</w>
h its</w>
guitari st</w>
graphi cs</w>
grap her</w>
golf ers</w>
giraff e</w>
ge st</w>
garden ing</w>
gar lic</w>
g le
g ing
g ap</w>
fru strated</w>
fri ed</w>
fr an
format ions</w>
flo w</w>
fla shes</w>
fl at
fire wood</w>
fin ely</w>
fi ll</w>
fe ild</w>
f on
exhi bit</w>
enac tors</w>
en terta
e acho
eacho ther</w>
direc tor</w>
dino saur</w>
di gger</w>
del icious</w>
dee ply</w>
da iry</w>
d y
d v
d ence</w>
d ate</w>
d ant</w>
cur lers</w>
cur ler</w>
cu ri
cru ise</w>
crow d
cra b</w>
cos play</w>
coo ker</w>
cont rollers</w>
come dy</w>
classi c</w>
cig ar</w>
chiroprac tic</w>
cheer leader</w>
chan ges</w>
chal kboard</w>
car eful</w>
cam pus</w>
cal ly</w>
ca fe</w>
c pu</w>
bu zz</w>
boun ds</w>
bott led</w>
blo od</w>
black board</w>
bi e</w>
bel ly
beau tician</w>
ban ana</w>
balanc es</w>
b our
austra lian</w>
ar mp
ar che
ar c</w>
anti que</w>
an tly</w>
am ongst</w>
ali an</w>
al t</w>
adven ture</w>
accordi ons</w>
accompani ment</w>
ac he</w>
´ s</w>
z ing</w>
yo ke</w>
y cles</w>
whi sk</w>
we dge</w>
wal let</w>
w ir
viol in
ver n</w>
un successful</w>
umb re
umb ers</w>
u sage</w>
u dders</w>
twir ling</w>
twi sting</w>
twi gs</w>
tw ist</w>
tw ine</w>
tum my</w>
tromb ones</w>
tra sh
trash can</w>
tr y
tooth pick</w>
ton gues</w>
to pic</w>
the mself</w>
ter min
team mate</w>
te aching</w>
ta ins</w>
t rea
sy ste
swi ss</w>
sur faces</w>
sun light</w>
sub jec
subjec t</w>
stu ff
stuff ing</w>
stre ss</w>
sta kes</w>
st ages</w>
ssi ly</w>
spor t
spo kes</w>
split s</w>
spi kes</w>
speci f
sp ine</w>
sol ine</w>
snow plow</w>
sne eze</w>
smo ker</w>
sli pper
slipper y</w>
sla bs</w>
skir ts</w>
ski i
ske wer</w>
sil hou
silhou e
side d</w>
sha kers</w>
sh y</w>
sea gu
se um</w>
se duc
scri pt</w>
scho ol
s park
s ol</w>
s light</w>
rubi c</w>
rest room</w>
refle c
re l</w>
ra quetball</w>
qu o
put ts</w>
pu tty</w>
press or</w>
prepar ed</w>
pos itive</w>
play pen</w>
ph alt</w>
pe b
par ing</w>
pan els</w>
pa sses</w>
p ped</w>
p h</w>
over alls</w>
ou l</w>
on i
om as</w>
offici als</w>
off icial</w>
odd ly</w>
o live</w>
need le
moun ds</w>
motor boat</w>
momen tum</w>
mom ents</w>
mic key</w>
mel lows</w>
me ter</w>
me ssily</w>
marsh mellows</w>
marsh mellow</w>
man ic
ma ze</w>
ma son</w>
ma in
m over</w>
m ing</w>
m am
lolli pops</w>
loc ker</w>
loa der</w>
lo ve</w>
lo ser</w>
lin ed</w>
li zer</w>
li shment</w>
li a</w>
less ly</w>
lea fs</w>
lar ly</w>
la mps</w>
l ong
l ate</w>
kid die</w>
itch es</w>
it alian</w>
inter views</w>
inc line</w>
in ci
imple ment</w>
im pressed</w>
ic ker</w>
ho g</w>
histo ric</w>
heal thy</w>
hand ic
half way</w>
h au
gue sts</w>
gu s</w>
girl friend</w>
ga soline</w>
fu ture</w>
fri en
frien dly</w>
fre ts</w>
four s</w>
fore arms</w>
fol der</w>
favor ite</w>
f oul</w>
f al
eyel ids</w>
exhib itions</w>
excerci se</w>
ex cer
eu ro
enterta in
eleg ant</w>
el lo</w>
eff ici
ef s</w>
ec tion</w>
ea ler</w>
e k
dv d</w>
dum bells</w>
dum bell</w>
dra gon</w>
dr one</w>
don keys</w>
doc tors</w>
dis gu
dia pers</w>
den ti
da ily</w>
d j</w>
cur ve</w>
cuc umbers</w>
cu tters</w>
cu shioned</w>
cu bes</w>
cre ature</w>
cre ative</w>
crac ker</w>
cr ou
coun t</w>
con si
con nec
con fe
con di
con c
conc ealer</w>
compu ters</w>
com pressor</w>
colle c
co vers</w>
clo wn</w>
cli mb</w>
cli ents</w>
cle ar
cher ry</w>
cham pi
ch ed</w>
centr e</w>
carpen ter</w>
cab in</w>
ca vern</w>
ca sual</w>
ca ses</w>
ca bles</w>
c d</w>
c anister</w>
but to
bur p</w>
bun dle</w>
bu mps</w>
bu ggy</w>
bro thers</w>
bra id</w>
bra i
bo y
bo t</w>
bl ind</w>
bir die</w>
bin ding</w>
bi scu
bi ker</w>
ber shop</w>
beauti fully</w>
bar bershop</w>
back side</w>
ba loon</w>
ba it</w>
b raz
b m
b inder</w>
as phalt</w>
ari an</w>
ar ray</w>
announ cers</w>
an k</w>
an gular</w>
an ci
amoun ts</w>
amer ica</w>
am p</w>
am a
af ar</w>
abi lities</w>
ab domin
a spec
5 0</w>
zz les</w>
y out
yout u
youtu be</w>
y our
y o</w>
xylo phones</w>
wom ens</w>
wir ing</w>
wind surfing</w>
who m</w>
whi st</w>
whi sk
wheel ers</w>
whe t
whet stone</w>
wea ve</w>
we eds</w>
we b</w>
w ing
viol ins</w>
ver sus</w>
uni denti
under ground</w>
un boxing</w>
tur tles</w>
tum bles</w>
trum pets</w>
trou pe</w>
tri ever</w>
tri angular</w>
tre nch</w>
torti llas</w>
thou ghts</w>
tex ture</w>
temp o</w>
tar p</w>
table cloth</w>
ta pes</w>
t one</w>
t down</w>
t am
swee per</w>
swe at</w>
sw itches</w>
su ds</w>
stru ggles</w>
stra w
str and</w>
sto ols</w>
stin ky</w>
stand ard</w>
st om</w>
st all</w>
st ability</w>
ss ly</w>
squ ea
spo tters</w>
spi der</w>
specif ically</w>
spe ction</w>
sp out</w>
soci al</w>
snork eling</w>
sleev eless</w>
sky diving</w>
sky divers</w>
skii ers</w>
sig nal</w>
si fter</w>
si ck</w>
shor tly</w>
shi ps</w>
shar pie</w>
sh rub</w>
set up</w>
sen ior</w>
sel s</w>
secu rely</w>
sculp tures</w>
san ding</w>
s p</w>
s ers</w>
roo ts</w>
rol ler
rela x
rec liner</w>
rea son</w>
re vel
re triever</w>
re tail</w>
re els</w>
re efs</w>
re eds</w>
re cre
recre ational</w>
ra f
r ics</w>
qu ant
pyrami ds</w>
pu b</w>
projec ts</w>
projec tor</w>
proce ssor</w>
pro ps</w>
pro of</w>
practic ing</w>
post ure</w>
polit ician</w>
poin ter</w>
po ster</w>
plan es</w>
pinea pples</w>
pic king</w>
pi ggy</w>
pi g
photo graph</w>
ph er
pear ance</w>
pe l</w>
pe c
pe an</w>
parag li
par tly</w>
pa ws</w>
p sticks</w>
p ant</w>
p a</w>
on om
om ele
olym pics</w>
od le</w>
od ically</w>
o h</w>
o at
oat meal</w>
nur ses</w>
ne ed</w>
na vy</w>
mur ky</w>
mu p
mu gs</w>
motorcy clists</w>
mon keys</w>
mol ding</w>
mo sphere</w>
mo ped</w>
mo at</w>
mix ing</w>
mitten tly</w>
mit ton</w>
me tr
mc donal
mat ely</w>
mar riage</w>
mar kings</w>
mar in
mar ches</w>
mal ly</w>
mag ician</w>
m n</w>
m ation</w>
lo gue</w>
lo gos</w>
lo ading</w>
li fe
li ar</w>
leaf blower</w>
la ble</w>
kno bs</w>
kick boxing</w>
ki l
kee ping</w>
join ted</w>
jo kes</w>
jo gging</w>
jer k</w>
ja zzy</w>
ja ws</w>
j c
ir ish</w>
inter pre
inter mittently</w>
insec t</w>
in spection</w>
in s
in den
in ches</w>
im pro
il la</w>
il l
i um</w>
i pad</w>
i onal</w>
hou sing</w>
hoo ks</w>
hol low</w>
he ar
hat che
hatche ts</w>
har ps</w>
hair do</w>
h ers</w>
h eels</w>
h a</w>
grun ts</w>
gre eting</w>
gra ve</w>
gr ounds</w>
gr ate</w>
golf ball</w>
ging er
gi bb
ger ly</w>
gar ni
g row
fru stration</w>
fr o</w>
fore sted</w>
for ce
foo twork</w>
fon t</w>
flav or</w>
fire ball</w>
finger tips</w>
fif ty</w>
fair way</w>
fab rics</w>
eye ball</w>
experi ment</w>
exper t</w>
every body</w>
eri sh</w>
era ser</w>
envelo pe</w>
en gra
el es</w>
ec ream</w>
ea gerly</w>
drumm ers</w>
drib bling</w>
dram atically</w>
down wards</w>
di sh
den im</w>
de mo
de fen
de bit</w>
danger ously</w>
d un
d ump</w>
cut lery</w>
curren t</w>
cu stom</w>
cross ing</w>
cra f
cr ack</w>
convey er</w>
con centr
comp act</w>
comfor ter</w>
com ic</w>
col a</w>
co m</w>
co de</w>
co ating</w>
clin ton</w>
clin ic</w>
cli p
cl er
ck ed</w>
cho psticks</w>
chick ens</w>
chec ks</w>
char ity</w>
champi on
ch ello</w>
ch eck</w>
cell phones</w>
carpen try</w>
car ca
carca ss</w>
car a
camp site</w>
cal mly</w>
ca sters</w>
c um
c iti
butto cks</w>
bun s</w>
buff er</w>
bru nette</w>
brea ks</w>
br ace</w>
bor ne</w>
bor der</w>
boar d
bo mbs</w>
bm x</w>
blu e
bl ings</w>
bicy clist</w>
ban gs</w>
bal ler</w>
bad mitton</w>
back board</w>
ba ton</w>
ba ss
awk ward</w>
autom atically</w>
ati vely</w>
at ory</w>
at mosphere</w>
appla u
appar el</w>
anc ed</w>
an no
ama zed</w>
altern ately</w>
air borne</w>
adver t</w>
adv anced</w>
ac tress</w>
abdomin al</w>
a im</w>
6 0</w>
0 s</w>
z e
ze bra</w>
z ard</w>
your self</w>
young sters</w>
y set</w>
y ers</w>
y ea
yea h</w>
wo lf</w>
wind shield</w>
watermel ons</w>
w ars</w>
vo cal</w>
violin ist</w>
vi g
vege tation</w>
ve ter
vari ation</w>
van illa</w>
vac ation</w>
va ses</w>
v yset</w>
v et</w>
v amp
vamp ire</w>
v alley</w>
un t</w>
umbre lla</w>
ul ti
u ll</w>
u ally</w>
twi sted</w>
tw ins</w>
tux ed
tuxed o</w>
tu s</w>
tt ered</w>
tri gger</w>
tri bu
tran spor
tra de</w>
tr ough</w>
to day</w>
ti ppy</w>
ti ghts</w>
ther ed</w>
ther apy</w>
the at
ter bug</w>
ten der</w>
tattoo ed</w>
tan ks</w>
t ick
t ance</w>
surf s</w>
sure ly</w>
sup ply</w>
sun shine</w>
sty ling</w>
stri pe</w>
stra ws</w>
stra pped</w>
str at
strat eg
sti ff</w>
ste st</w>
star ting</w>
stair way</w>
st al
ssi an</w>
squee ze</w>
spoon ful</w>
speci ally</w>
spec tator</w>
spec tac
spac ers</w>
sp aces</w>
soc c
snow suit</w>
sky scraper</w>
sky diver</w>
sky dive</w>
ske wers</w>
sk o
sk ed</w>
sin ce</w>
simul ated</w>
simp ly</w>
si blings</w>
sho w
shel ter</w>
she er</w>
sh in</w>
se min
se ed</w>
scoo ps</w>
scien tist</w>
sca les</w>
sau cer</w>
sam ple</w>
sal mon</w>
sai lo
sailo rs</w>
sab ers</w>
sab er</w>
sa x</w>
s u</w>
s ery</w>
s an</w>
ru ssian</w>
ru ral</w>
row ly</w>
ro me</w>
ri se</w>
repor ters</w>
rec ently</w>
re que
re enactors</w>
re actions</w>
raz ors</w>
ra sp
ra quet</w>
ra ke</w>
r and
rand om
random ly</w>
qu il
pup pies</w>
pum ping</w>
pul pit</w>
pul ley</w>
pu zzles</w>
proce dur
procedur es</w>
prin cess</w>
pre vi
pre teen</w>
pre acher</w>
por tions</w>
po sters</w>
po rts</w>
pige on</w>
physi cally</w>
pear l</w>
pe ws</w>
pe pper
pe ach</w>
pat ches</w>
par sley</w>
par ks</w>
par i
par alle
paralle l</w>
pa le</w>
p ru
p oms</w>
p om
p lows</w>
p le
p hi
out fielder</w>
ori ginal</w>
opin ion</w>
omele tte</w>
o y</w>
o k</w>
nur sery</w>
nor mal</w>
no stri
no ses</w>
ni a</w>
news casters</w>
nec ess
nar rowly</w>
n inj
n a</w>
mu m</w>
mu le</w>
mu ff
mounta inous</w>
motor bikes</w>
mm y</w>
mirro rs</w>
med itation</w>
mea sure</w>
me tals</w>
me ss
may on
mass ager</w>
mach ing</w>
ma ss</w>
ma sked</w>
m it</w>
loo king</w>
li zard</w>
len se</w>
le vers</w>
le ston</w>
lac ed</w>
la y</w>
la sers</w>
la dders</w>
l in</w>
l across</w>
kan gar
k ingly</w>
jump suit</w>
jo kingly</w>
jit terbug</w>
jac ent</w>
ja m</w>
j unk</w>
iti vely</w>
inter est</w>
inst all
install ation</w>
ingredi ent</w>
in complete</w>
import ant</w>
ic tion</w>
ic ecream</w>
i sts</w>
i den
hum or
hum ans</w>
hou se
hoo ka</w>
high light</w>
hi lly</w>
her o</w>
her d</w>
head lamps</w>
head band</w>
hea vyset</w>
haw k</w>
handle bar</w>
handic ap
handicap ped</w>
hand ball</w>
hair stylist</w>
hair brush</w>
hab it
ha wai
h ind</w>
gril ls</w>
goof y</w>
goo gles</w>
gibb erish</w>
gh s</w>
g od</w>
g i</w>
g host</w>
g all
fu ri
fran tically</w>
force fully</w>
flo w
flo at</w>
fli es</w>
fl an
flan nel</w>
fire balls</w>
fir mly</w>
fi ddle</w>
fa stest</w>
eye balls</w>
explo r
exam ples</w>
ex hau
ex ag
exag ger
ex ac
ev al</w>
er o</w>
energe tically</w>
enc y</w>
educ ation</w>
ec e</w>
easi er</w>
ea gle</w>
e st
e scal
dru n
dra wings</w>
door knob</w>
dom en</w>
do zen</w>
do s</w>
do g
di str
di se</w>
del ic
de sig
d angers</w>
cy clist</w>
cur l</w>
cup cakes</w>
cu bic
cubic le</w>
cru tches</w>
crowd surfs</w>
crac kers</w>
coun tdown</w>
cou ghs</w>
cosme tic</w>
coo k
consi st
condition er</w>
cond ition</w>
comm it
comm and</w>
comfor table</w>
com partment</w>
com e</w>
com bat</w>
co t</w>
co pper</w>
clu ttered</w>
clear ly</w>
cla w</w>
cla mps</w>
char leston</w>
cara van</w>
car ry</w>
can a
cana dian</w>
cali for
cal ves</w>
cal ler</w>
cab bage</w>
ca u
bur sts</w>
bull fighter</w>
buff et</w>
bu zz
bu shy</w>
bu ses</w>
bu n</w>
bu i
bre ad
bread crumbs</w>
br aces</w>
boy friend</w>
bow ler</w>
boun cer</w>
bo red</w>
bo om</w>
blu sh</w>
belly button</w>
bea ded</w>
be ts</w>
barbe l</w>
bar r
bag pi
back ing</w>
back bend</w>
ba tch</w>
ba b
b oul
b ins</w>
b ing</w>
aspec ts</w>
armp it</w>
are st</w>
ar ab
arab ic</w>
appro pri
ap pearance</w>
ani mation</w>
an ther</w>
an gel</w>
amaz ement</w>
am er</w>
altern ate</w>
alig ator</w>
adverti sing</w>
ad jacent</w>
acti vely</w>
acce ss
ab domen</w>
a the
a i</w>
1 2</w>
zz ling</w>
young ster</w>
wrink les</w>
wrest ing</w>
wor ship</w>
wool en</w>
win s</w>
win ks</w>
wid ely</w>
whisk ey</w>
wheel chairs</w>
water way</w>
water craft</w>
wa ders</w>
wa d</w>
w in</w>
vi sit
visit ors</w>
vi king</w>
vaccu m</w>
va i
vai lable</w>
v ity</w>
us ps</w>
ur ban</w>
unidenti fied</w>
unic ycles</w>
un cont
uncont rol
uncontrol la
uncontrolla bly</w>
ul k</w>
u n</w>
u cou
ucou s</w>
twi ster</w>
tw el
twel ve</w>
tw are</w>
tur ing</w>
tur ban</w>
tu gu
tugu ese</w>
trow els</w>
tri angles</w>
transpor tation</w>
train ers</w>
tra ils</w>
to on</w>
tip toes</w>
tin sel</w>
ti ves</w>
ti gers</w>
ti ered</w>
ti an</w>
theat re</w>
th rows</w>
th ous
thous ands</w>
th omas</w>
ter y</w>
ter ior</w>
temper atures</w>
tea pot</w>
tal ler</w>
tal king</w>
tack les</w>
t tle</w>
t bike</w>
syste mat
sy m
swir l</w>
swi ffer</w>
swal lowing</w>
swa b</w>
sw ing
sur gical</w>
summersa ults</w>
summersa ult</w>
su ma
suma bly</w>
stu c
stret cher</w>
stra i
stat ement</w>
squea ky</w>
spir it</w>
spin ach</w>
spi ked</w>
spe l</w>
sp read</w>
sp ack
som br
sombr ero</w>
sol es</w>
sof tware</w>
socc or</w>
snow mobi
snork els</w>
smi ley</w>
sli ppers</w>
slee ves</w>
sl iced</w>
sl ats</w>
ski i</w>
sk ull</w>
sit up</w>
si zzling</w>
si dent</w>
shu ff
shi ons</w>
she pher
shar pening</w>
sh re
ser ve</w>
semin ar</w>
seg ments</w>
seduc tively</w>
se x
se ating</w>
se arch</w>
scien ti
sci ence</w>
scen ic</w>
scen ari
scal pel</w>
scaf folding</w>
sc rubb
scrubb ing</w>
sc roll</w>
sand castles</w>
sa w
s outh</w>
s nap
s len
slen der</w>
s .</w>
rubb ery</w>
rub ics</w>
ru m</w>
roo t</w>
roo ster</w>
ro y
ro l</w>
ri ff</w>
revel ers</w>
rest urant</w>
reque st</w>
repet itive</w>
relea se</w>
rela y</w>
reflec tive</w>
recy cling</w>
rea sons</w>
rea der</w>
re spective</w>
re p
rep tile</w>
re na
rena iss
renaiss ance</w>
re ad
rasp berries</w>
ran ch</w>
rail road</w>
rac ks</w>
ra ucous</w>
ra pper</w>
ra ise</w>
ra iny</w>
r hin
quar tet</w>
quant ity</w>
pum ps</w>
pull up</w>
proce eds</w>
pro p</w>
pro mo
promo tional</w>
pro fu
profu sely</w>
press u
pre sumably</w>
pre sident</w>
pr one</w>
por tuguese</w>
plu sh</w>
play ful</w>
plac ard</w>
pl ans</w>
pierc ings</w>
pic ker</w>
per ha
perha ps</w>
pen sive</w>
pean uts</w>
pe l
pe ars</w>
pe ar</w>
past ure</w>
parachu tist</w>
p lot</w>
ow l</w>
outw ard</w>
oth er
ori es</w>
organi zation</w>
of ten</w>
obser vers</w>
ob stic
o tive</w>
o stric
o be
o '
no on</w>
ninj a</w>
necess ary</w>
ne tic</w>
ne at</w>
ne arest</w>
na ise</w>
n y
n ment</w>
n ings</w>
mouth piece</w>
motorcy le</w>
mon ial</w>
mi stake</w>
mer chan
merchan dise</w>
men tary</w>
medi eval</w>
med al</w>
me mor
mayon naise</w>
matado rs</w>
mat ching</w>
mari ju
mariju ana</w>
mar sh</w>
manu fac
manic ure</w>
man ship</w>
main ly</w>
magni f
magnif ying</w>
mag netic</w>
ma id</w>
lock smith</w>
lock ed</w>
lo lly</w>
lit e</w>
li e</w>
leaf y</w>
lea p</w>
le i
le c
le ar
lay out</w>
laugh ing</w>
lat ter</w>
lat est</w>
lan der</w>
labe ls</w>
la bor
ki ssing</w>
ki ly</w>
ke e</w>
kangar oo</w>
k i</w>
k are
jour nal</w>
joh n
je w
je sus</w>
jc b</w>
j an
inter net</w>
inten sely</w>
inj ury</w>
ing o</w>
infl ation</w>
individu ally</w>
incredi bly</w>
in o</w>
in ju
in ed</w>
im pression</w>
i lity</w>
i lian</w>
i b
hun gry</w>
hop per</w>
hol ding</w>
high ly</w>
hi king</w>
he arts</w>
hand ling</w>
han dy</w>
ham burgers</w>
hair line</w>
habit at</w>
h ump</w>
h ack
gre es</w>
gran ite</w>
grad uation</w>
gra ins</w>
gol d
go spel</w>
go pro</w>
glo be</w>
gli de</w>
gi sts</w>
gh ters</w>
