[v] 261563
a 235287
. 104781
the 55896
and 53112
is 51209
in 42886
of 37215
to 36566
on 35806
man 35577
with 21565
person 17096
while 16811
woman 16511
are 16327
, 16184
his 12499
an 12426
people 12218
it 10977
young 10867
two 10075
her 9879
at 9712
as 9280
boy 9268
then 8849
girl 8535
group 7534
how 7399
up 7316
down 6743
into 6249
by 5395
another 5194
he 4995
around 4920
their 4879
some 4850
out 4822
someone 4753
little 4748
from 4659
music 4609
one 4604
baby 4364
men 4319
ball 4108
large 4032
other 4005
that 3863
off 3783
water 3670
over 3623
them 3496
room 3419
front 3414
back 3411
small 3383
for 3308
child 3167
's 3144
table 3087
floor 3041
they 3017
hands 2916
him 2897
hair 2866
outside 2780
she 2778
hand 2737
piece 2600
being 2577
about 2564
game 2492
guy 2420
through 2368
machine 2305
together 2299
camera 2281
field 2254
snow 2136
several 2102
women 2056
background 2035
gym 2028
dance 1972
each 1951
- 1878
girls 1868
something 1867
white 1832
head 1757
stage 1744
inside 1697
paper 1669
kids 1638
dog 1615
car 1594
board 1593
pool 1588
before 1535
three 1530
crowd 1518
very 1510
ground 1506
chair 1506
children 1501
wood 1491
kid 1488
ice 1479
lady 1466
boys 1457
top 1444
across 1440
face 1433
different 1433
shirt 1425
black 1415
side 1413
wall 1406
onto 1404
long 1304
food 1302
rope 1301
tree 1291
who 1255
red 1226
others 1219
behind 1209
fire 1201
toddler 1200
air 1174
street 1167
was 1136
song 1113
couple 1103
high 1101
blue 1087
kitchen 1083
mouth 1082
video 1080
bottle 1080
guitar 1057
tool 1044
knife 1027
metal 1006
what 981
next 979
bed 977
there 968
house 966
basketball 962
boat 945
feet 930
track 915
male 905
bike 905
horse 887
football 879
wooden 877
instrument 859
along 850
soccer 849
all 843
can 837
rock 833
like 825
time 825
toy 822
pan 821
" 813
area 807
its 795
when 794
golf 780
adult 776
green 773
glass 763
baseball 761
slowly 758
object 753
audience 745
or 741
away 740
way 733
leg 730
jump 727
meat 721
bar 717
bowl 716
dark 714
hill 706
balls 706
but 705
legs 705
female 702
tire 699
arms 691
electric 688
line 683
phone 680
road 670
during 669
where 664
court 660
fingers 659
pieces 656
body 655
after 655
fast 651
beach 651
team 643
cards 642
brush 634
various 633
against 633
bag 631
fish 631
grass 627
wheel 627
exercise 627
forth 626
outdoors 623
box 620
band 618
be 615
which 615
plastic 611
yard 611
dirt 610
balloon 610
motion 604
routine 601
arm 601
weights 601
himself 597
few 596
open 591
living 591
sand 591
stick 588
park 588
swimming 588
under 586
pole 579
foot 575
older 572
beer 568
guys 564
ocean 564
towards 560
moves 560
near 553
couch 552
weight 551
big 549
middle 546
building 545
end 539
truck 539
screen 536
player 531
piano 529
eye 526
four 525
heavy 525
yellow 524
door 523
competition 516
hat 514
eyes 511
snowy 508
tennis 508
both 505
pair 504
outdoor 499
glasses 496
dough 496
microphone 495
day 492
fishing 491
hockey 490
type 488
wine 488
teams 487
studio 486
many 484
neck 482
mother 480
bicycle 480
players 479
indoor 473
paint 471
event 470
properly 466
vehicle 462
mat 460
quickly 459
cat 459
lake 459
same 454
shoe 454
orange 451
bunch 451
shoes 445
lot 440
times 439
set 439
language 438
right 438
does 438
between 437
pink 435
sink 435
plate 433
device 432
apple 432
multiple 431
adults 428
tie 426
slow 426
instructions 425
playing 424
bull 423
forward 421
full 420
home 420
cup 420
pipe 419
tricks 417
cloth 416
carpet 416
basket 415
book 412
card 411
teenage 409
hole 409
shot 409
talks 408
egg 408
instruments 406
cake 406
hammer 400
musical 399
ups 399
mountain 398
has 397
dogs 393
t 390
clothes 388
drums 386
string 380
old 378
ready 377
not 377
surface 376
race 376
sidewalk 375
river 375
christmas 372
nose 367
flute 367
above 366
demonstration 365
mirror 364
first 362
eggs 362
backwards 359
loud 359
light 359
makeup 357
lawn 356
exercises 356
gloves 352
bathroom 352
finger 352
place 350
rink 350
so 348
show 347
pencil 347
tv 346
tools 345
ski 345
school 344
sheet 344
needle 342
target 342
circle 341
friends 340
hot 340
work 339
sticks 338
sewing 337
news 336
cream 336
drum 335
belly 335
gas 335
bow 334
eyebrows 334
parachute 333
cap 332
goal 331
fight 330
waves 329
trampoline 328
ropes 327
hoop 326
this 325
gear 324
were 322
class 322
part 321
tractor 321
proper 319
close 317
picture 316
fun 316
friend 315
net 315
again 314
night 314
individual 313
club 313
dancing 311
bench 309
equipment 308
cart 308
cliff 307
match 307
restaurant 307
you 306
watermelon 306
concrete 305
animal 305
sled 305
play 304
half 304
store 304
pong 303
themselves 302
bottom 302
seat 301
family 301
e@@ 300
course 300
ring 298
frisbee 297
chest 296
process 295
slide 294
s@@ 294
computer 294
mom 293
bubble 293
fence 291
suit 291
a@@ 290
re@@ 290
diving 289
hose 289
item 287
wind 285
television 284
iron 284
repeatedly 282
bucket 282
lights 281
swing 281
kind 280
voice 280
sword 280
church 280
roller 279
edge 278
ladder 278
steps 277
path 276
tutorial 276
horses 276
drill 276
window 275
herself 275
counter 275
fabric 275
deck 275
in@@ 274
lap 274
tune 274
pen 273
new 272
stone 272
trees 270
art 269
massage 269
spray 268
weather 268
leaves 266
power 265
brown 265
pot 265
thread 264
technique 264
wax 264
foreign 263
else 263
beside 263
dress 263
concert 262
toilet 262
without 261
sort 261
bat 261
cow 260
saw 260
clothing 259
woods 258
slope 257
just 257
liquid 257
faces 256
items 256
ramp 255
kite 255
special 253
beat 252
well 248
hard 246
empty 245
mask 244
father 243
country 243
tattoo 243
toward 242
ping 242
style 241
balloons 241
if 239
carefully 237
view 237
stove 237
scooter 237
helmet 236
mechanical 236
flip 236
indoors 235
bowling 235
worker 234
chef 234
sports 233
ing 232
really 232
flips 231
spoon 231
flat 230
container 230
no 228
pit 228
teeth 228
sail 228
desk 227
sound 227
square 227
material 227
scissors 227
gum 226
trumpet 226
left 225
cement 225
ballet 225
gymnasium 224
backyard 224
traffic 224
nails 222
motorcycle 222
p@@ 221
position 221
bedroom 221
bottles 221
karate 221
drink 220
speed 220
artist 220
skills 219
smoke 219
wrestling 219
barbell 218
tube 218
blower 218
skating 218
yarn 218
setting 216
driveway 216
wave 216
scuba 216
button 215
rocks 214
party 214
shorts 214
workers 214
block 214
sky 214
skis 214
chess 214
below 213
d@@ 213
construction 211
shop 210
distance 210
design 210
grill 210
garbage 210
teen 209
s 208
boxing 208
mud 207
snake 206
o 205
pile 205
lane 205
sheep 205
shirtless 204
i 204
until 203
your 203
money 203
more 203
also 203
colored 203
pillow 203
practice 202
trash 202
tongue 200
garage 200
skateboard 200
keyboard 200
o@@ 199
sign 199
birthday 199
product 198
flowers 198
goat 198
violin 197
busy 197
arts 197
coffee 196
things 195
cell 195
martial 195
performance 194
es 194
dad 193
round 192
broom 192
cars 192
oil 192
cube 192
ear 191
towel 191
harmonica 191
y 190
stand 190
g@@ 190
yoga 190
vacuum 190
brick 189
wet 189
ers 189
t@@ 189
lock 189
purple 188
tall 188
only 188
gun 188
trick 188
bubbles 188
; 187
far 187
di@@ 187
number 187
candles 187
costume 186
beard 186
bread 186
athlete 186
electronic 184
flame 183
objects 182
stomach 182
saxophone 182
unicycle 182
good 181
lips 181
curling 181
log 181
roof 180
wheelchair 180
pizza 180
skiing 180
grassy 179
platform 179
funny 179
knees 179
knot 179
remote 179
short 178
loudly 178
stadium 178
tub 178
color 178
vegetables 178
fruit 178
push 178
jet 178
harp 178
blanket 177
sport 177
parking 177
tile 177
couples 177
elephant 177
noise 176
dish 176
huge 176
step 176
grinder 176
volleyball 176
workout 175
sausage 175
noises 174
clear 174
d 172
pictures 171
jacket 171
i@@ 171
leather 171
er 171
tight 171
jumping 171
snowman 171
ladies 170
words 170
razor 170
potato 170
bricks 170
cave 170
gets 169
tap 169
n't 168
dances 168
son 168
trail 168
treadmill 168
instructor 167
substance 167
alligator 167
hula 167
organ 167
hall 166
contest 166
pumpkin 166
pinball 166
order 165
certain 165
napkin 165
cheese 165
buttons 165
mascara 165
base 164
ts 164
past 164
puzzle 164
skates 164
pond 163
second 163
flower 163
leaf 163
alone 162
center 162
strip 162
camel 162
sandwich 161
sea 161
contact 161
forest 160
sounds 160
rod 160
clay 160
city 159
infant 159
gold 159
pineapple 159
bungee 158
parts 158
skin 158
toys 158
ingredients 157
al 156
shore 156
punching 156
microscope 156
own 155
uniform 155
coin 155
de@@ 154
practices 154
circles 154
dancers 154
newspaper 154
students 153
soap 153
asian 153
sunny 152
e 152
un@@ 152
shape 152
deep 152
nail 152
classroom 151
singing 151
cookies 151
circular 151
notes 151
shots 151
marker 151
atm 151
bridge 150
garden 150
zoo 150
li@@ 150
pants 150
wire 149
tank 149
underwater 149
puppet 149
ac@@ 148
le 148
individuals 147
office 147
monopoly 147
commercial 146
still 146
m@@ 146
u@@ 146
great 146
axe 146
co@@ 145
colorful 145
c@@ 145
colors 145
somebody 145
move 145
jacks 145
hook 145
cleaner 144
cooking 144
handstand 144
factory 144
swimmers 144
scene 143
use 143
us 143
ed 143
persons 143
dart 143
poker 143
polo 143
sharpener 143
onlookers 142
frame 142
spectators 142
heads 142
pressure 142
skate 142
javelin 142
shopping 141
shoulders 141
knee 141
wrench 141
chain 141
beans 141
pin 141
hurdles 141
toes 141
cello 141
gong 141
g 140
tape 140
airplane 140
trapeze 140
pig 140
dishes 140
accordion 140
flashlight 140
scrabble 140
ps 139
station 139
getting 139
shovel 139
cutting 139
refrigerator 139
kick 139
k@@ 138
st@@ 138
hallway 138
shoulder 138
fencing 138
safety 137
do 137
arena 137
la@@ 137
turns 137
calf 137
series 136
2 136
present 136
skillet 136
public 135
mans 135
happy 135
oven 135
bath 135
sharp 135
skier 135
help 134
ax 134
mop 134
pe@@ 133
ly 133
movements 133
cage 133
plants 133
been 132
po@@ 132
ba@@ 132
apples 132
chips 132
fork 132
train 131
straight 131
blonde 131
si@@ 131
tail 131
headphones 131
referee 131
pad 131
sides 130
spaghetti 130
salad 130
bags 130
have 129
stream 129
will 129
gentleman 129
se@@ 129
arrow 129
plant 129
chicken 129
amount 129
darts 129
nearby 128
structure 128
at@@ 128
animals 128
elderly 128
castle 128
boards 128
parents 128
wool 128
five 127
l@@ 127
sunglasses 127
torch 127
groups 127
control 127
salon 127
washing 127
meet 127
' 126
ca@@ 126
ar@@ 126
wheels 126
dock 126
xylophone 126
upside 125
w@@ 125
project 125
lapse 125
shirts 125
protective 124
ri@@ 124
n@@ 124
branch 124
stroke 124
wheelbarrow 123
plays 123
branches 123
handle 123
cups 123
eyebrow 123
sushi 123
marbles 123
narrator 122
ta@@ 122
podium 122
cricket 122
pattern 122
announcer 121
successfully 121
dryer 121
en@@ 120
bare 120
rubber 120
ti@@ 120
blocks 120
bouncy 120
coat 120
sculpture 120
males 119
cheer 119
ation 119
y@@ 119
cross 119
laundry 119
batter 119
guns 119
war 119
badminton 119
conversation 118
lo@@ 118
blow 118
m 118
smiles 118
painting 118
thin 117
outfit 117
tables 117
beautiful 117
sauce 117
grapes 117
point 116
chairs 116
tray 116
mower 116
dye 116
easter 116
bu@@ 115
/ 115
flour 115
mail 115
hopscotch 115
p 114
an@@ 114
segway 114
lacrosse 114
land 113
site 113
swings 113
cowboy 113
r@@ 112
v@@ 112
paintball 112
lands 112
chainsaw 112
inflatable 112
harness 111
climbing 111
ro@@ 111
row 111
soft 111
costumes 111
spinning 111
bulldozer 111
bagpipes 111
disc 111
pancake 111
le@@ 110
action 110
stairs 110
lip 110
shed 110
corner 110
er@@ 109
cheers 109
strings 109
birds 109
alley 109
tissue 109
peeler 109
balance 108
to@@ 108
younger 108
advertisement 108
bird 108
driver 108
dead 108
flag 108
laser 108
inhaler 108
ho@@ 107
muddy 107
places 107
desert 107
walk 107
package 107
snowmobile 107
hats 107
throw 107
sa@@ 106
press 106
cardboard 106
pottery 106
roll 106
coach 106
drinks 106
bee 106
bite 106
wide 105
l 105
holes 105
teenager 105
hop 105
icy 105
ride 105
chisel 105
windy 104
techniques 104
recording 104
bit 104
bright 104
tip 104
car@@ 104
kayak 104
yolk 104
clippers 104
discus 104
windows 103
unseen 103
n 103
facial 103
sofa 103
f@@ 103
b@@ 103
surf 103
oyster 103
spinner 103
copy 103
st 102
american 102
sh@@ 102
bo@@ 102
daughter 102
cigarette 102
cord 101
bees 101
spatula 101
controller 101
graffiti 101
mallet 101
swords 101
tiles 101
ds 100
lens 100
third 100
range 100
wooded 100
cartwheel 100
frozen 100
recorder 100
low 99
than 99
spanish 99
belt 99
uniforms 99
furniture 99
athletic 99
sailboat 99
dominoes 99
waist 98
teenagers 98
too 98
mo@@ 98
th@@ 98
whole 98
display 98
milk 98
craft 98
form 98
boxes 98
con@@ 97
types 97
professional 97
reporter 97
lipstick 97
letters 97
el@@ 97
crowded 97
underneath 97
diver 97
double 97
poles 97
tea 97
straw 97
knitting 97
winter 96
on@@ 96
al@@ 96
footage 96
games 96
bikes 96
attempts 96
leash 96
mushrooms 96
thumbs 96
fidget 96
les 95
points 95
fake 95
nice 95
upper 95
clips 95
bartender 95
trombone 95
tires 94
tee 94
b 94
award 94
tag 94
grey 94
key 94
break 94
lower 93
parent 93
directions 93
excited 93
unison 93
lots 93
drawing 93
cold 93
mall 93
orchestra 93
calligraphy 93
lawnmower 93
sausages 93
tightrope 93
gift 93
gently 92
se 92
smaller 92
thick 92
ex@@ 92
cut 92
dinner 92
marshmallows 92
doll 92
giant 92
lift 92
mobile 92
blade 92
arcade 92
be@@ 91
shallow 91
pump 91
training 91
boots 91
turn 91
swim 91
plane 91
keys 91
cone 91
dumpster 91
vault 91
rapidly 90
instruction 90
ch@@ 90
vehicles 90
do@@ 90
clean 90
der 90
racket 90
act 89
workshop 89
walls 89
twice 89
bus 89
knuckles 89
motor 89
eyeliner 89
members 88
cymbals 88
goats 88
attempt 88
lighter 88
socks 88
cheerleaders 88
figure 87
much 87
human 87
asleep 87
babies 87
fist 87
boats 87
bass 87
squats 87
polish 87
steep 86
manner 86
marching 86
lid 86
meal 86
fancy 86
silver 86
cork 86
bobsled 86
needles 86
batting 86
ous 85
six 85
image 85
report 85
k 85
stuff 85
rug 85
bathtub 85
dancer 85
ma@@ 84
clip 84
comments 84
text 84
am@@ 84
gymnastics 84
ter 84
lego 84
camels 84
ra@@ 83
teacher 83
indian 83
pa@@ 83
conference 83
ate 83
females 83
chocolate 83
musicians 83
slices 83
mushroom 83
puppets 83
de 82
lines 82
it@@ 82
free 82
apart 82
h@@ 82
word 82
pages 82
sit 82
pitch 82
eyelashes 82
maracas 82
gray 81
ears 81
single 81
snowboard 81
divers 81
robot 81
knives 81
loom 81
whilst 80
king 80
bent 80
highchair 80
dining 80
ations 80
clapping 80
specific 80
pipes 80
haired 80
ks 80
ted 80
post 80
almost 79
vi@@ 79
speech 79
pro@@ 79
th 79
c 79
shell 79
barrel 79
cookie 79
bandage 79
downhill 79
math 79
kicks 79
lure 79
basketballs 79
snowball 79
te@@ 78
3 78
photo 78
ways 78
pens 78
.. 78
vase 78
me@@ 78
bi@@ 78
pans 78
rap 78
fly 78
ceiling 78
canvas 78
eating 78
ironing 78
ls 77
self 77
direction 77
wi@@ 77
palm 77
fi@@ 77
watches 77
pain 77
bank 77
ukulele 77
live 76
farm 76
everyone 76
stones 76
tiny 76
auction 76
runs 76
wrap 76
pins 76
comb 76
candle 76
industrial 76
strips 76
hardwood 76
cabinet 76
catcher 76
ment 75
gestures 75
suits 75
jeans 75
cute 75
su@@ 75
stack 75
size 75
thumb 75
machinery 75
dive 75
fitness 75
rolling 75
gutters 75
moon 75
we 74
ling 74
why 74
brother 74
section 74
gymnastic 74
toothbrush 74
horn 73
solo 73
ad 73
thing 73
striped 73
go 73
pop 73
business 73
once 73
pi@@ 73
glove 73
ons 73
sledge 73
sp@@ 72
lotion 72
butter 72
ings 72
hip 72
service 72
toddlers 72
patio 72
steel 72
rodeo 72
macarena 72
ting 71
stool 71
chin 71
dirty 71
ding 71
ble 71
engine 71
welding 71
playground 71
fur 71
bin 71
casino 71
foam 71
mortar 71
racquetball 71
particular 70
buckets 70
ic@@ 70
cleaning 70
stretch 70
whistle 70
machines 70
rides 70
backpack 70
gutter 70
sander 70
mountains 69
scenes 69
performer 69
j@@ 69
screw 69
ru@@ 69
hi@@ 69
fans 69
foundation 69
plank 69
fridge 69
cotton 69
because 69
jack 69
softball 69
rhythm 68
teens 68
space 68
waters 68
ent 68
cheek 68
facility 68
tu@@ 68
bars 68
raw 68
films 68
vest 68
cook 68
cover 68
lanes 68
stringed 68
hoops 68
hug 68
fingernails 68
sippy 68
snowballs 68
hookah 68
mi@@ 67
life 67
papers 67
actions 67
upright 67
porch 67
fighting 67
age 67
best 67
quick 67
aged 67
sideways 67
already 67
carrier 67
suitcase 67
catch 66
outfits 66
phones 66
pick 66
story 66
features 66
w 66
ge@@ 66
job 66
backward 66
stroller 66
cymbal 66
obstacles 66
lollipop 66
civil 66
elephants 66
ously 65
motions 65
continuously 65
streets 65
trainer 65
ler 65
tent 65
spot 65
floors 65
rider 65
motorized 65
ends 65
suddenly 65
barber 65
potatoes 65
sledgehammer 65
dodge 65
ledge 64
min@@ 64
questions 64
mu@@ 64
panel 64
.@@ 64
variety 64
traditional 64
manual 64
ties 64
ine 64
pet 64
goggles 64
haircut 64
bear 64
horseback 64
kickball 64
pillows 64
ated 63
question 63
or@@ 63
pairs 63
fan 63
montage 63
contents 63
chip 63
flags 63
surfboard 63
canoe 63
karaoke 63
case 62
sun 62
tips 62
en 62
com@@ 62
neighborhood 62
rings 62
somersault 62
attention 62
butterfly 62
boarding 62
washer 62
instead 62
bounce 62
stop 62
cartoon 62
sponge 62
hurdle 62
get 61
plates 61
dry 61
viewers 61
gathering 61
ll 61
make 61
homemade 61
z@@ 61
student 61
numbers 61
bell 61
cu@@ 61
rice 61
plow 61
sailing 61
scallops 61
toe 61
laces 61
swimmer 61
strange 60
ve 60
ne@@ 60
instructional 60
able 60
brushes 60
du@@ 60
sized 60
chi@@ 60
ters 60
running 60
someones 60
preparation 60
sc@@ 60
surfer 60
strike 60
bills 60
shaving 60
crib 60
bush 60
horseshoe 60
rubik 60
pre@@ 59
cast 59
mic 59
stands 59
r 59
gs 59
helmets 59
fully 59
mar@@ 59
similar 59
pajamas 59
obstacle 59
burger 59
barn 59
vegetable 59
pitcher 59
pigeons 59
me 58
onstage 58
opening 58
slightly 58
venue 58
athletes 58
x 58
sts 58
cartwheels 58
sheets 58
rack 58
hamburger 58
owner 58
walkway 58
run 58
luge 58
breast 58
dodgeball 58
clarinet 58
domino 58
performers 57
problem 57
look 57
visible 57
per@@ 57
meeting 57
gu@@ 57
forehead 57
officer 57
police 57
correct 57
map 57
opposite 57
gears 57
youth 57
basement 57
axes 57
headstand 57
marshmallow 57
rocky 56
watch 56
length 56
narrow 56
pliers 56
ful 56
fo@@ 56
ea@@ 56
candy 56
no@@ 56
gr@@ 56
ing@@ 56
slice 56
pace 56
bald 56
acoustic 56
drills 56
campfire 56
should 55
ments 55
ins 55
pe 55
commentary 55
jar 55
among 55
barbecue 55
competitive 55
x@@ 55
sister 55
ink 55
ornaments 55
carrots 55
crane 54
images 54
overhead 54
fit 54
shapes 54
4 54
noisy 54
tion 54
baskets 54
backflip 54
baking 54
recipe 54
womans 54
alcohol 54
beverage 54
shower 54
torches 54
spin 54
surfing 54
beads 54
grocery 54
skiers 54
water@@ 53
weird 53
go@@ 53
man@@ 53
hand@@ 53
cellphone 53
rest 53
trowel 53
last 53
ker 53
sha@@ 53
ser@@ 53
ster 53
flames 53
stretches 53
dust 53
wheeled 53
olympic 53
patty 53
start 52
battle 52
soda 52
ss 52
steering 52
information 52
pl@@ 52
designs 52
buildings 52
for@@ 52
happily 52
edges 52
page 52
opener 52
name 52
chi 52
selfie 52
hover 52
squash 52
rubix 52
unique 51
we@@ 51
radio 51
laptop 51
message 51
ses 51
playfully 51
assembly 51
bolt 51
pu@@ 51
breathing 51
lu@@ 51
butcher 51
balcony 51
goalie 51
para 51
forecast 51
tower 50
powder 50
inner 50
ge 50
ty 50
sporting 50
logo 50
materials 50
ver 50
skirt 50
doorway 50
throwing 50
arrangement 50
ribbon 50
easy 50
separate 50
sh 50
elbow 50
ats 50
cutter 50
riders 50
debris 50
rag 50
character 50
characters 50
legos 50
drinking 50
melody 50
golfer 50
mug 50
driving 50
liner 50
reenactment 50
tai 50
strong 49
beam 49
creek 49
ni@@ 49
though 49
dimly 49
star 49
tournament 49
als 49
back@@ 49
ders 49
company 49
dresses 49
rim 49
par@@ 49
over@@ 49
pack 49
per 49
pping 49
hu@@ 49
lifting 49
dumbbells 49
donut 49
moonwalk 49
blackjack 49
smoking 49
coins 49
pull 49
pushups 49
interview 48
presentation 48
ce@@ 48
either 48
auditorium 48
sure 48
gi@@ 48
microphones 48
lifts 48
ceremony 48
areas 48
care 48
mini 48
patch 48
targets 48
ery 48
upbeat 48
french 48
festival 48
bad 48
foil 48
fat 48
lunges 48
notebook 48
trailer 48
sock 48
ballerina 48
skateboards 48
encouragement 47
larger 47
system 47
ul@@ 47
the@@ 47
cre@@ 47
english 47
ger 47
fresh 47
melon 47
seconds 47
butt 47
riding 47
che@@ 47
note 47
conveyor 47
doors 47
runner 47
laps 47
soldiers 47
gra@@ 46
medicine 46
fashion 46
inter@@ 46
landing 46
pass 46
pretty 46
messy 46
floral 46
wires 46
ic 46
salt 46
spit 46
closer 46
wand 46
necklace 46
correctly 46
gloved 46
pavement 46
u 46
intricate 46
beef 46
dollar 46
postal 46
motorcycles 46
movement 45
attire 45
led 45
environment 45
screwdriver 45
war@@ 45
throat 45
ca 45
so@@ 45
daytime 45
blond 45
flo@@ 45
fe@@ 45
even 45
hood 45
wrist 45
shift 45
attachment 45
letter 45
rough 45
copier 45
vigorously 45
flooring 45
walker 45
sneakers 45
scotch 45
cans 45
stitch 45
ap@@ 44
judges 44
ator 44
cheeks 44
shovels 44
work@@ 44
crew 44
ve@@ 44
arrows 44
cam 44
procedure 44
wrapping 44
peice 44
juggling 44
puppy 44
nozzle 44
squat 44
ky 44
spins 44
mattress 44
logs 44
bagpipe 44
anchor 44
pumpkins 44
baseballs 44
oysters 44
latin 44
coral 44
ag@@ 43
lenses 43
rolls 43
speaker 43
head@@ 43
ci@@ 43
ad@@ 43
can@@ 43
ven@@ 43
commentator 43
hospital 43
bowls 43
jewelry 43
ck 43
gate 43
surfers 43
bye 43
sip 43
popular 43
religious 43
ornament 43
tread 43
trimmer 43
petting 43
didgeridoo 43
height 42
partner 42
fall 42
ity 42
ship 42
! 42
passenger 42
wa@@ 42
ves 42
ans 42
musician 42
lightly 42
method 42
barrow 42
archery 42
rapid 42
decorative 42
ke 42
electrical 42
artwork 42
stump 42
ch 42
fla@@ 42
wash 42
ard 42
hive 42
honey 42
timelapse 42
kers 42
glue 42
my 42
bushes 42
embroidery 42
backstroke 42
town 41
tur@@ 41
ant 41
ab@@ 41
kit 41
african 41
program 41
ec@@ 41
positions 41
lively 41
sweater 41
warehouse 41
decorations 41
skill 41
infront 41
qu@@ 41
photos 41
mouths 41
ches 41
local 41
hips 41
magic 41
bur@@ 41
ahead 41
scrapbook 41
hi 41
guide 41
mixture 41
strokes 41
jigsaw 41
guitars 41
sails 41
parade 41
sync 41
darkened 41
puck 41
ballroom 41
activity 40
seated 40
experience 40
doctor 40
eyeglasses 40
crocodile 40
enclosure 40
hotel 40
formal 40
pri@@ 40
bar@@ 40
mound 40
cur@@ 40
str@@ 40
liquor 40
drive 40
such 40
ke@@ 40
pr@@ 40
lion 40
pier 40
ten@@ 40
h 40
statue 40
muscles 40
jeep 40
disk 40
fry 40
markers 40
newborn 40
drawer 40
fireplace 40
paddle 40
ver@@ 40
classical 40
yolks 40
mess 40
any 39
later 39
better 39
heat 39
drumsticks 39
within 39
beats 39
real 39
wild 39
pen@@ 39
scarf 39
cks 39
ance 39
napkins 39
mixed 39
contraption 39
tor 39
muscular 39
sets 39
out@@ 39
shi@@ 39
cycle 39
aisle 39
barefoot 39
trunk 39
triple 39
onions 39
alongside 39
parasail 39
win@@ 39
beekeeper 39
aerobics 39
removal 39
fl@@ 39
neatly 39
packages 39
cats 39
presents 39
put 39
shears 39
military 39
kites 39
necktie 39
level 38
atop 38
quietly 38
tri@@ 38
pan@@ 38
om@@ 38
chalk 38
angles 38
masks 38
te 38
dressed 38
itself 38
sing 38
ste@@ 38
bicycles 38
adhesive 38
sling 38
terrain 38
curly 38
dumbbell 38
bend 38
acrobatic 38
diaper 38
lers 38
rain 38
puddle 38
mowers 38
dice 38
glider 37
ning 37
closed 37
aquarium 37
products 37
sed 37
barrels 37
hoodie 37
loose 37
ter@@ 37
ence 37
dec@@ 37
padded 37
perfect 37
peanut 37
jersey 37
sl@@ 37
holder 37
stance 37
mats 37
pony 37
carts 37
cloudy 37
printer 37
fu@@ 37
van 37
slab 37
intersection 37
nuts 37
marble 37
wok 37
noodles 37
tablet 37
triangle 37
origami 37
kilt 37
orchard 37
weaving 37
support 36
patient 36
ability 36
nu@@ 36
signs 36
scores 36
sto@@ 36
wildly 36
directly 36
sen@@ 36
movie 36
bearded 36
cones 36
har@@ 36
ics 36
kes 36
walks 36
ou@@ 36
let 36
caps 36
wing 36
sea@@ 36
jumper 36
settings 36
multi 36
bands 36
singer 36
ck@@ 36
backs 36
accidentally 36
f 36
smooth 36
try 36
drives 36
pie 36
shaver 36
carrot 36
partners 36
hoverboard 36
climber 35
safely 35
fine 35
sho@@ 35
ankle 35
highway 35
slides 35
ir@@ 35
ms 35
ss@@ 35
handheld 35
3@@ 35
clam 35
mat@@ 35
standing 35
heart 35
sses 35
finished 35
sugar 35
mixer 35
elaborate 35
strength 35
pose 35
up@@ 35
snowmobiles 35
customer 35
tic 35
reaction 35
faster 35
raft 35
cro@@ 35
punches 35
lan@@ 35
cows 35
pedestrians 35
potter 35
gifts 35
lute 35
sand@@ 34
ents 34
finish 34
keeper 34
ary 34
naked 34
laugh 34
bouquet 34
convention 34
viewer 34
model 34
tive 34
angle 34
ones 34
finally 34
excitedly 34
tr@@ 34
ati@@ 34
5 34
skies 34
gymnast 34
ded 34
re 34
br@@ 34
steam 34
sections 34
kicking 34
reverse 34
client 34
giggles 34
dy 34
coloring 34
excitement 34
jumps 34
braids 34
jazz 34
bolts 34
juice 34
cash 34
treat 34
dealer 34
formation 33
ys 33
ards 33
hooping 33
den@@ 33
col@@ 33
beginning 33
possible 33
eventually 33
intense 33
talk 33
coun@@ 33
bl@@ 33
soil 33
shes 33
poses 33
voices 33
briefly 33
der@@ 33
writing 33
books 33
peel 33
less 33
closeup 33
crystal 33
lit@@ 33
unknown 33
maker 33
miniature 33
kart 33
salsa 33
every 33
booth 33
robe 33
legged 33
western 33
tractors 33
strap 33
simple 33
frisbees 33
core 33
hysterically 33
tandem 33
ramps 33
reef 33
padlock 33
anvil 33
welder 33
dartboard 33
ocarina 33
bun@@ 32
fists 32
works 32
he@@ 32
member 32
calm 32
film 32
broken 32
pads 32
fourth 32
da@@ 32
stri@@ 32
session 32
ates 32
newscaster 32
ical 32
ple 32
cushion 32
ware 32
somewhere 32
fa@@ 32
bri@@ 32
tat@@ 32
breath 32
snowboarder 32
squares 32
pin@@ 32
canyon 32
cla@@ 32
cor@@ 32
sleds 32
ar 32
champagne 32
play@@ 32
partially 32
crust 32
fighters 32
ry 32
calculator 32
wedding 32
kiss 32
carving 32
plaster 32
links 32
santa 32
brows 32
skater 32
mosh 32
waterfall 31
aid 31
ban@@ 31
discussion 31
artists 31
1 31
dis@@ 31
pes 31
mon@@ 31
drummer 31
medical 31
whiteboard 31
ies 31
claps 31
tte 31
beauty 31
landscape 31
most 31
narration 31
picnic 31
ages 31
ga@@ 31
cra@@ 31
crafts 31
bles 31
apron 31
techno 31
sion 31
ur@@ 31
sandy 31
paved 31
curved 31
sprayer 31
weighted 31
stunt 31
mannequin 31
portion 31
laughter 31
sleigh 31
channel 31
rather 31
chords 31
trucks 31
saws 31
stable 31
rugby 31
volley 31
hit 31
lettuce 31
whites 31
pancakes 31
pacifier 31
scooters 31
lashes 31
pastry 31
hunt 31
tre@@ 30
league 30
ition 30
advice 30
underwear 30
nearly 30
sli@@ 30
mouse 30
smile 30
year 30
os 30
cel@@ 30
sequence 30
cuts 30
bul@@ 30
hay 30
subway 30
closely 30
brass 30
kinds 30
racing 30
il@@ 30
pedal 30
brand 30
monitor 30
ion 30
views 30
ative 30
10 30
tongs 30
camp 30
circus 30
percussion 30
ely 30
clo@@ 30
rea@@ 30
cho@@ 30
shelf 30
score 30
bean 30
eyelid 30
sleep 30
pocket 30
aluminum 30
replay 30
sk@@ 30
fashioned 30
pickup 30
chunk 30
could 30
loop 30
blades 30
hatchet 30
bells 30
watering 30
bites 30
parkour 30
hairy 30
lawnmowers 30
conductor 30
slalom 30
ams 29
cameraman 29
expressions 29
ov@@ 29
adjustments 29
ors 29
drumming 29
amusement 29
spoons 29
customers 29
ju@@ 29
( 29
) 29
numerous 29
under@@ 29
effects 29
shampoo 29
piles 29
rectangular 29
location 29
ately 29
shooting 29
easily 29
ther 29
cable 29
rear 29
nut 29
world 29
dly 29
somersaults 29
toppings 29
summer 29
rate 29
locations 29
soapy 29
oriental 29
cr@@ 29
fun@@ 29
final 29
thru 29
snow@@ 29
ying 29
stuck 29
containers 29
bathing 29
competitors 29
aloud 29
dd@@ 29
successful 29
lever 29
cheerleading 29
sneaker 29
stunts 29
roasted 29
gambling 29
snack 29
mailman 29
congregation 29
hoof 29
rackets 29
skateboarders 29
dominos 29
gongs 29
boxers 29
bowtie 29
ft 28
ff 28
actors 28
hold 28
those 28
grip 28
cha@@ 28
sur@@ 28
applause 28
ha@@ 28
thigh 28
tan 28
pers 28
um@@ 28
afterwards 28
stu@@ 28
apartment 28
ed@@ 28
py 28
mechanic 28
trac@@ 28
ten 28
technician 28
components 28
coats 28
app 28
fac@@ 28
entrance 28
auctioneer 28
market 28
foreground 28
simultaneously 28
golden 28
guard 28
nurse 28
steak 28
boot 28
hills 28
perfectly 28
extremely 28
filter 28
va@@ 28
flash 28
ob@@ 28
specialized 28
donuts 28
unsuccessfully 28
diamond 28
jo@@ 28
automatic 28
punch 28
bre@@ 28
maneuvers 28
slo@@ 28
suv 28
posts 28
railing 28
feed 28
squeegee 28
jackson 28
layer 28
putt 28
donkey 28
nipple 28
mp@@ 27
dramatic 27
op@@ 27
flexible 27
effect 27
clamp 27
rows 27
ingly 27
enclosed 27
website 27
possibly 27
bill 27
complex 27
details 27
vo@@ 27
hoo@@ 27
lin@@ 27
tions 27
bigger 27
test 27
gro@@ 27
gesture 27
is@@ 27
elbows 27
handles 27
ach@@ 27
college 27
michael 27
would 27
mascot 27
bracelet 27
pre 27
ged 27
gar@@ 27
tails 27
beers 27
para@@ 27
videos 27
lab 27
sy 27
rhythmic 27
quite 27
hedge 27
heavily 27
1@@ 27
ward 27
laughs 27
au@@ 27
kettle 27
bob 27
artificial 27
fries 27
chunks 27
sidelines 27
ering 27
pathway 27
pepper 27
lamp 27
bunny 27
collar 27
wrestlers 27
skaters 27
gangnam 27
opponent 27
puff 27
choir 27
casing 27
kicker 27
contacts 27
makeshift 26
sting 26
benefits 26
char@@ 26
crazy 26
pencils 26
effort 26
're 26
ll@@ 26
cam@@ 26
caster 26
airport 26
bikini 26
bits 26
pper 26
gentlemen 26
stacks 26
upset 26
sta@@ 26
complete 26
wheeler 26
brea@@ 26
lead 26
working 26
spe@@ 26
6 26
japanese 26
shoreline 26
stylist 26
portable 26
fire@@ 26
taste 26
dim 26
straps 26
eyed 26
tt@@ 26
hives 26
carpeted 26
sledding 26
pat@@ 26
progress 26
jungle 26
snowblower 26
towels 26
lone 26
ponytail 26
tan@@ 26
utensils 26
carpeting 26
creation 26
equation 26
dummy 26
youths 26
dra@@ 26
seeds 26
turtle 26
wo@@ 26
knob 26
utensil 26
mostly 26
firefighters 26
pasta 26
chiropractor 26
bib 26
crosswalk 26
segways 26
aerobic 26
entire 26
popsicle 26
spinners 26
putter 26
batons 26
priest 26
activities 25
hang 25
tries 25
um 25
screws 25
am 25
lar@@ 25
ma 25
sweatshirt 25
ja@@ 25
yawn 25
rs 25
beneath 25
iner 25
solution 25
picks 25
eight 25
national 25
cri@@ 25
mon 25
ist 25
loo@@ 25
higher 25
limb 25
songs 25
completely 25
coals 25
softly 25
bra@@ 25
basin 25
wh@@ 25
strands 25
et 25
super 25
garment 25
tops 25
motorbike 25
zer 25
cru@@ 25
mane 25
gentle 25
quiet 25
mill 25
thrower 25
faucet 25
ness 25
collection 25
ently 25
san@@ 25
index 25
choppy 25
fishes 25
beanie 25
lug 25
bal@@ 25
iphone 25
stitches 25
snowboards 25
toss 25
slopes 25
touchdown 25
flashlights 25
bs 24
extended 24
sketch 24
tin 24
wear 24
mustache 24
ically 24
gen@@ 24
zed 24
joke 24
fenced 24
gh@@ 24
tra@@ 24
digital 24
boo@@ 24
change 24
drop 24
ele@@ 24
bows 24
deer 24
here 24
ski@@ 24
interior 24
holiday 24
fr@@ 24
ges 24
odd 24
tly 24
residential 24
metallic 24
mix 24
elastic 24
stationary 24
chefs 24
downs 24
yet 24
celebration 24
shiny 24
spring 24
tubes 24
dri@@ 24
tracks 24
rac@@ 24
sub@@ 24
ving 24
stitching 24
& 24
ukelele 24
neon 24
fluid 24
na@@ 24
tiger 24
cabinets 24
matador 24
slip 24
pla@@ 24
tomato 24
duck 24
burner 24
quarterback 24
whistles 24
tobacco 24
lea@@ 23
clouds 23
peoples 23
sit@@ 23
ences 23
constantly 23
repair 23
ruler 23
interesting 23
application 23
non 23
stant 23
difference 23
greens 23
ner 23
complicated 23
console 23
graphic 23
resort 23
fair 23
chinese 23
mil@@ 23
ben@@ 23
now 23
roping 23
whi@@ 23
ghts 23
upwards 23
ths 23
hanging 23
ankles 23
vice 23
races 23
upon 23
ty@@ 23
ballon 23
might 23
starts 23
file 23
vat 23
fluffy 23
lighting 23
curls 23
crumbs 23
grown 23
fingernail 23
scalp 23
topless 23
storage 23
pyramid 23
bull@@ 23
banjo 23
tics 23
joy 23
ked 23
tshirt 23
smart 23
socket 23
key@@ 23
tomatoes 23
clams 23
lemon 23
runners 23
monkey 23
bacon 23
ack 23
backseat 23
luggage 23
doughnut 23
rail 23
eyelash 23
accordian 23
vaulting 23
triceps 23
conditions 22
lesson 22
angry 22
ear@@ 22
bon@@ 22
drumstick 22
ut 22
nature 22
equations 22
staircase 22
participants 22
cer 22
dies 22
ki@@ 22
trouble 22
cloths 22
maintenance 22
outline 22
had 22
strainer 22
devices 22
title 22
force 22
ong 22
el 22
wig 22
tantrum 22
lunch 22
roses 22
kets 22
tooth 22
circuit 22
random 22
q 22
ction 22
ions 22
quality 22
waiter 22
baked 22
freezer 22
ol@@ 22
hur@@ 22
wor@@ 22
wife 22
tattoos 22
immediately 22
ite 22
personal 22
ure 22
groomer 22
planks 22
crate 22
bleachers 22
furnace 22
ka@@ 22
article 22
our 22
snacks 22
acks 22
tunnel 22
dro@@ 22
surfboards 22
cal@@ 22
inflated 22
disco 22
brightly 22
hairs 22
ines 22
sandcastle 22
figures 22
unusual 22
stic 22
closet 22
knots 22
trip 22
mitt 22
boxer 22
automobile 22
fre@@ 22
robotic 22
nor@@ 22
ph@@ 22
shoelaces 22
fore@@ 22
stir 22
tic@@ 22
straightener 22
clipper 22
rabbit 22
mailbox 22
joystick 22
newly 22
dunk 22
threads 22
smartphone 22
hoola 22
maraca 22
climbers 21
ries 21
wash@@ 21
tow 21
off@@ 21
lecture 21
challenge 21
enthusiastically 21
version 21
ater 21
gri@@ 21
add@@ 21
flight 21
argument 21
trophy 21
tricycle 21
security 21
blurry 21
tted 21
0 21
ess 21
morning 21
dig 21
zone 21
cl@@ 21
earth 21
por@@ 21
rainbow 21
super@@ 21
passionately 21
foot@@ 21
tal 21
kno@@ 21
inst@@ 21
tor@@ 21
oranges 21
sal@@ 21
highlights 21
timer 21
touch 21
freshly 21
int 21
oun@@ 21
shrimp 21
list 21
chute 21
xi@@ 21
balancing 21
commands 21
repetitions 21
'@@ 21
beehive 21
mer 21
combs 21
hedges 21
routines 21
assistance 21
warm 21
vel@@ 21
acrobatics 21
houses 21
ber 21
ned 21
hairdresser 21
twin 21
high@@ 21
trio 21
sleeve 21
ally 21
frying 21
detail 21
plywood 21
2@@ 21
compilation 21
pon@@ 21
modern 21
shows 21
ton 21
outfield 21
gauge 21
detergent 21
scrub 21
plaid 21
masseuse 21
tropical 21
dar@@ 21
berries 21
flint 21
arrowhead 21
sucker 21
trimmers 21
seaweed 21
flutes 21
silverware 21
wicker 21
tw@@ 20
state 20
actor 20
lounge 20
curtain 20
problems 20
seven 20
purpose 20
cool 20
dot 20
med 20
cy@@ 20
rules 20
stair 20
cat@@ 20
atten@@ 20
trap 20
ti 20
ssion 20
treatment 20
lar 20
shells 20
exhibition 20
wl 20
spots 20
cross@@ 20
perspective 20
countertop 20
verbal 20
gaming 20
paddles 20
tasting 20
sandwiches 20
ze 20
bbq 20
star@@ 20
touches 20
skillfully 20
apparatus 20
grand@@ 20
sw@@ 20
twirls 20
lace 20
barbells 20
tru@@ 20
men@@ 20
wise 20
rods 20
controls 20
fil@@ 20
pedestrian 20
hair@@ 20
results 20
blow@@ 20
appliance 20
accross 20
bodies 20
flippers 20
wake 20
copies 20
paintbrush 20
label 20
lamb 20
instructors 20
carnival 20
monster 20
pallet 20
ough 20
sel@@ 20
forklift 20
wrong 20
temperature 20
fountain 20
maneuver 20
clubs 20
ants 20
jetski 20
horizontal 20
ta 20
barrier 20
ns 20
carriage 20
lime 20
spindle 20
im@@ 20
verbally 20
pine 20
onion 20
bunk 20
anime 20
bamboo 20
army 20
toenails 20
delivery 20
co 20
dunks 20
crunches 20
ducks 20
mor@@ 20
goals 20
putting 20
huddle 20
hugs 20
racquet 20
parasailing 20
skateboarder 20
receiver 20
album 20
tango 20
breaststroke 20
via 19
assi@@ 19
moment 19
far@@ 19
ound 19
lity 19
mid 19
adjustment 19
flexibility 19
wal@@ 19
patterns 19
leg@@ 19
native 19
bases 19
spir@@ 19
mike 19
ny 19
il 19
she@@ 19
corners 19
massages 19
gy 19
skeleton 19
hea@@ 19
vests 19
these 19
aggressively 19
matches 19
tightly 19
delight 19
rose 19
brake 19
ol 19
foo@@ 19
ligh@@ 19
motherboard 19
stat@@ 19
plug 19
mo 19
cords 19
ari@@ 19
furry 19
elevated 19
folds 19
example 19
chy 19
further 19
trunks 19
red@@ 19
ick 19
parachu@@ 19
dutch 19
sy@@ 19
dumb 19
decoration 19
que 19
scenery 19
plain 19
fighter 19
mechanism 19
ceramic 19
parlor 19
wn 19
twists 19
run@@ 19
ered 19
speeds 19
broadcast 19
wetsuit 19
handmade 19
newspapers 19
blank 19
did 19
excess 19
ble@@ 19
watching 19
tiled 19
rhythmically 19
cries 19
flammable 19
mural 19
difficulty 19
chec@@ 19
scottish 19
alphabet 19
jackets 19
choreography 19
fisherman 19
lantern 19
ney 19
dives 19
icks 19
tch 19
cylinder 19
celery 19
seal 19
firemen 19
firefighter 19
recital 19
as@@ 19
weapons 19
tes 19
rind 19
gracefully 19
accident 19
jelly 19
koi 19
competitor 19
vaults 19
wrenches 19
scrap 19
asthma 19
sparks 19
nothing 18
je@@ 18
cape 18
scri@@ 18
skit 18
palms 18
bride 18
sco@@ 18
coke 18
coordinated 18
ster@@ 18
gator 18
crowds 18
ption 18
sari 18
plea@@ 18
tired 18
credit 18
fer@@ 18
famous 18
ber@@ 18
fin@@ 18
clap 18
stock 18
awards 18
and@@ 18
thoroughly 18
ssi@@ 18
slideshow 18
gravel 18
call 18
energy 18
pots 18
trans@@ 18
displays 18
bal 18
island 18
bin@@ 18
bids 18
ices 18
sale 18
patiently 18
crashes 18
intently 18
cakes 18
making 18
ribs 18
alcoholic 18
parachutes 18
plaza 18
pro 18
courtyard 18
split 18
bel@@ 18
lifter 18
load 18
adolescent 18
ser 18
ght 18
drawers 18
stencil 18
atv 18
bla@@ 18
record 18
goodbye 18
heated 18
spear 18
daddy 18
teammates 18
bystanders 18
seats 18
wood@@ 18
teddy 18
wind@@ 18
ina 18
animated 18
halloween 18
mothers 18
looks 18
period 18
eri@@ 18
castles 18
kayaks 18
theme 18
counting 18
difficult 18
explanation 18
lettering 18
vessel 18
yacht 18
swan 18
mic@@ 18
vertical 18
tourists 18
tyre 18
enough 18
grout 18
pil@@ 18
plunger 18
dder 18
thier 18
pur@@ 18
la 18
policeman 18
chains 18
hy@@ 18
tro@@ 18
zumba 18
shadow 18
sticky 18
attractive 18
fold 18
broccoli 18
navel 18
tho@@ 18
meteorologist 18
mandolin 18
fron@@ 17
powdered 17
ssive 17
nervous 17
rel@@ 17
mm@@ 17
feature 17
horns 17
ton@@ 17
safe 17
jaw 17
segment 17
ress 17
ya@@ 17
yes 17
tively 17
hello 17
ating 17
em@@ 17
chant 17
cer@@ 17
clean@@ 17
goo@@ 17
excavation 17
landsca@@ 17
layers 17
barriers 17
narr@@ 17
situation 17
scre@@ 17
wre@@ 17
by@@ 17
19@@ 17
da 17
battery 17
component 17
technology 17
oval 17
host 17
fir@@ 17
zi@@ 17
squ@@ 17
goods 17
signals 17
packaging 17
id 17
paw 17
ham 17
hotdogs 17
foods 17
ces 17
roast 17
air@@ 17
german 17
tical 17
coaches 17
honeycomb 17
lay@@ 17
spotter 17
presses 17
gy@@ 17
uses 17
lessons 17
acrobat 17
ket 17
crash 17
gan@@ 17
cylindrical 17
ws 17
kleenex 17
after@@ 17
till 17
fairly 17
book@@ 17
processing 17
lids 17
nt 17
print 17
supplies 17
del@@ 17
py@@ 17
painter 17
tac@@ 17
lumber 17
colou@@ 17
pt 17
uti@@ 17
gie 17
pianist 17
ght@@ 17
symbols 17
vol@@ 17
sty@@ 17
fel@@ 17
cap@@ 17
reel 17
tackle 17
jerseys 17
rec@@ 17
texting 17
trolley 17
yo@@ 17
gui@@ 17
roadway 17
spec@@ 17
crown 17
bone 17
machete 17
ce 17
nets 17
curb 17
gun@@ 17
dead@@ 17
bb@@ 17
fuzzy 17
stra@@ 17
storm 17
focus 17
sweet 17
pos@@ 17
crac@@ 17
tears 17
scissor 17
lad@@ 17
lon 17
fruits 17
goers 17
wheelie 17
lunge 17
gadget 17
crochet 17
mates 17
ddy 17
sleepy 17
vaulter 17
woodwind 17
seam 17
cinder 17
blacksmith 17
supermarket 17
handshake 17
tricep 17
mobiles 17
skiis 17
transaction 17
zip 16
lies 16
cul@@ 16
audi@@ 16
throughout 16
actually 16
od 16
expression 16
pointed 16
passengers 16
mes 16
alligators 16
semi 16
claws 16
scared 16
slam 16
sks 16
gg@@ 16
preci@@ 16
strobe 16
tment 16
physical 16
sted 16
compound 16
clearing 16
rooms 16
emo@@ 16
pretend 16
uniformed 16
her@@ 16
stom@@ 16
ever 16
hard@@ 16
ach 16
dge 16
banner 16
function 16
visual 16
ture 16
winner 16
ham@@ 16
dding 16
mer@@ 16
som@@ 16
chubby 16
backflips 16
swimsuit 16
baker 16
20 16
smoothly 16
tem@@ 16
abo@@ 16
barbeque 16
solid 16
functions 16
pork 16
scraper 16
paraglider 16
energetic 16
outs 16
twirl 16
exotic 16
judge 16
bra 16
nicely 16
tional 16
leng@@ 16
department 16
roads 16
mark 16
tex@@ 16
powerful 16
powered 16
spiral 16
shifts 16
styles 16
result 16
q@@ 16
teenaged 16
bob@@ 16
tle 16
folded 16
surprised 16
corn 16
row@@ 16
stre@@ 16
scary 16
paints 16
extension 16
may 16
rout@@ 16
fan@@ 16
wilderness 16
comp@@ 16
stops 16
steady 16
sunset 16
sorts 16
ped 16
lic 16
hun@@ 16
vin@@ 16
shotput 16
free@@ 16
ump 16
fireman 16
quarter 16
coos 16
knifes 16
slicer 16
cucumber 16
blindfold 16
gging 16
zz@@ 16
cleanser 16
flaming 16
plan@@ 16
scallop 16
events 16
itch 16
shu@@ 16
ko@@ 16
cop 16
golfing 16
marina 16
elevator 16
bump 16
john 16
feeding 16
threading 16
extinguisher 16
aero@@ 16
feather 16
robes 16
corkscrew 16
black@@ 16
cannon 16
rattles 16
glow 16
trains 16
sheers 16
skiier 16
cliffs 15
protection 15
dent 15
production 15
theater 15
bly 15
peers 15
experi@@ 15
issues 15
fit@@ 15
frames 15
drivers 15
tom@@ 15
extra 15
childs 15
bro@@ 15
sn@@ 15
online 15
news@@ 15
rus 15
erase 15
issue 15
spea@@ 15
united 15
link 15
brief 15
stin@@ 15
fic@@ 15
thighs 15
han@@ 15
archaeological 15
wheel@@ 15
history 15
0@@ 15
tun@@ 15
never 15
of@@ 15
shoots 15
pointing 15
breasts 15
arrangements 15
cen@@ 15
pearls 15
7 15
years 15
brac@@ 15
brakes 15
insides 15
cooler 15
slot 15
ute 15
shops 15
reg@@ 15
probably 15
apparently 15
sprinkles 15
coo@@ 15
camping 15
dessert 15
evenly 15
gauze 15
therapist 15
description 15
sions 15
fives 15
bats 15
muscle 15
instrumental 15
bee@@ 15
torso 15
task 15
natural 15
mold 15
jig 15
village 15
due 15
dresser 15
ttes 15
tension 15
services 15
bong 15
response 15
cupcake 15
toboggan 15
racers 15
tide 15
boogie 15
ther@@ 15
trampolines 15
padding 15
whose 15
spices 15
sons 15
ana 15
dojo 15
dre@@ 15
hammers 15
woodworking 15
sizes 15
mb@@ 15
jer@@ 15
v 15
vely 15
formula 15
hou@@ 15
ff@@ 15
caligraphy 15
messages 15
talent 15
capoeira 15
era 15
sailboats 15
winds 15
nike 15
underway 15
amazing 15
discs 15
sight 15
anthem 15
transmission 15
sk 15
drain 15
auto 15
penny 15
gymnasts 15
bark 15
shar@@ 15
swiftly 15
review 15
fro@@ 15
awkwardly 15
folk 15
week 15
hal@@ 15
limbs 15
chu@@ 15
pra@@ 15
wagon 15
vs 15
ller 15
cking 15
freestyle 15
deadlift 15
blankets 15
ball@@ 15
oxygen 15
flock 15
corral 15
virtual 15
beige 15
pac@@ 15
rifles 15
aff@@ 15
karts 15
mitten 15
udder 15
rattle 15
grape 15
waterslide 15
rapids 14
british 14
repairs 14
ggle 14
yer 14
joyfully 14
evening 14
ators 14
york 14
que@@ 14
wings 14
af@@ 14
ational 14
des 14
gates 14
gn@@ 14
sely 14
scra@@ 14
models 14
cafeteria 14
emergency 14
states 14
content 14
hoe 14
artifacts 14
measurements 14
arch@@ 14
calcul@@ 14
grid 14
ica 14
sman 14
shoot 14
covered 14
down@@ 14
camouflage 14
hydrant 14
success 14
quets 14
lobby 14
handlebars 14
joint 14
aside 14
ities 14
matt 14
chat 14
community 14
tal@@ 14
serious 14
upcoming 14
historical 14
tial 14
spr@@ 14
regular 14
grandma 14
8 14
frosting 14
some@@ 14
seemingly 14
ade 14
charcoal 14
daylight 14
chop 14
cocktail 14
fli@@ 14
squir@@ 14
kie 14
packs 14
midst 14
ggy 14
ab 14
resistance 14
peri@@ 14
beat@@ 14
ppy 14
lyrics 14
moving 14
husband 14
va 14
arm@@ 14
costumed 14
garb 14
zy 14
ethnic 14
jean 14
stretching 14
extreme 14
contortionist 14
leader 14
clock 14
duty 14
continually 14
employee 14
sprays 14
sty 14
longer 14
ffs 14
gloss 14
om 14
bubblegum 14
earphones 14
blowers 14
roun@@ 14
burning 14
arti@@ 14
cordless 14
packet 14
gers 14
berry 14
onlooker 14
oc@@ 14
shing 14
approaches 14
att@@ 14
operation 14
dispenser 14
unit 14
photo@@ 14
operator 14
occa@@ 14
blender 14
breakfast 14
night@@ 14
cir@@ 14
darkness 14
gel 14
detailed 14
batman 14
illustration 14
artistic 14
locks 14
sters 14
afr@@ 14
drywall 14
ssed 14
main 14
childrens 14
days 14
rectangle 14
everything 14
succession 14
itation 14
es@@ 14
expertly 14
harbor 14
lat@@ 14
our@@ 14
marks 14
pouch 14
ger@@ 14
outer 14
pitches 14
cou@@ 14
barely 14
8@@ 14
fireworks 14
manually 14
pun@@ 14
sweat@@ 14
hoses 14
eral 14
grain 14
tel@@ 14
slapping 14
bay 14
kitty 14
acrobats 14
alot 14
popcorn 14
rotisserie 14
roa@@ 14
tabletop 14
pregnant 14
mexican 14
feathers 14
latex 14
audio 14
sack 14
anchors 14
collage 14
romantic 14
coast 14
contestants 14
multicolored 14
brow 14
feeder 14
tortilla 14
treats 14
noodle 14
speedboat 14
snowboarders 14
sec@@ 14
beds 14
stainless 14
grooming 14
marathon 14
walking 14
cannons 14
scope 14
dustpan 14
bomb 14
twinkle 14
saxophones 14
mallets 14
rubiks 14
saddle 14
slack 14
tye 14
initially 13
falls 13
fami@@ 13
dia@@ 13
forms 13
hundreds 13
person@@ 13
any@@ 13
informat@@ 13
grand 13
handler 13
zo@@ 13
ley 13
ass@@ 13
mou@@ 13
ances 13
rally 13
celebr@@ 13
runway 13
ive 13
dr@@ 13
verage 13
presenter 13
moisturizer 13
effec@@ 13
prior 13
tary 13
levels 13
anything 13
cameras 13
helmeted 13
skilled 13
ng 13
arr@@ 13
qui@@ 13
bullseye 13
silently 13
dressing 13
ssy 13
ali@@ 13
referees 13
adv@@ 13
spiderman 13
surprise 13
buds 13
ang@@ 13
ars 13
photography 13
options 13
ratchet 13
soldering 13
ram 13
tors 13
port 13
abs 13
glo@@ 13
dea@@ 13
thanks 13
cattle 13
$ 13
dollars 13
voiceover 13
z 13
handed 13
mitts 13
minutes 13
spac@@ 13
hol@@ 13
scrubs 13
handkerchief 13
band@@ 13
ketchup 13
records 13
sau@@ 13
rease 13
ir 13
backdrop 13
sexy 13
liquids 13
aerial 13
soon 13
100 13
bulls 13
harmon@@ 13
ep 13
soun@@ 13
keepers 13
ony 13
tou@@ 13
sil@@ 13
spotlight 13
pullups 13
upward 13
tumbling 13
crank 13
hillside 13
blaster 13
underside 13
methods 13
currently 13
mommy 13
professionally 13
chews 13
molten 13
property 13
tissues 13
grandmother 13
bobsle@@ 13
least 13
commen@@ 13
splashes 13
amy 13
planer 13
medium 13
printing 13
chor@@ 13
stomping 13
tle@@ 13
strikes 13
wavy 13
hairstyle 13
soup 13
master 13
dusk 13
portrait 13
figur@@ 13
ils 13
dolls 13
drilling 13
poli@@ 13
structures 13
skinny 13
swi@@ 13
mate 13
viol@@ 13
mathematical 13
ise 13
kaya@@ 13
201@@ 13
sailor 13
deli@@ 13
everywhere 13
pail 13
wrapper 13
hey 13
swe@@ 13
snorkel 13
umpire 13
flying 13
shifter 13
autom@@ 13
funnel 13
flu@@ 13
valve 13
sor@@ 13
rooftop 13
waste 13
brooms 13
tunes 13
mary 13
seafood 13
twenty 13
cowboys 13
shuffle 13
fle@@ 13
pain@@ 13
telephone 13
onally 13
accent 13
onesie 13
inde@@ 13
stances 13
flooded 13
active 13
season 13
polka 13
ba 13
hel@@ 13
blouse 13
diag@@ 13
tour 13
corridor 13
wea@@ 13
employees 13
footballs 13
soc@@ 13
sticker 13
ref 13
hor@@ 13
doughnuts 13
tapestry 13
snowboarding 13
fencers 13
demonstrating 13
piercing 13
lazer 13
pets 13
enactment 13
university 13
saxaphone 13
uprights 13
placement 13
treadmills 13
horseshoes 13
pizzas 13
courtroom 13
document 13
lasso 13
shoelace 13
pul@@ 12
scale 12
abruptly 12
chan@@ 12
shades 12
ly@@ 12
groom 12
micro@@ 12
heating 12
joy@@ 12
sun@@ 12
din@@ 12
documents 12
sum@@ 12
former 12
maybe 12
4@@ 12
political 12
appro@@ 12
unto 12
bones 12
downward 12
measur@@ 12
depth 12
pick@@ 12
tutu 12
rist 12
temper 12
val@@ 12
announ@@ 12
earring 12
bou@@ 12
green@@ 12
scratch 12
mul@@ 12
spanner 12
forks 12
desktop 12
dam@@ 12
lets 12
banquet 12
polit@@ 12
lities 12
return 12
ongoing 12
names 12
nine 12
rece@@ 12
tting 12
diners 12
icing 12
impressive 12
trays 12
sam@@ 12
staff 12
bandages 12
tally 12
cere@@ 12
ace 12
ian 12
peppers 12
pitch@@ 12
seasoning 12
menu 12
fuel 12
slow@@ 12
cano@@ 12
bat@@ 12
exce@@ 12
moun@@ 12
pushup 12
dur@@ 12
pillar 12
chers 12
fellow 12
smo@@ 12
beekeepers 12
showing 12
cane 12
reps 12
enormous 12
pounds 12
massive 12
basic 12
stics 12
bikers 12
cyclists 12
curves 12
stain 12
squee@@ 12
glass@@ 12
angled 12
ners 12
somone 12
sup@@ 12
weed 12
overweight 12
whether 12
sa 12
sor 12
taps 12
video@@ 12
you@@ 12
peels 12
syn@@ 12
won@@ 12
having 12
chemical 12
cloud 12
dangerous 12
offscreen 12
shelves 12
mol@@ 12
wel@@ 12
suburban 12
gle 12
vapor 12
column 12
mario 12
steadily 12
cs 12
cursive 12
whale 12
aqu@@ 12
sail@@ 12
sudden 12
goal@@ 12
zens 12
sher 12
uni@@ 12
synchr@@ 12
mean 12
bead 12
? 12
vers 12
hum@@ 12
shavings 12
uncooked 12
herbs 12
quarters 12
wedges 12
ant@@ 12
comment 12
shellfish 12
lows 12
potters 12
weightlifting 12
compe@@ 12
dolphin 12
lac@@ 12
eg@@ 12
disposable 12
urinal 12
trim 12
attached 12
inf@@ 12
leot@@ 12
hotdog 12
dash 12
mov@@ 12
sidewalks 12
wrists 12
necks 12
lou@@ 12
crying 12
sad 12
push@@ 12
ghter 12
badly 12
parrot 12
tweezers 12
ballerinas 12
poe@@ 12
broad 12
laun@@ 12
lls 12
forearm 12
heel 12
chested 12
cheeseburger 12
bonfire 12
planting 12
magazine 12
dor@@ 12
casually 12
hummingbird 12
opponents 12
kisses 12
mit@@ 12
bers 12
textile 12
tech 12
dom@@ 12
forwards 12
hitter 12
snakes 12
hoover 12
rin@@ 12
irons 12
differ@@ 12
duet 12
seals 12
milking 12
newscast 12
weatherman 12
scanner 12
hearing 12
shuttlecock 12
xbox 12
jingle 12
netball 12
guin@@ 12
mules 12
awake 12
nap 12
testimony 12
cartoons 12
receipt 12
spool 12
harnesses 11
cli@@ 11
formations 11
director 11
yel@@ 11
hooded 11
comedy 11
form@@ 11
eye@@ 11
pic 11
stores 11
silent 11
classic 11
controllers 11
tedly 11
gest 11
wrestler 11
den 11
cour@@ 11
introduction 11
india 11
chalkboard 11
blackboard 11
teachers 11
fill 11
enc@@ 11
amongst 11
wil@@ 11
skin@@ 11
arche@@ 11
digger 11
rub@@ 11
paper@@ 11
dence 11
precise 11
ology 11
antique 11
jam@@ 11
cher 11
feild 11
hunting 11
wat@@ 11
aw@@ 11
sitting 11
gre@@ 11
mad 11
tionally 11
ue 11
tage 11
zily 11
stem 11
comm@@ 11
garden@@ 11
pedals 11
cpu 11
ide@@ 11
poor 11
praise 11
importance 11
campus 11
dairy 11
photographs 11
headset 11
vel 11
price 11
lly 11
delicious 11
athle@@ 11
garlic 11
turf 11
steaks 11
peas 11
platter 11
barten@@ 11
tin@@ 11
cock@@ 11
shaker 11
patrons 11
dant 11
ues 11
ravine 11
tubs 11
antly 11
webcam 11
queen 11
tion@@ 11
effor@@ 11
cover@@ 11
platforms 11
flow 11
stan@@ 11
deeply 11
hundred 11
crab 11
unable 11
die 11
gap 11
transparent 11
resi@@ 11
beautician 11
volume 11
curler 11
ious 11
sphere 11
poin@@ 11
bour@@ 11
shrubs 11
wo 11
travel 11
lli@@ 11
boarder 11
snap 11
bottled 11
jug 11
jum@@ 11
giraffe 11
tically 11
grapher 11
tumble 11
headed 11
bie 11
eless 11
stovetop 11
fried 11
break@@ 11
arc 11
cafe 11
cigar 11
vise 11
thers 11
ske@@ 11
cle 11
careful 11
toothpaste 11
sma@@ 11
screens 11
ray 11
helicopter 11
themed 11
shark 11
sculp@@ 11
blood 11
spirited 11
ridge 11
adventure 11
sibling 11
nd 11
peace 11
guitarist 11
hispanic 11
symbol 11
ornate 11
ren@@ 11
mock 11
must 11
windsurfer 11
uneven 11
selfies 11
spa@@ 11
ry@@ 11
somewhat 11
sometimes 11
changes 11
separately 11
vertically 11
victory 11
cruise 11
ank@@ 11
emb@@ 11
dy@@ 11
river@@ 11
australian 11
base@@ 11
yards 11
post@@ 11
hits 11
kilts 11
sprink@@ 11
loudspeaker 11
kia 11
part@@ 11
samsung 11
cheerleader 11
mac@@ 11
eachother 11
cooked 11
joints 11
finely 11
veggies 11
oe 11
firewood 11
weightlifter 11
illu@@ 11
playroom 11
stars 11
trousers 11
graphics 11
toast 11
cooker 11
robots 11
cosplay 11
curren@@ 11
handful 11
chiropractic 11
vers@@ 11
poorly 11
camera@@ 11
frustrated 11
gle@@ 11
singers 11
color@@ 11
curlers 11
flat@@ 11
cle@@ 11
kitten 11
mel@@ 11
violently 11
soldier 11
piroue@@ 11
table@@ 11
ick@@ 11
splash 11
oms 11
curi@@ 11
spiky 11
steer 11
soundly 11
ache 11
banana 11
scream 11
date 11
balances 11
peacefully 11
purse 11
tasks 11
dian 11
omelet 11
panning 11
golfers 11
rails 11
ritual 11
buzz 11
sliding 11
nels 11
bounds 11
mountainside 11
accompaniment 11
gardening 11
tuba 11
nipples 11
flashes 11
shield 11
motorcyclist 11
tele@@ 11
pass@@ 11
photocopier 11
prints 11
accordions 11
racketball 11
exhibit 11
dinosaur 11
situps 11
leashes 11
themself 10
scent 10
centre 10
inci@@ 10
acts 10
script 10
spon@@ 10
beh@@ 10
clients 10
twine 10
historic 10
announcers 10
sunlight 10
buff@@ 10
spokes 10
official 10
dan@@ 10
subject 10
sten@@ 10
5@@ 10
healthy 10
ens 10
ign 10
ani@@ 10
topic 10
future 10
cut@@ 10
teaching 10
land@@ 10
lia 10
anci@@ 10
class@@ 10
computers 10
gran@@ 10
officials 10
silhoue@@ 10
termin@@ 10
impressed 10
positive 10
wr@@ 10
amounts 10
concealer 10
mason 10
sca@@ 10
friendly 10
curve 10
cubes 10
ched 10
zing 10
slight 10
brothers 10
oes 10
vine 10
inten@@ 10
array 10
cables 10
all@@ 10
cd 10
panels 10
connec@@ 10
fid@@ 10
ici@@ 10
interviews 10
binder 10
collec@@ 10
9 10
dvd 10
locker 10
cushioned 10
school@@ 10
tar@@ 10
biscu@@ 10
ection 10
toothpick 10
50 10
mounds 10
arian 10
doctors 10
aging 10
spikes 10
elegant 10
ming 10
skewer 10
smoker 10
shakers 10
fri@@ 10
peb@@ 10
rel 10
braz@@ 10
buil@@ 10
bath@@ 10
kiddie 10
moments 10
entertain@@ 10
disgu@@ 10
percu@@ 10
ching 10
skirts 10
spark@@ 10
are@@ 10
gh 10
arch 10
dumbell 10
halfway 10
rollers 10
larly 10
excer@@ 10
dir@@ 10
biker 10
momentum 10
euro@@ 10
compressor 10
canister 10
blo@@ 10
leafs 10
clu@@ 10
ols 10
count 10
cherry 10
amp 10
afar 10
binding 10
covers 10
spine 10
atures 10
italian 10
condi@@ 10
stages 10
hap@@ 10
usage 10
foul 10
sno@@ 10
braid 10
brai@@ 10
tters 10
ram@@ 10
fours 10
try@@ 10
crou@@ 10
dj 10
lad 10
slabs 10
ek@@ 10
ee 10
dragon 10
paint@@ 10
clown 10
icker 10
els 10
tist 10
carpenter 10
cabin 10
seum 10
loader 10
snowplow 10
mover 10
burp 10
ppers 10
cases 10
ank 10
zation 10
lined 10
beautifully 10
unsuccessful 10
sided 10
meter 10
oddly 10
bot 10
backside 10
sing@@ 10
effici@@ 10
trashcan 10
cavern 10
ddle 10
love 10
stum@@ 10
thr@@ 10
mickey 10
bait 10
drone 10
motorboat 10
scor@@ 10
who@@ 10
casual 10
tains 10
creative 10
confe@@ 10
trea@@ 10
stakes 10
but@@ 10
cucumbers 10
´s 10
overalls 10
wedge 10
implement 10
creature 10
compet@@ 10
dumbells 10
ging 10
cutters 10
ph 10
shine 10
prepared 10
sol 10
abilities 10
conven@@ 10
fal@@ 10
oni@@ 10
mid@@ 10
splits 10
marshmellows 10
twigs 10
gus 10
iling 10
olive 10
bundle 10
lishment 10
twisting 10
shee@@ 10
excercise 10
tummy 10
slippery 10
eyelids 10
folder 10
wait@@ 10
passes 10
stress 10
dou@@ 10
eng@@ 10
onal 10
paring 10
messily 10
mam@@ 10
long@@ 10
cracker 10
guests 10
skate@@ 10
surfaces 10
quo@@ 10
chil@@ 10
ere 10
asphalt 10
lessly 10
uk@@ 10
daily 10
teammate 10
hog 10
stuffing 10
girlfriend 10
needle@@ 10
swiss 10
incline 10
bumps 10
seagu@@ 10
twist 10
ner@@ 10
favorite 10
barbershop 10
putts 10
exhibitions 10
twirling 10
restroom 10
forearms 10
playpen 10
diapers 10
sport@@ 10
climb 10
baloon 10
buggy 10
sneeze 10
putty 10
wallet 10
blind 10
gasoline 10
late 10
recor@@ 10
whisk 10
yoke 10
trombones 10
udders 10
lizer 10
org@@ 10
birdie 10
america 10
frets 10
maze 10
loser 10
rubic 10
raquetball 10
lash 10
donkeys 10
marshmellow 10
tongues 10
lollipops 10
crack 9
forested 9
paragli@@ 9
hooks 9
fro 9
spotters 9
logue 9
hear@@ 9
actress 9
mono@@ 9
tone 9
practicing 9
bangs 9
check 9
current 9
dun@@ 9
ional 9
knobs 9
grunts 9
rat@@ 9
kin@@ 9
drum@@ 9
ima@@ 9
teri@@ 9
dangerously 9
jaws 9
sleeveless 9
murky 9
politician 9
life@@ 9
poster 9
web 9
val 9
intermittently 9
sla@@ 9
compact 9
medi@@ 9
com 9
proce@@ 9
applau@@ 9
cheer@@ 9
violins 9
greeting 9
brace 9
clinton 9
mn 9
everybody 9
ale 9
underground 9
elev@@ 9
cked 9
advert 9
impro@@ 9
ey 9
fingertips 9
archaeolo@@ 9
ssly 9
olo@@ 9
grave 9
trench 9
dings 9
photograph 9
clip@@ 9
sifter 9
intere@@ 9
aim 9
fts 9
ships 9
nurses 9
jokes 9
housing 9
versus 9
convers@@ 9
wiring 9
weeds 9
festi@@ 9
ginger@@ 9
gor@@ 9
demo@@ 9
breaks 9
stability 9
reason 9
irish 9
expert 9
cess 9
processor 9
specifically 9
logos 9
charity 9
atmosphere 9
thoughts 9
projector 9
eful 9
organi@@ 9
projects 9
pec@@ 9
discu@@ 9
social 9
whom 9
dders 9
comic 9
sti@@ 9
amazed 9
inspection 9
oatmeal 9
scoo@@ 9
buns 9
clinic 9
retriever 9
op 9
womens 9
marin@@ 9
ka 9
garni@@ 9
skydiving 9
wing@@ 9
tarp 9
skydivers 9
suds 9
eagerly 9
stall 9
odle 9
stinky 9
alternately 9
dramatically 9
keeping 9
checks 9
protec@@ 9
insect 9
buttocks 9
brunette 9
props 9
posture 9
magician 9
strand 9
spi@@ 9
bicyclist 9
airborne 9
coating 9
tempo 9
kil@@ 9
fen@@ 9
concentr@@ 9
hairdo 9
amu@@ 9
experiment 9
molding 9
leafblower 9
hers 9
sweat 9
struggles 9
straw@@ 9
sle@@ 9
ami@@ 9
olympics 9
shrub 9
partly 9
snorkeling 9
markings 9
envelope 9
automatically 9
spout 9
switches 9
conveyer 9
mately 9
odically 9
atory 9
tumbles 9
border 9
pant 9
weave 9
grow@@ 9
pean 9
interpre@@ 9
spider 9
troupe 9
fireball 9
sel 9
pig@@ 9
carpentry 9
craf@@ 9
custom 9
vation 9
pyramids 9
moat 9
sculptures 9
loading 9
dump 9
cola 9
sick 9
setup 9
baton 9
wer 9
ill@@ 9
graph 9
standard 9
pa 9
sharpie 9
font 9
jazzy 9
raf@@ 9
shortly 9
board@@ 9
kickboxing 9
windsurfing 9
comforter 9
triangular 9
securely 9
tapes 9
sels 9
ha 9
engra@@ 9
hollow 9
reels 9
shor@@ 9
eu@@ 9
youn@@ 9
baller 9
signal 9
stick@@ 9
footwork 9
speci@@ 9
champion@@ 9
edly 9
inden@@ 9
ety 9
eraser 9
carcass 9
kni@@ 9
ong@@ 9
atively 9
campsite 9
mally 9
bott@@ 9
jerk 9
need 9
heels 9
sive 9
ual 9
downwards 9
grad@@ 9
tam@@ 9
marriage 9
oh 9
yo 9
jointed 9
youtube 9
grate 9
iting 9
door@@ 9
est 9
cy 9
fifty 9
0s 9
piggy 9
apparel 9
denim 9
navy 9
awkward 9
ins@@ 9
anno@@ 9
eyeball 9
whist 9
crossing 9
recreational 9
wheelers 9
doo 9
liar 9
chickens 9
cum@@ 9
flam@@ 9
itions 9
fabrics 9
rab@@ 9
paws 9
pineapples 9
roller@@ 9
gl@@ 9
stro@@ 9
citi@@ 9
motorcyclists 9
dish@@ 9
dribbling 9
relax@@ 9
bic@@ 9
60 9
mixing 9
wra@@ 9
backboard 9
metr@@ 9
roots 9
ium 9
refle@@ 9
mcdonal@@ 9
pub 9
plat@@ 9
recliner 9
flavor 9
tea@@ 9
cutlery 9
planes 9
texture 9
abdominal 9
advanced 9
zes 9
bmx 9
cler@@ 9
reading 9
calmly 9
chopsticks 9
moped 9
frustration 9
sanding 9
tortillas 9
tablecloth 9
proof 9
code 9
iti@@ 9
retail 9
fairway 9
golfball 9
tran@@ 9
jogging 9
inches 9
defen@@ 9
marches 9
grounds 9
bombs 9
ipad 9
drummers 9
paste 9
sequ@@ 9
cellphones 9
skiiers 9
sp 9
unboxing 9
eles 9
picking 9
mugs 9
trumpets 9
stools 9
sweeper 9
pointer 9
lla 9
badmitton 9
senior 9
onom@@ 9
chello 9
bass@@ 9
blue@@ 9
harps 9
turtles 9
xylophones 9
buffer 9
reefs 9
whetstone 9
hatchets 9
debit 9
mup@@ 9
monkeys 9
reeds 9
lay 8
clamps 8
skyscraper 8
thered 8
humor@@ 8
aggre@@ 8
since 8
countdown 8
spectac@@ 8
recently 8
comfortable 8
original 8
googles 8
exagger@@ 8
lense 8
vision 8
appearance 8
vil 8
ades 8
direc@@ 8
phi@@ 8
simulated 8
aligator 8
education 8
drawings 8
na 8
important 8
animat@@ 8
00 8
mit 8
commit@@ 8
ports 8
today 8
scientist 8
jumpsuit 8
gi 8
ory 8
ists 8
strateg@@ 8
caravan 8
buses 8
tance 8
irs 8
ado@@ 8
shelter 8
congre@@ 8
highlight 8
animation 8
aspects 8
amazement 8
amer 8
vement 8
blush 8
chee@@ 8
fiel@@ 8
reporters 8
trough 8
measure 8
boul@@ 8
explor@@ 8
patches 8
supply 8
shoo@@ 8
combat 8
god 8
unt 8
heavyset 8
clearly 8
drun@@ 8
tation 8
gibberish 8
twins 8
hero 8
lin 8
siblings 8
ok 8
vases 8
stal@@ 8
desig@@ 8
come 8
handlebar 8
stripe 8
levers 8
access@@ 8
twisted 8
procedures 8
installation 8
russian 8
enthusi@@ 8
ffle 8
gall@@ 8
tuxedo 8
yers 8
7@@ 8
posters 8
caller 8
lock@@ 8
ult 8
ples 8
scoops 8
batch 8
cluttered 8
braces 8
12 8
veter@@ 8
vet 8
shin 8
firmly 8
gla@@ 8
hawai@@ 8
skewers 8
cook@@ 8
peach 8
tattooed 8
examples 8
buffet 8
grills 8
coal 8
shake 8
jokingly 8
rub 8
tender 8
straws 8
sample 8
jugg@@ 8
bun 8
skydiver 8
rise 8
vegetation 8
skydive 8
strapped 8
gli@@ 8
ffe@@ 8
puppies 8
ith 8
pale 8
iden@@ 8
oul@@ 8
parallel 8
vocal 8
itively 8
bushy 8
buzz@@ 8
flies 8
spo@@ 8
easier 8
abdomen 8
scar@@ 8
flow@@ 8
stern 8
mirrors 8
normal 8
mass 8
exerci@@ 8
backbend 8
swim@@ 8
maching 8
ee@@ 8
copper 8
spaces 8
metals 8
exhau@@ 8
cyclist 8
compartment 8
windshield 8
dust@@ 8
stairway 8
ier 8
hairstylist 8
bing 8
fic 8
incomplete 8
san 8
goofy 8
dozen 8
junk 8
humans 8
noses 8
nap@@ 8
cupcakes 8
muff@@ 8
ading 8
dals 8
starting 8
curl 8
ind 8
sig@@ 8
ulti@@ 8
tanks 8
moon@@ 8
ple@@ 8
wns 8
bowler 8
pari@@ 8
styling 8
breadcrumbs 8
ingredient 8
previ@@ 8
spoonful 8
fireballs 8
delic@@ 8
tus 8
hairbrush 8
preteen 8
gles 8
boyfriend 8
yourself 8
instruc@@ 8
cubicle 8
quil@@ 8
randomly 8
dau@@ 8
umbrella 8
eling 8
fiddle 8
ladders 8
bullfighter 8
ful@@ 8
ounds 8
tter 8
narrowly 8
zers 8
dozer 8
hilly 8
consist@@ 8
bored 8
ree 8
instrumen@@ 8
bui@@ 8
violinist 8
interest 8
low@@ 8
bets 8
tribu@@ 8
ghost 8
fish@@ 8
furi@@ 8
su 8
physically 8
pulley 8
sailors 8
float 8
laced 8
ire 8
cau@@ 8
ddles 8
fs 8
carry 8
arabic 8
ice@@ 8
looking 8
wolf 8
outfielder 8
fris@@ 8
handicapped 8
newscasters 8
cow@@ 8
bagpi@@ 8
rural 8
surely 8
show@@ 8
qua@@ 8
appropri@@ 8
canadian 8
condition 8
cling 8
yeah 8
poms 8
pom@@ 8
flannel 8
mmy 8
ne 8
trade 8
exac@@ 8
claw 8
portions 8
parsley 8
anther 8
cabbage 8
stiff 8
rake 8
barbel 8
tights 8
heal@@ 8
frantically 8
trigger 8
spar@@ 8
spectator 8
bouncer 8
ually 8
gym@@ 8
omelette 8
dle 8
loa@@ 8
ency 8
son@@ 8
gam@@ 8
est@@ 8
rist@@ 8
alternate 8
specially 8
eyeballs 8
herd 8
cot 8
9@@ 8
jitterbug 8
iction 8
swee@@ 8
actively 8
enthusia@@ 8
seed 8
bab@@ 8
house@@ 8
watermel@@ 8
ai 8
saber 8
headband 8
watermelons 8
charleston 8
gang@@ 8
energetically 8
simply 8
jour@@ 8
parks 8
reactions 8
zebra 8
motorbikes 8
jam 8
forcefully 8
barr@@ 8
saucer 8
ld 8
vacation 8
tty 8
youngsters 8
puzzles 8
princess 8
vy 8
plows 8
backing 8
vampire 8
crutches 8
bins 8
pet@@ 8
vig@@ 8
crackers 8
vanilla 8
icecream 8
pop@@ 8
mess@@ 8
bursts 8
tar 8
pigeon 8
squeeze 8
atic 8
masked 8
athe@@ 8
wars 8
adjacent 8
hawk 8
veg@@ 8
salmon 8
med@@ 8
scales 8
ann@@ 8
nostri@@ 8
pulpit 8
poc@@ 8
sunshine 8
preacher 8
pews 8
mini@@ 8
dog@@ 8
hind 8
fastest 8
reenactors 8
sko@@ 8
escal@@ 8
mum 8
eagle 8
lacross 8
sheer 8
snowsuit 8
oy 8
angel 8
straighten@@ 8
cles 8
dangers 8
advertising 8
therapy 8
valley 8
armpit 8
snork@@ 8
dos 8
pearl 8
command 8
califor@@ 8
nia 8
tick@@ 8
boom 8
spacers 8
sax 8
ece 8
doorknob 8
beaded 8
pepper@@ 8
massager 8
calves 8
distr@@ 8
lasers 8
mountainous 8
variation 8
cher@@ 8
pack@@ 8
rome 8
bac@@ 8
lizard 8
nursery 8
handball 8
inet 8
meditation 8
raquet 8
bellybutton 8
pumping 8
cosmetic 8
mule 8
coughs 8
conditioner 8
razors 8
tippy 8
hooka 8
headlamps 8
crowdsurfs 8
sabers 8
opinion 8
pru@@ 8
inju@@ 7
vity 7
railroad 7
dram@@ 7
prop 7
centr@@ 7
theatre 7
comfor@@ 7
presumably 7
reasons 7
hin@@ 7
globe 7
saw@@ 7
highly 7
ight 7
broad@@ 7
marsh 7
reptile 7
latest 7
spread 7
habitat 7
placard 7
vic@@ 7
statement 7
talking 7
wers 7
rum 7
fram@@ 7
internet 7
thousands 7
roy@@ 7
acce@@ 7
president 7
promotional 7
perhaps 7
transportation 7
plans 7
graduation 7
road@@ 7
ey@@ 7
profusely 7
john@@ 7
gists 7
search 7
trowels 7
20@@ 7
ites 7
lander 7
reader 7
plot 7
mea@@ 7
dges 7
soci@@ 7
contin@@ 7
wins 7
granite 7
wresting 7
laughing 7
ath 7
un 7
electron@@ 7
memor@@ 7
nal 7
tel 7
us@@ 7
organization 7
s. 7
south 7
fol@@ 7
lowing 7
seminar 7
ess@@ 7
lead@@ 7
colum@@ 7
rock@@ 7
pensive 7
lec@@ 7
merchandise 7
raise 7
sleeves 7
summersaults 7
racks 7
reflective 7
dress@@ 7
monial 7
stret@@ 7
pressu@@ 7
injury 7
quantity 7
burgers 7
hamburgers 7
gril@@ 7
temperatures 7
spirit 7
mistake 7
ib@@ 7
apr@@ 7
urban 7
observers 7
jesus 7
parachutist 7
glide 7
labels 7
swing@@ 7
ap 7
alle@@ 7
rapper 7
repetitive 7
handling 7
scienti@@ 7
locked 7
butter@@ 7
seductively 7
wei@@ 7
begin@@ 7
outward 7
summersault 7
itive 7
manufac@@ 7
turing 7
scroll 7
medal 7
sin@@ 7
slats 7
iced 7
tbike 7
youngster 7
scaffolding 7
terior 7
barre@@ 7
handy 7
mom@@ 7
incredibly 7
ki 7
teapot 7
ot@@ 7
bag@@ 7
ilian 7
tators 7
coming 7
mechan@@ 7
labor@@ 7
ond 7
shions 7
rubbery 7
release 7
mayonnaise 7
turban 7
chief 7
lor 7
stuc@@ 7
triangles 7
tches 7
bru@@ 7
stry 7
skull 7
nch 7
neat 7
unidentified 7
cup@@ 7
skil@@ 7
pir@@ 7
lear@@ 7
scenari@@ 7
systemat@@ 7
sandcastles 7
ghters 7
impression 7
nings 7
pli@@ 7
kee 7
matadors 7
kily 7
jcb 7
perform@@ 7
ulk 7
multi@@ 7
magnetic 7
manship 7
journal 7
holding 7
nearest 7
matching 7
ino 7
ev@@ 7
toon 7
waterway 7
tures 7
hearts 7
necessary 7
sombrero 7
holi@@ 7
leap 7
zzy 7
whiskey 7
o'@@ 7
-@@ 7
seating 7
smiley 7
waders 7
snorkels 7
neigh@@ 7
lie 7
fielder 7
bas@@ 7
revelers 7
ial 7
win 7
shly 7
coordin@@ 7
otive 7
stal 7
inflation 7
knit@@ 7
wad 7
prone 7
lars 7
layout 7
fini@@ 7
portuguese 7
hack@@ 7
resturant 7
ets 7
other@@ 7
root 7
grou@@ 7
often 7
visi@@ 7
bility 7
noon 7
vaccum 7
picker 7
chemic@@ 7
fter 7
swab 7
trainers 7
soles 7
scrubbing 7
swirl 7
surgical 7
jan@@ 7
sky@@ 7
swiffer 7
taller 7
ined 7
sex@@ 7
latter 7
renaissance 7
slender 7
pasture 7
software 7
mag@@ 7
ility 7
maid 7
sizzling 7
flav@@ 7
ingo 7
sliced 7
squeaky 7
individually 7
aring 7
twelve 7
shre@@ 7
proceeds 7
nment 7
crun@@ 7
request 7
slippers 7
piercings 7
watercraft 7
scenic 7
uncontrollably 7
hungry 7
shuff@@ 7
ttle 7
strai@@ 7
segments 7
pear 7
peel@@ 7
scalpel 7
ny@@ 7
lite 7
tinsel 7
usps 7
raucous 7
mainly 7
grains 7
concer@@ 7
rol 7
obstic@@ 7
rhin@@ 7
throws 7
soccor 7
jew@@ 7
manicure 7
relay 7
eps 7
rainy 7
ranch 7
raspberries 7
spiked 7
xy 7
obe@@ 7
recycling 7
serve 7
sym@@ 7
excit@@ 7
hopper 7
lolly 7
owl 7
situp 7
hump 7
trails 7
visitors 7
gold@@ 7
widely 7
pel@@ 7
peanuts 7
leafy 7
wheelchairs 7
sna@@ 7
snap@@ 7
playful 7
hairline 7
folding 7
altern@@ 7
pumps 7
spinach 7
hiking 7
read@@ 7
oo 7
viking 7
mentary 7
basi@@ 7
gospel 7
worship 7
shepher@@ 7
bor@@ 7
indi@@ 7
ker@@ 7
twister 7
hover@@ 7
respective 7
rooster 7
tles 7
lei@@ 7
smi@@ 7
stretcher 7
wrinkles 7
tiered 7
motorcyle 7
skii 7
tives 7
ninja 7
grees 7
did@@ 7
kare@@ 7
shri@@ 7
kissing 7
iler 7
woolen 7
vil@@ 7
tian 7
spack@@ 7
mbo@@ 7
ories 7
locksmith 7
gopro 7
dol@@ 7
plush 7
kangaroo 7
emp@@ 7
vailable 7
pullup 7
woo@@ 7
potat@@ 7
blin@@ 7
riff 7
pears 7
marijuana 7
tery 7
quartet 7
ginal 7
rhy@@ 7
medieval 7
intensely 7
rubics 7
mouthpiece 7
thomas 7
tigers 7
unicycles 7
science 7
sharpening 7
snowmobi@@ 7
swallowing 7
tackles 7
tiptoes 7
trape@@ 7
magnifying 7
ostric@@ 7
winks 7
seri@@ 6
cred@@ 6
aud@@ 6
expressi@@ 6
ation@@ 6
temp@@ 6
new@@ 6
skill@@ 6
gin@@ 6
conv@@ 6
inc@@ 6
toge@@ 6
don@@ 6
alig@@ 6
educ@@ 6
medic@@ 6
pics 6
stair@@ 6
sci@@ 6
oper@@ 6
verse 6
adverti@@ 6
ie 6
ken 6
focu@@ 6
6@@ 6
stration 6
tit@@ 6
jun@@ 6
chr@@ 6
trum@@ 6
swa@@ 6
profe@@ 6
opin@@ 6
alls 6
pic@@ 6
hoc@@ 6
horizon@@ 6
simultane@@ 6
ston 6
shot@@ 6
tum@@ 6
sol@@ 6
twi@@ 6
parach@@ 6
repet@@ 6
cali@@ 6
pull@@ 6
tless 6
progre@@ 6
pres@@ 6
weight@@ 6
press@@ 6
rif@@ 6
power@@ 6
equ@@ 6
loon 6
jac@@ 6
encoura@@ 6
nam@@ 6
tain 6
dee@@ 6
itional 6
oughly 6
presen@@ 6
mal 6
ga 6
boun@@ 6
gn 6
tensi@@ 6
may@@ 6
mouth@@ 6
explo@@ 6
tooth@@ 6
gue 6
ctions 6
meth@@ 6
refer@@ 6
intric@@ 6
rt 6
ssel 6
spen@@ 6
cric@@ 6
stically 6
charac@@ 6
swir@@ 6
note@@ 6
partici@@ 6
ei@@ 6
disc@@ 6
ji@@ 6
manu@@ 6
exp@@ 6
ffer 6
resta@@ 6
oud 6
dom 6
tti 6
ler@@ 6
cture 6
half@@ 6
eze 6
mas@@ 6
uc@@ 6
chin@@ 6
decor@@ 6
equi@@ 6
bug 6
inder 6
stand@@ 6
vaccu@@ 6
thy 6
rail@@ 6
demonstr@@ 6
dark@@ 6
ution 6
stache 6
prac@@ 6
mur@@ 6
eding 6
saf@@ 6
ari 6
slee@@ 6
lun@@ 6
ef 6
ori@@ 6
dio 6
stenci@@ 6
> 6
nerv@@ 6
ssing 6
touch@@ 6
alumin@@ 6
pily 6
ligi@@ 6
clin@@ 6
pajam@@ 6
tric@@ 6
anc@@ 6
thro@@ 6
mir@@ 6
vie@@ 6
peo@@ 6
gies 6
hop@@ 6
pons 6
plac@@ 6
sidel@@ 6
ribb@@ 6
yach@@ 6
smith 6
vac@@ 6
twir@@ 6
orchestr@@ 6
sole 6
mass@@ 6
ack@@ 6
side@@ 6
pings 6
refri@@ 6
bad@@ 6
fier 6
tric 6
anist 6
remo@@ 6
cigare@@ 6
acc@@ 5
tician 5
measure@@ 5
angers 5
ounge 5
tom 5
tual 5
gir@@ 5
crocodi@@ 5
rights 5
bby 5
twork 5
/@@ 5
knuck@@ 5
ame 5
gical 5
bor 5
descri@@ 5
swor@@ 5
bed@@ 5
langu@@ 5
proper@@ 5
plu@@ 5
difficul@@ 5
oth@@ 5
projec@@ 5
ef@@ 5
,@@ 5
tern 5
professi@@ 5
pati@@ 5
prepar@@ 5
scan@@ 5
ggles 5
trance 5
rier 5
pit@@ 5
wards 5
outw@@ 5
shel@@ 5
iled 5
cham@@ 5
artic@@ 5
inflat@@ 5
succe@@ 5
sleev@@ 5
fore 5
pper@@ 5
split@@ 5
vari@@ 5
nec@@ 5
too@@ 5
comple@@ 5
dor 5
colo@@ 5
aces 5
sem@@ 5
dum@@ 5
plic@@ 5
time@@ 5
sable 5
cal 5
lish 5
rain@@ 5
ano 5
floo@@ 5
scu@@ 5
trad@@ 5
acciden@@ 5
sm 5
thou@@ 5
terns 5
jack@@ 5
shment 5
with@@ 5
box@@ 5
repeat@@ 5
pede@@ 5
ply 5
stru@@ 5
exten@@ 5
mmer 5
horse@@ 5
mex@@ 5
surpri@@ 5
simi@@ 5
one@@ 5
choreo@@ 5
otic 5
twen@@ 5
kar@@ 5
atur@@ 5
simul@@ 5
ycle 5
cosme@@ 5
applic@@ 5
nette 5
conte@@ 5
spoon@@ 5
hes 5
gon 5
tals 5
cock 5
fenc@@ 5
fied 5
lon@@ 5
aches 5
’@@ 5
hon@@ 5
imp@@ 5
stric@@ 5
efully 5
balanc@@ 5
pho@@ 5
scrat@@ 5
cool@@ 5
adju@@ 5
gues 5
gement 5
motorcy@@ 5
zz 5
scaf@@ 5
volle@@ 5
ouse 5
stor@@ 5
bet 5
tet 5
ped@@ 5
lap@@ 5
cue 5
station@@ 5
phan@@ 5
unic@@ 5
wel 5
ager 5
pal@@ 5
magni@@ 5
swal@@ 5
stle 4
hab@@ 4
ures 4
conduc@@ 4
aga@@ 4
compani@@ 4
facts 4
amp@@ 4
gist 4
exca@@ 4
kin 4
relea@@ 4
domin@@ 4
ement 4
dily 4
quet 4
circu@@ 4
christ@@ 4
initi@@ 4
dig@@ 4
jewel@@ 4
appli@@ 4
ket@@ 4
ongs 4
adven@@ 4
shampo@@ 4
tow@@ 4
insec@@ 4
kick@@ 4
mp 4
bum 4
pment 4
leaf@@ 4
birth@@ 4
obser@@ 4
ena 4
envelo@@ 4
dispen@@ 4
noi@@ 4
multicolo@@ 4
pou@@ 4
bow@@ 4
marsh@@ 4
lt 4
hot@@ 4
ax@@ 4
kit@@ 4
carpen@@ 4
tress 4
llas 4
partic@@ 4
van@@ 4
res@@ 4
umin@@ 4
elec@@ 4
ek 4
squar@@ 4
good@@ 4
white@@ 4
jit@@ 4
mba@@ 4
iny 4
counter@@ 4
tip@@ 4
sian 4
impressi@@ 4
igh@@ 4
mal@@ 4
kee@@ 4
chain@@ 4
surf@@ 4
tballs 4
mobi@@ 4
home@@ 4
vings 4
vir@@ 4
stake 4
pol@@ 4
kne@@ 4
shap@@ 4
lig@@ 4
roo@@ 4
sement 4
wrink@@ 4
sou@@ 4
len@@ 4
wn@@ 4
grun@@ 4
contor@@ 4
incredi@@ 4
amaz@@ 4
nar@@ 4
chiroprac@@ 4
ition@@ 4
whe@@ 4
mellow 4
mari@@ 4
fea@@ 4
trous@@ 4
practic@@ 4
nel 4
vehi@@ 4
blu@@ 4
doc@@ 4
speciali@@ 4
numb@@ 4
dump@@ 4
selves 4
condition@@ 4
deter@@ 4
simp@@ 4
acci@@ 4
dow 4
dboard 4
rhyth@@ 4
grocer@@ 4
wic@@ 4
rest@@ 4
austra@@ 4
threa@@ 4
parro@@ 4
bir@@ 4
wid@@ 4
spin@@ 4
goof@@ 4
twee@@ 4
instru@@ 4
aching 4
abru@@ 4
than@@ 4
lau@@ 4
pist 4
amer@@ 4
ais@@ 4
mersa@@ 4
wool@@ 4
ast 4
j 4
sse 4
mly 4
come@@ 4
horiz@@ 4
acher 4
electr@@ 4
oke 4
tux@@ 4
bare@@ 4
boarders 4
tec@@ 4
compan@@ 4
lip@@ 4
nic@@ 4
exper@@ 4
haw@@ 4
smart@@ 4
lery 4
ttery 4
gerator 4
ish 4
park@@ 4
stac@@ 4
recy@@ 4
graph@@ 4
ever@@ 4
cause 4
ssage 4
geridoo 4
marac@@ 4
lling 4
xy@@ 4
ula 4
wai@@ 4
sually 4
respon@@ 4
ury 4
unti@@ 4
mitten@@ 4
graffit@@ 4
lass@@ 4
plies 3
tane@@ 3
attach@@ 3
;@@ 3
ywood 3
syste@@ 3
finger@@ 3
docum@@ 3
ash 3
ye 3
wrest@@ 3
tween 3
techn@@ 3
commun@@ 3
donal@@ 3
ssor 3
benef@@ 3
faci@@ 3
eds 3
confer@@ 3
mers 3
atically 3
anti@@ 3
&@@ 3
spl@@ 3
sever@@ 3
ttings 3
belly@@ 3
abi@@ 3
every@@ 3
seduc@@ 3
pressi@@ 3
appla@@ 3
machin@@ 3
vels 3
pressed 3
spra@@ 3
mannequ@@ 3
manic@@ 3
[ 3
cers 3
made 3
stly 3
gher 3
trampo@@ 3
train@@ 3
mable 3
cran@@ 3
struc@@ 3
perf@@ 3
musi@@ 3
cally 3
soning 3
era@@ 3
alpha@@ 3
ink@@ 3
stic@@ 3
ore 3
secu@@ 3
ital 3
fif@@ 3
diam@@ 3
inged 3
read 3
stun@@ 3
pum@@ 3
rts 3
sof@@ 3
# 3
room@@ 3
foun@@ 3
eth@@ 3
ids 3
bicy@@ 3
four@@ 3
kic@@ 3
moi@@ 3
swimm@@ 3
tern@@ 3
main@@ 3
toi@@ 3
excerci@@ 3
ature 3
contortion@@ 3
oring 3
indu@@ 3
fran@@ 3
sage 3
jump@@ 3
cos@@ 3
icious 3
testi@@ 3
rol@@ 3
tight@@ 3
pops 3
rit@@ 3
objec@@ 3
continu@@ 3
lo 3
sley 3
nam 3
balcon@@ 3
gest@@ 3
mail@@ 3
+ 3
usual 3
nur@@ 3
gent 3
cann@@ 3
thumb@@ 3
jel@@ 3
baske@@ 3
drib@@ 3
girl@@ 3
ffy 3
dering 3
armp@@ 3
pression 3
tially 3
ese 3
eld 3
omas 3
atly 3
reci@@ 3
lf 3
past@@ 3
chur@@ 3
fur@@ 3
pies 3
repe@@ 3
enactors 3
fe 3
pple 3
erie 3
javel@@ 3
dless 3
suit@@ 3
deser@@ 3
reflec@@ 3
ftly 3
ands 3
walk@@ 3
vigor@@ 3
passion@@ 3
ycles 3
pha@@ 3
stain@@ 3
snea@@ 3
lett@@ 3
tice 3
erci@@ 3
inous 3
neck@@ 3
iron@@ 3
masse@@ 3
umb 3
mechani@@ 3
particu@@ 3
ric 3
kah 3
anchor@@ 3
hat@@ 3
environ@@ 3
kan@@ 3
exam@@ 3
yar@@ 3
accordi@@ 3
eep 3
ssion@@ 3
fing@@ 3
clar@@ 3
inets 3
acou@@ 3
guit@@ 3
scen@@ 3
gger 3
flash@@ 3
contrap@@ 3
rubi@@ 3
possi@@ 3
trol@@ 3
cont@@ 3
mech@@ 3
ste 3
bes 3
ven 3
inhal@@ 3
wet@@ 3
crowd@@ 3
aspec@@ 2
bling 2
compu@@ 2
lian 2
kid@@ 2
violin@@ 2
incre@@ 2
inkle 2
rubs 2
mod@@ 2
lage 2
neighbor@@ 2
less@@ 2
tutori@@ 2
ordin@@ 2
mills 2
chick@@ 2
ods 2
hus@@ 2
honey@@ 2
spor@@ 2
ump@@ 2
obi@@ 2
squea@@ 2
stants 2
lable 2
trou@@ 2
ighs 2
spla@@ 2
pel 2
convey@@ 2
labe@@ 2
blon@@ 2
ees 2
acroba@@ 2
indivi@@ 2
chal@@ 2
extingui@@ 2
é 2
thor@@ 2
constru@@ 2
umbre@@ 2
mas 2
tee@@ 2
guitari@@ 2
mathemat@@ 2
physi@@ 2
gram 2
numer@@ 2
graphi@@ 2
fon@@ 2
emer@@ 2
mode@@ 2
lyr@@ 2
ira 2
onds 2
ited 2
scul@@ 2
pples 2
quick@@ 2
shy 2
ician 2
tomat@@ 2
oly@@ 2
ough@@ 2
roof@@ 2
clear@@ 2
itori@@ 2
consi@@ 2
lowe@@ 2
yon 2
sph@@ 2
gymna@@ 2
rotiss@@ 2
camp@@ 2
custom@@ 2
whisk@@ 2
bub@@ 2
ican 2
ola 2
desser@@ 2
pped 2
toena@@ 2
trimm@@ 2
eleg@@ 2
eel@@ 2
sug@@ 2
itch@@ 2
zen 2
een 2
coura@@ 2
adole@@ 2
ggage 2
im 2
close@@ 2
wom@@ 2
bea@@ 2
rug@@ 2
hau@@ 2
dumb@@ 2
ults 2
make@@ 2
quant@@ 2
acho@@ 2
embroi@@ 2
need@@ 2
them@@ 2
: 2
humming@@ 2
mbs 2
dren 2
ging@@ 2
sure@@ 2
raz@@ 2
pier@@ 2
pierc@@ 2
blan@@ 2
crow@@ 2
cell@@ 2
golf@@ 2
tually 2
congreg@@ 2
challen@@ 2
mach@@ 2
trap@@ 2
ran@@ 2
enac@@ 2
pher@@ 2
hurd@@ 2
fisher@@ 2
plun@@ 2
jet@@ 2
motor@@ 2
utes 2
set@@ 2
dolph@@ 2
bran@@ 2
throw@@ 2
mself 2
graff@@ 2
penci@@ 2
helicop@@ 2
teria 2
ite@@ 2
camer@@ 2
mc@@ 2
smoo@@ 2
urry 2
revel@@ 2
separ@@ 2
lts 2
elabor@@ 2
rely 2
imple@@ 2
screw@@ 2
tenn@@ 2
ingredi@@ 2
les@@ 2
prin@@ 2
anister 2
dough@@ 2
spat@@ 2
cylin@@ 2
pus 2
pow@@ 2
dery 2
bear@@ 2
eff@@ 2
thera@@ 2
ild 2
patr@@ 2
itors 2
itor 2
cab@@ 2
aer@@ 2
inal 2
ange 2
unidenti@@ 2
ming@@ 2
ghtly 2
fee@@ 2
employ@@ 2
jc@@ 2
bage 2
tab@@ 2
gos 2
piec@@ 2
versity 2
shuttle@@ 2
minton 2
kings 2
wren@@ 2
seg@@ 2
ill 2
apparat@@ 2
melo@@ 2
todd@@ 2
goali@@ 2
% 2
saxo@@ 2
sax@@ 2
musc@@ 2
​@@ 2
shion@@ 2
weather@@ 2
graphy 2
ssively 2
duc@@ 2
ercial 2
mple 2
stea@@ 2
bot@@ 2
– 2
lif@@ 2
uation 2
moistu@@ 2
riz@@ 2
tech@@ 2
"@@ 2
whil@@ 2
gue@@ 2
again@@ 2
ttle@@ 2
handic@@ 2
clou@@ 2
eer 2
lamps 2
favor@@ 2
] 2
spot@@ 2
fair@@ 2
silver@@ 2
mache@@ 2
tu 2
uts 2
boy@@ 2
momen@@ 2
pup@@ 2
tely 2
dge@@ 2
vacu@@ 2
ume 2
giraff@@ 2
kness 2
n'@@ 2
sab@@ 1
semin@@ 1
contain@@ 1
lades 1
ecream 1
histo@@ 1
technolo@@ 1
achers 1
theat@@ 1
stantly 1
pear@@ 1
gements 1
posite 1
tboard 1
nace 1
rela@@ 1
icial 1
nit@@ 1
busin@@ 1
@ 1
tioneer 1
inj@@ 1
sicle 1
pearance 1
activ@@ 1
dry@@ 1
preten@@ 1
cand@@ 1
oce@@ 1
zzles 1
handker@@ 1
efs 1
grap@@ 1
ires 1
mps 1
â@@ 1
easi@@ 1
your@@ 1
ero 1
harne@@ 1
hall@@ 1
formul@@ 1
ligraphy 1
pump@@ 1
day@@ 1
clists 1
shal@@ 1
tator 1
ceram@@ 1
heavi@@ 1
adver@@ 1
carto@@ 1
yr@@ 1
ballo@@ 1
flexi@@ 1
stove@@ 1
perfec@@ 1
jec@@ 1
met 1
costum@@ 1
skele@@ 1
sie 1
hyster@@ 1
nequ@@ 1
drive@@ 1
riers 1
magaz@@ 1
bies 1
unse@@ 1
dodge@@ 1
sers 1
bei@@ 1
itter 1
ired 1
classi@@ 1
rasp@@ 1
dru@@ 1
rhythmic@@ 1
`@@ 1
cheese@@ 1
laugh@@ 1
vor@@ 1
chocol@@ 1
demon@@ 1
dered 1
stitch@@ 1
pers@@ 1
desk@@ 1
pige@@ 1
\ 1
dred 1
ela@@ 1
pony@@ 1
arrowh@@ 1
zzle 1
mely 1
barbe@@ 1
vege@@ 1
blings 1
near@@ 1
camoufla@@ 1
ould 1
force@@ 1
ingre@@ 1
artif@@ 1
ener@@ 1
ead 1
spani@@ 1
techni@@ 1
quarter@@ 1
scot@@ 1
sual 1
etly 1
cara@@ 1
angular 1
young@@ 1
diff@@ 1
suc@@ 1
going 1
derly 1
roman@@ 1
skii@@ 1
dise 1
automobi@@ 1
usi@@ 1
adhe@@ 1
beani@@ 1
loc@@ 1
arest 1
subur@@ 1
champi@@ 1
butt@@ 1
mayon@@ 1
bubble@@ 1
bogg@@ 1
gau@@ 1
asse@@ 1
ghe@@ 1
|@@ 1
shi 1
moder@@ 1
tish 1
extre@@ 1
breast@@ 1
enterta@@ 1
debr@@ 1
rists 1
acro@@ 1
pening 1
coho@@ 1
figu@@ 1
bm@@ 1
rubb@@ 1
remov@@ 1
atural 1
unkno@@ 1
champa@@ 1
denti@@ 1
somersa@@ 1
dispo@@ 1
motori@@ 1
ë@@ 1
ama@@ 1
eels 1
dem 1
trow@@ 1
top@@ 1
accor@@ 1
sium 1
od@@ 1
tball 1
ello 1
contro@@ 1
auditori@@ 1
geri@@ 1
archa@@ 1
fru@@ 1
cade 1
è@@ 1
comman@@ 1
milit@@ 1
accompani@@ 1
poly 1
ketball 1
tournam@@ 1
assemb@@ 1
arran@@ 1
= 1
umber 1
teo@@ 1
saxa@@ 1
ved 1
court@@ 1
tromb@@ 1
lele 1
tori@@ 1
yball 1
attemp@@ 1
casters 1
jap@@ 1
pular 1
[@@ 1
speed@@ 1
kara@@ 1
concre@@ 1
intro@@ 1
skat@@ 1
dino@@ 1
paci@@ 1
eyel@@ 1
wir@@ 1
toen@@ 1
za 1
born 1
tum 1
ream 1
masco@@ 1
reque@@ 1
gad@@ 1
mounta@@ 1
outf@@ 1
tread@@ 1
mix@@ 1
tobac@@ 1
import@@ 1
blen@@ 1
omele@@ 1
scrap@@ 1
port@@ 1
treat@@ 1
gen 1
hydr@@ 1
alian 1
fab@@ 1
ratt@@ 1
explan@@ 1
ily 1
lider 1
socc@@ 1
loween 1
abdomin@@ 1
corri@@ 1
lom 1
exhi@@ 1
sledge@@ 1
bably 1
alt 1
itish 1
sne@@ 1
dep@@ 1
multic@@ 1
maneu@@ 1
adul@@ 1
beau@@ 1
cartwh@@ 1
sser@@ 1
vide@@ 1
produc@@ 1
weigh@@ 1
ban 1
lolli@@ 1
windo@@ 1
sung 1
offici@@ 1
japan@@ 1
dad@@ 1
orn@@ 1
shoel@@ 1
tra 1
emplo@@ 1
erish 1
bullse@@ 1
toma@@ 1
ex 1
ninj@@ 1
tdown 1
tobogg@@ 1
kel 1
photograph@@ 1
aeri@@ 1
“ 1
” 1
dv@@ 1
colle@@ 1
necess@@ 1
span@@ 1
mation 1
vapo@@ 1
rizer 1
transpor@@ 1
habit@@ 1
trun@@ 1
exhib@@ 1
arium 1
gibb@@ 1
enclo@@ 1
kangar@@ 1
scho@@ 1
yor@@ 1
ull 1
religi@@ 1
odd@@ 1
infl@@ 1
kins 1
ous@@ 1
stles 1
eval 1
ened 1
specif@@ 1
attrac@@ 1
itches 1
illa 1
butto@@ 1
velo@@ 1
hill@@ 1
pu 1
